{
  "version": "1.0",
  "truncation": null,
  "padding": null,
  "added_tokens": [
    {
      "id": 0,
      "content": "<|startoftext|>",
      "single_word": false,
      "lstrip": false,
      "rstrip": false,
      "normalized": false,
      "special": true
    },
    {
      "id": 1,
      "content": "<|endoftext|>",
      "single_word": false,
      "lstrip": false,
      "rstrip": false,
      "normalized": false,
      "special": true
    },
    {
      "id": 2,
      "content": "<|pad|>",
      "single_word": false,
      "lstrip": false,
      "rstrip": false,
      "normalized": false,
      "special": true
    }
  ],
  "normalizer": null,
  "pre_tokenizer": {
    "type": "ByteLevel",
    "add_prefix_space": false,
    "trim_offsets": true,
    "use_regex": true
  },
  "post_processor": {
    "type": "ByteLevel",
    "add_prefix_space": true,
    "trim_offsets": false,
    "use_regex": true
  },
  "decoder": {
    "type": "ByteLevel",
    "add_prefix_space": true,
    "trim_offsets": true,
    "use_regex": true
  },
  "model": {
    "type": "BPE",
    "dropout": null,
    "unk_token": null,
    "continuing_subword_prefix": null,
    "end_of_word_suffix": null,
    "fuse_unk": false,
    "byte_fallback": false,
    "ignore_merges": false,
    "vocab": {
      "<|startoftext|>": 0,
      "<|endoftext|>": 1,
      "<|pad|>": 2,
      "!": 3,
      "\"": 4,
      "#": 5,
      "$": 6,
      "%": 7,
      "&": 8,
      "'": 9,
      "(": 10,
      ")": 11,
      "*": 12,
      "+": 13,
      ",": 14,
      "-": 15,
      ".": 16,
      "/": 17,
      "0": 18,
      "1": 19,
      "2": 20,
      "3": 21,
      "4": 22,
      "5": 23,
      "6": 24,
      "7": 25,
      "8": 26,
      "9": 27,
      ":": 28,
      ";": 29,
      "<": 30,
      "=": 31,
      ">": 32,
      "?": 33,
      "@": 34,
      "A": 35,
      "B": 36,
      "C": 37,
      "D": 38,
      "E": 39,
      "F": 40,
      "G": 41,
      "H": 42,
      "I": 43,
      "J": 44,
      "K": 45,
      "L": 46,
      "M": 47,
      "N": 48,
      "O": 49,
      "P": 50,
      "Q": 51,
      "R": 52,
      "S": 53,
      "T": 54,
      "U": 55,
      "V": 56,
      "W": 57,
      "X": 58,
      "Y": 59,
      "Z": 60,
      "[": 61,
      "\\": 62,
      "]": 63,
      "^": 64,
      "_": 65,
      "`": 66,
      "a": 67,
      "b": 68,
      "c": 69,
      "d": 70,
      "e": 71,
      "f": 72,
      "g": 73,
      "h": 74,
      "i": 75,
      "j": 76,
      "k": 77,
      "l": 78,
      "m": 79,
      "n": 80,
      "o": 81,
      "p": 82,
      "q": 83,
      "r": 84,
      "s": 85,
      "t": 86,
      "u": 87,
      "v": 88,
      "w": 89,
      "x": 90,
      "y": 91,
      "z": 92,
      "{": 93,
      "|": 94,
      "}": 95,
      "~": 96,
      "¡": 97,
      "¢": 98,
      "£": 99,
      "¤": 100,
      "¥": 101,
      "¦": 102,
      "§": 103,
      "¨": 104,
      "©": 105,
      "ª": 106,
      "«": 107,
      "¬": 108,
      "®": 109,
      "¯": 110,
      "°": 111,
      "±": 112,
      "²": 113,
      "³": 114,
      "´": 115,
      "µ": 116,
      "¶": 117,
      "·": 118,
      "¸": 119,
      "¹": 120,
      "º": 121,
      "»": 122,
      "¼": 123,
      "½": 124,
      "¾": 125,
      "¿": 126,
      "À": 127,
      "Á": 128,
      "Â": 129,
      "Ã": 130,
      "Ä": 131,
      "Å": 132,
      "Æ": 133,
      "Ç": 134,
      "È": 135,
      "É": 136,
      "Ê": 137,
      "Ë": 138,
      "Ì": 139,
      "Í": 140,
      "Î": 141,
      "Ï": 142,
      "Ð": 143,
      "Ñ": 144,
      "Ò": 145,
      "Ó": 146,
      "Ô": 147,
      "Õ": 148,
      "Ö": 149,
      "×": 150,
      "Ø": 151,
      "Ù": 152,
      "Ú": 153,
      "Û": 154,
      "Ü": 155,
      "Ý": 156,
      "Þ": 157,
      "ß": 158,
      "à": 159,
      "á": 160,
      "â": 161,
      "ã": 162,
      "ä": 163,
      "å": 164,
      "æ": 165,
      "ç": 166,
      "è": 167,
      "é": 168,
      "ê": 169,
      "ë": 170,
      "ì": 171,
      "í": 172,
      "î": 173,
      "ï": 174,
      "ð": 175,
      "ñ": 176,
      "ò": 177,
      "ó": 178,
      "ô": 179,
      "õ": 180,
      "ö": 181,
      "÷": 182,
      "ø": 183,
      "ù": 184,
      "ú": 185,
      "û": 186,
      "ü": 187,
      "ý": 188,
      "þ": 189,
      "ÿ": 190,
      "Ā": 191,
      "ā": 192,
      "Ă": 193,
      "ă": 194,
      "Ą": 195,
      "ą": 196,
      "Ć": 197,
      "ć": 198,
      "Ĉ": 199,
      "ĉ": 200,
      "Ċ": 201,
      "ċ": 202,
      "Č": 203,
      "č": 204,
      "Ď": 205,
      "ď": 206,
      "Đ": 207,
      "đ": 208,
      "Ē": 209,
      "ē": 210,
      "Ĕ": 211,
      "ĕ": 212,
      "Ė": 213,
      "ė": 214,
      "Ę": 215,
      "ę": 216,
      "Ě": 217,
      "ě": 218,
      "Ĝ": 219,
      "ĝ": 220,
      "Ğ": 221,
      "ğ": 222,
      "Ġ": 223,
      "ġ": 224,
      "Ģ": 225,
      "ģ": 226,
      "Ĥ": 227,
      "ĥ": 228,
      "Ħ": 229,
      "ħ": 230,
      "Ĩ": 231,
      "ĩ": 232,
      "Ī": 233,
      "ī": 234,
      "Ĭ": 235,
      "ĭ": 236,
      "Į": 237,
      "į": 238,
      "İ": 239,
      "ı": 240,
      "Ĳ": 241,
      "ĳ": 242,
      "Ĵ": 243,
      "ĵ": 244,
      "Ķ": 245,
      "ķ": 246,
      "ĸ": 247,
      "Ĺ": 248,
      "ĺ": 249,
      "Ļ": 250,
      "ļ": 251,
      "Ľ": 252,
      "ľ": 253,
      "Ŀ": 254,
      "ŀ": 255,
      "Ł": 256,
      "ł": 257,
      "Ń": 258,
      "en": 259,
      "er": 260,
      "ch": 261,
      "Ġd": 262,
      "ei": 263,
      "un": 264,
      "ie": 265,
      "st": 266,
      "in": 267,
      "an": 268,
      "es": 269,
      "ich": 270,
      "on": 271,
      "ein": 272,
      "Ġdie": 273,
      "Ġun": 274,
      "Ġw": 275,
      "Ã¼": 276,
      "Ġs": 277,
      "Ġa": 278,
      "ung": 279,
      "Ã¤": 280,
      "ge": 281,
      "Ġder": 282,
      "sch": 283,
      "Ġund": 284,
      "te": 285,
      "ĠS": 286,
      "ti": 287,
      "Ġv": 288,
      "or": 289,
      "Ġein": 290,
      "ll": 291,
      "ar": 292,
      "ten": 293,
      "as": 294,
      "Ġb": 295,
      "Ġz": 296,
      "Ġm": 297,
      "it": 298,
      "ur": 299,
      "Ġi": 300,
      "ĠA": 301,
      "gen": 302,
      "us": 303,
      "Ġin": 304,
      "em": 305,
      "hr": 306,
      "al": 307,
      "den": 308,
      "Ġn": 309,
      "der": 310,
      "ĠB": 311,
      "ĠE": 312,
      "Ġf": 313,
      "ir": 314,
      "Ġh": 315,
      "ter": 316,
      "ra": 317,
      "ĠP": 318,
      "ĠM": 319,
      "Ã¶": 320,
      "Ġzu": 321,
      "lich": 322,
      "uf": 323,
      "ĠK": 324,
      "et": 325,
      "Ã¼r": 326,
      "el": 327,
      "ĠF": 328,
      "at": 329,
      "mm": 330,
      "Ġk": 331,
      "Ġdas": 332,
      "eit": 333,
      "ĠG": 334,
      "is": 335,
      "Ġden": 336,
      "ĠV": 337,
      "ber": 338,
      "ĠR": 339,
      "Ġg": 340,
      "ro": 341,
      "isch": 342,
      "Ġvon": 343,
      "ier": 344,
      "de": 345,
      "Ġge": 346,
      "icht": 347,
      "ÃŁ": 348,
      "ĠH": 349,
      "ĠW": 350,
      "ĠD": 351,
      "ĠI": 352,
      "Ġan": 353,
      "Ġwir": 354,
      "tion": 355,
      "ben": 356,
      "ent": 357,
      "Ġer": 358,
      "um": 359,
      "Ġist": 360,
      "re": 361,
      "ĠT": 362,
      "Ġauf": 363,
      "ĠfÃ¼r": 364,
      "ol": 365,
      "ach": 366,
      "ĠL": 367,
      "uch": 368,
      "eh": 369,
      "sen": 370,
      "Ġver": 371,
      "am": 372,
      "Ġmit": 373,
      "ig": 374,
      "ck": 375,
      "Ġdes": 376,
      "se": 377,
      "ĠVer": 378,
      "and": 379,
      "ser": 380,
      "Ġbe": 381,
      "ell": 382,
      "ĠU": 383,
      "ungen": 384,
      "ĠZ": 385,
      "Ġl": 386,
      "ut": 387,
      "nen": 388,
      "ft": 389,
      "eich": 390,
      "si": 391,
      "Ġeine": 392,
      "Ġo": 393,
      "Ġso": 394,
      "il": 395,
      "Ġwer": 396,
      "Ġnicht": 397,
      "Ġim": 398,
      "ind": 399,
      "op": 400,
      "sp": 401,
      "ischen": 402,
      "Ã¼ber": 403,
      "Die": 404,
      "le": 405,
      "Ġsich": 406,
      "Ã¤n": 407,
      "omm": 408,
      "kt": 409,
      "ff": 410,
      "Ġwerden": 411,
      "ah": 412,
      "ĠN": 413,
      "Ġdem": 414,
      "Ġp": 415,
      "Ġdass": 416,
      "ls": 417,
      "ĠSie": 418,
      "om": 419,
      "ation": 420,
      "Ġaus": 421,
      "ĠSt": 422,
      "ĠIn": 423,
      "Ġt": 424,
      "la": 425,
      "ahr": 426,
      "Ġes": 427,
      "ĠÃ¼ber": 428,
      "ann": 429,
      "ĠAn": 430,
      "ri": 431,
      "ehr": 432,
      "ĠRe": 433,
      "eu": 434,
      "Ġst": 435,
      "ien": 436,
      "Ġauch": 437,
      "sten": 438,
      "Ġda": 439,
      "urop": 440,
      "ĠC": 441,
      "etz": 442,
      "rei": 443,
      "be": 444,
      "gt": 445,
      "men": 446,
      "ungs": 447,
      "Ġum": 448,
      "och": 449,
      "Ġha": 450,
      "Ġsind": 451,
      "lle": 452,
      "scha": 453,
      "ĠJ": 454,
      "ĠUn": 455,
      "ĠSch": 456,
      "Ġ1": 457,
      "rÃ¤": 458,
      "Ġvor": 459,
      "Ġwird": 460,
      "ern": 461,
      "wei": 462,
      "esch": 463,
      "Ġals": 464,
      "hal": 465,
      "Ġj": 466,
      "Ã¶n": 467,
      "Ġsch": 468,
      "Ġbei": 469,
      "ver": 470,
      "ĠBe": 471,
      "Ġ(": 472,
      "Ġwie": 473,
      "end": 474,
      "âĢ": 475,
      "iel": 476,
      "lie": 477,
      "tig": 478,
      "ĠPro": 479,
      "00": 480,
      "ort": 481,
      "Ġ2": 482,
      "enn": 483,
      "Ġich": 484,
      "Ġhat": 485,
      "Ġsein": 486,
      "eil": 487,
      "au": 488,
      "schaft": 489,
      "Ġoder": 490,
      "Ã¤t": 491,
      "Ġdies": 492,
      "ĠEn": 493,
      "Ġzur": 494,
      "Ġe": 495,
      "zu": 496,
      "urch": 497,
      "ing": 498,
      "ĠEurop": 499,
      "tern": 500,
      "aus": 501,
      "he": 502,
      "tel": 503,
      "und": 504,
      "Ġhaben": 505,
      "Ġsie": 506,
      "err": 507,
      "imm": 508,
      "lichen": 509,
      "stell": 510,
      "ĠEr": 511,
      "Ġ-": 512,
      "ĠO": 513,
      "Ġent": 514,
      "Ġeiner": 515,
      "ĠAus": 516,
      "ĠBer": 517,
      "Ġihr": 518,
      "sion": 519,
      "ische": 520,
      "ĠkÃ¶n": 521,
      "ab": 522,
      "ion": 523,
      "rÃ¼": 524,
      "ul": 525,
      "tet": 526,
      "for": 527,
      "Ġunser": 528,
      "ĠAr": 529,
      "ot": 530,
      "ger": 531,
      "fÃ¼": 532,
      "dern": 533,
      "aten": 534,
      "schen": 535,
      "ik": 536,
      "cht": 537,
      "ick": 538,
      "os": 539,
      "zen": 540,
      "ed": 541,
      "eiten": 542,
      "heit": 543,
      "Ġnach": 544,
      "Ġeinen": 545,
      "Ġunter": 546,
      "sta": 547,
      "keit": 548,
      "Ã¤r": 549,
      "llen": 550,
      "ang": 551,
      "iti": 552,
      "ĠÃ": 553,
      "ru": 554,
      "uss": 555,
      "elt": 556,
      "ĠMit": 557,
      "igen": 558,
      "ĠKomm": 559,
      "ste": 560,
      "Ġdurch": 561,
      "ĠPar": 562,
      "wer": 563,
      "Ġwur": 564,
      "tiv": 565,
      "ĠkÃ¶nnen": 566,
      "oh": 567,
      "liche": 568,
      "ĠEin": 569,
      "anz": 570,
      "Das": 571,
      "Ġdar": 572,
      "ommen": 573,
      "ĠKommis": 574,
      "rie": 575,
      "ĠJahr": 576,
      "ne": 577,
      "bl": 578,
      "ĠFra": 579,
      "ĠGe": 580,
      "ĠmÃ¶": 581,
      "ehen": 582,
      "ag": 583,
      "ant": 584,
      "Ã¶r": 585,
      "ĠâĢ": 586,
      "Ġzum": 587,
      "Ġeinem": 588,
      "ad": 589,
      "beit": 590,
      "eine": 591,
      "ieren": 592,
      "glich": 593,
      "ĠVor": 594,
      "uÃŁ": 595,
      "est": 596,
      "chte": 597,
      "pf": 598,
      "ĠEuropÃ¤": 599,
      "Ich": 600,
      "iert": 601,
      "..": 602,
      "ĠEnt": 603,
      "reich": 604,
      "Ġall": 605,
      "Ġuns": 606,
      "ĠSp": 607,
      "ktion": 608,
      "Ġkann": 609,
      "chen": 610,
      "Ġdiese": 611,
      "Ã¼s": 612,
      "ken": 613,
      "Ġnur": 614,
      "bar": 615,
      "du": 616,
      "ige": 617,
      "Ġander": 618,
      "oliti": 619,
      "all": 620,
      "ist": 621,
      "ĠAb": 622,
      "Ã¼n": 623,
      "Ġab": 624,
      "ahl": 625,
      "eiter": 626,
      "ffen": 627,
      "ges": 628,
      "amm": 629,
      "Wir": 630,
      "geb": 631,
      "rÃ¤si": 632,
      "ok": 633,
      "che": 634,
      "Ġwar": 635,
      "bt": 636,
      "auf": 637,
      "rÃ¤siden": 638,
      "Ġdieser": 639,
      "ĠIhr": 640,
      "ehmen": 641,
      "ĠKommission": 642,
      "hen": 643,
      "ĠKon": 644,
      "Ġneu": 645,
      "Ã¤hr": 646,
      "ierung": 647,
      "tra": 648,
      "rit": 649,
      "In": 650,
      "og": 651,
      "fen": 652,
      "rund": 653,
      "Ġber": 654,
      "ĠdaÃŁ": 655,
      "ers": 656,
      "zi": 657,
      "Ġnoch": 658,
      "Ã¼t": 659,
      "Ġre": 660,
      "lei": 661,
      "Ġsp": 662,
      "ĠHo": 663,
      "ran": 664,
      "nis": 665,
      "Ã¼ck": 666,
      "eren": 667,
      "ĠHerr": 668,
      "rÃ¤sident": 669,
      "utz": 670,
      "itÃ¤t": 671,
      "alen": 672,
      "Ġwurde": 673,
      "Ġam": 674,
      "eg": 675,
      "ic": 676,
      "lam": 677,
      "Der": 678,
      "Ġmehr": 679,
      "Ġsoll": 680,
      "gel": 681,
      "Ã¤h": 682,
      "Ġ\"": 683,
      "oll": 684,
      "ĠAuf": 685,
      "Ġaber": 686,
      "glie": 687,
      "ner": 688,
      "wick": 689,
      "ĠmÃ¼s": 690,
      "ug": 691,
      "Ġwenn": 692,
      "tigen": 693,
      "age": 694,
      "ess": 695,
      "Ġman": 696,
      "ĠMa": 697,
      "form": 698,
      "stimm": 699,
      "leich": 700,
      "ord": 701,
      "ert": 702,
      "Ġde": 703,
      "Ġsehr": 704,
      "ĠmÃ¼ssen": 705,
      "assen": 706,
      "ze": 707,
      "pp": 708,
      "ht": 709,
      "wie": 710,
      "ill": 711,
      "Es": 712,
      "nah": 713,
      "Ġc": 714,
      "Ġzw": 715,
      "lament": 716,
      "ma": 717,
      "lin": 718,
      "me": 719,
      "etzt": 720,
      "ĠPrÃ¤sident": 721,
      "Ġbis": 722,
      "ak": 723,
      "Ġbes": 724,
      "fahr": 725,
      "ekt": 726,
      "ammen": 727,
      "ĠParlament": 728,
      "iz": 729,
      "fÃ¼hr": 730,
      "ale": 731,
      "ob": 732,
      "Ġges": 733,
      "Ġr": 734,
      "qu": 735,
      "ĠMitglie": 736,
      "ek": 737,
      "usammen": 738,
      "roÃŁ": 739,
      "Ġhin": 740,
      "Ġdiesem": 741,
      "Ġ200": 742,
      "ĠUnion": 743,
      "tschaft": 744,
      "Ġweiter": 745,
      "Ġgegen": 746,
      "atz": 747,
      "ass": 748,
      "Ġwas": 749,
      "mit": 750,
      "sam": 751,
      "Ġgen": 752,
      "wend": 753,
      "ĠMen": 754,
      "ĠArbeit": 755,
      "ĠEuropÃ¤ischen": 756,
      "Ã¤nd": 757,
      "lung": 758,
      "unden": 759,
      "fol": 760,
      "ĠUm": 761,
      "ĠReg": 762,
      "acht": 763,
      "hnen": 764,
      "Ġalle": 765,
      "onder": 766,
      "sche": 767,
      "Ġgew": 768,
      "eben": 769,
      "schie": 770,
      "olle": 771,
      "lieÃŁ": 772,
      "vor": 773,
      "gra": 774,
      "Ġbet": 775,
      "stem": 776,
      "pl": 777,
      "ationen": 778,
      "di": 779,
      "art": 780,
      "Ġkon": 781,
      "Ġgem": 782,
      "halten": 783,
      "eb": 784,
      "ĠmÃ¶chte": 785,
      "lÃ¤": 786,
      "alt": 787,
      "ellen": 788,
      "Ã¤l": 789,
      "chn": 790,
      "eigen": 791,
      "halt": 792,
      "dem": 793,
      "Ġkl": 794,
      "ystem": 795,
      "rin": 796,
      "ichtig": 797,
      "ľber": 798,
      "ĠZeit": 799,
      "kommen": 800,
      "ĠUnter": 801,
      "ĠMitglied": 802,
      "Ġhier": 803,
      "ĠGes": 804,
      "uropÃ¤": 805,
      "Ã¼hr": 806,
      "Ein": 807,
      "Ġeines": 808,
      "ĠRat": 809,
      "tige": 810,
      "ibt": 811,
      "land": 812,
      "Ġ3": 813,
      "ap": 814,
      "gan": 815,
      "her": 816,
      "Ġje": 817,
      "ĠEU": 818,
      "Ġvom": 819,
      "ĠâĢĵ": 820,
      "mal": 821,
      "stÃ¼t": 822,
      "ren": 823,
      "ast": 824,
      "ĠgroÃŁ": 825,
      "zie": 826,
      "ha": 827,
      "erk": 828,
      "Ġihre": 829,
      "inden": 830,
      "ho": 831,
      "Ġlie": 832,
      "ĠHotel": 833,
      "Ġsowie": 834,
      "bes": 835,
      "ĠFor": 836,
      "Ã¤ch": 837,
      "ĠMenschen": 838,
      "Ġ19": 839,
      "pro": 840,
      "ĠeuropÃ¤": 841,
      "igkeit": 842,
      "Ġzwei": 843,
      "Ġdieses": 844,
      "Ġher": 845,
      "ub": 846,
      "teil": 847,
      "icher": 848,
      "Ġjed": 849,
      "Ã¤nder": 850,
      "olitik": 851,
      "Ġgibt": 852,
      "ĠBericht": 853,
      "ĠÃľber": 854,
      "Ġet": 855,
      "Ġwo": 856,
      "ohl": 857,
      "pt": 858,
      "ĠWir": 859,
      "halb": 860,
      "Âł": 861,
      "wir": 862,
      "kl": 863,
      "mmer": 864,
      "ften": 865,
      "ild": 866,
      "blem": 867,
      "Ġbest": 868,
      "iele": 869,
      "staaten": 870,
      "ĠLand": 871,
      "Ġviel": 872,
      "nung": 873,
      "Ġzwischen": 874,
      "ĠDie": 875,
      "Un": 876,
      "Ã¶glich": 877,
      "ĠMar": 878,
      "bst": 879,
      "lan": 880,
      "ati": 881,
      "ĠEntwick": 882,
      "ss": 883,
      "Ġmuss": 884,
      "einen": 885,
      "ere": 886,
      "amit": 887,
      "los": 888,
      "andel": 889,
      "Ġunsere": 890,
      "setz": 891,
      "war": 892,
      "ank": 893,
      "Ġkeine": 894,
      "Ġbereit": 895,
      "bei": 896,
      "gramm": 897,
      "Ġbie": 898,
      "Ġausge": 899,
      "agen": 900,
      "Ġbeg": 901,
      "rauch": 902,
      "Ġange": 903,
      "ust": 904,
      "eschÃ¤": 905,
      "sicht": 906,
      "ĠFrau": 907,
      "eute": 908,
      "ĠIhnen": 909,
      "achen": 910,
      "gung": 911,
      "ativ": 912,
      "our": 913,
      "...": 914,
      "ĠCh": 915,
      "id": 916,
      "Ġson": 917,
      "ett": 918,
      "Sie": 919,
      "Ã¶ff": 920,
      "Ġpro": 921,
      "Ġanderen": 922,
      "ĠRecht": 923,
      "eht": 924,
      "ĠTe": 925,
      "zeu": 926,
      "stat": 927,
      "ĠGrund": 928,
      "ĠOr": 929,
      "Ġthe": 930,
      "ternehmen": 931,
      "ĠHaus": 932,
      "ĠMitgliedstaaten": 933,
      "forder": 934,
      "rÃ¶": 935,
      "geben": 936,
      "Ġbef": 937,
      "entr": 938,
      "chten": 939,
      "gend": 940,
      "ov": 941,
      "iv": 942,
      "itu": 943,
      "issen": 944,
      "ĠDe": 945,
      "fe": 946,
      "keiten": 947,
      "elbst": 948,
      "ow": 949,
      "ate": 950,
      "ischer": 951,
      "Ġimmer": 952,
      "weise": 953,
      "ĠProdu": 954,
      "ĠZusammen": 955,
      "ĠÃĦ": 956,
      "gesch": 957,
      "uÃŁer": 958,
      "schlieÃŁ": 959,
      "stellen": 960,
      "unkt": 961,
      "ĠProblem": 962,
      "immer": 963,
      "we": 964,
      "ga": 965,
      "iger": 966,
      "inanz": 967,
      "Ġdann": 968,
      "eid": 969,
      "ĠEuropa": 970,
      "kte": 971,
      "amen": 972,
      "ler": 973,
      "len": 974,
      "ĠVorsch": 975,
      "omp": 976,
      "ĠFl": 977,
      "od": 978,
      "Ġ,": 979,
      "Ġins": 980,
      "ster": 981,
      "Ġdiesen": 982,
      "ĠWelt": 983,
      "Ġ.": 984,
      "âĢľ": 985,
      "nahmen": 986,
      "Ġdamit": 987,
      "Ġwieder": 988,
      "ĠâĢŀ": 989,
      "ritt": 990,
      "gie": 991,
      "trag": 992,
      "Ġeinz": 993,
      "ĠBereich": 994,
      "ĠBÃ¼r": 995,
      "Ġwurden": 996,
      "legen": 997,
      "li": 998,
      "ce": 999,
      "Ġganz": 1000,
      "enden": 1001,
      "stellt": 1002,
      "Ġgesch": 1003,
      "ĠInform": 1004,
      "Ã¶s": 1005,
      "nder": 1006,
      "ternation": 1007,
      "arbeit": 1008,
      "Ġeigen": 1009,
      "ding": 1010,
      "zung": 1011,
      "innen": 1012,
      "fer": 1013,
      "Ġ5": 1014,
      "icherheit": 1015,
      "ĠVerb": 1016,
      "zeich": 1017,
      "ard": 1018,
      "ĠZu": 1019,
      "Ã¤m": 1020,
      "Qu": 1021,
      "sel": 1022,
      "per": 1023,
      "stÃ¤nd": 1024,
      "Ã¤ndern": 1025,
      "rag": 1026,
      "rechen": 1027,
      "Wenn": 1028,
      "ĠSo": 1029,
      "Ġneue": 1030,
      "Ġwichtig": 1031,
      "lag": 1032,
      "schieden": 1033,
      "Ġ4": 1034,
      "Ġunserer": 1035,
      "elle": 1036,
      "ĠHer": 1037,
      "hne": 1038,
      "tur": 1039,
      "ats": 1040,
      "ĠAl": 1041,
      "wort": 1042,
      "zeit": 1043,
      "Ġmein": 1044,
      "ia": 1045,
      "richt": 1046,
      "Ġhabe": 1047,
      "Ã©": 1048,
      "Ġsondern": 1049,
      "ÃŁen": 1050,
      "olog": 1051,
      "Im": 1052,
      "fahren": 1053,
      "einsam": 1054,
      "rÃ¼n": 1055,
      "ĠGeb": 1056,
      "Ġseine": 1057,
      "inder": 1058,
      "Ġjedoch": 1059,
      "erson": 1060,
      "ment": 1061,
      "satz": 1062,
      "alis": 1063,
      "ĠMaÃŁ": 1064,
      "Ġpoliti": 1065,
      "ĠEuropÃ¤ische": 1066,
      "ragen": 1067,
      "reichen": 1068,
      "zt": 1069,
      "mittel": 1070,
      "tik": 1071,
      "ĠSte": 1072,
      "lo": 1073,
      "sk": 1074,
      "min": 1075,
      "luss": 1076,
      "fÃ¼r": 1077,
      ").": 1078,
      "Ġetw": 1079,
      "inn": 1080,
      "ĠwÃ¼r": 1081,
      "ĠQu": 1082,
      "fach": 1083,
      "ruck": 1084,
      "Ġheute": 1085,
      "lagen": 1086,
      "mer": 1087,
      "ont": 1088,
      "Ġgleich": 1089,
      "lau": 1090,
      "ĠGem": 1091,
      "Ġob": 1092,
      "zei": 1093,
      "Mit": 1094,
      "erv": 1095,
      "Ġwen": 1096,
      "osten": 1097,
      "Ġand": 1098,
      "rÃ¶ÃŁ": 1099,
      "Ġger": 1100,
      "essen": 1101,
      "uten": 1102,
      "such": 1103,
      "ĠSta": 1104,
      "Ã¤re": 1105,
      "Diese": 1106,
      "ĠTh": 1107,
      "ĠKolle": 1108,
      "ĠIhre": 1109,
      "Ġbereits": 1110,
      "stand": 1111,
      "ĠUnternehmen": 1112,
      "ĠBet": 1113,
      "att": 1114,
      "eist": 1115,
      "Ġselbst": 1116,
      "okra": 1117,
      "kehr": 1118,
      "Herr": 1119,
      "ke": 1120,
      "Ġmich": 1121,
      "Dies": 1122,
      "fall": 1123,
      "Ġen": 1124,
      "im": 1125,
      "licher": 1126,
      "ĠÃĦnder": 1127,
      "tionen": 1128,
      "lage": 1129,
      "Ġsollte": 1130,
      "alitÃ¤t": 1131,
      "Ġwel": 1132,
      "ĠEntwicklung": 1133,
      "ĠunterstÃ¼t": 1134,
      "ĠTeil": 1135,
      "Ġihrer": 1136,
      "eite": 1137,
      "ĠfÃ¼hr": 1138,
      "net": 1139,
      "ktiv": 1140,
      "orden": 1141,
      "ĠeuropÃ¤ischen": 1142,
      "Ġneuen": 1143,
      "off": 1144,
      "ĠStra": 1145,
      "Ġohne": 1146,
      "Ġverb": 1147,
      "Ġ20": 1148,
      "Ġex": 1149,
      "stellung": 1150,
      "mus": 1151,
      "eld": 1152,
      "ĠLeben": 1153,
      "ĠFrage": 1154,
      "indet": 1155,
      "ĠJahren": 1156,
      "Ġandere": 1157,
      "Ã¶ffent": 1158,
      "gem": 1159,
      "Ġdenn": 1160,
      "ierte": 1161,
      "Ġinternation": 1162,
      "Ġfest": 1163,
      "ĠDaten": 1164,
      "Ã¤lt": 1165,
      "ĠStad": 1166,
      "Ġdenen": 1167,
      "fern": 1168,
      "cken": 1169,
      "Ġsollten": 1170,
      "tre": 1171,
      "ĠRicht": 1172,
      "nt": 1173,
      "Ġfinden": 1174,
      "oren": 1175,
      "nahme": 1176,
      "Ġgemeinsam": 1177,
      "atur": 1178,
      "ĠmÃ¶glich": 1179,
      "nisse": 1180,
      "io": 1181,
      "Ġverschieden": 1182,
      "rupp": 1183,
      "ĠInter": 1184,
      "ĠSicherheit": 1185,
      "Ġfor": 1186,
      "Er": 1187,
      "ondere": 1188,
      "ĠBÃ¼rger": 1189,
      "Ã¤hrend": 1190,
      "ĠMin": 1191,
      "esse": 1192,
      "zahl": 1193,
      "ĠBei": 1194,
      "hin": 1195,
      "ktur": 1196,
      "nte": 1197,
      "Ġsol": 1198,
      "leist": 1199,
      "osi": 1200,
      "ĠSe": 1201,
      "),": 1202,
      "arb": 1203,
      "tigt": 1204,
      "Ġbietet": 1205,
      "wohl": 1206,
      "ele": 1207,
      "ĠStadt": 1208,
      "unft": 1209,
      "ker": 1210,
      "Ã¼nf": 1211,
      "unktion": 1212,
      "Ġdazu": 1213,
      "tieren": 1214,
      "ichte": 1215,
      "isk": 1216,
      "Ã¤ng": 1217,
      "ierten": 1218,
      "Ġentsp": 1219,
      "ĠTag": 1220,
      "Ġmachen": 1221,
      "Ġliegt": 1222,
      "Ġallen": 1223,
      "ade": 1224,
      "ander": 1225,
      "ĠWirtschaft": 1226,
      "Ġweil": 1227,
      "hÃ¶r": 1228,
      "iss": 1229,
      "Ġbek": 1230,
      "ĠHin": 1231,
      "Ġaller": 1232,
      "ĠKont": 1233,
      "ahmen": 1234,
      "Ġviele": 1235,
      "welt": 1236,
      "Ġof": 1237,
      "Ã¤ÃŁ": 1238,
      "ĠNach": 1239,
      "ech": 1240,
      "Ġletz": 1241,
      "under": 1242,
      "Ġseiner": 1243,
      "hn": 1244,
      "eiden": 1245,
      "ĠPerson": 1246,
      "ĠMittel": 1247,
      "Ġdarauf": 1248,
      "igung": 1249,
      "eise": 1250,
      "ĠMÃ¶glich": 1251,
      "ial": 1252,
      "aupt": 1253,
      "str": 1254,
      "alten": 1255,
      "wert": 1256,
      "mar": 1257,
      "wor": 1258,
      "zug": 1259,
      "Ġjetzt": 1260,
      "ĠPart": 1261,
      "Ġben": 1262,
      "ienst": 1263,
      "Ġbeh": 1264,
      "reis": 1265,
      "aher": 1266,
      "umen": 1267,
      "ĠgrÃ¶ÃŁ": 1268,
      "Ġsicher": 1269,
      "ice": 1270,
      "lungen": 1271,
      "ganis": 1272,
      "Ġeinge": 1273,
      "ĠLi": 1274,
      "Ġkein": 1275,
      "sar": 1276,
      "Ġvoll": 1277,
      "ud": 1278,
      "ĠRahmen": 1279,
      "Ġgef": 1280,
      "ĠThem": 1281,
      "Ġgeht": 1282,
      "ultur": 1283,
      "ringen": 1284,
      "Ġgeb": 1285,
      "ay": 1286,
      "annt": 1287,
      "atÃ¼r": 1288,
      "Ġwirk": 1289,
      "Ġschon": 1290,
      "ĠMaÃŁnahmen": 1291,
      "Ġeinfach": 1292,
      "fl": 1293,
      "ĠProgramm": 1294,
      "ionen": 1295,
      "Ġeben": 1296,
      "Ġar": 1297,
      "zial": 1298,
      "ĠLage": 1299,
      "lossen": 1300,
      "einschaft": 1301,
      "oten": 1302,
      "Ġeinige": 1303,
      "ĠWeb": 1304,
      "spiel": 1305,
      "ĠdafÃ¼r": 1306,
      "kunft": 1307,
      "Ġgut": 1308,
      "ungsant": 1309,
      "esen": 1310,
      "ĠSystem": 1311,
      "ĠInformationen": 1312,
      "tiert": 1313,
      "gar": 1314,
      "eln": 1315,
      "ĠVerein": 1316,
      "ĠFinanz": 1317,
      "ĠHerrn": 1318,
      "ĠUS": 1319,
      "ts": 1320,
      "ĠStand": 1321,
      "ĠBes": 1322,
      "ute": 1323,
      "affen": 1324,
      "otwend": 1325,
      "ĠJahre": 1326,
      "hÃ¤lt": 1327,
      "ac": 1328,
      "folg": 1329,
      "ĠzurÃ¼ck": 1330,
      "ĠAussch": 1331,
      "bau": 1332,
      "heiten": 1333,
      "Ġ6": 1334,
      "Ã¶l": 1335,
      "grund": 1336,
      "itz": 1337,
      "tischen": 1338,
      "Ġallem": 1339,
      "Ġihren": 1340,
      "klÃ¤r": 1341,
      "so": 1342,
      "ris": 1343,
      "rÃ¤n": 1344,
      "An": 1345,
      "ks": 1346,
      "lichkeit": 1347,
      "ĠKommissar": 1348,
      "uer": 1349,
      "besser": 1350,
      "Ã¤ten": 1351,
      "ven": 1352,
      "Ã¼h": 1353,
      "Ġte": 1354,
      "ine": 1355,
      "ĠEx": 1356,
      "Ġmeine": 1357,
      "ichten": 1358,
      "Ġnun": 1359,
      "Ġto": 1360,
      "setzung": 1361,
      "Ġzusammen": 1362,
      "ĠMon": 1363,
      "eicht": 1364,
      "Ġdeut": 1365,
      "Ġmir": 1366,
      "iet": 1367,
      "scheid": 1368,
      "Ġdir": 1369,
      "besondere": 1370,
      "Ġbin": 1371,
      "ange": 1372,
      "Bei": 1373,
      "Ġbesch": 1374,
      "genommen": 1375,
      "punkt": 1376,
      "Ġbesonder": 1377,
      "Ġwollen": 1378,
      "fÃ¼hrt": 1379,
      "Ġunseren": 1380,
      "aler": 1381,
      "antwort": 1382,
      "ĠEur": 1383,
      "anden": 1384,
      "ĠverfÃ¼": 1385,
      "aren": 1386,
      "ruktur": 1387,
      "asser": 1388,
      "ogen": 1389,
      "Ġmo": 1390,
      "ĠGew": 1391,
      "gleich": 1392,
      "ite": 1393,
      "ĠwÃ¼rde": 1394,
      "ations": 1395,
      "recht": 1396,
      "Ġal": 1397,
      "ĠZiel": 1398,
      "fte": 1399,
      "unde": 1400,
      "spro": 1401,
      "ond": 1402,
      "reu": 1403,
      "ĠZimmer": 1404,
      "aut": 1405,
      "riv": 1406,
      "licht": 1407,
      "ĠParlaments": 1408,
      "ergie": 1409,
      "eiÃŁ": 1410,
      "rem": 1411,
      "ode": 1412,
      "ichter": 1413,
      "aum": 1414,
      "ĠBl": 1415,
      "av": 1416,
      "Ġseit": 1417,
      "ark": 1418,
      "ahn": 1419,
      "yp": 1420,
      "stitu": 1421,
      "Ġstehen": 1422,
      "ĠwÃ¤hrend": 1423,
      "Ġsagen": 1424,
      "ĠPl": 1425,
      "Nach": 1426,
      "Ġetwas": 1427,
      "ĠGesch": 1428,
      "deut": 1429,
      "stimmung": 1430,
      "ĠVorschlag": 1431,
      "gangen": 1432,
      "itte": 1433,
      "Ġwissen": 1434,
      "gr": 1435,
      "ordnung": 1436,
      "Ġdoch": 1437,
      "ĠAut": 1438,
      "ĠÃĸ": 1439,
      "zw": 1440,
      "werb": 1441,
      "Ġdrei": 1442,
      "ekte": 1443,
      "linie": 1444,
      "Ġbestimm": 1445,
      "anken": 1446,
      "Ġersten": 1447,
      "fra": 1448,
      "ĠBild": 1449,
      "rache": 1450,
      "Ġerm": 1451,
      "ieder": 1452,
      "kon": 1453,
      "Ġfol": 1454,
      "hand": 1455,
      "gang": 1456,
      "Ġverst": 1457,
      "ĠMe": 1458,
      "ĠGer": 1459,
      "eschÃ¤ft": 1460,
      "fft": 1461,
      "Ġinsbesondere": 1462,
      "schaften": 1463,
      "Ġkommen": 1464,
      "Ġerhalten": 1465,
      "ĠRechts": 1466,
      "Ġschn": 1467,
      "rÃ¤ge": 1468,
      "atÃ¼rlich": 1469,
      "ost": 1470,
      "ĠGen": 1471,
      "stÃ¼tzung": 1472,
      "ĠFall": 1473,
      "amil": 1474,
      "ende": 1475,
      "rank": 1476,
      "Ġkomm": 1477,
      "agt": 1478,
      "Ġeinmal": 1479,
      "ĠLÃ¤nder": 1480,
      "ĠNamen": 1481,
      "ĠauÃŁer": 1482,
      "ĠFrei": 1483,
      "hol": 1484,
      "falls": 1485,
      "ĠVerfÃ¼": 1486,
      "ĠLÃ¶s": 1487,
      "ĠÃ¶ffent": 1488,
      "assung": 1489,
      "Ġwaren": 1490,
      "lungs": 1491,
      "utzen": 1492,
      "Ã¤tz": 1493,
      "ohn": 1494,
      "fri": 1495,
      "Ġ199": 1496,
      "ilfe": 1497,
      "St": 1498,
      "ĠKl": 1499,
      "ron": 1500,
      "ellschaft": 1501,
      "Ġbeim": 1502,
      "itÃ¤ten": 1503,
      "Ġ7": 1504,
      "000": 1505,
      "vers": 1506,
      "zÃ¼": 1507,
      "ĠUmwelt": 1508,
      "10": 1509,
      "ĠKunden": 1510,
      "ĠBar": 1511,
      "ĠProj": 1512,
      "tels": 1513,
      "Ġletzten": 1514,
      "ĠBeh": 1515,
      "ĠMarkt": 1516,
      "Ġwirtschaft": 1517,
      "ache": 1518,
      "ĠArbeits": 1519,
      "ĠHaushalt": 1520,
      "ĠForm": 1521,
      "akt": 1522,
      "ĠZusammenarbeit": 1523,
      "gehen": 1524,
      "Auf": 1525,
      "Ġlassen": 1526,
      "Ġbede": 1527,
      "Ġnation": 1528,
      "Ġalso": 1529,
      "ĠPolitik": 1530,
      "Ġspe": 1531,
      "Eine": 1532,
      "ĠUnterstÃ¼tzung": 1533,
      "hÃ¶": 1534,
      "Ġ8": 1535,
      "FÃ¼r": 1536,
      "arten": 1537,
      "Ġgeben": 1538,
      "legt": 1539,
      "ĠArt": 1540,
      "altung": 1541,
      "raum": 1542,
      "ĠGemeinschaft": 1543,
      "isten": 1544,
      "orgen": 1545,
      "Ġ10": 1546,
      "neh": 1547,
      "Ġentwick": 1548,
      "von": 1549,
      "ismus": 1550,
      "Ã¶rder": 1551,
      "fÃ¼hrung": 1552,
      "ĠUr": 1553,
      "ald": 1554,
      "Ġumf": 1555,
      "xt": 1556,
      "Ġverw": 1557,
      "Ġbesteht": 1558,
      "ign": 1559,
      "Ġbesser": 1560,
      "Ġsehen": 1561,
      "uchen": 1562,
      "tier": 1563,
      "ware": 1564,
      "ĠÃĦnderungsant": 1565,
      "ichts": 1566,
      "nten": 1567,
      "ian": 1568,
      "raft": 1569,
      "ĠEnergie": 1570,
      "gabe": 1571,
      "ielen": 1572,
      "chnolog": 1573,
      "etzen": 1574,
      "druck": 1575,
      "Ver": 1576,
      "wendung": 1577,
      "glichen": 1578,
      "schied": 1579,
      "Unser": 1580,
      "ack": 1581,
      "Ġseinen": 1582,
      "ative": 1583,
      "Ġsteht": 1584,
      "uft": 1585,
      "ĠLÃ¤ndern": 1586,
      "Ġtun": 1587,
      "ktu": 1588,
      "kten": 1589,
      "tisch": 1590,
      "iell": 1591,
      "nehmen": 1592,
      "zieh": 1593,
      "urz": 1594,
      "lex": 1595,
      "ĠFlug": 1596,
      "gaben": 1597,
      "ĠMein": 1598,
      "ou": 1599,
      "man": 1600,
      "ĠMill": 1601,
      "ransp": 1602,
      "Ġgel": 1603,
      "ĠMus": 1604,
      "ĠHaupt": 1605,
      "Wie": 1606,
      "Ġho": 1607,
      "Ġstatt": 1608,
      "rieb": 1609,
      "Ġ[": 1610,
      "Ġinter": 1611,
      "aff": 1612,
      "gew": 1613,
      "ĠHandel": 1614,
      "hÃ¤ng": 1615,
      "ĠSti": 1616,
      "ĠIch": 1617,
      "sf": 1618,
      "ĠwÃ¤re": 1619,
      "ĠFragen": 1620,
      "ettbe": 1621,
      "ichterstat": 1622,
      "rot": 1623,
      "Ġfrei": 1624,
      "Ġdabei": 1625,
      "ternet": 1626,
      "ĠZug": 1627,
      "Ġgest": 1628,
      "Ġwich": 1629,
      "ĠDem": 1630,
      "Ã¤tze": 1631,
      "ĠKollegen": 1632,
      "fiz": 1633,
      "ĠEuro": 1634,
      "az": 1635,
      "rak": 1636,
      "fort": 1637,
      "ĠDeut": 1638,
      "ĠgehÃ¶r": 1639,
      "blick": 1640,
      "wirtschaft": 1641,
      "markt": 1642,
      "igt": 1643,
      "bereich": 1644,
      "ina": 1645,
      "andelt": 1646,
      "rechte": 1647,
      "ĠRegierung": 1648,
      "ĠDienst": 1649,
      "Ġworden": 1650,
      "tigung": 1651,
      "arte": 1652,
      "ĠmuÃŁ": 1653,
      "eisten": 1654,
      "eile": 1655,
      "ail": 1656,
      "ĠBeit": 1657,
      "ument": 1658,
      "ruch": 1659,
      "Ġdu": 1660,
      "ĠhÃ¶": 1661,
      "schri": 1662,
      "eschÃ¤f": 1663,
      "eig": 1664,
      "are": 1665,
      "staur": 1666,
      "eien": 1667,
      "Ġwe": 1668,
      "entrum": 1669,
      "gri": 1670,
      "ĠBedeut": 1671,
      "Ġper": 1672,
      "Ġrecht": 1673,
      "undheit": 1674,
      "Ġqu": 1675,
      "zess": 1676,
      "ater": 1677,
      "racht": 1678,
      "Ġderen": 1679,
      "ĠVerfÃ¼gung": 1680,
      "Ġbed": 1681,
      "ĠgroÃŁen": 1682,
      "Ġwelche": 1683,
      "obil": 1684,
      "dingungen": 1685,
      "ĠGeschÃ¤ft": 1686,
      "Ġch": 1687,
      "ĠLin": 1688,
      "Sch": 1689,
      "rÃ¼ck": 1690,
      "ĠgroÃŁe": 1691,
      "Ġinner": 1692,
      "Ġerst": 1693,
      "lt": 1694,
      "ĠBedeutung": 1695,
      "sst": 1696,
      "ĠRei": 1697,
      "Ġ9": 1698,
      "ettbewerb": 1699,
      "ĠKom": 1700,
      "ĠEntscheid": 1701,
      "ib": 1702,
      "ĠSeite": 1703,
      "Ġsozi": 1704,
      "rÃ¼h": 1705,
      "Ã¤d": 1706,
      "ĠSchw": 1707,
      "ĠEm": 1708,
      "ĠHand": 1709,
      "ĠErgeb": 1710,
      "Ġjeder": 1711,
      "Ġnie": 1712,
      "Ġle": 1713,
      "asse": 1714,
      "Ġblei": 1715,
      "ĠMÃ¶glichkeit": 1716,
      "EN": 1717,
      "Ġem": 1718,
      "ĠSpiel": 1719,
      "tische": 1720,
      "feren": 1721,
      "ktionen": 1722,
      "kauf": 1723,
      "Ġschw": 1724,
      "ium": 1725,
      "Des": 1726,
      "Fra": 1727,
      "ĠSchutz": 1728,
      "ĠDas": 1729,
      "Ġor": 1730,
      "offe": 1731,
      "weg": 1732,
      "reffen": 1733,
      "unter": 1734,
      "Ġzahl": 1735,
      "Ã¼cks": 1736,
      "Ã¼nst": 1737,
      "ER": 1738,
      "ĠAnt": 1739,
      "gestellt": 1740,
      "dr": 1741,
      "Ġoffen": 1742,
      "bild": 1743,
      "iff": 1744,
      "amt": 1745,
      "Ġnotwend": 1746,
      "wirk": 1747,
      "Ġhervor": 1748,
      "Ġget": 1749,
      "vest": 1750,
      "org": 1751,
      "weit": 1752,
      "ies": 1753,
      "rat": 1754,
      "ierungs": 1755,
      "abil": 1756,
      "ĠVertrag": 1757,
      "Ġkom": 1758,
      "Ġ%": 1759,
      "Ġbieten": 1760,
      "laub": 1761,
      "politik": 1762,
      "schutz": 1763,
      "ĠHa": 1764,
      "rech": 1765,
      "Ġentfern": 1766,
      "Ġdavon": 1767,
      "gesetzt": 1768,
      "ĠRegel": 1769,
      "ĠdarÃ¼ber": 1770,
      "Ã¶lker": 1771,
      "Ġel": 1772,
      "ĠThema": 1773,
      "iels": 1774,
      "Ġglau": 1775,
      "ĠVol": 1776,
      "one": 1777,
      "ielt": 1778,
      "Ġerforder": 1779,
      "ĠKinder": 1780,
      "Ã¤mpf": 1781,
      "ĠZukunft": 1782,
      "zuf": 1783,
      "euer": 1784,
      "ĠBesch": 1785,
      "ĠLebens": 1786,
      "hang": 1787,
      "ĠInternet": 1788,
      "Ġentsch": 1789,
      "tikel": 1790,
      "rise": 1791,
      "Ġstellen": 1792,
      "Ġwill": 1793,
      "ĠgegenÃ¼ber": 1794,
      "Ġdaher": 1795,
      "Ġschnell": 1796,
      "ĠAm": 1797,
      "staurant": 1798,
      "rieden": 1799,
      "ichterstatter": 1800,
      "Ġalles": 1801,
      "ufen": 1802,
      "ĠWeise": 1803,
      "Ġlang": 1804,
      "inde": 1805,
      "zep": 1806,
      "Ġbrauch": 1807,
      "Ġstell": 1808,
      "Ġla": 1809,
      "Ġeigenen": 1810,
      "tigkeit": 1811,
      "Ġverl": 1812,
      "ital": 1813,
      "ĠProbleme": 1814,
      "ritte": 1815,
      "genden": 1816,
      "ennt": 1817,
      "Ġ...": 1818,
      "Ġsowohl": 1819,
      "ĠGÃ¤": 1820,
      "treten": 1821,
      "Ġhatte": 1822,
      "Ġis": 1823,
      "Als": 1824,
      "Ġ15": 1825,
      "Ġbefindet": 1826,
      "weiter": 1827,
      "ĠnÃ¤ch": 1828,
      "igkeiten": 1829,
      "Ġweitere": 1830,
      "gl": 1831,
      "ide": 1832,
      "beh": 1833,
      "neten": 1834,
      "ec": 1835,
      "ĠBeispiel": 1836,
      "Ġerreichen": 1837,
      "Ġpolitischen": 1838,
      "hof": 1839,
      "Ġteil": 1840,
      "Aus": 1841,
      "Ġmeiner": 1842,
      "geord": 1843,
      "ĠIhrer": 1844,
      "Und": 1845,
      "ens": 1846,
      "ĠkÃ¶nnte": 1847,
      "ĠWeg": 1848,
      "ĠunterstÃ¼tzen": 1849,
      "ĠnatÃ¼rlich": 1850,
      "ĠDer": 1851,
      "Ġwirklich": 1852,
      "zeug": 1853,
      "ĠFrauen": 1854,
      "Ġbew": 1855,
      "ffiz": 1856,
      "ister": 1857,
      "ĠWahl": 1858,
      "ĠMan": 1859,
      "anischen": 1860,
      "ÃŁe": 1861,
      "Pro": 1862,
      "ĠFahr": 1863,
      "ÂłÂł": 1864,
      "tem": 1865,
      "ubl": 1866,
      "ĠAt": 1867,
      "Ġaufge": 1868,
      "ock": 1869,
      "tie": 1870,
      "Ġihnen": 1871,
      "ĠAusschuss": 1872,
      "Ġbesonders": 1873,
      "ĠZahl": 1874,
      "bene": 1875,
      "Da": 1876,
      "achten": 1877,
      "Ġgesam": 1878,
      "Ġverschiedenen": 1879,
      "ĠSeiten": 1880,
      "ĠStaaten": 1881,
      "ĠEs": 1882,
      "ĠBed": 1883,
      "eint": 1884,
      "ĠQualitÃ¤t": 1885,
      "weisen": 1886,
      "ituation": 1887,
      "ew": 1888,
      "Ġentfernt": 1889,
      "ĠEnde": 1890,
      "ĠKam": 1891,
      "ph": 1892,
      "ĠFamil": 1893,
      "Was": 1894,
      "ider": 1895,
      "Ġinnerhalb": 1896,
      "dust": 1897,
      "bung": 1898,
      "hm": 1899,
      "Ġhoch": 1900,
      "ĠIm": 1901,
      "Ġdort": 1902,
      "tive": 1903,
      "reise": 1904,
      "ĠForsch": 1905,
      "Ġvielen": 1906,
      "rifft": 1907,
      "lob": 1908,
      "ĠFol": 1909,
      "werk": 1910,
      "ersÃ¶n": 1911,
      "ĠRolle": 1912,
      "ichtet": 1913,
      "Ġgenau": 1914,
      "Ġzwar": 1915,
      "reund": 1916,
      "dings": 1917,
      "ĠDeb": 1918,
      "oc": 1919,
      "indung": 1920,
      "wÃ¤h": 1921,
      "esent": 1922,
      "Ġinternationalen": 1923,
      "200": 1924,
      "Ġaktu": 1925,
      "Ġ18": 1926,
      "igten": 1927,
      "Um": 1928,
      "zip": 1929,
      "ĠRegion": 1930,
      "rand": 1931,
      "Ġweit": 1932,
      "Ã¼d": 1933,
      "ĠmÃ¶chten": 1934,
      "ĠMed": 1935,
      "zeitig": 1936,
      "Ġwelt": 1937,
      "reifen": 1938,
      "Ã¤u": 1939,
      "ftware": 1940,
      "stra": 1941,
      "ï¿": 1942,
      "ï¿½": 1943,
      "sprache": 1944,
      "system": 1945,
      "ĠRichtlinie": 1946,
      "Ġern": 1947,
      "ĠBerichterstatter": 1948,
      "erien": 1949,
      "ruppe": 1950,
      "ĠBen": 1951,
      "So": 1952,
      "eim": 1953,
      "ĠPh": 1954,
      "ĠfÃ¼hren": 1955,
      "ĠServ": 1956,
      "raucher": 1957,
      "ĠWoch": 1958,
      "ĠdÃ¼r": 1959,
      "ĠWasser": 1960,
      "Ġhinaus": 1961,
      "Ġbel": 1962,
      "stens": 1963,
      "Ġdirekt": 1964,
      "Ġro": 1965,
      "ive": 1966,
      "Ã¤nger": 1967,
      "ĠEl": 1968,
      "ĠIhren": 1969,
      "wÃ¤r": 1970,
      "rieben": 1971,
      "ĠgewÃ¤hr": 1972,
      "ĠTra": 1973,
      "bur": 1974,
      "ucht": 1975,
      "Ġreg": 1976,
      "ĠUhr": 1977,
      "Ã¤ren": 1978,
      "spolitik": 1979,
      "ĠDisk": 1980,
      "Auch": 1981,
      "ĠWer": 1982,
      "ip": 1983,
      "ĠRes": 1984,
      "ĠLie": 1985,
      "ĠFort": 1986,
      "ĠNutz": 1987,
      "cen": 1988,
      "pr": 1989,
      "reicht": 1990,
      "ĠRÃ¼ck": 1991,
      "haus": 1992,
      "Ġklar": 1993,
      "mÃ¤ÃŁ": 1994,
      "cher": 1995,
      "20": 1996,
      "ym": 1997,
      "ĠWettbewerb": 1998,
      "zimmer": 1999,
      "ĠDeutsch": 2000,
      "ĠFunktion": 2001,
      "ux": 2002,
      "dition": 2003,
      "ĠSu": 2004,
      "Ġerste": 2005,
      "ĠeuropÃ¤ische": 2006,
      "Aber": 2007,
      "ĠBo": 2008,
      "opp": 2009,
      "tegie": 2010,
      "sichtlich": 2011,
      "merk": 2012,
      "ĠDemokra": 2013,
      "rach": 2014,
      "ĠMeinung": 2015,
      "ĠGegen": 2016,
      "ilt": 2017,
      "prÃ¤": 2018,
      "ĠUSA": 2019,
      "voll": 2020,
      "ax": 2021,
      "atte": 2022,
      "ĠAu": 2023,
      "Hier": 2024,
      "ase": 2025,
      "ool": 2026,
      "Ġeinzel": 2027,
      "els": 2028,
      "ĠTerr": 2029,
      "unehmen": 2030,
      "stall": 2031,
      "dustrie": 2032,
      "com": 2033,
      "frei": 2034,
      "urs": 2035,
      "ĠGrÃ¼n": 2036,
      "ĠArtikel": 2037,
      "ĠZusammenhang": 2038,
      "onen": 2039,
      "ĠhÃ¤t": 2040,
      "zogen": 2041,
      "beiten": 2042,
      "uÃŁen": 2043,
      "ĠGesundheit": 2044,
      "]]": 2045,
      "ĠVert": 2046,
      "Ġy": 2047,
      "ĠAbgeord": 2048,
      "ĠPf": 2049,
      "agement": 2050,
      "ve": 2051,
      "angen": 2052,
      "ativen": 2053,
      "Ġbeiden": 2054,
      "ĠAll": 2055,
      "Ġunserem": 2056,
      "uter": 2057,
      "Ġkommt": 2058,
      "achst": 2059,
      "Ġanges": 2060,
      "ĠSituation": 2061,
      "reiche": 2062,
      "Ġgar": 2063,
      "bet": 2064,
      "asst": 2065,
      "ĠGeschÃ¤fts": 2066,
      "ruppen": 2067,
      "fang": 2068,
      "ĠÃ¤": 2069,
      "ĠPersonen": 2070,
      "immt": 2071,
      "Ġra": 2072,
      "usÃ¤tz": 2073,
      "weis": 2074,
      "sw": 2075,
      "Ġentsprechen": 2076,
      "ĠHilfe": 2077,
      "dt": 2078,
      "Ġon": 2079,
      "lÃ¤ge": 2080,
      "Ġfinanz": 2081,
      "ĠSol": 2082,
      "ĠEntschlieÃŁ": 2083,
      "tlich": 2084,
      "Ã¤uf": 2085,
      "ieten": 2086,
      "ĠKli": 2087,
      "Ġdi": 2088,
      "prÃ¼": 2089,
      "nit": 2090,
      "fassung": 2091,
      "Ġbestehen": 2092,
      "ierungen": 2093,
      "ferenz": 2094,
      "alisierung": 2095,
      "inen": 2096,
      "ĠKultur": 2097,
      "Ã¤chst": 2098,
      "teilung": 2099,
      "ĠKontro": 2100,
      "ity": 2101,
      "Ġtra": 2102,
      "baren": 2103,
      "Ġempf": 2104,
      "ĠGesetz": 2105,
      "ĠbegrÃ¼": 2106,
      "ĠVerantwort": 2107,
      "line": 2108,
      "ĠFir": 2109,
      "ore": 2110,
      "roffen": 2111,
      "Ġstellt": 2112,
      "ĠLe": 2113,
      "ĠSk": 2114,
      "einer": 2115,
      "ome": 2116,
      "Ġbringen": 2117,
      "ĠSchluss": 2118,
      "ĠFest": 2119,
      "ĠPrÃ¤sidentin": 2120,
      "ĠLÃ¶sung": 2121,
      "ain": 2122,
      "ĠGÃ¤ste": 2123,
      "reiben": 2124,
      "stehen": 2125,
      "annten": 2126,
      "Ġdaran": 2127,
      "setzen": 2128,
      "gegen": 2129,
      "Ġverbesser": 2130,
      "als": 2131,
      "eitung": 2132,
      "ĠNatur": 2133,
      "ĠRo": 2134,
      "Ġbzw": 2135,
      "Ġversuch": 2136,
      "ĠMehr": 2137,
      "ĠstÃ¤r": 2138,
      "ĠLa": 2139,
      "ĠPreis": 2140,
      "part": 2141,
      "achstum": 2142,
      "Ã¤mlich": 2143,
      "Ã¼b": 2144,
      "Ã¤nde": 2145,
      "Ġweniger": 2146,
      "Ġ12": 2147,
      "ĠMo": 2148,
      "Ġgilt": 2149,
      "arbei": 2150,
      "forderungen": 2151,
      "Ġwahr": 2152,
      "Ġ'": 2153,
      "leg": 2154,
      "leistungen": 2155,
      "ĠDes": 2156,
      "Ġgesagt": 2157,
      "mo": 2158,
      "eits": 2159,
      "liches": 2160,
      "Ġjeden": 2161,
      "ĠnÃ¤mlich": 2162,
      "ĠFraktion": 2163,
      "ĠOrt": 2164,
      "Ġetwa": 2165,
      "yn": 2166,
      "einander": 2167,
      "uld": 2168,
      "frage": 2169,
      "ĠDi": 2170,
      "ĠPartner": 2171,
      "abhÃ¤ng": 2172,
      "ĠKo": 2173,
      "Ġindem": 2174,
      "sol": 2175,
      "Ġbitte": 2176,
      "ritten": 2177,
      "ĠRestaurant": 2178,
      "ĠDurch": 2179,
      "ĠpersÃ¶n": 2180,
      "Ġgute": 2181,
      "ĠPol": 2182,
      "Ġkosten": 2183,
      "Ġu": 2184,
      "Ġja": 2185,
      "unst": 2186,
      "amp": 2187,
      "ring": 2188,
      "Ġsogar": 2189,
      "arm": 2190,
      "Ġabge": 2191,
      "Ġentscheiden": 2192,
      "Ġ[[": 2193,
      "lÃ¼s": 2194,
      "ĠAnge": 2195,
      "ans": 2196,
      "sver": 2197,
      "wendet": 2198,
      "ĠRates": 2199,
      "Ġgerade": 2200,
      "hunder": 2201,
      "uen": 2202,
      "ielleicht": 2203,
      "ĠKosten": 2204,
      "osition": 2205,
      "Ab": 2206,
      "staat": 2207,
      "ĠKÃ¼": 2208,
      "Ġnehmen": 2209,
      "stimmt": 2210,
      "ĠErfahr": 2211,
      "Zu": 2212,
      "Ġkurz": 2213,
      "rotz": 2214,
      "ĠHotels": 2215,
      "rom": 2216,
      "ĠWor": 2217,
      "ĠInstitu": 2218,
      "Ġverm": 2219,
      "spl": 2220,
      "Ġerfolg": 2221,
      "stadt": 2222,
      "erik": 2223,
      "ember": 2224,
      "ĠProdukte": 2225,
      "anst": 2226,
      "ĠEuropas": 2227,
      "Ġerwar": 2228,
      "ĠDat": 2229,
      "Ġihn": 2230,
      "Ġersch": 2231,
      "Ã¼nd": 2232,
      "ĠGeld": 2233,
      "icken": 2234,
      "ure": 2235,
      "ĠGren": 2236,
      "co": 2237,
      "Ã¤chlich": 2238,
      "ĠDeutschland": 2239,
      "Ġebenfalls": 2240,
      "vÃ¶lker": 2241,
      "Ġihm": 2242,
      "ĠWe": 2243,
      "ote": 2244,
      "ennen": 2245,
      "Ġ0": 2246,
      "Ġunver": 2247,
      "anzen": 2248,
      "ĠPunkt": 2249,
      "ĠThe": 2250,
      "fÃ¤": 2251,
      "zustellen": 2252,
      "ka": 2253,
      "Ã¡": 2254,
      "ĠKlima": 2255,
      "Ġunterschied": 2256,
      "Ġseinem": 2257,
      "rigen": 2258,
      "Ġgemacht": 2259,
      "rachten": 2260,
      "arbeiten": 2261,
      "Ġir": 2262,
      "ĠY": 2263,
      "Ġmeisten": 2264,
      "Ġak": 2265,
      "Ġhoh": 2266,
      "ĠTÃ¼r": 2267,
      "ĠGroÃŁ": 2268,
      "ĠZugang": 2269,
      "utet": 2270,
      "tragen": 2271,
      "Ġdessen": 2272,
      "gÃ¤n": 2273,
      "sionen": 2274,
      "onds": 2275,
      "ĠBezug": 2276,
      "ĠMal": 2277,
      "Ġverbunden": 2278,
      "Ġpolitische": 2279,
      "Ġversch": 2280,
      "vi": 2281,
      "Ġdarf": 2282,
      "Ġgehen": 2283,
      "ĠVerfahren": 2284,
      "istor": 2285,
      "isches": 2286,
      "duz": 2287,
      "Ġallgem": 2288,
      "verkehr": 2289,
      "ĠMet": 2290,
      "ĠunterstÃ¼tzt": 2291,
      "Ġwesent": 2292,
      "nete": 2293,
      "Ġ2009": 2294,
      "ĠTransp": 2295,
      "kung": 2296,
      "Ġaut": 2297,
      "itzen": 2298,
      "gebung": 2299,
      "ys": 2300,
      "site": 2301,
      "Dieses": 2302,
      "sor": 2303,
      "Deshalb": 2304,
      "anten": 2305,
      "ĠProjekt": 2306,
      "prochen": 2307,
      "raf": 2308,
      "rans": 2309,
      "Ġ&": 2310,
      "ĠInvest": 2311,
      "ĠJahres": 2312,
      "onnen": 2313,
      "Ġdarin": 2314,
      "schein": 2315,
      "Ġnah": 2316,
      "ette": 2317,
      "Ġtechn": 2318,
      "19": 2319,
      "burg": 2320,
      "ĠÐ": 2321,
      "ĠVerkehr": 2322,
      "fin": 2323,
      "ĠSozial": 2324,
      "leben": 2325,
      "ĠRechte": 2326,
      "Ġglaube": 2327,
      "Ġerz": 2328,
      "llt": 2329,
      "ĠVerhand": 2330,
      "omati": 2331,
      "ĠOp": 2332,
      "Ġth": 2333,
      "Ã¶st": 2334,
      "Ġanzu": 2335,
      "ĠBau": 2336,
      "ĠdÃ¼rfen": 2337,
      "Ġeinigen": 2338,
      "ĠÃ¶ffentlichen": 2339,
      "ĠOrganis": 2340,
      "Ġgern": 2341,
      "Dar": 2342,
      "Ã¼hren": 2343,
      "Ġnichts": 2344,
      "ĠKap": 2345,
      "ĠVerw": 2346,
      "nov": 2347,
      "ĠMillionen": 2348,
      "ĠÂ": 2349,
      "Ġschaffen": 2350,
      "ator": 2351,
      "ĠProduktion": 2352,
      "ets": 2353,
      "ĠSoftware": 2354,
      "durch": 2355,
      "ĠFrÃ¼h": 2356,
      "Ġsollen": 2357,
      "gebot": 2358,
      "ĠEntwicklungs": 2359,
      "ĠMeer": 2360,
      "alte": 2361,
      "Ã¤he": 2362,
      "nehmer": 2363,
      "allen": 2364,
      "ĠFil": 2365,
      "iere": 2366,
      "Ġeh": 2367,
      "Ġmodern": 2368,
      "Ã¤higkeit": 2369,
      "schlieÃŁlich": 2370,
      "eigt": 2371,
      "Ġihrem": 2372,
      "ĠKomp": 2373,
      "ĠEigen": 2374,
      "ĠGesellschaft": 2375,
      "tis": 2376,
      "ĠIniti": 2377,
      "Ġbrauchen": 2378,
      "wahl": 2379,
      "wiesen": 2380,
      "Ġkeinen": 2381,
      "gor": 2382,
      "unkte": 2383,
      "ĠBeschÃ¤f": 2384,
      "mÃ¶glich": 2385,
      "Ġnationalen": 2386,
      "Ġhandelt": 2387,
      "ame": 2388,
      "bare": 2389,
      "ĠVerbraucher": 2390,
      "ĠAussprache": 2391,
      "ĠBel": 2392,
      "Ġspezie": 2393,
      "Ġbekannt": 2394,
      "res": 2395,
      "ĠPal": 2396,
      "utzt": 2397,
      "zus": 2398,
      "ari": 2399,
      "Ġposi": 2400,
      "auer": 2401,
      "ĠBus": 2402,
      "ĠKolleg": 2403,
      "ziehen": 2404,
      "iges": 2405,
      "spiels": 2406,
      "Ġ/": 2407,
      "ĠzusÃ¤tz": 2408,
      "red": 2409,
      "ott": 2410,
      "Ã¤ter": 2411,
      "ĠMÃ¤r": 2412,
      "ĠHÃ¶": 2413,
      "unÃ¤chst": 2414,
      "Ġweiterhin": 2415,
      "eider": 2416,
      "Ġ30": 2417,
      "Ġbetrifft": 2418,
      "ĠAbstimmung": 2419,
      "ĠschlieÃŁ": 2420,
      "Ġsei": 2421,
      "ĠEbene": 2422,
      "ĠerklÃ¤r": 2423,
      "handel": 2424,
      "emen": 2425,
      "tim": 2426,
      "Alle": 2427,
      "Ġschwer": 2428,
      "port": 2429,
      "ĠJahrhunder": 2430,
      "AN": 2431,
      "rieg": 2432,
      "spruch": 2433,
      "ance": 2434,
      "Ġheraus": 2435,
      "Ġumfassen": 2436,
      "Ġop": 2437,
      "Ã¤hlen": 2438,
      "Ġaktiv": 2439,
      "reg": 2440,
      "Ġleben": 2441,
      "zeichnet": 2442,
      "ĠFortsch": 2443,
      "Man": 2444,
      "Ġdeshalb": 2445,
      "Ġwenig": 2446,
      "ĠBuch": 2447,
      "Ġbedeutet": 2448,
      "Unsere": 2449,
      "por": 2450,
      "ĠbenÃ¶": 2451,
      "Ġmacht": 2452,
      "Ġsolche": 2453,
      "ĠSan": 2454,
      "dien": 2455,
      "aden": 2456,
      "drÃ¼ck": 2457,
      "zent": 2458,
      "Ġdeutlich": 2459,
      "spielsweise": 2460,
      "ĠIndustrie": 2461,
      "Ġbesten": 2462,
      "wach": 2463,
      "ĠFischer": 2464,
      "gelegt": 2465,
      "ublik": 2466,
      "liegen": 2467,
      "mals": 2468,
      "bel": 2469,
      "Ġeinger": 2470,
      "zÃ¼glich": 2471,
      "Ġfr": 2472,
      "maÃŁ": 2473,
      "ĠWissen": 2474,
      "Ġunbe": 2475,
      "ilit": 2476,
      "sehen": 2477,
      "ĠtÃ¤": 2478,
      "Ġaufgrund": 2479,
      "Ġinteress": 2480,
      "ziehungen": 2481,
      "ĠInstr": 2482,
      "stÃ¼ck": 2483,
      "Ġwichtige": 2484,
      "ĠwÃ¼rden": 2485,
      "schluss": 2486,
      "ĠLeist": 2487,
      "scht": 2488,
      "geschlagen": 2489,
      "ĠProdukt": 2490,
      "ĠBem": 2491,
      "ĠAd": 2492,
      "ĠTour": 2493,
      "reiten": 2494,
      "ichtigen": 2495,
      "Ġend": 2496,
      "zept": 2497,
      "Ã¶rden": 2498,
      "rop": 2499,
      "zlich": 2500,
      "ĠNetz": 2501,
      "chnik": 2502,
      "rinzip": 2503,
      "ĠErgebnis": 2504,
      "ĠTechnolog": 2505,
      "Ġgrund": 2506,
      "ĠWerk": 2507,
      "ĠDok": 2508,
      "ĠSer": 2509,
      "ue": 2510,
      "Ġoft": 2511,
      "ĠUmsetzung": 2512,
      "arf": 2513,
      "Ġfindet": 2514,
      "Ġpriv": 2515,
      "ĠFrank": 2516,
      "ĠnÃ¤chsten": 2517,
      "ĠMenschenrechte": 2518,
      "eten": 2519,
      "Ġhel": 2520,
      "ĠWebsite": 2521,
      "Ġse": 2522,
      "ĠGebiet": 2523,
      "ĠService": 2524,
      "ĠAnsicht": 2525,
      "ĠAsp": 2526,
      "griff": 2527,
      "All": 2528,
      "haltung": 2529,
      "ĠlÃ¤": 2530,
      "Ã¶rderung": 2531,
      "ĠschÃ¶n": 2532,
      "Dieser": 2533,
      "ĠBesuch": 2534,
      "ĠBevÃ¶lker": 2535,
      "weiten": 2536,
      "zer": 2537,
      "ali": 2538,
      "Ġat": 2539,
      "Ġnutzen": 2540,
      "ckt": 2541,
      "ĠHerren": 2542,
      "ĠSa": 2543,
      "jen": 2544,
      "ĠAbkommen": 2545,
      "vent": 2546,
      "Ġkonk": 2547,
      "ĠRichtung": 2548,
      "alien": 2549,
      "bo": 2550,
      "umente": 2551,
      "ĠDemokratie": 2552,
      "ĠÃ¼b": 2553,
      "ĠprÃ¤": 2554,
      "ĠNÃ¤he": 2555,
      "Ã¼rd": 2556,
      "ĠHaushalts": 2557,
      "teg": 2558,
      "ĠVerbesser": 2559,
      "Ġallerdings": 2560,
      "ffizien": 2561,
      "Ġ25": 2562,
      "atten": 2563,
      "richtung": 2564,
      "ĠFot": 2565,
      "verstÃ¤nd": 2566,
      "Sp": 2567,
      "Ġvier": 2568,
      "ret": 2569,
      "Ġfort": 2570,
      "ĠVerantwortung": 2571,
      "frist": 2572,
      "cke": 2573,
      "Ġhoffe": 2574,
      "lauf": 2575,
      "platz": 2576,
      "Ġgegeben": 2577,
      "up": 2578,
      "ĠBedingungen": 2579,
      "Ġzie": 2580,
      "ĠAnwendung": 2581,
      "Ġgemeinsamen": 2582,
      "ession": 2583,
      "wirkungen": 2584,
      "folgt": 2585,
      "IN": 2586,
      "ĠInsel": 2587,
      "ĠFeh": 2588,
      "ĠStruktur": 2589,
      "Ġnotwendig": 2590,
      "merksam": 2591,
      "ĠWert": 2592,
      "ĠEntscheidung": 2593,
      "bend": 2594,
      "ĠNeu": 2595,
      "able": 2596,
      "CH": 2597,
      "Ġstimm": 2598,
      "Ġ14": 2599,
      "ĠRaum": 2600,
      "ĠgehÃ¶rt": 2601,
      "ĠIde": 2602,
      "Ġbeispielsweise": 2603,
      "Ġinte": 2604,
      "Ġjewei": 2605,
      "Ã¼l": 2606,
      "ĠKunst": 2607,
      "Ġhistor": 2608,
      "linien": 2609,
      "ante": 2610,
      "ĠInteresse": 2611,
      "ĠVorschlÃ¤ge": 2612,
      "Ġarbeiten": 2613,
      "âĢĿ": 2614,
      "aÃŁ": 2615,
      "Ġkont": 2616,
      "assi": 2617,
      "ĠZiele": 2618,
      "Ġkleinen": 2619,
      "Ġ|": 2620,
      "Ġpar": 2621,
      "Ġdank": 2622,
      "ĠBenutz": 2623,
      "Ġvielleicht": 2624,
      "llig": 2625,
      "aussch": 2626,
      "Ġwohl": 2627,
      "Ġinform": 2628,
      "Ġsozialen": 2629,
      "iten": 2630,
      "pflicht": 2631,
      "Ġzentr": 2632,
      "Ġenthalten": 2633,
      "Ġverwendet": 2634,
      "det": 2635,
      "Ġide": 2636,
      "gern": 2637,
      "ategor": 2638,
      "Vor": 2639,
      "Ġsprechen": 2640,
      "ĠWort": 2641,
      "zel": 2642,
      "Ġdemokra": 2643,
      "ĠIhrem": 2644,
      "ĠBas": 2645,
      "ĠAngelegen": 2646,
      "ĠGrundlage": 2647,
      "ĠEmpf": 2648,
      "ĠTages": 2649,
      "Ġ16": 2650,
      "ĠermÃ¶glich": 2651,
      "ĠSteuer": 2652,
      "ĠIs": 2653,
      "ehm": 2654,
      "Ð¾": 2655,
      "ĠAuÃŁen": 2656,
      "ement": 2657,
      "Ġcon": 2658,
      "erst": 2659,
      "ĠDruck": 2660,
      "Ġbevor": 2661,
      "Ġprof": 2662,
      "ĠJu": 2663,
      "llung": 2664,
      "ĠReihe": 2665,
      "ĠPark": 2666,
      "Ġwerde": 2667,
      "Ġerreicht": 2668,
      "sph": 2669,
      "ĠTats": 2670,
      "ĠVers": 2671,
      "ĠBr": 2672,
      "ĠWachstum": 2673,
      "kÃ¤mpf": 2674,
      "ĠGol": 2675,
      "ĠErfolg": 2676,
      "scher": 2677,
      "ES": 2678,
      "ĠberÃ¼cks": 2679,
      "ĠEinsatz": 2680,
      "struktur": 2681,
      "laden": 2682,
      "arbeitung": 2683,
      "Ġhalten": 2684,
      "geln": 2685,
      "ĠGener": 2686,
      "teilt": 2687,
      "ĠMusik": 2688,
      "lassen": 2689,
      "ivers": 2690,
      "ĠGeschichte": 2691,
      "ĠStandard": 2692,
      "ĠGl": 2693,
      "Ã¤tzen": 2694,
      "ĠKat": 2695,
      "ekten": 2696,
      "ĠMÃ¶glichkeiten": 2697,
      "ĠerfÃ¼": 2698,
      "Ġ17": 2699,
      "fung": 2700,
      "Ġglob": 2701,
      "ĠText": 2702,
      "ĠDebatte": 2703,
      "ĠCo": 2704,
      "ĠBeg": 2705,
      "ĠDamen": 2706,
      "ĠheiÃŁ": 2707,
      "reten": 2708,
      "orm": 2709,
      "elegen": 2710,
      "inter": 2711,
      "stellungen": 2712,
      "Ġkompl": 2713,
      "ĠÃ¼bern": 2714,
      "zeigt": 2715,
      "Ġbleiben": 2716,
      "ĠFrieden": 2717,
      "ĠX": 2718,
      "âĢĻ": 2719,
      "arbeiter": 2720,
      "lÃ¤ss": 2721,
      "bildung": 2722,
      "Ġus": 2723,
      "ĠHeraus": 2724,
      "schriften": 2725,
      "Frau": 2726,
      "mitt": 2727,
      "ith": 2728,
      "ĠGleich": 2729,
      "Ġ11": 2730,
      "ĠComp": 2731,
      "Ġvorgeschlagen": 2732,
      "ĠHinblick": 2733,
      "abilitÃ¤t": 2734,
      "folgen": 2735,
      "ĠVort": 2736,
      "stimmungen": 2737,
      "ĠEinw": 2738,
      "Ġverschiedene": 2739,
      "ĠhÃ¶ch": 2740,
      "ĠBlick": 2741,
      "ult": 2742,
      "ĠPort": 2743,
      "ĠPri": 2744,
      "ĠErweiter": 2745,
      "ĠfÃ¼nf": 2746,
      "ingen": 2747,
      "inge": 2748,
      "verb": 2749,
      "gesehen": 2750,
      "ĠkÃ¶nnten": 2751,
      "Ġschwier": 2752,
      "mitteln": 2753,
      "ĠAktiv": 2754,
      "ĠForschung": 2755,
      "Ġfunktion": 2756,
      "greifen": 2757,
      "Ġjen": 2758,
      "ruh": 2759,
      "produ": 2760,
      "statt": 2761,
      "Ã¤um": 2762,
      "ober": 2763,
      "unik": 2764,
      "istischen": 2765,
      "ĠDu": 2766,
      "Ġgemeinsame": 2767,
      "annte": 2768,
      "ktor": 2769,
      "ĠverfÃ¼gt": 2770,
      "ĠErklÃ¤r": 2771,
      "hl": 2772,
      "wegen": 2773,
      "ĠMinuten": 2774,
      "ehn": 2775,
      "ĠermÃ¶glicht": 2776,
      "Re": 2777,
      "ĠSchul": 2778,
      "ĠweiÃŁ": 2779,
      "stattet": 2780,
      "usst": 2781,
      "Durch": 2782,
      "-,": 2783,
      "zif": 2784,
      "ĠLuft": 2785,
      "ĠDiskus": 2786,
      "par": 2787,
      "sbe": 2788,
      "des": 2789,
      "Ġweltweit": 2790,
      "ĠStrategie": 2791,
      "ĠInstitutionen": 2792,
      "Ġ50": 2793,
      "Ġhatten": 2794,
      "ektor": 2795,
      "tiven": 2796,
      "ĠPlan": 2797,
      "Ġ2010": 2798,
      "Ġgelten": 2799,
      "ĠPer": 2800,
      "elten": 2801,
      "ĠArbeitspl": 2802,
      "ĠAuswirkungen": 2803,
      "terial": 2804,
      "Ġkm": 2805,
      "Ġkomp": 2806,
      "Ġlange": 2807,
      "jenigen": 2808,
      "Ġtats": 2809,
      "ition": 2810,
      "bank": 2811,
      "ĠvollstÃ¤nd": 2812,
      "ĠWieder": 2813,
      "Am": 2814,
      "ĠKraft": 2815,
      "Ġzeigt": 2816,
      "Ġerforderlich": 2817,
      "\",": 2818,
      "ĠPrÃ¤": 2819,
      "ungsver": 2820,
      "ĠInte": 2821,
      "Ġbisher": 2822,
      "Ġbem": 2823,
      "ĠAusdruck": 2824,
      "langen": 2825,
      "Ġ2008": 2826,
      "ĠZentrum": 2827,
      "rimin": 2828,
      "ĠAbgeordneten": 2829,
      "schrift": 2830,
      "dung": 2831,
      "ĠfÃ¼hrt": 2832,
      "ĠUN": 2833,
      "schlag": 2834,
      "ilder": 2835,
      "ĠDienstleistungen": 2836,
      "Ã¶sen": 2837,
      "ĠProzess": 2838,
      "met": 2839,
      "ĠRegionen": 2840,
      "Ġdanken": 2841,
      "Ġgesamten": 2842,
      "ino": 2843,
      "Ã¼nschen": 2844,
      "Ġwirtschaftlichen": 2845,
      "ollen": 2846,
      "TO": 2847,
      "30": 2848,
      "ĠInteressen": 2849,
      "Ġeinzelnen": 2850,
      "The": 2851,
      "Ġdarum": 2852,
      "ings": 2853,
      "isierung": 2854,
      "Ġgere": 2855,
      "divi": 2856,
      "Ġebenso": 2857,
      "ight": 2858,
      "Daher": 2859,
      "th": 2860,
      "jÃ¤hr": 2861,
      "urf": 2862,
      "Ġgleichzeitig": 2863,
      "Ã¶glichen": 2864,
      "dividu": 2865,
      "Ġangeb": 2866,
      "ĠKolleginnen": 2867,
      "ĠspÃ¤ter": 2868,
      "ly": 2869,
      "rÃ¤sidenten": 2870,
      "ussland": 2871,
      "ĠLandes": 2872,
      "ĠSchritt": 2873,
      "ĠSport": 2874,
      "Von": 2875,
      "anische": 2876,
      "Ġentwickelt": 2877,
      "Ġdenke": 2878,
      "Ġ100": 2879,
      "Ġangenommen": 2880,
      "ĠPlatz": 2881,
      "ĠÃĦnderungsantrag": 2882,
      "Ġfast": 2883,
      "barkeit": 2884,
      "air": 2885,
      "ĠNation": 2886,
      "geschlossen": 2887,
      "ĠDial": 2888,
      "ĠIt": 2889,
      "auber": 2890,
      "ĠBinnen": 2891,
      "uÃŁerdem": 2892,
      "ĠFamilien": 2893,
      "ĠDank": 2894,
      "ĠTatsache": 2895,
      "ĠÃĸff": 2896,
      "ca": 2897,
      "ĠVoraus": 2898,
      "ĠÃ¤uÃŁer": 2899,
      "ÃŃ": 2900,
      "ĠHoch": 2901,
      "Ġeinzu": 2902,
      "programm": 2903,
      "Ã¤ndert": 2904,
      "Ġverein": 2905,
      "bahn": 2906,
      "reisen": 2907,
      "ĠWohn": 2908,
      "ĠerwÃ¤h": 2909,
      "Ġjedem": 2910,
      "arbeitet": 2911,
      "ĠÃĦnderungsantrÃ¤ge": 2912,
      "own": 2913,
      "Ã³": 2914,
      "Ġdisk": 2915,
      "ose": 2916,
      "ĠBereichen": 2917,
      "ĠWirtschafts": 2918,
      "ĠhÃ¤tte": 2919,
      "lÃ¤ndern": 2920,
      "Ber": 2921,
      "ĠVerhandlungen": 2922,
      "aritÃ¤t": 2923,
      "renz": 2924,
      "isik": 2925,
      "ĠCon": 2926,
      "ĠMitglieder": 2927,
      "ĠFÃ¤": 2928,
      "Ġbefinden": 2929,
      "ĠStaats": 2930,
      "ĠViel": 2931,
      "aly": 2932,
      "iellen": 2933,
      "ĠâĢľ": 2934,
      "ĠChina": 2935,
      "Ġliegen": 2936,
      "ix": 2937,
      "Ġinternationale": 2938,
      "Ġkonnte": 2939,
      "kÃ¤mpfung": 2940,
      "abel": 2941,
      "fon": 2942,
      "rad": 2943,
      "Ã¼gen": 2944,
      "ieÃŁen": 2945,
      "Ġsetzen": 2946,
      "ĠGar": 2947,
      "ĠVerl": 2948,
      "ĠVereinigten": 2949,
      "ĠTÃ¼rk": 2950,
      "steller": 2951,
      "ches": 2952,
      "Ġeff": 2953,
      "ordin": 2954,
      "ĠStimm": 2955,
      "fel": 2956,
      "ĠAntwort": 2957,
      "Ġweiteren": 2958,
      "Ġstar": 2959,
      "ĠBeziehungen": 2960,
      "ipf": 2961,
      "uni": 2962,
      "Ġneben": 2963,
      "nitt": 2964,
      "ĠWÃ¤hr": 2965,
      "ĠheiÃŁt": 2966,
      "edig": 2967,
      "ĠNicht": 2968,
      "ĠBevÃ¶lkerung": 2969,
      "Ġfolgen": 2970,
      "Ġres": 2971,
      "ĠerhÃ¶": 2972,
      "Ġbedeuten": 2973,
      "folge": 2974,
      "na": 2975,
      "andlung": 2976,
      "zentrum": 2977,
      "ommer": 2978,
      "ĠPriv": 2979,
      "andeln": 2980,
      "reit": 2981,
      "Ġvorh": 2982,
      "ĠGelegen": 2983,
      "etten": 2984,
      "ĠFre": 2985,
      "isse": 2986,
      "ĠVersion": 2987,
      "Mail": 2988,
      "stre": 2989,
      "alle": 2990,
      "50": 2991,
      "ienen": 2992,
      "alter": 2993,
      "Ġrichtig": 2994,
      "Ġhinter": 2995,
      "inner": 2996,
      "ĠNew": 2997,
      "Ġjede": 2998,
      "ĠvÃ¶": 2999,
      "ĠTa": 3000,
      "richtungen": 3001,
      "jahr": 3002,
      "Ġhelfen": 3003,
      "ĠWind": 3004,
      "Ġerhe": 3005,
      "ĠSÃ¼d": 3006,
      "ums": 3007,
      "ĠApp": 3008,
      "Ġvers": 3009,
      "ichtigt": 3010,
      "ĠEinzel": 3011,
      "sitz": 3012,
      "ĠOn": 3013,
      "affung": 3014,
      "ĠBeitrag": 3015,
      "tember": 3016,
      "ĠVertra": 3017,
      "denken": 3018,
      "ĠSchlussel": 3019,
      "ĠgegenwÃ¤r": 3020,
      "alls": 3021,
      "Ġ2007": 3022,
      "ĠBetrieb": 3023,
      "ĠVerpflicht": 3024,
      "ĠMode": 3025,
      "ĠFÃ¼hr": 3026,
      "Ġur": 3027,
      "Ġgestellt": 3028,
      "orn": 3029,
      "ĠAufgabe": 3030,
      "Ðµ": 3031,
      "ĠThemen": 3032,
      "Ġbeit": 3033,
      "Ġwichtigen": 3034,
      "bin": 3035,
      "ĠFÃ¶rderung": 3036,
      "ĠTÃ¼rkei": 3037,
      "Ġmeinen": 3038,
      "anzÃ¶s": 3039,
      "Ġunseres": 3040,
      "anien": 3041,
      "ĠWebs": 3042,
      "ĠListe": 3043,
      "Ġ13": 3044,
      "halte": 3045,
      "Ġrund": 3046,
      "eichen": 3047,
      "enthalt": 3048,
      "Ġkleine": 3049,
      "ĠDialog": 3050,
      "formen": 3051,
      "ct": 3052,
      "ĠKontrolle": 3053,
      "ĠFuÃŁ": 3054,
      "Ġprak": 3055,
      "haft": 3056,
      "stru": 3057,
      "ĠRisik": 3058,
      "teilen": 3059,
      "ontro": 3060,
      "ĠErweiterung": 3061,
      "flÃ¤": 3062,
      "ĠVerbindung": 3063,
      "unt": 3064,
      "ĠKampf": 3065,
      "Ġerf": 3066,
      "lÃ¤nder": 3067,
      "ĠUnivers": 3068,
      "RO": 3069,
      "svor": 3070,
      "gangenen": 3071,
      "ĠSh": 3072,
      "Ġgestimmt": 3073,
      "ĠKÃ¶n": 3074,
      "ution": 3075,
      "Ð°": 3076,
      "enten": 3077,
      "ĠTerror": 3078,
      "Be": 3079,
      "Ġ24": 3080,
      "Ã¤us": 3081,
      "Ġauszu": 3082,
      "Ġgab": 3083,
      "zunehmen": 3084,
      "ĠAusschusses": 3085,
      "ĠVolk": 3086,
      "Ġwegen": 3087,
      "Ġjedes": 3088,
      "worten": 3089,
      "Doch": 3090,
      "rift": 3091,
      "Ġrel": 3092,
      "Ġbekommen": 3093,
      "Ġbleibt": 3094,
      "ĠVerordnung": 3095,
      "rachen": 3096,
      "ĠAngebot": 3097,
      "ĠEntschlieÃŁung": 3098,
      "ĠWeiter": 3099,
      "ilitÃ¤r": 3100,
      "ĠNord": 3101,
      "fragen": 3102,
      "Seit": 3103,
      "eller": 3104,
      "Ġfreu": 3105,
      "zentr": 3106,
      "ehlen": 3107,
      "Ġsag": 3108,
      "Ġorganis": 3109,
      "ĠSon": 3110,
      "itionen": 3111,
      "abon": 3112,
      "hafen": 3113,
      "pflich": 3114,
      "ĠStu": 3115,
      "Ġautomati": 3116,
      "ĠRechn": 3117,
      "Ġangem": 3118,
      "terne": 3119,
      "lay": 3120,
      "nern": 3121,
      "Ġregion": 3122,
      "ĠPak": 3123,
      "ĠBehÃ¶rden": 3124,
      "Ġdurchge": 3125,
      "ĠAnst": 3126,
      "stag": 3127,
      "publik": 3128,
      "ĠOb": 3129,
      "ĠNutzung": 3130,
      "Ġne": 3131,
      "rÃ¤gt": 3132,
      "ĠGeh": 3133,
      "Ġzweiten": 3134,
      "fahrt": 3135,
      "hil": 3136,
      "Ã¶rdern": 3137,
      "obei": 3138,
      "ennung": 3139,
      "Ġnahe": 3140,
      "erreich": 3141,
      "ĠRussland": 3142,
      "ĠSpe": 3143,
      "issabon": 3144,
      "ĠMitarbeiter": 3145,
      "Ġwunder": 3146,
      "ĠStrand": 3147,
      "igar": 3148,
      "ĠChar": 3149,
      "vention": 3150,
      "Ġgro": 3151,
      "Ġgerne": 3152,
      "Ġverantwort": 3153,
      "Ġklein": 3154,
      "Ġwichtigsten": 3155,
      "ĠAugen": 3156,
      "gration": 3157,
      "zeugen": 3158,
      "ĠunabhÃ¤ng": 3159,
      "Ġabzu": 3160,
      "ssystem": 3161,
      "Ġakzep": 3162,
      "Ġmehrere": 3163,
      "Ġ-,": 3164,
      "ĠVide": 3165,
      "Ob": 3166,
      "fÃ¤l": 3167,
      "ĠInternation": 3168,
      "nissen": 3169,
      "sprÃ¤sident": 3170,
      "Ġlok": 3171,
      "Ġgelegen": 3172,
      "ĠEng": 3173,
      "gliche": 3174,
      "ĠReise": 3175,
      "ielle": 3176,
      "ĠLissabon": 3177,
      "\".": 3178,
      "ĠForder": 3179,
      "ĠStaat": 3180,
      "AR": 3181,
      "gesamt": 3182,
      "erweise": 3183,
      "stoff": 3184,
      "bringen": 3185,
      "Ġhinsichtlich": 3186,
      "Je": 3187,
      "sy": 3188,
      "Ġganzen": 3189,
      "ĠNotwend": 3190,
      "ĠMacht": 3191,
      "Ġganze": 3192,
      "ĠWochen": 3193,
      "Ã¤nden": 3194,
      "Ġkultur": 3195,
      "ĠGruppe": 3196,
      "nehm": 3197,
      "essour": 3198,
      "die": 3199,
      "ĠVerbesserung": 3200,
      "Ho": 3201,
      "inne": 3202,
      "ĠermÃ¶glichen": 3203,
      "Ġwobei": 3204,
      "ĠKrise": 3205,
      "Ġherr": 3206,
      "ĠenthÃ¤lt": 3207,
      "ivil": 3208,
      "Ġnachhal": 3209,
      "ĠFern": 3210,
      "lub": 3211,
      "AuÃŁerdem": 3212,
      "tete": 3213,
      "ĠAuswahl": 3214,
      "ĠBeitritt": 3215,
      "ĠProf": 3216,
      "aufen": 3217,
      "gef": 3218,
      "serv": 3219,
      "oper": 3220,
      "schlieÃŁend": 3221,
      "feld": 3222,
      "ĠSicherheits": 3223,
      "Ãľber": 3224,
      "rechend": 3225,
      "Ġgeeig": 3226,
      "ĠBinnenmarkt": 3227,
      "Ġzeigen": 3228,
      "ĠKop": 3229,
      "ĠUrlaub": 3230,
      "Ġstark": 3231,
      "ĠKir": 3232,
      "Ġbil": 3233,
      "ringt": 3234,
      "tiger": 3235,
      "ĠInformation": 3236,
      "ĠFischerei": 3237,
      "fs": 3238,
      "11": 3239,
      "ĠGelegenheit": 3240,
      "hend": 3241,
      "ĠSub": 3242,
      "ĠSchaffung": 3243,
      "wurf": 3244,
      "Ġirgend": 3245,
      "Ġtrotz": 3246,
      "grÃ¼n": 3247,
      "Ihr": 3248,
      "ingt": 3249,
      "standen": 3250,
      "Ġerlau": 3251,
      "berg": 3252,
      "ĠVeranst": 3253,
      "IT": 3254,
      "IS": 3255,
      "deu": 3256,
      "Ġderzeit": 3257,
      "ales": 3258,
      "kÃ¼nf": 3259,
      "ĠRom": 3260,
      "kennen": 3261,
      "ona": 3262,
      "ausch": 3263,
      "Ġ:": 3264,
      "ĠBef": 3265,
      "leistet": 3266,
      "akter": 3267,
      "ĠFrankreich": 3268,
      "Ġbelie": 3269,
      "stelle": 3270,
      "Ġgaran": 3271,
      "Ã¼tzen": 3272,
      "wertungen": 3273,
      "Ġheu": 3274,
      "ĠProt": 3275,
      "Ġspielen": 3276,
      "ĠRu": 3277,
      "Ġtradition": 3278,
      "ĠJan": 3279,
      "splan": 3280,
      "ĠJuni": 3281,
      "ĠvÃ¶llig": 3282,
      "Ġruh": 3283,
      "ĠKar": 3284,
      "mut": 3285,
      "Ã¤hlt": 3286,
      "Zum": 3287,
      "Ã¼rf": 3288,
      "fordert": 3289,
      "ĠAufenthalt": 3290,
      "Ġmus": 3291,
      "ĠZust": 3292,
      "sei": 3293,
      "chter": 3294,
      "za": 3295,
      "Ã¤tigkeit": 3296,
      "ĠVerwendung": 3297,
      "olz": 3298,
      "ĠTex": 3299,
      "ĠNotwendigkeit": 3300,
      "Ġwith": 3301,
      "Ġverbessern": 3302,
      "ments": 3303,
      "ĠGewalt": 3304,
      "ness": 3305,
      "Unter": 3306,
      "tliche": 3307,
      "ĠHerzen": 3308,
      "ĠErgebnisse": 3309,
      "sprechen": 3310,
      "stitution": 3311,
      "ĠBerlin": 3312,
      "aar": 3313,
      "prom": 3314,
      "gn": 3315,
      "ĠlÃ¤sst": 3316,
      "Ġintegr": 3317,
      "fÃ¼hren": 3318,
      "ĠAktion": 3319,
      "Ġerk": 3320,
      "ission": 3321,
      "ĠChr": 3322,
      "Ġindividu": 3323,
      "Ã¤hn": 3324,
      "wand": 3325,
      "ĠFach": 3326,
      "ĠWoche": 3327,
      "ĠNacht": 3328,
      "ĠReform": 3329,
      "klus": 3330,
      "ĠPrior": 3331,
      "ĠVertre": 3332,
      "Ã¶rper": 3333,
      "Ġverwenden": 3334,
      "ĠverfÃ¼gen": 3335,
      "here": 3336,
      "Ġeigene": 3337,
      "Ġguten": 3338,
      "ĠAnzahl": 3339,
      "ĠgroÃŁer": 3340,
      "Ġsoziale": 3341,
      "ĠLandwirtschaft": 3342,
      "Ġgeschlossen": 3343,
      "AS": 3344,
      "ĠZeitpunkt": 3345,
      "Ġ2000": 3346,
      "ĠKern": 3347,
      "sphÃ¤re": 3348,
      "ĠSchwei": 3349,
      "itel": 3350,
      "ĠgefÃ¤hr": 3351,
      "ĠArch": 3352,
      "hung": 3353,
      "ahren": 3354,
      "eister": 3355,
      "ĠFar": 3356,
      "Ġmeinem": 3357,
      "ĠhÃ¤uf": 3358,
      "ĠIntegration": 3359,
      "ĠGast": 3360,
      "ĠTage": 3361,
      "12": 3362,
      "ĠKonf": 3363,
      "eilen": 3364,
      "riff": 3365,
      "verstÃ¤ndlich": 3366,
      "ĠkÃ¼nf": 3367,
      "ĠNov": 3368,
      "Ġdisku": 3369,
      "ĠfÃ¶rdern": 3370,
      "ĠverfÃ¼g": 3371,
      "ĠDesign": 3372,
      "ĠBal": 3373,
      "ĠgehÃ¶ren": 3374,
      "ĠTeam": 3375,
      "ĠzunÃ¤chst": 3376,
      "sprogramm": 3377,
      "reibung": 3378,
      "ows": 3379,
      "ana": 3380,
      "Ġgesamte": 3381,
      "ernen": 3382,
      "minister": 3383,
      "mÃ¤ÃŁig": 3384,
      "ĠSuch": 3385,
      "ungsk": 3386,
      "lang": 3387,
      "ĠLÃ¶sungen": 3388,
      "Ġgleichen": 3389,
      "ood": 3390,
      "ĠZwe": 3391,
      "griffen": 3392,
      "ĠKor": 3393,
      "ĠItalien": 3394,
      "schinen": 3395,
      "erseits": 3396,
      "Ġangemessen": 3397,
      "leisten": 3398,
      "ĠBeschÃ¤ftigung": 3399,
      "ĠGu": 3400,
      "essourcen": 3401,
      "ĠJugend": 3402,
      "ichtige": 3403,
      "ĠVis": 3404,
      "ĠtatsÃ¤chlich": 3405,
      "ĠNe": 3406,
      "ĠstÃ¤nd": 3407,
      "ĠKÃ¶nig": 3408,
      "'s": 3409,
      "schw": 3410,
      "Ã¨": 3411,
      "Ġvorhanden": 3412,
      "Ġvert": 3413,
      "Ð¸": 3414,
      "ĠAnfang": 3415,
      "ww": 3416,
      "Ġsorgen": 3417,
      "Ġgesp": 3418,
      "Ã¶ffnet": 3419,
      "itten": 3420,
      "Ġwider": 3421,
      "ediglich": 3422,
      "Ġeindeu": 3423,
      "ook": 3424,
      "Ent": 3425,
      "ĠWein": 3426,
      "rael": 3427,
      "ĠMehrheit": 3428,
      "ĠVolks": 3429,
      "bedingungen": 3430,
      "maÃŁnahmen": 3431,
      "ĠFehler": 3432,
      "ĠverÃ¶ffent": 3433,
      "ON": 3434,
      "zeugt": 3435,
      "pfer": 3436,
      "ĠMÃ¤n": 3437,
      "abei": 3438,
      "ausschuss": 3439,
      "ĠgefÃ¼hrt": 3440,
      "ĠStellung": 3441,
      "ĠAir": 3442,
      "Ġabsol": 3443,
      "ied": 3444,
      "ry": 3445,
      "ĠverstÃ¤r": 3446,
      "ĠErfahrung": 3447,
      "Denn": 3448,
      "okoll": 3449,
      "Ġpl": 3450,
      "hilfe": 3451,
      "ĠÃĦnderungen": 3452,
      "ĠKonferenz": 3453,
      "Ġernst": 3454,
      "ĠAmer": 3455,
      "ĠKrieg": 3456,
      "buch": 3457,
      "ĠPra": 3458,
      "ons": 3459,
      "Ġentwickeln": 3460,
      "ĠÃ¤uÃŁerst": 3461,
      "riften": 3462,
      "Ġbas": 3463,
      "oppel": 3464,
      "lÃ¼ssel": 3465,
      "Ã¤st": 3466,
      "quen": 3467,
      "tifiz": 3468,
      "Ġverstehen": 3469,
      "ais": 3470,
      "ĠRad": 3471,
      "ĠEinfÃ¼hrung": 3472,
      "uropa": 3473,
      "sent": 3474,
      "orf": 3475,
      "richten": 3476,
      "stimmen": 3477,
      "ĠNieder": 3478,
      "ĠLiefer": 3479,
      "ĠgrÃ¶ÃŁten": 3480,
      "itzung": 3481,
      "urt": 3482,
      "undes": 3483,
      "Ġsomit": 3484,
      "ĠAk": 3485,
      "ĠgewÃ¤hrleisten": 3486,
      "unsch": 3487,
      "bie": 3488,
      "ĠRegierungen": 3489,
      "Ã¤te": 3490,
      "aktion": 3491,
      "ĠMinister": 3492,
      "Ġmen": 3493,
      "Ġhohen": 3494,
      "ĠLauf": 3495,
      "ĠZwei": 3496,
      "cc": 3497,
      "Ġhotel": 3498,
      "Ġgebracht": 3499,
      "iar": 3500,
      "Ġverpflich": 3501,
      "Ã¤ude": 3502,
      "daten": 3503,
      "ĠUmgebung": 3504,
      "ĠFerien": 3505,
      "Ġlediglich": 3506,
      "Ã¼hm": 3507,
      "Ġsagte": 3508,
      "Ġbeteil": 3509,
      "mb": 3510,
      "Ġleicht": 3511,
      "DarÃ¼ber": 3512,
      "reng": 3513,
      "indust": 3514,
      "ration": 3515,
      "spart": 3516,
      "ĠTer": 3517,
      "Ã¶hn": 3518,
      "ĠSelbst": 3519,
      "ĠStabilitÃ¤t": 3520,
      "ĠPosition": 3521,
      "annen": 3522,
      "Ġtragen": 3523,
      "Ġelekt": 3524,
      "ĠSchl": 3525,
      "ĠHÃ¶he": 3526,
      "ĠSep": 3527,
      "ĠMai": 3528,
      "Ġanderer": 3529,
      "Ġerfolgreich": 3530,
      "istische": 3531,
      "armon": 3532,
      "ĠVereinbar": 3533,
      "uren": 3534,
      "ĠStandpunkt": 3535,
      "ular": 3536,
      "dienst": 3537,
      "mehr": 3538,
      "Ġgra": 3539,
      "ĠErachten": 3540,
      "Ġbestimmte": 3541,
      "ĠErachtens": 3542,
      "Ġschle": 3543,
      "ĠFamilie": 3544,
      "Ġmeines": 3545,
      "ĠSprache": 3546,
      "gessen": 3547,
      "son": 3548,
      "uar": 3549,
      "Damit": 3550,
      "Wer": 3551,
      "Ġausgestattet": 3552,
      "ĠSal": 3553,
      "etter": 3554,
      "ĠStud": 3555,
      "ĠGesamt": 3556,
      "Ġwirtschaftliche": 3557,
      "ĠDiskussion": 3558,
      "ĠKomprom": 3559,
      "Ar": 3560,
      "entral": 3561,
      "Ġvern": 3562,
      "gerung": 3563,
      "dio": 3564,
      "ĠSicht": 3565,
      "ĠBekÃ¤mpfung": 3566,
      "ĠKommissarin": 3567,
      "ÑĤ": 3568,
      "Ġ2006": 3569,
      "Ġbein": 3570,
      "ĠKommunik": 3571,
      "Ġzahlreiche": 3572,
      "Â®": 3573,
      "ĠDinge": 3574,
      "Ġbestimmten": 3575,
      "ziehung": 3576,
      "Ġ21": 3577,
      "Ġzweite": 3578,
      "Ġvorgesehen": 3579,
      "haupt": 3580,
      "ĠWahr": 3581,
      "Ġstattf": 3582,
      "ĠPrÃ¤sidentschaft": 3583,
      "ĠLes": 3584,
      "ĠBerg": 3585,
      "jekt": 3586,
      "Ġobwohl": 3587,
      "vorschriften": 3588,
      "zeuge": 3589,
      "lose": 3590,
      "vol": 3591,
      "zember": 3592,
      "iew": 3593,
      "ĠEinf": 3594,
      "ollte": 3595,
      "schlieÃŁen": 3596,
      "glied": 3597,
      "sprÃ¼n": 3598,
      "wertung": 3599,
      "ĠMaterial": 3600,
      "ĠJul": 3601,
      "ĠHandels": 3602,
      "ĠerhÃ¤lt": 3603,
      "ĠFreiheit": 3604,
      "pen": 3605,
      "gere": 3606,
      "oment": 3607,
      "ĠauÃŁerdem": 3608,
      "Ġ198": 3609,
      "Ġentde": 3610,
      "ĠÃľberein": 3611,
      "ĠOnline": 3612,
      "sektor": 3613,
      "Ġneuer": 3614,
      "ÃŁt": 3615,
      "industrie": 3616,
      "vis": 3617,
      "ĠAktivitÃ¤ten": 3618,
      "hÃ¤ltnis": 3619,
      "ĠbestÃ¤": 3620,
      "ĠTat": 3621,
      "Ġscheint": 3622,
      "ĠGra": 3623,
      "xis": 3624,
      "reib": 3625,
      "ĠMedien": 3626,
      "Ġversuchen": 3627,
      "ĠÃ¤hn": 3628,
      "Ġstra": 3629,
      "ĠImm": 3630,
      "ande": 3631,
      "Ġwirksam": 3632,
      "Ġdel": 3633,
      "Ġallein": 3634,
      "Fraktion": 3635,
      "ĠInitiative": 3636,
      "last": 3637,
      "ĠFortschritte": 3638,
      "lÃ¼ck": 3639,
      "ĠSchiff": 3640,
      "ĠBank": 3641,
      "Ġca": 3642,
      "ief": 3643,
      "ĠFlughafen": 3644,
      "rÃ¤gen": 3645,
      "Ġsolchen": 3646,
      "lexib": 3647,
      "Ġroom": 3648,
      "ĠDir": 3649,
      "ĠBestimmungen": 3650,
      "ĠMobil": 3651,
      "Ġerster": 3652,
      "wicklung": 3653,
      "Ġbetroffen": 3654,
      "gren": 3655,
      "legung": 3656,
      "redit": 3657,
      "Ġhe": 3658,
      "achsen": 3659,
      "Ġdadurch": 3660,
      "ĠHinter": 3661,
      "ĠÃĸffent": 3662,
      "tien": 3663,
      "geber": 3664,
      "AT": 3665,
      "EL": 3666,
      "ĠgemÃ¤ÃŁ": 3667,
      "ĠJahrhundert": 3668,
      "Ġsech": 3669,
      "ĠEing": 3670,
      "Ġregel": 3671,
      "volle": 3672,
      "ĠStelle": 3673,
      "ĠTele": 3674,
      "Ġeinzige": 3675,
      "gesellschaft": 3676,
      "ĠfranzÃ¶s": 3677,
      "ĠStunden": 3678,
      "ĠBest": 3679,
      "Ġamerik": 3680,
      "ĠSeptember": 3681,
      "ĠKontakt": 3682,
      "tensi": 3683,
      "Kl": 3684,
      "ategorien": 3685,
      "ĠFolgen": 3686,
      "Ġaufgenommen": 3687,
      "unternehmen": 3688,
      "Ġinsgesamt": 3689,
      "ĠPunkte": 3690,
      "text": 3691,
      "mÃ¶glichkeiten": 3692,
      "ĠSor": 3693,
      "Ġhohe": 3694,
      "gesetz": 3695,
      "ĠComputer": 3696,
      "ĠAbend": 3697,
      "erung": 3698,
      "ulti": 3699,
      "Ġvergangenen": 3700,
      "ĠGefahr": 3701,
      "ĠBenutzer": 3702,
      "Ġbri": 3703,
      "ĠAufmerksam": 3704,
      "Ã¶nen": 3705,
      "istr": 3706,
      "besch": 3707,
      "arenz": 3708,
      "Ġerheb": 3709,
      "zufÃ¼hren": 3710,
      "ta": 3711,
      "sto": 3712,
      "illen": 3713,
      "anlage": 3714,
      "que": 3715,
      "ĠschlieÃŁlich": 3716,
      "bewertungen": 3717,
      "utter": 3718,
      "Ġalten": 3719,
      "ĠBasis": 3720,
      "ĠDezember": 3721,
      "ĠDokument": 3722,
      "ĠFr": 3723,
      "Ã¤hl": 3724,
      "ĠAufmerksamkeit": 3725,
      "altet": 3726,
      "cker": 3727,
      "ĠInhalt": 3728,
      "ĠOber": 3729,
      "ĠErklÃ¤rung": 3730,
      "ĠEis": 3731,
      "Ġeinzigar": 3732,
      "Ġvorge": 3733,
      "Ġjeweil": 3734,
      "ĠSommer": 3735,
      "ĠKn": 3736,
      "ĠMetho": 3737,
      "ĠgenieÃŁen": 3738,
      "Ġ40": 3739,
      "ĠWohl": 3740,
      "ĠÃ¶": 3741,
      "ĠeinschlieÃŁlich": 3742,
      "ĠAgr": 3743,
      "ĠfrÃ¼": 3744,
      "ĠPreise": 3745,
      "ungsf": 3746,
      "schnitt": 3747,
      "uman": 3748,
      "Ġvertreten": 3749,
      "rÃ¤fte": 3750,
      "ĠEntscheidungen": 3751,
      "enk": 3752,
      "ĠInformations": 3753,
      "ĠÃ¤ndern": 3754,
      "ines": 3755,
      "abkommen": 3756,
      "ĠTr": 3757,
      "ĠBad": 3758,
      "rÃ¤um": 3759,
      "use": 3760,
      "ule": 3761,
      "Ġkri": 3762,
      "ath": 3763,
      "ĠBildung": 3764,
      "neut": 3765,
      "WÃ¤hrend": 3766,
      "ĠOkt": 3767,
      "Ġkeiner": 3768,
      "amerik": 3769,
      "indest": 3770,
      "bÃ¼r": 3771,
      "ĠHe": 3772,
      "ĠUnd": 3773,
      "ĠAnforderungen": 3774,
      "ĠPersonal": 3775,
      "plan": 3776,
      "ĠGruppen": 3777,
      "ĠDel": 3778,
      "Ġerfahren": 3779,
      "Ġkonzentr": 3780,
      "ĠTod": 3781,
      "Ġmorgen": 3782,
      "ĠBi": 3783,
      "ĠGÃ¤stebewertungen": 3784,
      "ieg": 3785,
      "altungs": 3786,
      "ĠjÃ¼n": 3787,
      "enken": 3788,
      "ĠVorschriften": 3789,
      "Ġsu": 3790,
      "ĠbeschÃ¤f": 3791,
      "Ġleg": 3792,
      "alisiert": 3793,
      "enntnis": 3794,
      "ĠKÃ¼che": 3795,
      "Ġlin": 3796,
      "Ġgrundlegen": 3797,
      "Ġeffek": 3798,
      "riterien": 3799,
      "Ġforder": 3800,
      "astrop": 3801,
      "Ġeigentlich": 3802,
      "ins": 3803,
      "ierter": 3804,
      "ĠInnov": 3805,
      "wendungen": 3806,
      "lass": 3807,
      "ĠBew": 3808,
      "ĠAust": 3809,
      "ried": 3810,
      "izi": 3811,
      "Bitte": 3812,
      "falt": 3813,
      "ĠMuse": 3814,
      "ĠSolid": 3815,
      "ĠBereiche": 3816,
      "ĠPr": 3817,
      "erg": 3818,
      "to": 3819,
      "Ġerwarten": 3820,
      "lÃ¤nd": 3821,
      "Ġleisten": 3822,
      "ĠTest": 3823,
      "ĠÃĸffentlichkeit": 3824,
      "Ġkonnten": 3825,
      "ĠGipf": 3826,
      "Ġeingesetzt": 3827,
      "ĠTrans": 3828,
      "get": 3829,
      "ogra": 3830,
      "ĠFilm": 3831,
      "ĠLehr": 3832,
      "sprÃ¼": 3833,
      "Gen": 3834,
      "ĠPrÃ¤sidenten": 3835,
      "ĠhÃ¤ufig": 3836,
      "ĠArbeitnehmer": 3837,
      "ĠGrenzen": 3838,
      "Ġgek": 3839,
      "Ġleider": 3840,
      "Ð½": 3841,
      "teten": 3842,
      "Ã¼hungen": 3843,
      "Ġwenige": 3844,
      "ĠRatsprÃ¤sident": 3845,
      "fik": 3846,
      "wÃ¼rd": 3847,
      "sprozess": 3848,
      "ĠRepublik": 3849,
      "ull": 3850,
      "bien": 3851,
      "Ġaufzu": 3852,
      "ĠInstrument": 3853,
      "Ġgenommen": 3854,
      "AD": 3855,
      "ĠStÃ¤d": 3856,
      "ĠDien": 3857,
      "ĠSc": 3858,
      "ĠdurchgefÃ¼hrt": 3859,
      "AL": 3860,
      "dam": 3861,
      "ĠMÃ¤rz": 3862,
      "ĠNationen": 3863,
      "Ġgeworden": 3864,
      "ĠBro": 3865,
      "ĠTransparenz": 3866,
      "lÃ¶s": 3867,
      "ĠAuto": 3868,
      "Ã¼tzt": 3869,
      "Ã¤ngt": 3870,
      "ĠAnsatz": 3871,
      "ĠberÃ¼hm": 3872,
      "ĠPe": 3873,
      "unge": 3874,
      "tit": 3875,
      "Ġdefin": 3876,
      "ĠBerichts": 3877,
      "ĠStÃ¤r": 3878,
      "Ġbetreffen": 3879,
      "ĠCar": 3880,
      "sÃ¤tze": 3881,
      "ĠPrÃ¼": 3882,
      "ĠÃ¼berw": 3883,
      "ĠTagesordnung": 3884,
      "ĠPrinzip": 3885,
      "ĠbenÃ¶tigen": 3886,
      "iete": 3887,
      "rang": 3888,
      "ĠSinne": 3889,
      "icherung": 3890,
      "kan": 3891,
      "lichkeiten": 3892,
      "ĠBrÃ¼": 3893,
      "Ġunmittel": 3894,
      "Ġmed": 3895,
      "ĠProgramme": 3896,
      "Ġkor": 3897,
      "ĠVerkehrs": 3898,
      "les": 3899,
      "Ġsuchen": 3900,
      "forderung": 3901,
      "ĠHost": 3902,
      "ĠStre": 3903,
      "Ġmin": 3904,
      "ĠSee": 3905,
      "Ã¼ge": 3906,
      "Ġihres": 3907,
      "ĠeuropÃ¤ischer": 3908,
      "âĤ": 3909,
      "ĠPass": 3910,
      "ĠStraÃŁen": 3911,
      "ĠGrÃ¼nden": 3912,
      "ĠKri": 3913,
      "ĠWider": 3914,
      "ile": 3915,
      "drÃ¼cklich": 3916,
      "âĤ¬": 3917,
      "US": 3918,
      "freund": 3919,
      "Ġtreffen": 3920,
      "tierung": 3921,
      "trem": 3922,
      "ĠbezÃ¼glich": 3923,
      "Ġkennen": 3924,
      "illa": 3925,
      "ĠLiber": 3926,
      "Ġkannst": 3927,
      "ieht": 3928,
      "fordern": 3929,
      "ĠOktober": 3930,
      "ĠKan": 3931,
      "ĠAuftrag": 3932,
      "Ġwichtiger": 3933,
      "Ġgefunden": 3934,
      "zeichnung": 3935,
      "ĠWirk": 3936,
      "Ġaktuellen": 3937,
      "ong": 3938,
      "zusetzen": 3939,
      "ĠSchwier": 3940,
      "ĠBilder": 3941,
      "hindern": 3942,
      "ĠGed": 3943,
      "ĠGemeinsam": 3944,
      "ĠAuffassung": 3945,
      "izin": 3946,
      "stellten": 3947,
      "ĠUntersuch": 3948,
      "ĠVertreter": 3949,
      "ierenden": 3950,
      "cel": 3951,
      "Ġzunehmen": 3952,
      "leitet": 3953,
      "Ġangesichts": 3954,
      "Ġbeein": 3955,
      "af": 3956,
      "nungen": 3957,
      "kraft": 3958,
      "ĠStat": 3959,
      "Ġweder": 3960,
      "ĠRed": 3961,
      "ĠursprÃ¼n": 3962,
      "Ġhalte": 3963,
      "omen": 3964,
      "ograf": 3965,
      "ĠEmpfeh": 3966,
      "ĠNational": 3967,
      "echsel": 3968,
      "Ġit": 3969,
      "Ġerneut": 3970,
      "Ġgeschaffen": 3971,
      "ĠDar": 3972,
      "Ġhinzu": 3973,
      "ammlung": 3974,
      "ĠFrÃ¼hstÃ¼ck": 3975,
      "ĠFirma": 3976,
      "ĠBedÃ¼rf": 3977,
      "reig": 3978,
      "ĠSache": 3979,
      "ĠVerÃ¤nder": 3980,
      "ĠPrivat": 3981,
      "mbH": 3982,
      "Ġsonst": 3983,
      "Ġsofort": 3984,
      "Ġ2005": 3985,
      "wortern": 3986,
      "ĠApart": 3987,
      "ĠInnen": 3988,
      "oy": 3989,
      "mann": 3990,
      "gelt": 3991,
      "ĠMont": 3992,
      "IP": 3993,
      "ĠInvestitionen": 3994,
      "Ġvorzu": 3995,
      "ĠSpanien": 3996,
      "ĠGemein": 3997,
      "ĠÃ¼brigen": 3998,
      "ĠRede": 3999,
      "ĠJanuar": 4000,
      "mosphÃ¤re": 4001,
      "achtung": 4002,
      "ars": 4003,
      "ĠbegrÃ¼ÃŁe": 4004,
      "eisen": 4005,
      "Ġsieht": 4006,
      "Ġeng": 4007,
      "rib": 4008,
      "ĠProjekte": 4009,
      "Ã¶ren": 4010,
      "ĠÃ¼berprÃ¼": 4011,
      "Ġfreund": 4012,
      "setzt": 4013,
      "Ġeher": 4014,
      "Ġdiejenigen": 4015,
      "ĠSektor": 4016,
      "Ġbringt": 4017,
      "ld": 4018,
      "âĢľ,": 4019,
      "ĠAG": 4020,
      "Ġentsprechenden": 4021,
      "Ġzuge": 4022,
      "ĠNor": 4023,
      "ada": 4024,
      "Ġwiederhol": 4025,
      "ĠRegeln": 4026,
      "ĠTem": 4027,
      "losen": 4028,
      "Ġvergessen": 4029,
      "Ġserv": 4030,
      "uk": 4031,
      "ĠKre": 4032,
      "aat": 4033,
      "how": 4034,
      "mÃ¶": 4035,
      "ĠAufgaben": 4036,
      "dat": 4037,
      "Ġziehen": 4038,
      "schung": 4039,
      "Zur": 4040,
      "ĠMark": 4041,
      "ĠEreig": 4042,
      "Ġwissenschaft": 4043,
      "ehe": 4044,
      "Ġbeitragen": 4045,
      "Ã¼nstler": 4046,
      "anc": 4047,
      "ĠlÃ¤nger": 4048,
      "ĠSchlusselwortern": 4049,
      "Ġbelieb": 4050,
      "itor": 4051,
      "ace": 4052,
      "ĠGmbH": 4053,
      "Ġmoder": 4054,
      "ĠÃĦnderung": 4055,
      "iden": 4056,
      "igur": 4057,
      "ĠÃ¶ffentliche": 4058,
      "ĠFÃ¤llen": 4059,
      "ĠBundes": 4060,
      "ĠNr": 4061,
      "ĠBeteil": 4062,
      "ĠSitz": 4063,
      "ĠWunsch": 4064,
      "AP": 4065,
      "ĠPo": 4066,
      "ĠSolidaritÃ¤t": 4067,
      "Ġkur": 4068,
      "Ġentsprechend": 4069,
      "ĠLinie": 4070,
      "Ġmitt": 4071,
      "ĠZw": 4072,
      "ĠDritt": 4073,
      "ĠMonaten": 4074,
      "frika": 4075,
      "ĠEle": 4076,
      "scheinlich": 4077,
      "Dabei": 4078,
      "kur": 4079,
      "era": 4080,
      "stein": 4081,
      "Ġby": 4082,
      "ĠBemÃ¼hungen": 4083,
      "ĠLog": 4084,
      "hoben": 4085,
      "ĠJuli": 4086,
      "Ġausgezeich": 4087,
      "Ġgetan": 4088,
      "leb": 4089,
      "otor": 4090,
      "ĠFolge": 4091,
      "ĠAgrar": 4092,
      "ĠInstall": 4093,
      "komm": 4094,
      "ĠNachbar": 4095,
      "ash": 4096,
      "ummer": 4097,
      "ĠFe": 4098,
      "hafte": 4099,
      "Hotel": 4100,
      "ĠSitzung": 4101,
      "ĠBÃ¼rgern": 4102,
      "schlagen": 4103,
      "ĠAnw": 4104,
      "ĠAmerik": 4105,
      "fter": 4106,
      "Ġinstall": 4107,
      "Ġverhindern": 4108,
      "ai": 4109,
      "Ġgenannten": 4110,
      "Ġ2004": 4111,
      "ĠhÃ¤tten": 4112,
      "Ġbehandelt": 4113,
      "frastruktur": 4114,
      "alismus": 4115,
      "Ġzeit": 4116,
      "iveau": 4117,
      "ĠRessourcen": 4118,
      "Ã¼nsche": 4119,
      "Ġhil": 4120,
      "Ġlangfrist": 4121,
      "ĠArmut": 4122,
      "Ġanderem": 4123,
      "Ġerfolgt": 4124,
      "ĠBeruf": 4125,
      "Ġbeant": 4126,
      "zeiten": 4127,
      "ĠGemeinschafts": 4128,
      "unk": 4129,
      "ssi": 4130,
      "ĠTagen": 4131,
      "tiges": 4132,
      "Ġsozial": 4133,
      "ĠBehandlung": 4134,
      "System": 4135,
      "ÑĢ": 4136,
      "rechts": 4137,
      "Ġvorher": 4138,
      "ork": 4139,
      "OR": 4140,
      "ĠSen": 4141,
      "bol": 4142,
      "ĠbegrÃ¼ÃŁen": 4143,
      "ox": 4144,
      "lleg": 4145,
      "ĠAlt": 4146,
      "Ġnimmt": 4147,
      "ĠProzent": 4148,
      "ses": 4149,
      "ament": 4150,
      "pril": 4151,
      "Ġversucht": 4152,
      "ĠerklÃ¤rt": 4153,
      "ehnt": 4154,
      "Ġdrin": 4155,
      "rist": 4156,
      "ĠKoh": 4157,
      "ellschaften": 4158,
      "ĠWest": 4159,
      "Ġgering": 4160,
      "Ġbesondere": 4161,
      "setzungen": 4162,
      "Ġgewesen": 4163,
      "ĠUnternehmens": 4164,
      "ĠGr": 4165,
      "ĠOrganisation": 4166,
      "ĠAgen": 4167,
      "Ñģ": 4168,
      "Ġfordern": 4169,
      "Ġpaar": 4170,
      "ĠBÃ¼rgerinnen": 4171,
      "ĠErw": 4172,
      "erner": 4173,
      "bauen": 4174,
      "Ġad": 4175,
      "ĠDiese": 4176,
      "out": 4177,
      "indern": 4178,
      "ĠVertrags": 4179,
      "oder": 4180,
      "Te": 4181,
      "ĠAtmosphÃ¤re": 4182,
      "ĠSchla": 4183,
      "ĠBahn": 4184,
      "ĠAnaly": 4185,
      "vel": 4186,
      "Ġverh": 4187,
      "ĠGerichts": 4188,
      "ĠÃ¼berhaupt": 4189,
      "ĠZus": 4190,
      "ĠIr": 4191,
      "Ġsechs": 4192,
      "etail": 4193,
      "dresse": 4194,
      "schriftlich": 4195,
      "Ġbeste": 4196,
      "Ġunterb": 4197,
      "ĠerfÃ¼llen": 4198,
      "ĠFinanzierung": 4199,
      "13": 4200,
      "Ġcom": 4201,
      "stÃ¤nde": 4202,
      "ĠGarten": 4203,
      "ĠErfahrungen": 4204,
      "ĠGebÃ¤ude": 4205,
      "Nur": 4206,
      "Ġusw": 4207,
      "leistung": 4208,
      "ĠGott": 4209,
      "Ġzahlreichen": 4210,
      "haben": 4211,
      "ĠBeginn": 4212,
      "Ġoptim": 4213,
      "ĠberÃ¼cksichtigt": 4214,
      "Ġzehn": 4215,
      "ĠTab": 4216,
      "Ã¼tz": 4217,
      "ĠProtokoll": 4218,
      "ĠMinder": 4219,
      "italien": 4220,
      "ĠKoordin": 4221,
      "ĠGlob": 4222,
      "Ġwarum": 4223,
      "ĠsÃ¤m": 4224,
      "verfahren": 4225,
      "zur": 4226,
      "auen": 4227,
      "ĠVergangen": 4228,
      "ĠRestaurants": 4229,
      "Ġkam": 4230,
      "wech": 4231,
      "ĠNovember": 4232,
      "ĠVerteid": 4233,
      "Ġstimmen": 4234,
      "15": 4235,
      "othe": 4236,
      "ĠgÃ¼nst": 4237,
      "ĠgrÃ¶ÃŁer": 4238,
      "ĠWerte": 4239,
      "schau": 4240,
      "Ġmensch": 4241,
      "Ġgerecht": 4242,
      "Ġko": 4243,
      "Ġoffiz": 4244,
      "ĠAspekte": 4245,
      "roll": 4246,
      "Ġrichtige": 4247,
      "Ġwelches": 4248,
      "wasser": 4249,
      "ĠWindows": 4250,
      "Bes": 4251,
      "by": 4252,
      "ĠwÃ¼nschen": 4253,
      "aj": 4254,
      "Ġvery": 4255,
      "losigkeit": 4256,
      "Ð¾Ð": 4257,
      "altungen": 4258,
      "innern": 4259,
      "ĠschÃ¼tzen": 4260,
      "ĠBot": 4261,
      "iness": 4262,
      "heim": 4263,
      "Ġfal": 4264,
      "ĠPraxis": 4265,
      "ynam": 4266,
      "ĠVergangenheit": 4267,
      "eitet": 4268,
      "ĠKur": 4269,
      "Ġtyp": 4270,
      "Ġarbei": 4271,
      "rah": 4272,
      "Ġjeweiligen": 4273,
      "Ã¤nge": 4274,
      "Ġgetroffen": 4275,
      "Ġeinheit": 4276,
      "tag": 4277,
      "ĠgrÃ¶ÃŁte": 4278,
      "ffizienz": 4279,
      "Ġverz": 4280,
      "Ġ23": 4281,
      "ĠPap": 4282,
      "ĠVertrauen": 4283,
      "ĠÃ¤l": 4284,
      "Ġstets": 4285,
      "weitens": 4286,
      "mÃ¤r": 4287,
      "Ġperf": 4288,
      "ĠTerrorismus": 4289,
      "Ġverpflichtet": 4290,
      "ĠwÃ¤hlen": 4291,
      "til": 4292,
      "emal": 4293,
      "ilitÃ¤t": 4294,
      "ĠGolf": 4295,
      "ĠEUR": 4296,
      "umenten": 4297,
      "ee": 4298,
      "dlich": 4299,
      "Ġuner": 4300,
      "Ġhistorischen": 4301,
      "ous": 4302,
      "gruppe": 4303,
      "ĠVersuch": 4304,
      "Ġseines": 4305,
      "ĠjÃ¼ng": 4306,
      "rÃ¤nkt": 4307,
      "bezogen": 4308,
      "tiver": 4309,
      "Ġare": 4310,
      "vollen": 4311,
      "ĠzustÃ¤nd": 4312,
      "DE": 4313,
      "ĠHome": 4314,
      "ĠRel": 4315,
      "ĠAnfrage": 4316,
      "Ġvertra": 4317,
      "ĠApril": 4318,
      "igin": 4319,
      "sfÃ¤higkeit": 4320,
      "ager": 4321,
      "ĠbefÃ¼r": 4322,
      "tert": 4323,
      "ĠauÃŁerhalb": 4324,
      "legten": 4325,
      "dingt": 4326,
      "Ġ22": 4327,
      "con": 4328,
      "dete": 4329,
      "Ġeingeb": 4330,
      "rid": 4331,
      "ĠSchritte": 4332,
      "sitzen": 4333,
      "ction": 4334,
      "ĠOpfer": 4335,
      "ĠII": 4336,
      "Ġbeginnen": 4337,
      "gest": 4338,
      "flÃ¤che": 4339,
      "Ġverantwortlich": 4340,
      "Ġmodernen": 4341,
      "ĠRechtsvorschriften": 4342,
      "Ġneues": 4343,
      "wenden": 4344,
      "ĠTur": 4345,
      "ĠWaren": 4346,
      "ownlo": 4347,
      "Ġzumindest": 4348,
      "orgt": 4349,
      "ĠTelefon": 4350,
      "fert": 4351,
      "Ġfolgt": 4352,
      "ĠAngelegenheit": 4353,
      "Ġstrateg": 4354,
      "Ġverk": 4355,
      "ĠTransport": 4356,
      "ĠFisch": 4357,
      "ĠZivil": 4358,
      "hilfen": 4359,
      "Ġspeziell": 4360,
      "Ġverkauf": 4361,
      "Ġstaat": 4362,
      "ĠGef": 4363,
      "Ġverab": 4364,
      "ĠBestand": 4365,
      "Ġberu": 4366,
      "erdings": 4367,
      "Meine": 4368,
      "Ġbald": 4369,
      "alb": 4370,
      "ĠvollstÃ¤ndig": 4371,
      "Ġheutigen": 4372,
      "ĠParteien": 4373,
      "ĠKredit": 4374,
      "barer": 4375,
      "ĠAngelegenheiten": 4376,
      "ĠTechnologie": 4377,
      "Ġgenug": 4378,
      "ĠWissenschaft": 4379,
      "Zweitens": 4380,
      "achtet": 4381,
      "ĠfrÃ¼h": 4382,
      "gÃ¼l": 4383,
      "Ġform": 4384,
      "akte": 4385,
      "ĠFirmen": 4386,
      "ĠGel": 4387,
      "emente": 4388,
      "ĠgrÃ¼n": 4389,
      "ĠpersÃ¶nlichen": 4390,
      "ĠDoppel": 4391,
      "ĠParis": 4392,
      "ĠPost": 4393,
      "likt": 4394,
      "Ã¶rt": 4395,
      "Ġerinnern": 4396,
      "erkennung": 4397,
      "ĠprÃ¼": 4398,
      "ĠkÃ¼r": 4399,
      "ĠWinter": 4400,
      "ĠDatei": 4401,
      "Ġtechnischen": 4402,
      "fonds": 4403,
      "ĠBÃ¼": 4404,
      "ĠVergleich": 4405,
      "Ġehr": 4406,
      "ĠWenn": 4407,
      "Ġfolgenden": 4408,
      "ĠMann": 4409,
      "uff": 4410,
      "ĠSchwierigkeiten": 4411,
      "Ġ60": 4412,
      "ĠAnnahme": 4413,
      "Ġetc": 4414,
      "Ġerlaubt": 4415,
      "meer": 4416,
      "Ã¤mpfen": 4417,
      "Ġanerk": 4418,
      "werte": 4419,
      "Ġ)": 4420,
      "amb": 4421,
      "utt": 4422,
      "ĠausschlieÃŁlich": 4423,
      "ĠHinsicht": 4424,
      "ĠEinwander": 4425,
      "tritt": 4426,
      "ĠÃĸst": 4427,
      "ĠOst": 4428,
      "bieten": 4429,
      "Ġspezif": 4430,
      "ĠHerausforderungen": 4431,
      "ĠstÃ¤rker": 4432,
      "Ġbessere": 4433,
      "Ġter": 4434,
      "Ġkonkre": 4435,
      "ssen": 4436,
      "low": 4437,
      "Ġerwartet": 4438,
      "Ġinnov": 4439,
      "Ġreich": 4440,
      "seh": 4441,
      "reut": 4442,
      "ĠDa": 4443,
      "istan": 4444,
      "ĠOl": 4445,
      "Ġdeutschen": 4446,
      "Ġautomatisch": 4447,
      "ano": 4448,
      "etzung": 4449,
      "uhr": 4450,
      "ĠIhres": 4451,
      "ierende": 4452,
      "NatÃ¼rlich": 4453,
      "zut": 4454,
      "gehend": 4455,
      "ĠSpieler": 4456,
      "60": 4457,
      "anach": 4458,
      "Ġ2003": 4459,
      "ĠZentral": 4460,
      "gruppen": 4461,
      "Ġallgemeinen": 4462,
      "ĠUnterk": 4463,
      "nungs": 4464,
      "ĠVerwaltung": 4465,
      "Ġverurs": 4466,
      "ĠÃ¼bernehmen": 4467,
      "iarden": 4468,
      "Ġhervorragen": 4469,
      "Ġitalien": 4470,
      "ĠLeit": 4471,
      "itieren": 4472,
      "indungen": 4473,
      "uell": 4474,
      "Ġilleg": 4475,
      "Ġrie": 4476,
      "Ġfrom": 4477,
      "gerungen": 4478,
      "ĠPartei": 4479,
      "ĠEinrichtung": 4480,
      "Ġnot": 4481,
      "Ġgesehen": 4482,
      "rengungen": 4483,
      "Ġentgegen": 4484,
      "ĠzukÃ¼nf": 4485,
      "ĠGesprÃ¤": 4486,
      "ĠprÃ¤sen": 4487,
      "Ġangen": 4488,
      "Heute": 4489,
      "Ġgesetz": 4490,
      "ĠjÃ¤hr": 4491,
      "ĠModell": 4492,
      "ologie": 4493,
      "ĠAug": 4494,
      "ling": 4495,
      "OS": 4496,
      "En": 4497,
      "Ġdarstellt": 4498,
      "konom": 4499,
      "ĠErd": 4500,
      "organis": 4501,
      "heben": 4502,
      "iÃŁ": 4503,
      "uellen": 4504,
      "rug": 4505,
      "Ġehemal": 4506,
      "ĠEigent": 4507,
      "fass": 4508,
      "ĠRegierungs": 4509,
      "Ã¶rdert": 4510,
      "ites": 4511,
      "immern": 4512,
      "Ġren": 4513,
      "Ġbitten": 4514,
      "ĠVerfassung": 4515,
      "Ġunten": 4516,
      "Ġprivaten": 4517,
      "lock": 4518,
      "zeugung": 4519,
      "Ġendlich": 4520,
      "Kon": 4521,
      "Weiter": 4522,
      "liegenden": 4523,
      "Ġzudem": 4524,
      "Ġangeboten": 4525,
      "Ġsetzt": 4526,
      "arch": 4527,
      "Ġerweiter": 4528,
      "Gleich": 4529,
      "weder": 4530,
      "ĠBerat": 4531,
      "Ã¤ngen": 4532,
      "innt": 4533,
      "ĠArbeitsplÃ¤tze": 4534,
      "ĠServer": 4535,
      "ĠSchlÃ¼ssel": 4536,
      "ĠnatÃ¼r": 4537,
      "zeichen": 4538,
      "Ġdringend": 4539,
      "Ġeindeutig": 4540,
      "ipp": 4541,
      "frieden": 4542,
      "ildet": 4543,
      "aner": 4544,
      "Ġletzte": 4545,
      "ĠlÃ¤nd": 4546,
      "sser": 4547,
      "ama": 4548,
      "spe": 4549,
      "ary": 4550,
      ".)": 4551,
      "Ġbestimmt": 4552,
      "ĠExper": 4553,
      "OM": 4554,
      "Ġdeine": 4555,
      "ica": 4556,
      "ĠVersch": 4557,
      "Ġque": 4558,
      "hop": 4559,
      "Ġyou": 4560,
      "ĠBerichterstatterin": 4561,
      "zeichnen": 4562,
      "ci": 4563,
      "andid": 4564,
      "ĠBegriff": 4565,
      "ĠKos": 4566,
      "gebiet": 4567,
      "Ġuntern": 4568,
      "Ġdra": 4569,
      "ĠTier": 4570,
      "ĠMil": 4571,
      "Ġmal": 4572,
      "Ġtransp": 4573,
      "ĠZeichen": 4574,
      "ĠbemÃ¼": 4575,
      "deten": 4576,
      "18": 4577,
      "han": 4578,
      "ĠSonder": 4579,
      "ĠAntrag": 4580,
      "ĠSchwer": 4581,
      "Ġvoraus": 4582,
      "Ġperson": 4583,
      "ĠFalle": 4584,
      "endet": 4585,
      "Ġbeide": 4586,
      "ime": 4587,
      "Ġjem": 4588,
      "Ġoben": 4589,
      "ĠEinfluss": 4590,
      "ĠLeute": 4591,
      "ĠZustimmung": 4592,
      "ĠVerpflichtungen": 4593,
      "ption": 4594,
      "ĠAusschuÃŁ": 4595,
      "ĠAnstrengungen": 4596,
      "ĠÃł": 4597,
      "ĠManagement": 4598,
      "preis": 4599,
      "ĠTÃ¤tigkeit": 4600,
      "Ġstand": 4601,
      "ĠBade": 4602,
      "schreiten": 4603,
      "kra": 4604,
      "ĠHause": 4605,
      "ĠgrÃ¶ÃŁere": 4606,
      "ĠSym": 4607,
      "Ġproduz": 4608,
      "wind": 4609,
      "ink": 4610,
      "Ġgenannt": 4611,
      "ftung": 4612,
      "ĠGesundheits": 4613,
      "reite": 4614,
      "Ġbenutzt": 4615,
      "lichung": 4616,
      "ters": 4617,
      "ĠTechnik": 4618,
      "Ġbeschlossen": 4619,
      "ĠKrank": 4620,
      "ĠSpezial": 4621,
      "ĠâĤ¬": 4622,
      "indestens": 4623,
      "Ġkaum": 4624,
      "Ġumfang": 4625,
      "ungsantrag": 4626,
      "Ġsinn": 4627,
      "zenz": 4628,
      "Ġgenutzt": 4629,
      "ĠAnerkennung": 4630,
      "Ġkomfort": 4631,
      "Ġunbedingt": 4632,
      "Ġbilden": 4633,
      "ex": 4634,
      "je": 4635,
      "fÃ¼hl": 4636,
      "Ġph": 4637,
      "ĠÃĸsterreich": 4638,
      "ĠVerhalten": 4639,
      "ĠForschungs": 4640,
      "rien": 4641,
      "fÃ¤lle": 4642,
      "ĠzusÃ¤tzliche": 4643,
      "Ġhei": 4644,
      "ĠOrganisationen": 4645,
      "zeigen": 4646,
      "ĠWar": 4647,
      "Ġeingehen": 4648,
      "ĠCas": 4649,
      "zÃ¼g": 4650,
      "ĠHeim": 4651,
      "achte": 4652,
      "Ġbezahl": 4653,
      "Lassen": 4654,
      "ĠLux": 4655,
      "ĠAusgang": 4656,
      "ĠOrd": 4657,
      "ĠRot": 4658,
      "ĠGo": 4659,
      "Ġvorgelegt": 4660,
      "ĠKlein": 4661,
      "politi": 4662,
      "ehrte": 4663,
      "Ġprofession": 4664,
      "IC": 4665,
      "ĠÃ¼berzeugt": 4666,
      "âĢĵ": 4667,
      "Ġreag": 4668,
      "will": 4669,
      "Programm": 4670,
      "Ġentspricht": 4671,
      "ĠBeweg": 4672,
      "SE": 4673,
      "ĠselbstverstÃ¤ndlich": 4674,
      "ulieren": 4675,
      "ĠBeschÃ¤ftig": 4676,
      "Ġsel": 4677,
      "ĠEind": 4678,
      "Ġausger": 4679,
      "ĠVerkauf": 4680,
      "ĠSign": 4681,
      "ĠIdee": 4682,
      "ĠVÃ¶lker": 4683,
      "ohnung": 4684,
      "ĠDis": 4685,
      "ĠVideo": 4686,
      "Ġentschieden": 4687,
      "Ġentstehen": 4688,
      "Ġintensi": 4689,
      "roso": 4690,
      "ĠHil": 4691,
      "Ġind": 4692,
      "oph": 4693,
      "sÃ¤tz": 4694,
      "ĠEinsch": 4695,
      "ĠÃľberwach": 4696,
      "ĠKons": 4697,
      "Ġgesetzt": 4698,
      "tere": 4699,
      "reiber": 4700,
      "Ġerkennen": 4701,
      "Ġpolitisch": 4702,
      "ĠMag": 4703,
      "bas": 4704,
      "page": 4705,
      "lern": 4706,
      "Neben": 4707,
      "gewiesen": 4708,
      "ĠberÃ¼cksichtigen": 4709,
      "ĠMitte": 4710,
      "ĠKommunikation": 4711,
      "ĠArchite": 4712,
      "Ġexist": 4713,
      "stÃ¤nden": 4714,
      "Ġmoderne": 4715,
      "anlagen": 4716,
      "itzt": 4717,
      "oben": 4718,
      "Ġzufrieden": 4719,
      "mand": 4720,
      "Ġ197": 4721,
      "spunkt": 4722,
      "Ġwesentlich": 4723,
      "oss": 4724,
      "ĠWahlen": 4725,
      "ĠDurchfÃ¼hrung": 4726,
      "ĠPan": 4727,
      "ĠWei": 4728,
      "Ġelektron": 4729,
      "Ġ27": 4730,
      "ollten": 4731,
      "Ġunterschiedlichen": 4732,
      "ĠVereinbarung": 4733,
      "ect": 4734,
      "Ã¤ne": 4735,
      "ĠAgentur": 4736,
      "bew": 4737,
      "wachsen": 4738,
      "tt": 4739,
      "lÃ¤uf": 4740,
      "ĠKriterien": 4741,
      "stattung": 4742,
      "âĢŀ": 4743,
      "Allerdings": 4744,
      "EG": 4745,
      "tic": 4746,
      "ĠDetail": 4747,
      "ĠmilitÃ¤r": 4748,
      "Ġneg": 4749,
      "Ġangegeben": 4750,
      "ko": 4751,
      "ĠKonzept": 4752,
      "ĠWaffen": 4753,
      "Ġmehreren": 4754,
      "Ġnachdem": 4755,
      "schine": 4756,
      "iken": 4757,
      "wirken": 4758,
      "Ġgezeigt": 4759,
      "haften": 4760,
      "ĠProdukten": 4761,
      "Ġmindestens": 4762,
      "igte": 4763,
      "artige": 4764,
      "chtung": 4765,
      "Ġeffizien": 4766,
      "Ġbewusst": 4767,
      "Ġherunter": 4768,
      "ball": 4769,
      "ĠIsrael": 4770,
      "Ġmittel": 4771,
      "if": 4772,
      "ards": 4773,
      "ruf": 4774,
      "ĠGrie": 4775,
      "Ġdanke": 4776,
      "ender": 4777,
      "Ġhinweisen": 4778,
      "rÃ¤ger": 4779,
      "ĠMitgliedstaat": 4780,
      "Ġdemokratischen": 4781,
      "ĠDro": 4782,
      "izei": 4783,
      "ĠverfÃ¼gbar": 4784,
      "ĠCharakter": 4785,
      "ĠLicht": 4786,
      "Ġhochwer": 4787,
      "Ġreduz": 4788,
      "ĠBoden": 4789,
      "Ġentsprechende": 4790,
      "ors": 4791,
      "Ġmag": 4792,
      "gewÃ¶hn": 4793,
      "ĠJap": 4794,
      "Viele": 4795,
      "gebote": 4796,
      "ĠWie": 4797,
      "Ġglauben": 4798,
      "old": 4799,
      "ire": 4800,
      "rÃ¤nk": 4801,
      "alit": 4802,
      "ĠKarte": 4803,
      "ĠLeg": 4804,
      "liefer": 4805,
      "Ġdam": 4806,
      "ĠVoll": 4807,
      "Ġextrem": 4808,
      "ĠAusbildung": 4809,
      "ĠOsten": 4810,
      "ĠnÃ¶": 4811,
      "Ġgesprochen": 4812,
      "ĠerwÃ¤hnt": 4813,
      "ĠMitteilung": 4814,
      "seite": 4815,
      "ĠAnspruch": 4816,
      "ini": 4817,
      "Ġerreich": 4818,
      "zeption": 4819,
      "ĠClub": 4820,
      "karte": 4821,
      "ots": 4822,
      "ĠAbschluss": 4823,
      "Ġ80": 4824,
      "tischer": 4825,
      "ĠKompromiss": 4826,
      "ĠGet": 4827,
      "auern": 4828,
      "ĠgegrÃ¼n": 4829,
      "quem": 4830,
      "ĠKauf": 4831,
      "rÃ¶ÃŁe": 4832,
      "ĠWÃ¤hrung": 4833,
      "Ġangesprochen": 4834,
      "Ġeuch": 4835,
      "Ġwert": 4836,
      "afft": 4837,
      "eiz": 4838,
      "ĠErk": 4839,
      "ript": 4840,
      "ĠSprachen": 4841,
      "Einige": 4842,
      "zieht": 4843,
      "ownload": 4844,
      "mack": 4845,
      "Mitglied": 4846,
      "reibt": 4847,
      "pft": 4848,
      "Ġbesonderen": 4849,
      "Ġaktuelle": 4850,
      "Ġkontroll": 4851,
      "ĠSÃ¼": 4852,
      "ĠSystems": 4853,
      "stoffe": 4854,
      "langt": 4855,
      "ĠFlÃ¼": 4856,
      "Ġakzeptieren": 4857,
      "ĠKÃ¶rper": 4858,
      "pack": 4859,
      "ollar": 4860,
      "fÃ¼hrer": 4861,
      "mel": 4862,
      "Ġergreifen": 4863,
      "reichend": 4864,
      "minist": 4865,
      "Ġsicherzustellen": 4866,
      "alk": 4867,
      "unkten": 4868,
      "Ġzug": 4869,
      "ĠVorteile": 4870,
      "Ġbenutzen": 4871,
      "Ġnationale": 4872,
      "Ġderzei": 4873,
      "ET": 4874,
      "Wann": 4875,
      "ĠCor": 4876,
      "service": 4877,
      "ĠLond": 4878,
      "ĠAusgaben": 4879,
      "aktiv": 4880,
      "ĠDon": 4881,
      "ĠTermin": 4882,
      "ices": 4883,
      "ise": 4884,
      "ĠEngagement": 4885,
      "ĠGro": 4886,
      "ĠPati": 4887,
      "Ġeingerichtet": 4888,
      "Ġhuman": 4889,
      "igit": 4890,
      "NG": 4891,
      "ologischen": 4892,
      "Ġerzielt": 4893,
      "ĠHintergrund": 4894,
      "sse": 4895,
      "ĠSchaden": 4896,
      "17": 4897,
      "Den": 4898,
      "ij": 4899,
      "swert": 4900,
      "letzt": 4901,
      "ĠZeitraum": 4902,
      "rÃ¼cken": 4903,
      "Ġbestehenden": 4904,
      "Ġgeeignet": 4905,
      "sicherheit": 4906,
      "wandel": 4907,
      "ĠLebensmittel": 4908,
      "laufen": 4909,
      "rig": 4910,
      "ograph": 4911,
      "ĠHolz": 4912,
      "Ġonline": 4913,
      "ancen": 4914,
      "ppen": 4915,
      "lieÃŁlich": 4916,
      "jekte": 4917,
      "ĠInhalte": 4918,
      "Ġwahrscheinlich": 4919,
      "Nun": 4920,
      "Ġwachsen": 4921,
      "ĠAufnahme": 4922,
      "dest": 4923,
      "ĠEd": 4924,
      "ischem": 4925,
      "ĠKapital": 4926,
      "sichten": 4927,
      "ichtigung": 4928,
      "ĠHoff": 4929,
      "Ġfestgelegt": 4930,
      "ĠFer": 4931,
      "Ġ000": 4932,
      "iertel": 4933,
      "ĠHaltung": 4934,
      "spiele": 4935,
      "ĠAnp": 4936,
      "Ġfeh": 4937,
      "lu": 4938,
      "ĠIrak": 4939,
      "ĠKenntnis": 4940,
      "ake": 4941,
      "issionen": 4942,
      "ĠNahr": 4943,
      "Ġfreuen": 4944,
      "Ġmax": 4945,
      "iens": 4946,
      "ĠprÃ¼fen": 4947,
      "Ġnotwendigen": 4948,
      "ĠMensch": 4949,
      "ĠKooper": 4950,
      "gert": 4951,
      "test": 4952,
      "ĠDom": 4953,
      "ritann": 4954,
      "ĠMilliarden": 4955,
      "Ġhoffen": 4956,
      "Ġumgesetzt": 4957,
      "Ġzuletzt": 4958,
      "atik": 4959,
      "Ġwundersch": 4960,
      "ĠBemerk": 4961,
      "werten": 4962,
      "Ġ2002": 4963,
      "Ġanderes": 4964,
      "ĠKonflikt": 4965,
      "see": 4966,
      "ĠmÃ¶glicherweise": 4967,
      "chnologie": 4968,
      "werke": 4969,
      "Ġfinanziellen": 4970,
      "ĠgeÃ¤ndert": 4971,
      "ĠVorber": 4972,
      "Ġglobalen": 4973,
      "laus": 4974,
      "Ã¤rm": 4975,
      "ĠUnterkategorien": 4976,
      "Obwohl": 4977,
      "ĠlÃ¶sen": 4978,
      "ĠMio": 4979,
      "Ġjene": 4980,
      "ĠSite": 4981,
      "ĠReformen": 4982,
      "Ã¶pf": 4983,
      "ĠerfÃ¼llt": 4984,
      "ĠVi": 4985,
      "sein": 4986,
      "aup": 4987,
      "Ġleich": 4988,
      "Ġdienen": 4989,
      "tierte": 4990,
      "ĠKritik": 4991,
      "ĠBur": 4992,
      "Ã¤den": 4993,
      "Ġpositiv": 4994,
      "eta": 4995,
      "Ġland": 4996,
      "Ġfreien": 4997,
      "Ġpass": 4998,
      "Ġschrift": 4999,
      "Ã¼nsch": 5000,
      "ĠRichtlinien": 5001,
      "tierten": 5002,
      "Ġbeziehen": 5003,
      "Ã¤user": 5004,
      "ĠMonate": 5005,
      "ĠEinkauf": 5006,
      "ranken": 5007,
      "bad": 5008,
      "Ġged": 5009,
      "ĠsÃ¼d": 5010,
      "ĠfÃ¼h": 5011,
      "ĠHomepage": 5012,
      "ebru": 5013,
      "ĠÃĸl": 5014,
      "irm": 5015,
      "ĠWettbewerbsfÃ¤higkeit": 5016,
      "etzungen": 5017,
      "obilien": 5018,
      "ohlen": 5019,
      "Ġeleg": 5020,
      "ĠFortschritt": 5021,
      "ĠChance": 5022,
      "ĠAugust": 5023,
      "ĠTechnologien": 5024,
      "lands": 5025,
      "ĠFunktionen": 5026,
      "ĠKind": 5027,
      "Ġvermeiden": 5028,
      "elche": 5029,
      "Ge": 5030,
      "Ġfahren": 5031,
      "Ġschwierig": 5032,
      "ĠBesucher": 5033,
      "ĠBanken": 5034,
      "Ġanders": 5035,
      "po": 5036,
      "Ġgleiche": 5037,
      "ĠSw": 5038,
      "ara": 5039,
      "ĠStellen": 5040,
      "ulierung": 5041,
      "Ġgener": 5042,
      "ĠInfrastruktur": 5043,
      "vin": 5044,
      "Ġloc": 5045,
      "ĠKomfort": 5046,
      "Ã³n": 5047,
      "aust": 5048,
      "AM": 5049,
      "flug": 5050,
      "ĠPartnerschaft": 5051,
      "tigkeiten": 5052,
      "Ġlesen": 5053,
      "ĠElekt": 5054,
      "Th": 5055,
      "ester": 5056,
      "ĠGriechen": 5057,
      "haber": 5058,
      "Ġjederzeit": 5059,
      "Trotz": 5060,
      "ĠEngl": 5061,
      "fil": 5062,
      "Ġ2001": 5063,
      "ĠBud": 5064,
      "ÂŃ": 5065,
      "rahmen": 5066,
      "De": 5067,
      "fachen": 5068,
      "demokra": 5069,
      "Ġbraucht": 5070,
      "ĠKindern": 5071,
      "ĠArten": 5072,
      "ohner": 5073,
      "Ġverbessert": 5074,
      "âĢľ.": 5075,
      "Ġstattfinden": 5076,
      "ĠVielfalt": 5077,
      "ĠZweck": 5078,
      "ĠnÃ¤h": 5079,
      "Ġvereinbar": 5080,
      "Ġsicherlich": 5081,
      "ĠFakt": 5082,
      "14": 5083,
      "leisch": 5084,
      "folgend": 5085,
      "ĠSonnen": 5086,
      "Ġsagt": 5087,
      "rÃ¤f": 5088,
      "ĠMÃ¼n": 5089,
      "una": 5090,
      "''": 5091,
      "ĠKonz": 5092,
      "ĠLondon": 5093,
      "systeme": 5094,
      "ĠErn": 5095,
      "ĠOrgan": 5096,
      "SchlieÃŁlich": 5097,
      "ĠSehen": 5098,
      "ĠDateien": 5099,
      "ĠTre": 5100,
      "ĠReserv": 5101,
      "uern": 5102,
      "Ġas": 5103,
      "spoliti": 5104,
      "Ġno": 5105,
      "britann": 5106,
      "Ġfe": 5107,
      "ĠGrundsatz": 5108,
      "ĠMeter": 5109,
      "ĠSchlaf": 5110,
      "meld": 5111,
      "ĠgemÃ¼t": 5112,
      "ssel": 5113,
      "indert": 5114,
      "rik": 5115,
      "ĠStraÃŁe": 5116,
      "Dann": 5117,
      "Ihre": 5118,
      "ĠEinrichtungen": 5119,
      "ĠMod": 5120,
      "ĠAltern": 5121,
      "ĠPC": 5122,
      "rÃ¤ume": 5123,
      "ĠFÃ¼r": 5124,
      "Ġgelangen": 5125,
      "AC": 5126,
      "ebruar": 5127,
      "Ġdo": 5128,
      "Ġdarunter": 5129,
      "ovo": 5130,
      "ĠMenge": 5131,
      "Ġangezeigt": 5132,
      "ĠBarcel": 5133,
      "Ġjeweils": 5134,
      "ĠForderung": 5135,
      "nach": 5136,
      "sweise": 5137,
      "ĠStimme": 5138,
      "Ġerzielen": 5139,
      "Ġlau": 5140,
      "alifiz": 5141,
      "War": 5142,
      "luÃŁ": 5143,
      "ormal": 5144,
      "Ġentweder": 5145,
      "ID": 5146,
      "ĠWege": 5147,
      "ĠSuche": 5148,
      "verkehrs": 5149,
      "ĠÃ¼bernachten": 5150,
      "atist": 5151,
      "zone": 5152,
      "Falls": 5153,
      "ĠVereinten": 5154,
      "bruch": 5155,
      "chmal": 5156,
      "ĠVen": 5157,
      "igh": 5158,
      "ustiz": 5159,
      "Ġempfehlen": 5160,
      "swÃ¼rd": 5161,
      "ĠergÃ¤n": 5162,
      "schech": 5163,
      "ĠCD": 5164,
      "Ġgekommen": 5165,
      "leiten": 5166,
      "ĠAnti": 5167,
      "echan": 5168,
      "ĠausdrÃ¼cklich": 5169,
      "Ã¤hig": 5170,
      "Ġbesuchen": 5171,
      "Ġwollte": 5172,
      "ĠGest": 5173,
      "ĠFrem": 5174,
      "plÃ¤tze": 5175,
      "ĠHerz": 5176,
      "Ã¤llt": 5177,
      "ĠStil": 5178,
      "EC": 5179,
      "atoren": 5180,
      "ĠVorgehen": 5181,
      "ĠerhÃ¶hen": 5182,
      "ĠTel": 5183,
      "Mein": 5184,
      "ish": 5185,
      "ĠNah": 5186,
      "Ġpol": 5187,
      "eils": 5188,
      "Ġwelcher": 5189,
      "Ġnieder": 5190,
      "Ġtechnische": 5191,
      "AbschlieÃŁend": 5192,
      "ĠstÃ¤ndig": 5193,
      "ĠstÃ¤rk": 5194,
      "Ġstimme": 5195,
      "ĠNetzwerk": 5196,
      "ĠwÃ¤ren": 5197,
      "suchen": 5198,
      "ĠIden": 5199,
      "atisch": 5200,
      "Al": 5201,
      "Ġteilweise": 5202,
      "Dazu": 5203,
      "ÃĦ": 5204,
      "Ġbetonen": 5205,
      "Ġging": 5206,
      "Ġkommenden": 5207,
      "Ġthat": 5208,
      "Ġaufmerksam": 5209,
      "sh": 5210,
      "Ġabsolut": 5211,
      "fallen": 5212,
      "Dat": 5213,
      "Ġerstellt": 5214,
      "ĠArbeiten": 5215,
      "qualitÃ¤t": 5216,
      "ĠSy": 5217,
      "peratur": 5218,
      "ĠEntwurf": 5219,
      "licherweise": 5220,
      "ungsverfahren": 5221,
      "ĠMor": 5222,
      "Ġinformieren": 5223,
      "Ġinstitution": 5224,
      "Ġeiniger": 5225,
      "ĠHafen": 5226,
      "ĠKlimawandel": 5227,
      "ĠRisiko": 5228,
      "ĠLu": 5229,
      "Ġhandeln": 5230,
      "Ġfragen": 5231,
      "Ġkomplex": 5232,
      "Ġlernen": 5233,
      "alisieren": 5234,
      "ĠUp": 5235,
      "ĠStart": 5236,
      "ava": 5237,
      "enter": 5238,
      "Ġfunktioniert": 5239,
      "Ġzuvor": 5240,
      "mension": 5241,
      "eicher": 5242,
      "prÃ¼fung": 5243,
      "ĠInstrumente": 5244,
      "Erstens": 5245,
      "ziel": 5246,
      "ĠBereit": 5247,
      "ĠPhil": 5248,
      "Ġdarstellen": 5249,
      "ĠMad": 5250,
      "ĠAbgeordnete": 5251,
      "ĠInitiativen": 5252,
      "bil": 5253,
      "Ã¶rde": 5254,
      "Ġkonkrete": 5255,
      "Ġgefordert": 5256,
      "Ġ1999": 5257,
      "ĠBerichte": 5258,
      "ĠInst": 5259,
      "ĠPlen": 5260,
      "ĠWebseite": 5261,
      "ĠSinn": 5262,
      "Ġober": 5263,
      "kosten": 5264,
      "ĠVerz": 5265,
      "ĠAlb": 5266,
      "lanzen": 5267,
      "ĠLeistungen": 5268,
      "ĠDienste": 5269,
      "Ġdagegen": 5270,
      "ĠSchweiz": 5271,
      "ĠVerÃ¤nderungen": 5272,
      ".,": 5273,
      "wagen": 5274,
      "ĠAngriff": 5275,
      "ĠGipfel": 5276,
      "int": 5277,
      "weite": 5278,
      "ĠArg": 5279,
      "rachtet": 5280,
      "ĠTV": 5281,
      "Ã¶ffnen": 5282,
      "essi": 5283,
      "itt": 5284,
      "roh": 5285,
      "ĠTitel": 5286,
      "steht": 5287,
      "Ġwenigen": 5288,
      "ĠHier": 5289,
      "ĠAbsatz": 5290,
      "frik": 5291,
      "Ġunternehmen": 5292,
      "tiken": 5293,
      "16": 5294,
      "ĠAllgem": 5295,
      "Nicht": 5296,
      "ĠRatsvor": 5297,
      "pool": 5298,
      "ĠMotor": 5299,
      "ĠRuhe": 5300,
      "Ã¼sse": 5301,
      "punkte": 5302,
      "Ġerleben": 5303,
      "bed": 5304,
      "Ġdurchaus": 5305,
      "Ġsorg": 5306,
      "ĠFebruar": 5307,
      "Bis": 5308,
      "Ġwest": 5309,
      "ĠSil": 5310,
      "inent": 5311,
      "deck": 5312,
      "ĠOper": 5313,
      "ĠgewÃ¤hrleistet": 5314,
      "VD": 5315,
      "itze": 5316,
      "ĠVerstÃ¤nd": 5317,
      "ĠstÃ¤rken": 5318,
      "nÃ¼": 5319,
      "ppe": 5320,
      "ĠZeiten": 5321,
      "Ġerfolgen": 5322,
      "ĠEnd": 5323,
      "Ġklare": 5324,
      "ĠAss": 5325,
      "ĠHerstellung": 5326,
      "Ander": 5327,
      "ĠCamp": 5328,
      "ĠWell": 5329,
      "ĠHauses": 5330,
      "ĠTeile": 5331,
      "Ġchines": 5332,
      "ĠFormen": 5333,
      "fÃ¼hrten": 5334,
      "Ġverring": 5335,
      "Ġkomplett": 5336,
      "ĠStr": 5337,
      "ĠChrist": 5338,
      "ĠEinigung": 5339,
      "anen": 5340,
      "Ġverloren": 5341,
      "Ġfreue": 5342,
      "Ġlokalen": 5343,
      "ĠÃľbergang": 5344,
      "maÃŁen": 5345,
      "ĠGebieten": 5346,
      "Ġverwende": 5347,
      "Selbst": 5348,
      "Ġsauber": 5349,
      "teren": 5350,
      "ĠGroÃŁbritann": 5351,
      "ĠTro": 5352,
      "spr": 5353,
      "Ġhinzuf": 5354,
      "ulen": 5355,
      "Ġverur": 5356,
      "ĠtrÃ¤gt": 5357,
      "Ġliebe": 5358,
      "ĠAng": 5359,
      "Ġverd": 5360,
      "ĠAngaben": 5361,
      "Ġabgeschlossen": 5362,
      "gewicht": 5363,
      "ĠerklÃ¤ren": 5364,
      "asen": 5365,
      "ĠTor": 5366,
      "ĠhÃ¤lt": 5367,
      "eting": 5368,
      "ĠverÃ¶ffentlicht": 5369,
      "ĠPrioritÃ¤ten": 5370,
      "ĠSysteme": 5371,
      "umm": 5372,
      "sterdam": 5373,
      "ED": 5374,
      "ĠRegelung": 5375,
      "ĠÃľ": 5376,
      "ĠUniversitÃ¤t": 5377,
      "ĠKÃ¶nigreich": 5378,
      "ĠEntsch": 5379,
      "oom": 5380,
      "bericht": 5381,
      "ĠWorte": 5382,
      "ĠBusiness": 5383,
      "ĠbenÃ¶tigt": 5384,
      "versor": 5385,
      "Ġ+": 5386,
      "ĠStellungnahme": 5387,
      "ĠIS": 5388,
      "ĠAutom": 5389,
      "ĠHeil": 5390,
      "Ġkostenlos": 5391,
      "zin": 5392,
      "ĠLeistung": 5393,
      "ĠBran": 5394,
      "ĠZweifel": 5395,
      "tes": 5396,
      "Ġerscheint": 5397,
      "netz": 5398,
      "spek": 5399,
      "lÃ¤gen": 5400,
      "ooking": 5401,
      "Ġli": 5402,
      "Ġallgemein": 5403,
      "riebe": 5404,
      "ĠBand": 5405,
      "Ġberech": 5406,
      "ĠRechnung": 5407,
      "igungen": 5408,
      "bef": 5409,
      "gegeben": 5410,
      "ĠMaschinen": 5411,
      "alog": 5412,
      "abl": 5413,
      "ĠDies": 5414,
      "reitet": 5415,
      "ĠMy": 5416,
      "Ġdennoch": 5417,
      "ĠFonds": 5418,
      "volution": 5419,
      "ĠGrenz": 5420,
      "40": 5421,
      "ĠÃ¶st": 5422,
      "Ist": 5423,
      "ĠAufbau": 5424,
      "ĠmÃ¶glichst": 5425,
      "ĠEinhaltung": 5426,
      "Ġgegensei": 5427,
      "ĠEisen": 5428,
      "Ġalte": 5429,
      "ĠGeist": 5430,
      "ĠHerausforderung": 5431,
      "ane": 5432,
      "iter": 5433,
      "glieder": 5434,
      "ĠStatus": 5435,
      "zwischen": 5436,
      "gebaut": 5437,
      "Ġruss": 5438,
      "ĠÃ¼bertragen": 5439,
      "Dank": 5440,
      "Ġerstellen": 5441,
      "ĠSehenswÃ¼rd": 5442,
      "Ġkonzentrieren": 5443,
      "ĠAnd": 5444,
      "ĠInnovation": 5445,
      "ĠFreund": 5446,
      "ĠForderungen": 5447,
      "uelle": 5448,
      "Ġklicken": 5449,
      "umÃ¤n": 5450,
      "Ġlos": 5451,
      "Ġfinanzielle": 5452,
      "ĠTher": 5453,
      "ĠnÃ¤chste": 5454,
      "va": 5455,
      "ohnen": 5456,
      "ĠFlexib": 5457,
      "ĠAlle": 5458,
      "ĠGewÃ¤hr": 5459,
      "Ġvoran": 5460,
      "âĢ¦": 5461,
      "aben": 5462,
      "ated": 5463,
      "ĠMeeres": 5464,
      "199": 5465,
      "ja": 5466,
      "mode": 5467,
      "Ġunge": 5468,
      "reak": 5469,
      "oo": 5470,
      "Ġ!": 5471,
      "lligen": 5472,
      "Ġzerst": 5473,
      "oto": 5474,
      "ĠMenschenrecht": 5475,
      "ĠHam": 5476,
      "ĠSand": 5477,
      "ĠMiss": 5478,
      "Ã¤ck": 5479,
      "ĠBrÃ¼ssel": 5480,
      "ĠMittelmeer": 5481,
      "ĠAspekt": 5482,
      "Ġgeh": 5483,
      "Nachfolgend": 5484,
      "ĠpersÃ¶nlich": 5485,
      "zesse": 5486,
      "Ġverfolgen": 5487,
      "igungs": 5488,
      "ĠVerwaltungs": 5489,
      "ĠMoment": 5490,
      "union": 5491,
      "ĠWander": 5492,
      "Ġleist": 5493,
      "ĠGemeinsamen": 5494,
      "Ġunterschiedliche": 5495,
      "Ġnennen": 5496,
      "ĠFin": 5497,
      "rachte": 5498,
      "ĠKirche": 5499,
      "ĠEntschlieÃŁungsantrag": 5500,
      "ĠAnalyse": 5501,
      "Ġgeleistet": 5502,
      "Ġbequem": 5503,
      "ĠLesung": 5504,
      "rÃ¼st": 5505,
      "ĠendgÃ¼l": 5506,
      "Ġdiskutieren": 5507,
      "ĠBesitz": 5508,
      "Ġlegen": 5509,
      "ĠVerk": 5510,
      "ĠAmsterdam": 5511,
      "ĠAsy": 5512,
      "Ġschl": 5513,
      "Ġverlassen": 5514,
      "ĠgegrÃ¼ndet": 5515,
      "ĠFlÃ¼cht": 5516,
      "arischen": 5517,
      "ĠLandwir": 5518,
      "Ġumfasst": 5519,
      "Ġspielt": 5520,
      "Ġ500": 5521,
      "Ġausreichend": 5522,
      "Ġamerikanischen": 5523,
      "ĠVerpflichtung": 5524,
      "ĠFran": 5525,
      "Ġgepl": 5526,
      "Ġhumanit": 5527,
      "ller": 5528,
      "angs": 5529,
      "ĠIran": 5530,
      "rÃ¤nken": 5531,
      "steuer": 5532,
      "Ġbetrachtet": 5533,
      "Ġdenken": 5534,
      "ĠtÃ¤glich": 5535,
      "OL": 5536,
      "ĠEff": 5537,
      "management": 5538,
      "Ġ90": 5539,
      "lÃ¼sse": 5540,
      "Zudem": 5541,
      "ĠSam": 5542,
      "IM": 5543,
      "sequen": 5544,
      "iven": 5545,
      "ĠKatastrop": 5546,
      "abhÃ¤ngigkeit": 5547,
      "ĠunabhÃ¤ngig": 5548,
      "Eben": 5549,
      "Ġbehaup": 5550,
      "Ġ28": 5551,
      "ĠJapan": 5552,
      "eck": 5553,
      "ĠMig": 5554,
      "ĠIT": 5555,
      "ĠTerrasse": 5556,
      "ĠschÃ¶nen": 5557,
      "park": 5558,
      "Ġfeststellen": 5559,
      "Ġpositive": 5560,
      "ĠhÃ¶her": 5561,
      "Ġerforderlichen": 5562,
      "ĠFel": 5563,
      "way": 5564,
      "regel": 5565,
      "Ãĥ": 5566,
      "ĠGrÃ¼": 5567,
      "Ins": 5568,
      "jek": 5569,
      "Ġbl": 5570,
      "Leider": 5571,
      "Ġpri": 5572,
      "Innen": 5573,
      "25": 5574,
      "ĠhÃ¶ren": 5575,
      "ickt": 5576,
      "ĠTradition": 5577,
      "Jed": 5578,
      "Ġerleich": 5579,
      "mail": 5580,
      "Ġgarantiert": 5581,
      "ĠZer": 5582,
      "Ġarbeitet": 5583,
      "Ger": 5584,
      "go": 5585,
      "Ġfer": 5586,
      "ourn": 5587,
      "ĠIdeen": 5588,
      "testen": 5589,
      "tegien": 5590,
      "ĠTexte": 5591,
      "ĠPrem": 5592,
      "ĠBon": 5593,
      "ĠFen": 5594,
      "ĠPortug": 5595,
      "ĠAussicht": 5596,
      "ĠJahrhunderts": 5597,
      "ĠPatienten": 5598,
      "ĠÃ¼berprÃ¼fen": 5599,
      "schlÃ¤ge": 5600,
      "ĠVielzahl": 5601,
      "passen": 5602,
      "ĠPaket": 5603,
      "ĠSehenswÃ¼rdigkeiten": 5604,
      "ĠKompeten": 5605,
      "rum": 5606,
      "ierend": 5607,
      "Ðĵ": 5608,
      "ĠStÃ¤rkung": 5609,
      "ĠVerbrauch": 5610,
      "Ġkulturellen": 5611,
      "Ġdigit": 5612,
      "ĠUkra": 5613,
      "instr": 5614,
      "Ġwor": 5615,
      "jÃ¤hrigen": 5616,
      "Ġresp": 5617,
      "Ġhingewiesen": 5618,
      "ĠausgewÃ¤h": 5619,
      "ĠtÃ¤tig": 5620,
      "ĠStandards": 5621,
      "inu": 5622,
      "ĠBarcelona": 5623,
      "ĠSorge": 5624,
      "versorgung": 5625,
      "Ġniedr": 5626,
      "ĠUnterkunft": 5627,
      "24": 5628,
      "ĠInstallation": 5629,
      "entwicklung": 5630,
      "sport": 5631,
      "auftrag": 5632,
      "Ġdritten": 5633,
      "ĠAnwendungen": 5634,
      "ĠComm": 5635,
      "Ġseiten": 5636,
      "ĠTo": 5637,
      "Ġwei": 5638,
      "Ġstabil": 5639,
      "ĠHersteller": 5640,
      "ĠNutzen": 5641,
      "ĠGas": 5642,
      "lÃ¶sung": 5643,
      "bett": 5644,
      "irt": 5645,
      "ĠMess": 5646,
      "ologische": 5647,
      "agn": 5648,
      "zy": 5649,
      "Ġmiteinander": 5650,
      "Ġgrat": 5651,
      "bindung": 5652,
      "Ġerinner": 5653,
      "gibt": 5654,
      "ĠHy": 5655,
      "bieter": 5656,
      "ĠWillen": 5657,
      "ĠAbsch": 5658,
      "kÃ¼nd": 5659,
      "ĠPla": 5660,
      "Ġlinks": 5661,
      "upt": 5662,
      "Ã¼ter": 5663,
      "ĠSuper": 5664,
      "Ġbezeichnet": 5665,
      "ps": 5666,
      "ĠÃľberwachung": 5667,
      "fÃ¼hrungen": 5668,
      "ĠKil": 5669,
      "ĠZugriff": 5670,
      "ĠInd": 5671,
      "ĠStraf": 5672,
      "weist": 5673,
      "Ġrichtigen": 5674,
      "bli": 5675,
      "konferenz": 5676,
      "Ġweiterer": 5677,
      "loss": 5678,
      "ĠWien": 5679,
      "Ġinvest": 5680,
      "ĠErzeug": 5681,
      "ĠEntwicklungen": 5682,
      "preise": 5683,
      "ĠDorf": 5684,
      "haltet": 5685,
      "ĠEine": 5686,
      "ĠDownload": 5687,
      "ragt": 5688,
      "Ġpassen": 5689,
      "ĠHarmon": 5690,
      "formationen": 5691,
      "ĠPlay": 5692,
      "Ġuntersch": 5693,
      "ĠBedarf": 5694,
      "ĠvernÃ¼nf": 5695,
      "Ã¶se": 5696,
      "bleh": 5697,
      "ĠLandschaft": 5698,
      "ima": 5699,
      "fast": 5700,
      "ĠAc": 5701,
      "ĠUmfang": 5702,
      "ĠeingefÃ¼hrt": 5703,
      "Ġau": 5704,
      "leistungs": 5705,
      "ĠZustÃ¤nd": 5706,
      "ĠNot": 5707,
      "Ġgelin": 5708,
      "Ġzahlen": 5709,
      "ĠStÃ¼ck": 5710,
      "Ġkonf": 5711,
      "Ġhaupt": 5712,
      "Ġ70": 5713,
      "ĠWas": 5714,
      "Ġgrenz": 5715,
      "hotel": 5716,
      "ĠArbeitslosigkeit": 5717,
      "Ġzweif": 5718,
      "bert": 5719,
      "ĠIndien": 5720,
      "ente": 5721,
      "ĠEhr": 5722,
      "isiert": 5723,
      "ĠHeimat": 5724,
      "Ã¼ben": 5725,
      "ĠMesse": 5726,
      "Reg": 5727,
      "seits": 5728,
      "ĠBedÃ¼rfnisse": 5729,
      "Ġvorber": 5730,
      "ĠGeschÃ¤": 5731,
      "ĠProblemen": 5732,
      "ĠPaten": 5733,
      "Ġgewinnen": 5734,
      "komp": 5735,
      "liegt": 5736,
      "Ġprofitieren": 5737,
      "ĠDrogen": 5738,
      "ĠSchn": 5739,
      "rab": 5740,
      "chnet": 5741,
      "ĠVerteidigung": 5742,
      "ĠGeschÃ¤ftsordnung": 5743,
      "andidaten": 5744,
      "ĠAchtung": 5745,
      "Ġgeschehen": 5746,
      "abs": 5747,
      "behalten": 5748,
      "brauch": 5749,
      "Ġkonstru": 5750,
      "ĠInvestition": 5751,
      "Ġfestge": 5752,
      "elte": 5753,
      "gemÃ¤ÃŁ": 5754,
      "windigkeit": 5755,
      "ĠKol": 5756,
      "kam": 5757,
      "Ġdanach": 5758,
      "Ġles": 5759,
      "gien": 5760,
      "uffet": 5761,
      "Ġvorliegenden": 5762,
      "Ġengl": 5763,
      "ĠPrioritÃ¤t": 5764,
      "fg": 5765,
      "ĠRatsvorsitz": 5766,
      "Ġeinsetzen": 5767,
      "Ġvergleich": 5768,
      "ĠJe": 5769,
      "ĠbestÃ¤tigt": 5770,
      "ĠunterstÃ¼tze": 5771,
      "Jetzt": 5772,
      "RE": 5773,
      "ĠFlexibilitÃ¤t": 5774,
      "ĠTourismus": 5775,
      "riminierung": 5776,
      "ĠKÃ¼nstler": 5777,
      "vo": 5778,
      "ĠChe": 5779,
      "ĠsÃ¤mtliche": 5780,
      "ĠÃ¼berall": 5781,
      "ĠausfÃ¼hr": 5782,
      "Ġentstanden": 5783,
      "ĠGroÃŁbritannien": 5784,
      "dient": 5785,
      "Ġbesitzt": 5786,
      "Ġerle": 5787,
      "Dem": 5788,
      "Ġregionalen": 5789,
      "Ġzuver": 5790,
      "Ġbeginnt": 5791,
      "Ġapp": 5792,
      "Ġkeinerlei": 5793,
      "asch": 5794,
      "ĠJahrz": 5795,
      "ST": 5796,
      "Ġfair": 5797,
      "Ġverfolgt": 5798,
      "23": 5799,
      "igi": 5800,
      "ĠMutter": 5801,
      "istisch": 5802,
      "ĠGerichtshof": 5803,
      "wechsel": 5804,
      "Ġriesi": 5805,
      "wogen": 5806,
      "ometer": 5807,
      "ĠgegenwÃ¤rtig": 5808,
      "ausschusses": 5809,
      "ĠPen": 5810,
      "ike": 5811,
      "orte": 5812,
      "ĠBil": 5813,
      "Ã¼rk": 5814,
      "hÃ¶ren": 5815,
      "Stra": 5816,
      "ĠPolizei": 5817,
      "Ġbeteiligt": 5818,
      "Ġoffensichtlich": 5819,
      "reitung": 5820,
      "ĠfranzÃ¶sischen": 5821,
      "ĠPolen": 5822,
      "ĠName": 5823,
      "ĠRechnungs": 5824,
      "Dennoch": 5825,
      "rochen": 5826,
      "wesen": 5827,
      "ĠMass": 5828,
      "wortet": 5829,
      "Ġausges": 5830,
      "ĠJustiz": 5831,
      "bus": 5832,
      "Ġmar": 5833,
      "ĠMich": 5834,
      "ĠPresse": 5835,
      "Ġklass": 5836,
      "ĠgrenzÃ¼ber": 5837,
      "Ġvollkommen": 5838,
      "Ġfolgende": 5839,
      "ĠTal": 5840,
      "leihen": 5841,
      "ĠElemente": 5842,
      "ĠVerhÃ¤ltnis": 5843,
      "tigten": 5844,
      "Hin": 5845,
      "nahm": 5846,
      "ĠÃ¶k": 5847,
      "ces": 5848,
      "ĠHostels": 5849,
      "ĠGeneral": 5850,
      "Ġcomp": 5851,
      "ĠDeleg": 5852,
      "Ġgestalten": 5853,
      "hÃ¶hung": 5854,
      "benen": 5855,
      "gesichts": 5856,
      "Ġstren": 5857,
      "osk": 5858,
      "ĠgeschÃ¼tzt": 5859,
      "Ġspezielle": 5860,
      "osen": 5861,
      "Ġsob": 5862,
      "ĠAnlagen": 5863,
      "ĠWorten": 5864,
      "ĠEuropÃ¤er": 5865,
      "ĠChancen": 5866,
      "Ġerh": 5867,
      "ĠCan": 5868,
      "freiheit": 5869,
      "ĠgroÃŁes": 5870,
      "Ġti": 5871,
      "selben": 5872,
      "ĠgrÃ¶ÃŁeren": 5873,
      "Ġzentrale": 5874,
      "mittag": 5875,
      "ĠAltstadt": 5876,
      "IL": 5877,
      "Ġhaupts": 5878,
      "aktionen": 5879,
      "Ġfalls": 5880,
      "ĠAnteil": 5881,
      "sprach": 5882,
      "pport": 5883,
      "Ġeinfache": 5884,
      "ĠFÃ¼hrung": 5885,
      "ella": 5886,
      "ĠGlobalisierung": 5887,
      "ĠVerstÃ¤ndnis": 5888,
      "ĠAfrika": 5889,
      "verstanden": 5890,
      "Ġpolitischer": 5891,
      "Ġergeben": 5892,
      "ulgar": 5893,
      "stÃ¼cks": 5894,
      "Ġwww": 5895,
      "Ġgarantieren": 5896,
      "ehmer": 5897,
      "ĠgegenwÃ¤rtigen": 5898,
      "Ġwarten": 5899,
      "ĠImmobilien": 5900,
      "Ã¤sion": 5901,
      "ĠAuss": 5902,
      "agne": 5903,
      "elev": 5904,
      "stellte": 5905,
      "viel": 5906,
      "Ġfallen": 5907,
      "ĠMail": 5908,
      "ĠDebian": 5909,
      "Ġ26": 5910,
      "Ġ300": 5911,
      "wser": 5912,
      "ĠRegelungen": 5913,
      "ĠKosovo": 5914,
      "atell": 5915,
      "Ġverf": 5916,
      "Ġsolcher": 5917,
      "IE": 5918,
      "krieg": 5919,
      "ĠBewertung": 5920,
      "ĠWellness": 5921,
      "ĠLo": 5922,
      "sprech": 5923,
      "ĠTeilnehmer": 5924,
      "schiede": 5925,
      "Ġverbundenen": 5926,
      "ĠMuseum": 5927,
      "ĠWTO": 5928,
      "Ġacht": 5929,
      "Ġbeinhaltet": 5930,
      "ĠGut": 5931,
      "ĠMand": 5932,
      "ĠMaÃŁe": 5933,
      "ĠIrland": 5934,
      "ĠBeteiligung": 5935,
      "ĠAusland": 5936,
      "utzer": 5937,
      "spann": 5938,
      "ĠMic": 5939,
      "Zimmer": 5940,
      "ĠFreu": 5941,
      "lÃ¼ckw": 5942,
      "Ġideal": 5943,
      "wÃ¤": 5944,
      "ĠDist": 5945,
      "Ġdauer": 5946,
      "ĠVorsitzen": 5947,
      "mÃ¶gen": 5948,
      "Ġumfassende": 5949,
      "ĠUkraine": 5950,
      "Ġinternationaler": 5951,
      "ĠzusÃ¤tzlich": 5952,
      "ĠStein": 5953,
      "attform": 5954,
      "Ġgutes": 5955,
      "auch": 5956,
      "asil": 5957,
      "uster": 5958,
      "ĠEnerg": 5959,
      "ĠEindruck": 5960,
      "Ã´": 5961,
      "ĠMechan": 5962,
      "worfen": 5963,
      "Ġsteigen": 5964,
      "ĠNahrungs": 5965,
      "ĠgrundsÃ¤tz": 5966,
      "Ġrelativ": 5967,
      "ĠMonat": 5968,
      "Ġwesentlichen": 5969,
      "Ã¤fen": 5970,
      "erne": 5971,
      "tlichen": 5972,
      "Ġsogen": 5973,
      "lÃ¤gt": 5974,
      "ala": 5975,
      "Ġ196": 5976,
      "Ġletzt": 5977,
      "ĠWechsel": 5978,
      "ĠLab": 5979,
      "ĠTisch": 5980,
      "ole": 5981,
      "terp": 5982,
      "Sterne": 5983,
      "Ġinternational": 5984,
      "schaffen": 5985,
      "iegel": 5986,
      "ĠSek": 5987,
      "eichert": 5988,
      "Ġtief": 5989,
      "ĠWald": 5990,
      "ĠTreffen": 5991,
      "ktive": 5992,
      "ĠStadtzentrum": 5993,
      "ĠDr": 5994,
      "Ġteilnehmen": 5995,
      "Ã©s": 5996,
      "ĠMer": 5997,
      "ellos": 5998,
      "handels": 5999,
      "arta": 6000,
      "ĠÃ¤uÃŁ": 6001,
      "ICH": 6002,
      "ĠSach": 6003,
      "klusive": 6004,
      "Ġmeist": 6005,
      "ĠTodes": 6006,
      "Pl": 6007,
      "Ġnormal": 6008,
      "ĠHel": 6009,
      "ey": 6010,
      "ĠKarten": 6011,
      "ĠStock": 6012,
      "Ġvorliegen": 6013,
      "ĠbeglÃ¼ckw": 6014,
      "ĠGebrauch": 6015,
      "Warum": 6016,
      "Ch": 6017,
      "Ġbi": 6018,
      "Ġkost": 6019,
      "Mehr": 6020,
      "ĠMilitÃ¤r": 6021,
      "mittelt": 6022,
      "ĠRealitÃ¤t": 6023,
      "Ã¶t": 6024,
      "Ġav": 6025,
      "vert": 6026,
      "enntnisse": 6027,
      "ĠSchwe": 6028,
      "linge": 6029,
      "Ġattra": 6030,
      "Ġgemeinschaft": 6031,
      "ĠFoto": 6032,
      "ĠVerbrechen": 6033,
      "ĠSchÃ¶n": 6034,
      "ĠGrÃ¶ÃŁe": 6035,
      "ĠGrÃ¼nde": 6036,
      "ĠfrÃ¼her": 6037,
      "Ã¤ufer": 6038,
      "holung": 6039,
      "ĠMarken": 6040,
      "ĠVermitt": 6041,
      "Ġspeziellen": 6042,
      "ĠSant": 6043,
      "Ġausgewogen": 6044,
      "isieren": 6045,
      "Ġoff": 6046,
      "Ã¤lfte": 6047,
      "ĠGriechenland": 6048,
      "Ġbetrachten": 6049,
      "Ġrenov": 6050,
      "Ġwere": 6051,
      "Ġpraktisch": 6052,
      "ĠGegensatz": 6053,
      "gebracht": 6054,
      "pe": 6055,
      "no": 6056,
      "ĠUnabhÃ¤ngigkeit": 6057,
      "ternen": 6058,
      "....": 6059,
      "ĠGlÃ¼ck": 6060,
      "ĠKohÃ¤sion": 6061,
      "itut": 6062,
      "ĠMÃ¤rkte": 6063,
      "Ġumwelt": 6064,
      "onenten": 6065,
      "Ġdient": 6066,
      "ato": 6067,
      "klang": 6068,
      "Ben": 6069,
      "ĠAls": 6070,
      "Ġevent": 6071,
      "ĠQ": 6072,
      "ĠAktionen": 6073,
      "Ġenor": 6074,
      "ichtete": 6075,
      "Ġlangen": 6076,
      "ĠNutzer": 6077,
      "dessen": 6078,
      "Ġgelungen": 6079,
      "Ġfl": 6080,
      "ĠErklÃ¤rungen": 6081,
      "ĠÃľbereinkommen": 6082,
      "risen": 6083,
      "bliothe": 6084,
      "ĠKombin": 6085,
      "Ġste": 6086,
      "ĠGedanken": 6087,
      "aket": 6088,
      "Ġkorre": 6089,
      "ĠKenn": 6090,
      "rige": 6091,
      "Ġthis": 6092,
      "denten": 6093,
      "ĠBotschaft": 6094,
      "Ġmon": 6095,
      "laubwÃ¼rd": 6096,
      "ĠPalÃ¤st": 6097,
      "Ġmobil": 6098,
      "ĠErde": 6099,
      "ĠLizenz": 6100,
      "ĠerhÃ¶ht": 6101,
      "Ġbeachten": 6102,
      "gesellschaften": 6103,
      "Meiner": 6104,
      "antie": 6105,
      "ĠSim": 6106,
      "iertes": 6107,
      "ĠStÃ¤dte": 6108,
      "ĠReaktion": 6109,
      "Klicken": 6110,
      "ikro": 6111,
      "ĠEreignisse": 6112,
      "ĠRein": 6113,
      "Sc": 6114,
      "ĠgeÃ¶ffnet": 6115,
      "imal": 6116,
      "inger": 6117,
      "Ġchar": 6118,
      "Ġinformiert": 6119,
      "Ex": 6120,
      "wissen": 6121,
      "anger": 6122,
      "ĠZwischen": 6123,
      "technik": 6124,
      "ĠVilla": 6125,
      "ĠAnlage": 6126,
      "gefÃ¤hr": 6127,
      "TV": 6128,
      "ĠMitteln": 6129,
      "ĠNews": 6130,
      "ĠSÃ¼den": 6131,
      "hy": 6132,
      "ĠNiveau": 6133,
      "ĠDollar": 6134,
      "entlich": 6135,
      "ervice": 6136,
      "spar": 6137,
      "Ġdaraus": 6138,
      "ĠFraktionen": 6139,
      "ĠKopf": 6140,
      "Ġtrans": 6141,
      "ĠEt": 6142,
      "ymp": 6143,
      "ĠFotos": 6144,
      "utzung": 6145,
      "ĠEmpfehlungen": 6146,
      "Ġstarke": 6147,
      "leun": 6148,
      "Ġbritischen": 6149,
      "ĠÃ¼berein": 6150,
      "Ġrein": 6151,
      "ĠGrunde": 6152,
      "auso": 6153,
      "richtlinie": 6154,
      "emin": 6155,
      "ĠBeschluss": 6156,
      "We": 6157,
      "Ġeinsch": 6158,
      "Ġeinverstanden": 6159,
      "ĠWirkung": 6160,
      "uert": 6161,
      "roati": 6162,
      "CO": 6163,
      "ĠschÃ¶ne": 6164,
      "EM": 6165,
      "ĠFarben": 6166,
      "Le": 6167,
      "ĠArchitektur": 6168,
      "SS": 6169,
      "ĠUrs": 6170,
      "ĠsorgfÃ¤l": 6171,
      "produktion": 6172,
      "zellen": 6173,
      "ĠZahlen": 6174,
      "Ġallgemeine": 6175,
      "Ġmittl": 6176,
      "Ġguter": 6177,
      "yr": 6178,
      "Ġgehalten": 6179,
      "Ġtreten": 6180,
      "ĠhauptsÃ¤chlich": 6181,
      "ates": 6182,
      "Ġgeschieht": 6183,
      "Angesichts": 6184,
      "ĠauÃŁerorden": 6185,
      "bÃ¼rger": 6186,
      "Ġfestgestellt": 6187,
      "Booking": 6188,
      "uchten": 6189,
      "ĠGebiete": 6190,
      "ĠBeihilfen": 6191,
      "Ġniemand": 6192,
      "Ã¤umen": 6193,
      "ĠMindest": 6194,
      "ategorie": 6195,
      "LAN": 6196,
      "Ã¶der": 6197,
      "Ġeinzigen": 6198,
      "ĠGesetzgebung": 6199,
      "Mar": 6200,
      "ĠDefin": 6201,
      "ĠProgramms": 6202,
      "ĠmÃ¶glichen": 6203,
      "ulation": 6204,
      "Gleichzeitig": 6205,
      "Ġnachhaltige": 6206,
      "ĠHoffnung": 6207,
      "ĠLiberalisierung": 6208,
      "Ġmittels": 6209,
      "sych": 6210,
      "Ġmanchmal": 6211,
      "Ġherzlich": 6212,
      "itter": 6213,
      "ĠKontroll": 6214,
      "Ġme": 6215,
      "Ð»": 6216,
      "Ġ1998": 6217,
      "ĠFernseh": 6218,
      "ille": 6219,
      "ĠAsi": 6220,
      "ĠtÃ¼rk": 6221,
      "Bahn": 6222,
      "ĠVoraussetzungen": 6223,
      "Ġideale": 6224,
      "Ġvorgeschlagenen": 6225,
      "Ġunternommen": 6226,
      "ĠDatenschutz": 6227,
      "genda": 6228,
      "Ġsobald": 6229,
      "Ġspricht": 6230,
      "ĠTrain": 6231,
      "ĠWiederauf": 6232,
      "ĠStudien": 6233,
      "ĠGrundrechte": 6234,
      "lichem": 6235,
      "sucht": 6236,
      "Ġlux": 6237,
      "ielten": 6238,
      "Ser": 6239,
      "Ġkaufen": 6240,
      "tigte": 6241,
      "ĠYork": 6242,
      "FR": 6243,
      "ĠKu": 6244,
      "ĠzÃ¤hlen": 6245,
      "Ġkostenfrei": 6246,
      "ĠOption": 6247,
      "Ġ29": 6248,
      "Ã±": 6249,
      "ĠLang": 6250,
      "Ġjungen": 6251,
      "reakfast": 6252,
      "aul": 6253,
      "ĠGegenteil": 6254,
      "ĠGold": 6255,
      "stands": 6256,
      "app": 6257,
      "tent": 6258,
      "Ġproblem": 6259,
      "ĠÃ¼bernommen": 6260,
      "Ġschneller": 6261,
      "ages": 6262,
      "strich": 6263,
      "ĠauslÃ¤nd": 6264,
      "Ste": 6265,
      "apital": 6266,
      "80": 6267,
      "ĠjÃ¼ngsten": 6268,
      "problem": 6269,
      "Ġlauf": 6270,
      "ĠArbeitsmarkt": 6271,
      "ĠMinderheiten": 6272,
      "Ġreal": 6273,
      "Ġest": 6274,
      "haf": 6275,
      "leitung": 6276,
      "Ġsage": 6277,
      "Ġteilen": 6278,
      "ĠBahnhof": 6279,
      "ĠStrom": 6280,
      "Ġunterst": 6281,
      "Ġselten": 6282,
      "ĠErwart": 6283,
      "ĠReisen": 6284,
      "Ġdamals": 6285,
      "Gem": 6286,
      "ĠInn": 6287,
      "ĠFit": 6288,
      "Ġnationaler": 6289,
      "Ġerfordert": 6290,
      "ĠZustand": 6291,
      "Ġsieben": 6292,
      "PS": 6293,
      "ree": 6294,
      "ames": 6295,
      "ĠInternational": 6296,
      "orien": 6297,
      "ismen": 6298,
      "Ġweg": 6299,
      "ĠpersÃ¶nliche": 6300,
      "rÃ¤ch": 6301,
      "funktion": 6302,
      "Bet": 6303,
      "rd": 6304,
      "ĠHauptstadt": 6305,
      "Ġbetroffenen": 6306,
      "gende": 6307,
      "ĠAber": 6308,
      "ĠEinkommen": 6309,
      "angebot": 6310,
      "Ġanbieten": 6311,
      "Ġbeob": 6312,
      "Ġrechts": 6313,
      "ĠregelmÃ¤ÃŁig": 6314,
      "Her": 6315,
      "Ġandererseits": 6316,
      "Ġvieler": 6317,
      "ĠMitgliedern": 6318,
      "oker": 6319,
      "ĠZoll": 6320,
      "statten": 6321,
      "zn": 6322,
      "ĠabhÃ¤ng": 6323,
      "ĠExperten": 6324,
      "karten": 6325,
      "Ġvorschlagen": 6326,
      "gendes": 6327,
      "ausende": 6328,
      "ĠPrÃ¼fung": 6329,
      "ĠAlter": 6330,
      "ĠAsyl": 6331,
      "fÃ¼gt": 6332,
      "riech": 6333,
      "ally": 6334,
      "ĠRand": 6335,
      "rÃ¤nkungen": 6336,
      "Ġmedizin": 6337,
      "terprise": 6338,
      "lege": 6339,
      "ĠVorteil": 6340,
      "**": 6341,
      "ĠRisiken": 6342,
      "Vielen": 6343,
      "wendungs": 6344,
      "ktiven": 6345,
      "Ġzugleich": 6346,
      "Ã¼st": 6347,
      "ĠÂ»": 6348,
      "ĠBeob": 6349,
      "ĠTouristen": 6350,
      "abe": 6351,
      "eshalb": 6352,
      "ĠgewÃ¼nsch": 6353,
      "reen": 6354,
      "ese": 6355,
      "ositionen": 6356,
      "do": 6357,
      "chem": 6358,
      "ĠPflicht": 6359,
      "ĠbeschÃ¤ftigt": 6360,
      "Ġwodurch": 6361,
      "ĠMÃ¤nner": 6362,
      "ĠNiederlan": 6363,
      "Ġag": 6364,
      "ĠBestandteil": 6365,
      "gress": 6366,
      "cia": 6367,
      "ĠKoordinierung": 6368,
      "ĠFeld": 6369,
      "ĠgewÃ¤hlt": 6370,
      "Ġbekannte": 6371,
      "!!": 6372,
      "ĠTeilnahme": 6373,
      "gbarkeit": 6374,
      "mlich": 6375,
      "Ġgesellschaft": 6376,
      "ĠÃľberprÃ¼fung": 6377,
      "flik": 6378,
      "Ġ=": 6379,
      "Ġsystem": 6380,
      "ĠTri": 6381,
      "ĠErhÃ¶hung": 6382,
      "Ġsiehe": 6383,
      "ival": 6384,
      "Ġfamil": 6385,
      "Ġgebe": 6386,
      "iode": 6387,
      "Ġhave": 6388,
      "ĠKurs": 6389,
      "hebung": 6390,
      "Ġtraditionellen": 6391,
      "Ġsichern": 6392,
      "Ġechte": 6393,
      "Ãĸ": 6394,
      "elles": 6395,
      "ĠCO": 6396,
      "PL": 6397,
      "ĠNA": 6398,
      "ĠAuch": 6399,
      "ison": 6400,
      "metho": 6401,
      "gelassen": 6402,
      "Ġkleiner": 6403,
      "lebnis": 6404,
      "zwungen": 6405,
      "alys": 6406,
      "Ġfehlen": 6407,
      "ble": 6408,
      "Ġregistr": 6409,
      "ĠWorld": 6410,
      "...\"": 6411,
      "Ġerneuer": 6412,
      "ĠNichtraucher": 6413,
      "ĠIN": 6414,
      "ĠKaff": 6415,
      "Jeder": 6416,
      "ungsst": 6417,
      "adem": 6418,
      "ĠHÃ¤lfte": 6419,
      "Ġabgel": 6420,
      "verse": 6421,
      "Ġdiskutiert": 6422,
      "Ġseitens": 6423,
      "wa": 6424,
      "Ġbeeinfl": 6425,
      "ĠEffizienz": 6426,
      "ĠLaufe": 6427,
      "Ġbesseren": 6428,
      "ĠAbsicht": 6429,
      "dium": 6430,
      "ĠAnpassung": 6431,
      "ĠAustausch": 6432,
      "wegs": 6433,
      "ablen": 6434,
      "ĠFrÃ¼hstÃ¼cks": 6435,
      "Ġhergestellt": 6436,
      "Ġwichtigste": 6437,
      "):": 6438,
      "Ġspezi": 6439,
      "ĠfÃ¤llt": 6440,
      "ĠWettbewerbs": 6441,
      "ĠSprach": 6442,
      "titÃ¤t": 6443,
      "Ġqualifiz": 6444,
      "ĠTyp": 6445,
      "lauben": 6446,
      "its": 6447,
      "ĠVorbereitung": 6448,
      "gÃ¤nglich": 6449,
      "ĠZimmern": 6450,
      "sprÃ¼che": 6451,
      "ĠZiels": 6452,
      "Ġweiteres": 6453,
      "ĠInternationalen": 6454,
      "Ġkontext": 6455,
      "olf": 6456,
      "ĠgrenzÃ¼berschreiten": 6457,
      "Ġco": 6458,
      "Ġjemand": 6459,
      "zig": 6460,
      "ĠPublik": 6461,
      "Ġbeige": 6462,
      "ĠAkte": 6463,
      "Ġerscheinen": 6464,
      "ĠSlow": 6465,
      "sens": 6466,
      "ĠAusnahme": 6467,
      "Ġverteid": 6468,
      "isla": 6469,
      "iums": 6470,
      "ĠRoh": 6471,
      "PE": 6472,
      "val": 6473,
      "ski": 6474,
      "ĠKlimaanlage": 6475,
      "Å¡": 6476,
      "ĠTeilen": 6477,
      "ĠvielfÃ¤l": 6478,
      "Ġbegann": 6479,
      "ĠGesetze": 6480,
      "zeÃŁ": 6481,
      "II": 6482,
      "Ġbemer": 6483,
      "ĠMitglieds": 6484,
      "Ġtechnolog": 6485,
      "ĠDiskriminierung": 6486,
      "ĠMethode": 6487,
      "spartner": 6488,
      "inens": 6489,
      "ĠbÃ¼r": 6490,
      "ĠkÃ¼rzlich": 6491,
      "Ġbewegen": 6492,
      "ĠLinux": 6493,
      "ola": 6494,
      "ĠInseln": 6495,
      "bereiche": 6496,
      "Ġprivate": 6497,
      "kor": 6498,
      "Ġakzeptiert": 6499,
      "ĠOrdnung": 6500,
      "Ġreagieren": 6501,
      "Ġwillkommen": 6502,
      "Ġfinde": 6503,
      "reff": 6504,
      "ohnt": 6505,
      "ĠGÃ¤sten": 6506,
      "ĠPolitiker": 6507,
      "ĠNorden": 6508,
      "eichern": 6509,
      "ĠPat": 6510,
      "sichts": 6511,
      "Ġirgendw": 6512,
      "ĠMethoden": 6513,
      "Ġjunge": 6514,
      "iegen": 6515,
      "ĠPoten": 6516,
      "ĠLinks": 6517,
      "Ġeinzelne": 6518,
      "ĠPa": 6519,
      "ogle": 6520,
      "lieÃŁen": 6521,
      "Ġx": 6522,
      "Ġdemokratische": 6523,
      "ĠVeranstaltungen": 6524,
      "Ġbetont": 6525,
      "omit": 6526,
      "Ġjeg": 6527,
      "zahlung": 6528,
      "ĠDimension": 6529,
      "Ġdeutsche": 6530,
      "ĠPhase": 6531,
      "Ġdiesbe": 6532,
      "heits": 6533,
      "Sol": 6534,
      "ĠEltern": 6535,
      "ĠlÃ¤ndlichen": 6536,
      "Ġangep": 6537,
      "ordnungs": 6538,
      "Ġsinnvoll": 6539,
      "hlen": 6540,
      "ĠTon": 6541,
      "fizierung": 6542,
      "ĠModern": 6543,
      "einrichtungen": 6544,
      "Ġbill": 6545,
      "Ġbehandeln": 6546,
      "ĠVater": 6547,
      "ĠBeweis": 6548,
      "ĠnÃ¤her": 6549,
      "Ġreichen": 6550,
      "Ġpoten": 6551,
      "ori": 6552,
      "ĠPflanzen": 6553,
      "geht": 6554,
      "jÃ¤hrige": 6555,
      "ĠberÃ¼hmten": 6556,
      "ĠHaut": 6557,
      "ĠgenÃ¼": 6558,
      "Ġangeht": 6559,
      "riend": 6560,
      "Ġnochmals": 6561,
      "une": 6562,
      "Ġ35": 6563,
      "ĠVerst": 6564,
      "Ġtut": 6565,
      "Ġpositiven": 6566,
      "unsten": 6567,
      "ektoren": 6568,
      "liste": 6569,
      "igital": 6570,
      "rosoft": 6571,
      "Ġdah": 6572,
      "Ġanerkannt": 6573,
      "Ġumgeben": 6574,
      "ĠZiff": 6575,
      "Ġnorm": 6576,
      "ĠAnliegen": 6577,
      "Ã¼cksichtigung": 6578,
      "omin": 6579,
      "Ã¼ch": 6580,
      "Ġsub": 6581,
      "ĠFreizeit": 6582,
      "Â»": 6583,
      "Ġbegonnen": 6584,
      "ĠReich": 6585,
      "ĠEinklang": 6586,
      "ĠZuf": 6587,
      "ĠWÃ¤hrungs": 6588,
      "ĠRelig": 6589,
      "Ġfreie": 6590,
      "ournal": 6591,
      "ĠTiere": 6592,
      "ĠverstÃ¤rkt": 6593,
      "ahnen": 6594,
      "ĠfÃ¼hrenden": 6595,
      "ĠFÃ¤higkeit": 6596,
      "Ġsicherstellen": 6597,
      "ĠRen": 6598,
      "Ġvielmehr": 6599,
      "grundlage": 6600,
      "ĠFenster": 6601,
      "material": 6602,
      "ĠUmstÃ¤nden": 6603,
      "mmen": 6604,
      "ĠBerÃ¼cksichtigung": 6605,
      "ĠProduktions": 6606,
      "MU": 6607,
      "Ã§": 6608,
      "Ãľ": 6609,
      "Ġdynam": 6610,
      "cy": 6611,
      "Ġlangsam": 6612,
      "ĠVertrieb": 6613,
      "ĠFÃ¤lle": 6614,
      "Ġgriech": 6615,
      "ĠVerÃ¶ffent": 6616,
      "lechter": 6617,
      "person": 6618,
      "ehl": 6619,
      "Ġsen": 6620,
      "ĠPil": 6621,
      "folgerungen": 6622,
      "ĠKooperation": 6623,
      "ĠOpen": 6624,
      "ĠStunde": 6625,
      "ĠÃľbern": 6626,
      "ĠUntersuchung": 6627,
      "Ġstaff": 6628,
      "stehenden": 6629,
      "entwick": 6630,
      "ĠÃ¼berra": 6631,
      "ĠOrigin": 6632,
      "osoph": 6633,
      "Ġberuf": 6634,
      "wes": 6635,
      "ĠMehrwert": 6636,
      "flÃ¼ge": 6637,
      "Ġbeeindruck": 6638,
      "ĠMart": 6639,
      "ĠGefÃ¼hl": 6640,
      "Ġehemaligen": 6641,
      "fertigt": 6642,
      "Ġergriffen": 6643,
      "zahlt": 6644,
      "Ã¼ste": 6645,
      "Ġleiden": 6646,
      "Ġverlieren": 6647,
      "ĠOff": 6648,
      "Ġrasch": 6649,
      "ĠApartments": 6650,
      "warz": 6651,
      "Ġentspannen": 6652,
      "nehmern": 6653,
      "gÃ¼nst": 6654,
      "Ġbefassen": 6655,
      "Ġvorgenommen": 6656,
      "Ġfand": 6657,
      "Ġderzeitigen": 6658,
      "Sehr": 6659,
      "press": 6660,
      "ontrolle": 6661,
      "ĠRumÃ¤n": 6662,
      "Ġgewisse": 6663,
      "orgnis": 6664,
      "ĠFitness": 6665,
      "ĠRest": 6666,
      "Ġseien": 6667,
      "adurch": 6668,
      "ba": 6669,
      "mes": 6670,
      "lichten": 6671,
      "atein": 6672,
      "Ġfordert": 6673,
      "ĠJava": 6674,
      "Ġrei": 6675,
      "Ã¼mm": 6676,
      "ĠGeneration": 6677,
      "meldung": 6678,
      "da": 6679,
      "Ġsur": 6680,
      "ĠEinwanderung": 6681,
      "ĠUnterschiede": 6682,
      "geg": 6683,
      "ĠPerspek": 6684,
      "ĠFlÃ¤": 6685,
      "ĠDVD": 6686,
      "stÃ¤": 6687,
      "Ġzustimmen": 6688,
      "ĠFreude": 6689,
      "03": 6690,
      "AG": 6691,
      "Ġwiederum": 6692,
      "ĠAgenda": 6693,
      "Ġbedarf": 6694,
      "biente": 6695,
      "Europa": 6696,
      "ĠBek": 6697,
      "onom": 6698,
      "Ã¤sser": 6699,
      "ĠStar": 6700,
      "ĠGrenze": 6701,
      "Ġglobale": 6702,
      "ĠDiskussionen": 6703,
      "eier": 6704,
      "ĠNachrichten": 6705,
      "Ġkonkreten": 6706,
      "Ġant": 6707,
      "ĠBra": 6708,
      "Ġstarken": 6709,
      "ĠKombination": 6710,
      "Â²": 6711,
      "Ġwh": 6712,
      "uropÃ¤ischen": 6713,
      "legte": 6714,
      "ĠÂ«": 6715,
      "ĠDo": 6716,
      "ĠnÃ¶tig": 6717,
      "fghan": 6718,
      "akten": 6719,
      "mech": 6720,
      "ĠSchÃ¤den": 6721,
      "ĠFluss": 6722,
      "ĠHaushaltsplan": 6723,
      "ufe": 6724,
      "ĠKÃ¼r": 6725,
      "Ġ31": 6726,
      "fr": 6727,
      "gener": 6728,
      "ĠHandeln": 6729,
      "rÃ¤umen": 6730,
      "Ġlandwirtschaft": 6731,
      "maschinen": 6732,
      "Ġeingesch": 6733,
      "Ġwelchen": 6734,
      "Ġgestern": 6735,
      "Ġunterschiedlich": 6736,
      "ĠAutor": 6737,
      "Ġbildet": 6738,
      "ĠPrak": 6739,
      "krise": 6740,
      "kat": 6741,
      "eind": 6742,
      "Ãł": 6743,
      "iziert": 6744,
      "ĠBildungs": 6745,
      "grÃ¶ÃŁ": 6746,
      "ĠFormular": 6747,
      "schn": 6748,
      "ĠschlieÃŁen": 6749,
      "ĠlÃ¤uft": 6750,
      "Ġstruktur": 6751,
      "Ġkeines": 6752,
      "fÃ¼llung": 6753,
      "ĠVerfÃ¼gbarkeit": 6754,
      "Ġschlecht": 6755,
      "Nachdem": 6756,
      "geiz": 6757,
      "endes": 6758,
      "ĠProvin": 6759,
      "Ġvors": 6760,
      "Ġser": 6761,
      "ĠCity": 6762,
      "iko": 6763,
      "ĠhÃ¶chste": 6764,
      "uche": 6765,
      "heber": 6766,
      "ĠKunde": 6767,
      "ĠGrundsÃ¤tze": 6768,
      "ussen": 6769,
      "Ġ1997": 6770,
      "Ġerb": 6771,
      "Ġbasiert": 6772,
      "UR": 6773,
      "fangen": 6774,
      "ĠAdresse": 6775,
      "grenzen": 6776,
      "ichern": 6777,
      "ĠBu": 6778,
      "rÃ¼stung": 6779,
      "ĠFreunde": 6780,
      "stu": 6781,
      "Ã¤hrt": 6782,
      "uri": 6783,
      "Ġengag": 6784,
      "22": 6785,
      "ĠKranken": 6786,
      "ĠCl": 6787,
      "ĠSchweden": 6788,
      "Ġmulti": 6789,
      "zte": 6790,
      "mÃ¤rkte": 6791,
      "Ġgenauso": 6792,
      "Ġsprach": 6793,
      "ĠKollege": 6794,
      "rechten": 6795,
      "behÃ¶rden": 6796,
      "blei": 6797,
      "gal": 6798,
      "ĠAK": 6799,
      "ĠErwachsen": 6800,
      "ĠWesten": 6801,
      "stes": 6802,
      "Ġvan": 6803,
      "uliert": 6804,
      "renn": 6805,
      "ĠEigenschaften": 6806,
      "Besch": 6807,
      "Ġfried": 6808,
      "Ġbezieht": 6809,
      "Ġrespek": 6810,
      "Ġunein": 6811,
      "berech": 6812,
      "ĠAllgemeinen": 6813,
      "ĠBeschÃ¤ftigungs": 6814,
      "macht": 6815,
      "Ġdeiner": 6816,
      "pÃ¤ck": 6817,
      "elbe": 6818,
      "ĠPortugal": 6819,
      "Ġentlang": 6820,
      "ted": 6821,
      "Beim": 6822,
      "Ã¤ume": 6823,
      "ĠApparte": 6824,
      "Ġverlangen": 6825,
      "ohen": 6826,
      "ĠGlas": 6827,
      "ĠMac": 6828,
      "--": 6829,
      "Ġunmittelbar": 6830,
      "koh": 6831,
      "log": 6832,
      "ĠSymbol": 6833,
      "Ġbut": 6834,
      "ischung": 6835,
      "ĠWh": 6836,
      "Ġhand": 6837,
      "ĠLob": 6838,
      "Or": 6839,
      "oler": 6840,
      "ĠAngebote": 6841,
      "ĠMaÃŁnahme": 6842,
      "ĠLeitlinien": 6843,
      "Ġwichtiges": 6844,
      "Ġlaut": 6845,
      "ĠDokumente": 6846,
      "dass": 6847,
      "Ġzeich": 6848,
      "ĠHerk": 6849,
      "ZunÃ¤chst": 6850,
      "tragung": 6851,
      "reck": 6852,
      "ĠabhÃ¤ngig": 6853,
      "Ġitalienischen": 6854,
      "wander": 6855,
      "Ġlaufen": 6856,
      "Ðº": 6857,
      "lÃ¤ssi": 6858,
      "Ġreicht": 6859,
      "ĠBewegung": 6860,
      "ĠGraf": 6861,
      "ĠUnterschied": 6862,
      "ĠMulti": 6863,
      "ĠHol": 6864,
      "Ġliefern": 6865,
      "ĠmaÃŁ": 6866,
      "reuung": 6867,
      "zulegen": 6868,
      "Ã¤higkeiten": 6869,
      "ĠfÃ¼hrte": 6870,
      "Ġgeist": 6871,
      "ichteten": 6872,
      "fest": 6873,
      "entre": 6874,
      "view": 6875,
      "ĠKÃ¼ste": 6876,
      "ĠTop": 6877,
      "ĠGesicht": 6878,
      "ones": 6879,
      "ĠDatenbank": 6880,
      "Ġumfassenden": 6881,
      "stoffen": 6882,
      "ĠAntworten": 6883,
      "etaill": 6884,
      "Ġsenden": 6885,
      "ĠWahrheit": 6886,
      "beziehung": 6887,
      "Ġbekannten": 6888,
      "Ġalt": 6889,
      "mechan": 6890,
      "aÃŁt": 6891,
      "Ġhal": 6892,
      "IA": 6893,
      "Ġhoher": 6894,
      "Ġwenden": 6895,
      "Ġziemlich": 6896,
      "Ġtrotzdem": 6897,
      "nummer": 6898,
      "ĠBedenken": 6899,
      "Ġmy": 6900,
      "ĠauÃŁergewÃ¶hn": 6901,
      "ual": 6902,
      "zo": 6903,
      "Ġinteressante": 6904,
      "ĠMassen": 6905,
      "handlungen": 6906,
      "gut": 6907,
      "med": 6908,
      "ĠElement": 6909,
      "ĠStrukturfonds": 6910,
      "ĠHei": 6911,
      "ĠEnglisch": 6912,
      "ĠSchwerpunkt": 6913,
      "ader": 6914,
      "ĠSpiele": 6915,
      "ĠFremden": 6916,
      "ĠAutob": 6917,
      "Ġsex": 6918,
      "Ġregionale": 6919,
      "lÃ¤ssig": 6920,
      "ĠerhÃ¤ltlich": 6921,
      "Ġiden": 6922,
      "ĠUntern": 6923,
      "Ñĥ": 6924,
      "ĠGran": 6925,
      "ĠMini": 6926,
      "nitten": 6927,
      "Ã¤tzung": 6928,
      "ĠZusatz": 6929,
      "Ġhistorische": 6930,
      "ms": 6931,
      "richtet": 6932,
      "ĠAfghan": 6933,
      "ĠVerm": 6934,
      "ĠCap": 6935,
      "ĠGal": 6936,
      "azitÃ¤t": 6937,
      "ĠTheater": 6938,
      "Ġ$": 6939,
      "Ġeig": 6940,
      "ozi": 6941,
      "Ġreligi": 6942,
      "Ã¼gel": 6943,
      "das": 6944,
      "ĠVertrÃ¤ge": 6945,
      "ĠSanktionen": 6946,
      "ituationen": 6947,
      "Ġaltern": 6948,
      "gas": 6949,
      "ĠPapier": 6950,
      "ĠBio": 6951,
      "ĠFarb": 6952,
      "ĠPool": 6953,
      "Ġbeschrieben": 6954,
      "ula": 6955,
      "ochen": 6956,
      "45": 6957,
      "vision": 6958,
      "icherungs": 6959,
      "dienste": 6960,
      "ĠerÃ¶ffnet": 6961,
      "ĠKonsequen": 6962,
      "ĠkÃ¼nftig": 6963,
      "amerika": 6964,
      "DF": 6965,
      "ĠbetrÃ¤gt": 6966,
      "Ġfalsch": 6967,
      "ĠLink": 6968,
      "Ebenso": 6969,
      "ĠAp": 6970,
      "ĠHard": 6971,
      "fÃ¤llen": 6972,
      "Weitere": 6973,
      "Produ": 6974,
      "ĠLandwirte": 6975,
      "ĠUmweltschutz": 6976,
      "ĠDienstleistungs": 6977,
      "Ġentdecken": 6978,
      "ĠKrisen": 6979,
      "ĠÃ¼berzeugen": 6980,
      "ĠgÃ¼l": 6981,
      "Ġbegren": 6982,
      "Ġqualit": 6983,
      "quellen": 6984,
      "Ġkommun": 6985,
      "ĠDol": 6986,
      "ĠLager": 6987,
      "ĠzusÃ¤tzlichen": 6988,
      "Ġkoordin": 6989,
      "ML": 6990,
      "Ġoper": 6991,
      "ĠgefÃ¶rdert": 6992,
      "CD": 6993,
      "ĠTool": 6994,
      "partner": 6995,
      "ĠPoliti": 6996,
      "bereit": 6997,
      "uver": 6998,
      "Ġsicht": 6999,
      "kommt": 7000,
      "ĠDefinition": 7001,
      "Ġans": 7002,
      "Seine": 7003,
      "euern": 7004,
      "Ġkurzem": 7005,
      "ĠFrankf": 7006,
      "ĠHerkunft": 7007,
      "gÃ¤nge": 7008,
      "unn": 7009,
      "oral": 7010,
      "ichtigkeit": 7011,
      "Ġdirekte": 7012,
      "ĠzugÃ¤nglich": 7013,
      "Ġbesitzen": 7014,
      "straÃŁe": 7015,
      "Ġzer": 7016,
      "Ġberaten": 7017,
      "ĠSalz": 7018,
      "ata": 7019,
      "ĠZyp": 7020,
      "atischen": 7021,
      "Ġgleicher": 7022,
      "spruchs": 7023,
      "ient": 7024,
      "Ġzunehmend": 7025,
      "Ġgrundlegenden": 7026,
      "ĠNeben": 7027,
      "Ġpal": 7028,
      "neter": 7029,
      "MS": 7030,
      "ĠgeprÃ¼": 7031,
      "ĠSchule": 7032,
      "Ġtie": 7033,
      "Ġschwierigen": 7034,
      "anda": 7035,
      "ĠÃ©": 7036,
      "Ġvoller": 7037,
      "meister": 7038,
      "Ã¼ren": 7039,
      "Ġinteressiert": 7040,
      "kÃ¼nfte": 7041,
      "ĠhÃ¶here": 7042,
      "ĠSignal": 7043,
      "ĠStrategien": 7044,
      "ĠverÃ¤ndert": 7045,
      "Ġtour": 7046,
      "ĠWirklichkeit": 7047,
      "ĠVerh": 7048,
      "Ġwesentliche": 7049,
      "ĠStudenten": 7050,
      "schirm": 7051,
      "ĠMaterialien": 7052,
      "ĠschÃ¶nsten": 7053,
      "ĠInstitution": 7054,
      "Ġacc": 7055,
      "Ġgood": 7056,
      "cks": 7057,
      "Ġgeschrieben": 7058,
      "Ġweshalb": 7059,
      "ĠÃ¶ffnen": 7060,
      "ĠgrÃ¼": 7061,
      "ĠErwartungen": 7062,
      "Ġeigenes": 7063,
      "ĠMittelpunkt": 7064,
      "Ġniemals": 7065,
      "ĠDrit": 7066,
      "angt": 7067,
      "ĠVorsitz": 7068,
      "Ġhilft": 7069,
      "ĠHar": 7070,
      "ĠRegional": 7071,
      "schiff": 7072,
      "Ã¤ndler": 7073,
      "flÃ¤chen": 7074,
      "Ġsofern": 7075,
      "Ġpr": 7076,
      "Ġentschlossen": 7077,
      "Ġzweifellos": 7078,
      "liefert": 7079,
      "Ġeinerseits": 7080,
      "ĠBlut": 7081,
      "ĠBulgar": 7082,
      "ĠEmpfehlung": 7083,
      "Aufgrund": 7084,
      "ĠFahrzeug": 7085,
      "ĠQualitÃ¤ts": 7086,
      "afe": 7087,
      "ward": 7088,
      "Ġweltweiten": 7089,
      "ĠWeiÃŁ": 7090,
      "samkeit": 7091,
      "Ġhervorragende": 7092,
      "ĠHindern": 7093,
      "IG": 7094,
      "aser": 7095,
      "lieben": 7096,
      "ĠTemperatur": 7097,
      "ĠLÃ¶": 7098,
      "ĠPH": 7099,
      "ĠDauer": 7100,
      "oth": 7101,
      "Ġausgezeichnete": 7102,
      "ĠEinheit": 7103,
      "ĠUmgang": 7104,
      "ĠStudie": 7105,
      "ĠAgrarpolitik": 7106,
      "Komm": 7107,
      "Vom": 7108,
      "einbar": 7109,
      "ĠauÃŁen": 7110,
      "ĠKandidaten": 7111,
      "ĠBadezimmer": 7112,
      "Ġkombin": 7113,
      "ĠFriedens": 7114,
      "ahrt": 7115,
      "rÃ¤cht": 7116,
      "Ġzuerst": 7117,
      "ĠLei": 7118,
      "pposition": 7119,
      "mitten": 7120,
      "gesundheit": 7121,
      "ĠChin": 7122,
      "ĠFerienw": 7123,
      "ĠBeratung": 7124,
      "Ġneuesten": 7125,
      "ĠjÃ¤hrlich": 7126,
      "ĠnatÃ¼rlichen": 7127,
      "ĠMorgen": 7128,
      "ĠBedien": 7129,
      "Ġspanischen": 7130,
      "Tats": 7131,
      "verw": 7132,
      "tition": 7133,
      "ĠKompl": 7134,
      "modell": 7135,
      "This": 7136,
      "rÃ¤ften": 7137,
      "ventionen": 7138,
      "Ġerweitert": 7139,
      "teile": 7140,
      "stieg": 7141,
      "Ġbreite": 7142,
      "ĠKategorie": 7143,
      "napp": 7144,
      "Ġschreiben": 7145,
      "weisung": 7146,
      "ichert": 7147,
      "ĠAmerika": 7148,
      "ĠDach": 7149,
      "ĠKonflik": 7150,
      "ĠErinner": 7151,
      "ĠNachfrage": 7152,
      "ĠbemÃ¼ht": 7153,
      "ĠÃľbersetzung": 7154,
      "Neu": 7155,
      "ĠBla": 7156,
      "Ġreden": 7157,
      "tÃ¤u": 7158,
      "Ġausgezeichneten": 7159,
      "Ġbetreffenden": 7160,
      "Ġruhigen": 7161,
      "ĠServices": 7162,
      "gyp": 7163,
      "ĠBefug": 7164,
      "ĠSpann": 7165,
      "arian": 7166,
      "Ġport": 7167,
      "Ġinzwischen": 7168,
      "ĠSchm": 7169,
      "ĠfÃ¼hlen": 7170,
      "ĠKontinent": 7171,
      "ĠKÃ¼sten": 7172,
      "ĠSchulden": 7173,
      "TE": 7174,
      "ĠMikro": 7175,
      "ehme": 7176,
      "98": 7177,
      "decken": 7178,
      "ĠUngleich": 7179,
      "gemeinschaft": 7180,
      "ĠZuge": 7181,
      "ĠAmbiente": 7182,
      "ero": 7183,
      "Ġdis": 7184,
      "Ã¶rung": 7185,
      "IV": 7186,
      "ĠKrie": 7187,
      "ĠMc": 7188,
      "Ġmodi": 7189,
      "steh": 7190,
      "ĠEinstellung": 7191,
      "ĠEssen": 7192,
      "rate": 7193,
      "Ġgelegt": 7194,
      "euten": 7195,
      "ĠUnser": 7196,
      "emm": 7197,
      "ĠEntwicklungslÃ¤ndern": 7198,
      "zwei": 7199,
      "ĠVoraussetzung": 7200,
      "ĠVeranstaltung": 7201,
      "pel": 7202,
      "ĠursprÃ¼nglichen": 7203,
      "Welche": 7204,
      "trÃ¤ge": 7205,
      "ĠVerfass": 7206,
      "ĠSchrift": 7207,
      "ĠfÃ¼": 7208,
      "wirkung": 7209,
      "Ġinstalliert": 7210,
      "ĠEisenbahn": 7211,
      "pa": 7212,
      "werber": 7213,
      "rÃ¼cke": 7214,
      "Ġoffenen": 7215,
      "Ġrichten": 7216,
      "ĠDetails": 7217,
      "ĠMÃ¼nchen": 7218,
      "ĠParlam": 7219,
      "Adresse": 7220,
      "fo": 7221,
      "onders": 7222,
      "ĠÃľberzeugung": 7223,
      "behÃ¶rde": 7224,
      "ĠgewÃ¤hl": 7225,
      "ĠWill": 7226,
      "ĠbetrÃ¤cht": 7227,
      "Ã©e": 7228,
      "Ġmusste": 7229,
      "legungen": 7230,
      "Ġeinfachen": 7231,
      "ĠVerbesserungen": 7232,
      "ĠNormen": 7233,
      "ĠverÃ¤ndern": 7234,
      "istenz": 7235,
      "Ġnachzu": 7236,
      "uh": 7237,
      "act": 7238,
      "Vielleicht": 7239,
      "ĠEC": 7240,
      "ausend": 7241,
      "Ġaufzunehmen": 7242,
      "ĠBalkon": 7243,
      "zeichnis": 7244,
      "ĠMÃ¼": 7245,
      "euerung": 7246,
      "pon": 7247,
      "ehmigung": 7248,
      "Ġmenschlichen": 7249,
      "Ġwid": 7250,
      "ĠAg": 7251,
      "ĠMeinungs": 7252,
      "Ġgrundlegende": 7253,
      "Ġachten": 7254,
      "ĠKomment": 7255,
      "Ã¤ltigen": 7256,
      "âĦ": 7257,
      "Ġsorgt": 7258,
      "streben": 7259,
      "Ġkommer": 7260,
      "ĠprÃ¤sentiert": 7261,
      "ĠHigh": 7262,
      "Ġabgelehnt": 7263,
      "Ġdetaill": 7264,
      "Ġstimmt": 7265,
      "QL": 7266,
      "ĠGarantie": 7267,
      "Ġtrifft": 7268,
      "rennen": 7269,
      "spezif": 7270,
      "Ġentscheidend": 7271,
      "organisationen": 7272,
      "Ġstarten": 7273,
      "Ġfunktionieren": 7274,
      "Ġgezogen": 7275,
      "holen": 7276,
      "systems": 7277,
      "ĠÃľb": 7278,
      "Ġvis": 7279,
      "artigen": 7280,
      "bahnhof": 7281,
      "artet": 7282,
      "ĠFund": 7283,
      "ĠStandort": 7284,
      "Ġwettbewerb": 7285,
      "ĠBauern": 7286,
      "zum": 7287,
      "quis": 7288,
      "Ġharmon": 7289,
      "ĠWirtschaftsw": 7290,
      "ĠMicrosoft": 7291,
      "ĠIdentitÃ¤t": 7292,
      "Ġindustrie": 7293,
      "Ġorganisiert": 7294,
      "ĠkÃ¼nftigen": 7295,
      "ams": 7296,
      "Par": 7297,
      "ĠmÃ¼nd": 7298,
      "ĠTagung": 7299,
      "Ġkulturelle": 7300,
      "ĠKrimin": 7301,
      "ĠBlog": 7302,
      "Ġmark": 7303,
      "ziele": 7304,
      "ĠhÃ¶chsten": 7305,
      "01": 7306,
      "Ġ''": 7307,
      "Ġladen": 7308,
      "ĠÃľbereinstimmung": 7309,
      "otte": 7310,
      "ĠTschech": 7311,
      "lient": 7312,
      "Ġeffektiv": 7313,
      "ĠHarmonisierung": 7314,
      "ban": 7315,
      "Ġausgesprochen": 7316,
      "ĠPunkten": 7317,
      "rufen": 7318,
      "Ġdritte": 7319,
      "ado": 7320,
      "pfen": 7321,
      "ora": 7322,
      "Ġgratulieren": 7323,
      "Ġumzusetzen": 7324,
      "wirt": 7325,
      "Ġchem": 7326,
      "lastung": 7327,
      "schuld": 7328,
      "Ġveran": 7329,
      "zwe": 7330,
      "ĠJahrzeh": 7331,
      "Äį": 7332,
      "ĠMerk": 7333,
      "ifferen": 7334,
      "Ġriesigen": 7335,
      "IF": 7336,
      "Ġerlauben": 7337,
      "ĠStrukturen": 7338,
      ".-": 7339,
      "mÃ¤ÃŁige": 7340,
      "Ġ1996": 7341,
      "nimmt": 7342,
      "reichung": 7343,
      "Ġverschiedener": 7344,
      "ĠdurchzufÃ¼hren": 7345,
      "ĠMarketing": 7346,
      "Ġkurze": 7347,
      "Ġgewonnen": 7348,
      "LA": 7349,
      "Ġausgeschlossen": 7350,
      "Ges": 7351,
      "ĠungefÃ¤hr": 7352,
      "ĠBrowser": 7353,
      "arbeitern": 7354,
      "ĠEinkaufs": 7355,
      "ferenzen": 7356,
      "ĠFestlegung": 7357,
      "âĦ¢": 7358,
      "mme": 7359,
      "Ġverursacht": 7360,
      "Ja": 7361,
      "Du": 7362,
      "ĠCom": 7363,
      "handelt": 7364,
      "Ġyour": 7365,
      "porte": 7366,
      "Ġvorange": 7367,
      "Ġniedrig": 7368,
      "//": 7369,
      "ĠMobilitÃ¤t": 7370,
      "zehn": 7371,
      "inuier": 7372,
      "forschung": 7373,
      "ĠGerÃ¤te": 7374,
      "mischen": 7375,
      "schaff": 7376,
      "ĠDre": 7377,
      "dorf": 7378,
      "onn": 7379,
      "Ġverlangt": 7380,
      "ĠÃ¼bernimmt": 7381,
      "Ġauftreten": 7382,
      "angem": 7383,
      "ĠUngar": 7384,
      "ĠbekÃ¤mpfen": 7385,
      "Ġsoweit": 7386,
      "ĠAtom": 7387,
      "ĠgelÃ¶st": 7388,
      "ĠRegistr": 7389,
      "geschrieben": 7390,
      "70": 7391,
      "Ġtot": 7392,
      "Ġangesehen": 7393,
      "ĠÃĦnderungsantrÃ¤gen": 7394,
      "standards": 7395,
      "ĠzÃ¤hlt": 7396,
      "Ġbezug": 7397,
      "ĠNATO": 7398,
      "ando": 7399,
      "Ġuneingesch": 7400,
      "Ġfordere": 7401,
      "ĠDrittlÃ¤ndern": 7402,
      "La": 7403,
      "Ġanstatt": 7404,
      "ĠAnfragen": 7405,
      "ĠSki": 7406,
      "ĠmÃ¶gliche": 7407,
      "ĠVorschlÃ¤gen": 7408,
      "ĠZustÃ¤ndigkeit": 7409,
      "antast": 7410,
      "ĠNahen": 7411,
      "Ġlautet": 7412,
      "Ġkommerzie": 7413,
      "spir": 7414,
      "zÃ¼ge": 7415,
      "iste": 7416,
      "pal": 7417,
      "ieh": 7418,
      "Ġannehmen": 7419,
      "Ġgeboren": 7420,
      "Ġbuchen": 7421,
      "kehren": 7422,
      "Ġaufgefordert": 7423,
      "ehrt": 7424,
      "Ġeinzigartige": 7425,
      "ĠWik": 7426,
      "ĠCol": 7427,
      "Ġhervorheben": 7428,
      "Â¤": 7429,
      "Ġschafft": 7430,
      "Ġbesei": 7431,
      "schule": 7432,
      "ziplin": 7433,
      "ĠRoma": 7434,
      "ĠAutomobil": 7435,
      "ĠrÃ¼ck": 7436,
      "Ġanwes": 7437,
      "ĠVo": 7438,
      "ĠUNO": 7439,
      "Ġfra": 7440,
      "ĠGerman": 7441,
      "azier": 7442,
      "fÃ¼hrte": 7443,
      "Ã¶h": 7444,
      "ĠerÃ¶r": 7445,
      "Ġzugunsten": 7446,
      "ĠGegend": 7447,
      "Ġsehe": 7448,
      "ĠAusstattung": 7449,
      "sidi": 7450,
      "ĠKamp": 7451,
      "Ġperfekt": 7452,
      "ĠGoogle": 7453,
      "ĠGestaltung": 7454,
      "ĠAbschnitt": 7455,
      "ĠSatell": 7456,
      "ĠCode": 7457,
      "ĠOffen": 7458,
      "reat": 7459,
      "ĠGeschmack": 7460,
      "ĠArme": 7461,
      "Ġwissenschaftlichen": 7462,
      "Ġeinzus": 7463,
      "ory": 7464,
      "ĠSchatten": 7465,
      "Ã¼ssen": 7466,
      "ĠFÃ¼": 7467,
      "ĠBehinder": 7468,
      "tÃ¤": 7469,
      "Ġzentralen": 7470,
      "betrieb": 7471,
      "Ġsh": 7472,
      "Ġzufolge": 7473,
      "ema": 7474,
      "ĠSzen": 7475,
      "ĠverstÃ¤nd": 7476,
      "ĠAmts": 7477,
      "ĠPlanung": 7478,
      "ĠMÃ¶": 7479,
      "Ġbeabs": 7480,
      "ĠPrÃ¼f": 7481,
      "berge": 7482,
      "Bericht": 7483,
      "ĠbeglÃ¼ckwÃ¼nschen": 7484,
      "Ġlog": 7485,
      "yl": 7486,
      "ĠKilometer": 7487,
      "Em": 7488,
      "ĠBaum": 7489,
      "ĠStrÃ¤n": 7490,
      "ĠSteuern": 7491,
      "ĠSpa": 7492,
      "ĠFarbe": 7493,
      "ĠzustÃ¤ndigen": 7494,
      "Tra": 7495,
      "Ġzuzu": 7496,
      "ĠAusfÃ¼hrungen": 7497,
      "ĠEp": 7498,
      "Ġkurzen": 7499,
      "opf": 7500,
      "reffend": 7501,
      "ĠgerÃ¤um": 7502,
      "Ferner": 7503,
      "ĠWÃ¼r": 7504,
      "maschine": 7505,
      "ĠprÃ¤z": 7506,
      "isser": 7507,
      "ĠgeprÃ¤": 7508,
      "ĠerlÃ¤": 7509,
      "oni": 7510,
      "ĠRatsprÃ¤sidentschaft": 7511,
      "ĠbestÃ¤tigen": 7512,
      "Ġerheblich": 7513,
      "lefon": 7514,
      "Ã¤stinens": 7515,
      "law": 7516,
      "Ġbekomm": 7517,
      "ĠAktu": 7518,
      "ĠBay": 7519,
      "Ã¤hrung": 7520,
      "lieb": 7521,
      "Ġverstanden": 7522,
      "Ã¶ne": 7523,
      "ĠdurchfÃ¼hren": 7524,
      "ĠzurÃ¼ckge": 7525,
      "ĠBri": 7526,
      "roht": 7527,
      "ĠKrankheiten": 7528,
      "ĠStatist": 7529,
      "schiedet": 7530,
      "Ġmitten": 7531,
      "ugh": 7532,
      "Ġschwed": 7533,
      "ĠZahlungs": 7534,
      "-/": 7535,
      "Ġschnelle": 7536,
      "Ġflexib": 7537,
      "ĠStahl": 7538,
      "Ġverbringen": 7539,
      "Ġverabschiedet": 7540,
      "ĠDelegation": 7541,
      "rischen": 7542,
      "ĠfrÃ¼heren": 7543,
      "ĠHalb": 7544,
      "Ġparlament": 7545,
      "Ã¡n": 7546,
      "ĠBestellung": 7547,
      "Ġkontinuier": 7548,
      "Ġzentral": 7549,
      "gÃ¤": 7550,
      "ĠFÃ¤higkeiten": 7551,
      "Ġsodass": 7552,
      "ĠEurope": 7553,
      "minuten": 7554,
      "ringerung": 7555,
      "Ġnachhaltigen": 7556,
      "Zwei": 7557,
      "lÃ¤sslich": 7558,
      "ĠAusgangspunkt": 7559,
      "ags": 7560,
      "ditionen": 7561,
      "Ã¼nscht": 7562,
      "haushalt": 7563,
      "ĠAusfÃ¼hrung": 7564,
      "rittens": 7565,
      "ĠReligion": 7566,
      "ĠRund": 7567,
      "ĠzurÃ¼ckzu": 7568,
      "ĠOpposition": 7569,
      "ĠAngst": 7570,
      "Ġnotwendige": 7571,
      "Ġ150": 7572,
      "Ġac": 7573,
      "Ġehrgeiz": 7574,
      "enkt": 7575,
      "tifik": 7576,
      "ĠKontext": 7577,
      "Ġsk": 7578,
      "Ġausgestat": 7579,
      "Ġmm": 7580,
      "ĠUrspr": 7581,
      "Ġunent": 7582,
      "ĠGleichgewicht": 7583,
      "ĠProjekten": 7584,
      "ĠTick": 7585,
      "fÃ¤higkeit": 7586,
      "ugen": 7587,
      "Ġzivil": 7588,
      "97": 7589,
      "ĠBett": 7590,
      "ĠArbeitsplÃ¤tzen": 7591,
      "Fl": 7592,
      "ĠJournal": 7593,
      "ĠUmfeld": 7594,
      "vents": 7595,
      "ĠLast": 7596,
      "istik": 7597,
      "station": 7598,
      "ĠGrand": 7599,
      "ĠAusgabe": 7600,
      "ĠBeispiele": 7601,
      "hÃ¶rigen": 7602,
      "sorgung": 7603,
      "mÃ¤ÃŁigen": 7604,
      "Rat": 7605,
      "02": 7606,
      "kultur": 7607,
      "ossen": 7608,
      "Ã¤hler": 7609,
      "{{": 7610,
      "Ġpre": 7611,
      "ione": 7612,
      "Ġvolle": 7613,
      "PT": 7614,
      "Ġeinzuf": 7615,
      "ĠBill": 7616,
      "SP": 7617,
      "pekt": 7618,
      "Ġ195": 7619,
      "lik": 7620,
      "ĠRegierungskonferenz": 7621,
      "ĠCenter": 7622,
      "Ġgewissen": 7623,
      "Ġprodu": 7624,
      "sc": 7625,
      "gerÃ¤te": 7626,
      "Ġanspruchs": 7627,
      "usstsein": 7628,
      "Ã¼hl": 7629,
      "ael": 7630,
      "finanz": 7631,
      "ĠAusstellung": 7632,
      "stellungs": 7633,
      "hei": 7634,
      "Ġbezahlen": 7635,
      "ĠFla": 7636,
      "ĠGepÃ¤ck": 7637,
      "ĠLiebe": 7638,
      "eintrÃ¤ch": 7639,
      "ĠEntwicklungslÃ¤nder": 7640,
      "ĠAnwendungs": 7641,
      "aal": 7642,
      "eugen": 7643,
      "Ġjetz": 7644,
      "ĠÃ¶ffentlich": 7645,
      "ĠRedner": 7646,
      "ĠPlenum": 7647,
      "erkennen": 7648,
      "ĠEnterprise": 7649,
      "ĠForum": 7650,
      "gerufen": 7651,
      "Ġmassi": 7652,
      "ĠVerbot": 7653,
      "Ġmet": 7654,
      "etzten": 7655,
      "ĠAktien": 7656,
      "Ġdich": 7657,
      "ĠExport": 7658,
      "ĠGewicht": 7659,
      "Ġverleihen": 7660,
      "Ġermu": 7661,
      "izient": 7662,
      "ĠAnn": 7663,
      "beauftrag": 7664,
      "ĠDusche": 7665,
      "ĠArbeitsplatz": 7666,
      "Ġlocation": 7667,
      "ĠVir": 7668,
      "ĠKommun": 7669,
      "ĠRegime": 7670,
      "ĠbeschrÃ¤nkt": 7671,
      "ĠEinbeziehung": 7672,
      "Ġserviert": 7673,
      "ĠFeuer": 7674,
      "ammer": 7675,
      "itim": 7676,
      "ĠgeprÃ¼ft": 7677,
      "kom": 7678,
      "schm": 7679,
      "ĠAnbieter": 7680,
      "Ġfreiwill": 7681,
      "Ġaufnehmen": 7682,
      "ĠPrinzipien": 7683,
      "ĠBuchung": 7684,
      "ĠGewinn": 7685,
      "Ġproduziert": 7686,
      "ĠÃ¶sterreich": 7687,
      "Drittens": 7688,
      "ĠKMU": 7689,
      "herap": 7690,
      "Ġentdeck": 7691,
      "ĠAfghanistan": 7692,
      "Ã¼ler": 7693,
      "iker": 7694,
      "ĠFreiheiten": 7695,
      "ĠPartnern": 7696,
      "Ġverhindert": 7697,
      "ĠhÃ¤ngt": 7698,
      "machen": 7699,
      "ĠKroati": 7700,
      "Ġgeboten": 7701,
      "ĠvollstÃ¤ndige": 7702,
      "ĠChem": 7703,
      "ĠGeschÃ¤fte": 7704,
      "ĠRumÃ¤nien": 7705,
      "ĠZusammenhalt": 7706,
      "Ġausgezeichnet": 7707,
      "Ġwechsel": 7708,
      "ley": 7709,
      "ĠZentralbank": 7710,
      "banken": 7711,
      "Ġausgesetzt": 7712,
      "bliothek": 7713,
      "ĠGrad": 7714,
      "ĠStreit": 7715,
      "Ġbar": 7716,
      "ĠVerringerung": 7717,
      "lÃ¤ssigkeit": 7718,
      "ico": 7719,
      "ĠunmÃ¶glich": 7720,
      "ĠgeÃ¤": 7721,
      "ruption": 7722,
      "Ġverschw": 7723,
      "uens": 7724,
      "steigen": 7725,
      "Ġderartige": 7726,
      "Ġkre": 7727,
      "Ġentsteht": 7728,
      "ĠSchlafzimmer": 7729,
      "ĠHimm": 7730,
      "opul": 7731,
      "band": 7732,
      "ua": 7733,
      "Ġwelchem": 7734,
      "Ġentwickelten": 7735,
      "ĠHohen": 7736,
      "Ġdirekten": 7737,
      "Ġnied": 7738,
      "Ġabgestimmt": 7739,
      "grei": 7740,
      "Ð²": 7741,
      "ĠBeziehung": 7742,
      "reuz": 7743,
      "tifiziert": 7744,
      "sprachen": 7745,
      "kohol": 7746,
      "ochter": 7747,
      "ĠSonne": 7748,
      "Ġwollten": 7749,
      "ĠViertel": 7750,
      "sorge": 7751,
      "Ġmitge": 7752,
      "waffen": 7753,
      "Â«": 7754,
      "undert": 7755,
      "ĠGanz": 7756,
      "ĠErsatz": 7757,
      "Ġpassiert": 7758,
      "ago": 7759,
      "spannung": 7760,
      "produkte": 7761,
      "ĠAlternative": 7762,
      "ĠSchen": 7763,
      "oli": 7764,
      "Ġgeltenden": 7765,
      "heren": 7766,
      "Ġerreichbar": 7767,
      "ĠFÃ¶rder": 7768,
      "ĠSn": 7769,
      "ĠFaktoren": 7770,
      "wart": 7771,
      "ĠHaft": 7772,
      "scheidet": 7773,
      "rohung": 7774,
      "Ġhervorge": 7775,
      "ĠsorgfÃ¤ltig": 7776,
      "ĠNo": 7777,
      "Ġche": 7778,
      "ĠBru": 7779,
      "ĠKurz": 7780,
      "ĠBerufs": 7781,
      "ausschuÃŁ": 7782,
      "Ġgezwungen": 7783,
      "Ġplan": 7784,
      "prÃ¤sent": 7785,
      "ĠbegrÃ¼n": 7786,
      "ĠGemeinde": 7787,
      "Ġferner": 7788,
      "ĠAnrei": 7789,
      "Ġgebaut": 7790,
      "bs": 7791,
      "ĠDav": 7792,
      "ĠtatsÃ¤ch": 7793,
      "Ġbreit": 7794,
      "spf": 7795,
      "ĠHaftung": 7796,
      "ĠTrag": 7797,
      "ĠausgefÃ¼hrt": 7798,
      "ita": 7799,
      "ĠBemerkungen": 7800,
      "Ġlegt": 7801,
      "ĠGerichte": 7802,
      "Ġstaatlichen": 7803,
      "Ġerleichtern": 7804,
      "ĠMut": 7805,
      "hi": 7806,
      "bi": 7807,
      "cl": 7808,
      "date": 7809,
      "ĠTrend": 7810,
      "ĠCosta": 7811,
      "Lin": 7812,
      "ysi": 7813,
      "ĠbegrÃ¼ÃŁt": 7814,
      "Ġkostet": 7815,
      "Ohne": 7816,
      "arische": 7817,
      "Ġdefiniert": 7818,
      "weile": 7819,
      "ĠVorschlags": 7820,
      "Ġnahezu": 7821,
      "ĠhinzufÃ¼gen": 7822,
      "Ġvorlegen": 7823,
      "ĠKamera": 7824,
      "ĠFÃ¼hrer": 7825,
      "Ġ).": 7826,
      "Ġheutige": 7827,
      "Ġintensiv": 7828,
      "Ġkurzfrist": 7829,
      "ĠKrÃ¤fte": 7830,
      "Ġverehrte": 7831,
      "ĠWÃ¼nsche": 7832,
      "Ġpreis": 7833,
      "ĠPanor": 7834,
      "arif": 7835,
      "ĠMenÃ¼": 7836,
      "ĠKapitel": 7837,
      "ĠWachstums": 7838,
      "zonen": 7839,
      "ĠDen": 7840,
      "Ġwestlichen": 7841,
      "ĠNahrungsmittel": 7842,
      "Ġweite": 7843,
      "ical": 7844,
      "atis": 7845,
      "Ġordnungs": 7846,
      "enha": 7847,
      "icks": 7848,
      "dauer": 7849,
      "gent": 7850,
      "Ġhoff": 7851,
      "Strategie": 7852,
      "Ġ45": 7853,
      "gs": 7854,
      "ĠSchwimm": 7855,
      "Ġview": 7856,
      "ĠGeheim": 7857,
      "ĠÃĦr": 7858,
      "Ġjegliche": 7859,
      "Ġcan": 7860,
      "ĠGrÃ¼ndung": 7861,
      "rief": 7862,
      "nÃ¶": 7863,
      "ĠAktionsplan": 7864,
      "ammeln": 7865,
      "Daten": 7866,
      "pap": 7867,
      "wertet": 7868,
      "://": 7869,
      "ric": 7870,
      "ĠEinwohner": 7871,
      "ĠVermÃ¶gen": 7872,
      "sper": 7873,
      "ielte": 7874,
      "Ġerinnert": 7875,
      "wÃ¼r": 7876,
      "Ġsolange": 7877,
      "2010": 7878,
      "ĠVereinbarungen": 7879,
      "buffet": 7880,
      "Ñı": 7881,
      "ĠkÃ¤mpfen": 7882,
      "ĠErholung": 7883,
      "Ġspezifischen": 7884,
      "club": 7885,
      "austausch": 7886,
      "Ġvorbei": 7887,
      "Ġechten": 7888,
      "zentren": 7889,
      "ĠDeutschen": 7890,
      "ameter": 7891,
      "br": 7892,
      "denk": 7893,
      "ieler": 7894,
      "hren": 7895,
      "znei": 7896,
      "ĠFleisch": 7897,
      "dik": 7898,
      "ĠRechtsstaat": 7899,
      "ĠBeitrÃ¤ge": 7900,
      "ĠZypern": 7901,
      "ĠbemÃ¼hen": 7902,
      "gnor": 7903,
      "Ġangemessene": 7904,
      "teste": 7905,
      "ribution": 7906,
      "ĠMilch": 7907,
      "Ġfertig": 7908,
      "entwurf": 7909,
      "ĠÃ¼brigens": 7910,
      "Ġgespeichert": 7911,
      "ĠKonsens": 7912,
      "Ġbeschleun": 7913,
      "timal": 7914,
      "Ġout": 7915,
      "werben": 7916,
      "ĠhÃ¶heren": 7917,
      "fahrer": 7918,
      "ktivitÃ¤t": 7919,
      "aktieren": 7920,
      "ĠVerlust": 7921,
      "sidiaritÃ¤t": 7922,
      "ĠSpazier": 7923,
      "Ġpart": 7924,
      "samen": 7925,
      "ded": 7926,
      "ĠRezeption": 7927,
      "ĠVal": 7928,
      "ĠZiffer": 7929,
      "Ġexklus": 7930,
      "ĠPremier": 7931,
      "Ġarch": 7932,
      "ĠAmt": 7933,
      "ĠTÃ¤": 7934,
      "ĠMel": 7935,
      "Ġour": 7936,
      "ĠAnkunft": 7937,
      "duzierung": 7938,
      "eitungen": 7939,
      "ĠVerÃ¶ffentlichung": 7940,
      "Mill": 7941,
      "ress": 7942,
      "lean": 7943,
      "Ġpo": 7944,
      "ĠSchnitt": 7945,
      "chnung": 7946,
      "ype": 7947,
      "Ġ*": 7948,
      "schaffung": 7949,
      "ĠVerbindungen": 7950,
      "alitÃ¤ten": 7951,
      "ĠGesetzes": 7952,
      "sÃ¤tzen": 7953,
      "ĠWebseiten": 7954,
      "ror": 7955,
      "allel": 7956,
      "zeptabel": 7957,
      "orten": 7958,
      "ĠGlauben": 7959,
      "ida": 7960,
      "ĠSchuld": 7961,
      "Ġnutz": 7962,
      "ĠpalÃ¤stinens": 7963,
      "ĠBeam": 7964,
      "ĠProblems": 7965,
      "Ġbestehende": 7966,
      "Ġausreichen": 7967,
      "lingen": 7968,
      "Ġsah": 7969,
      "Ġverringern": 7970,
      "ĠGesellschaften": 7971,
      "gÃ¤nger": 7972,
      "ĠGefahren": 7973,
      "strategie": 7974,
      "iner": 7975,
      "Ġfac": 7976,
      "ĠKompetenz": 7977,
      "ĠAuÃŁenpolitik": 7978,
      "2000": 7979,
      "ĠZur": 7980,
      "Ġverbind": 7981,
      "99": 7982,
      "ĠWerbung": 7983,
      "Ġbilater": 7984,
      "Ð¼": 7985,
      "arn": 7986,
      "ĠRi": 7987,
      "ĠCasino": 7988,
      "Ġgegebenen": 7989,
      "Â°": 7990,
      "Ġverurteilt": 7991,
      "ĠUngarn": 7992,
      "Ġwann": 7993,
      "ĠSound": 7994,
      "ĠSauna": 7995,
      "olo": 7996,
      "Ġmu": 7997,
      "Ġbehalten": 7998,
      "ĠWebsites": 7999,
      "osa": 8000,
      "Ġneun": 8001,
      "Ġgl": 8002,
      "ĠâĢ¦": 8003,
      "ĠauÃŁerordentlich": 8004,
      "ĠkÃ¼mm": 8005,
      "acher": 8006,
      "struktion": 8007,
      "sie": 8008,
      "}}": 8009,
      "gi": 8010,
      "Dadurch": 8011,
      "ĠMax": 8012,
      "wege": 8013,
      "ĠBÃ¼ro": 8014,
      "ĠNet": 8015,
      "plemen": 8016,
      "ĠgewÃ¤hrt": 8017,
      "ĠSubsidiaritÃ¤t": 8018,
      "Ġruhig": 8019,
      "ĠProvinz": 8020,
      "Ã¤tten": 8021,
      "ĠbeschÃ¤ftigen": 8022,
      "ĠZwecke": 8023,
      "35": 8024,
      "tif": 8025,
      "Ġnunmehr": 8026,
      "ĠGi": 8027,
      "klÃ¤rung": 8028,
      "Ġ2020": 8029,
      "Ġverdient": 8030,
      "ĠgrundsÃ¤tzlich": 8031,
      "raten": 8032,
      "Ġeinfacher": 8033,
      "Ġverbinden": 8034,
      "ĠBesonder": 8035,
      "spakt": 8036,
      "aint": 8037,
      "Ġeinheitlichen": 8038,
      "Ġethn": 8039,
      "teilungen": 8040,
      "ĠGesprÃ¤che": 8041,
      "Ġberechtigt": 8042,
      "ĠFax": 8043,
      "ĠMarktes": 8044,
      "Ġgespielt": 8045,
      "Ġorganisieren": 8046,
      "ĠPolitiken": 8047,
      "sur": 8048,
      "ĠVorhaben": 8049,
      "Ġrechtlichen": 8050,
      "Ġmittler": 8051,
      "Ġinteressant": 8052,
      "ssysteme": 8053,
      "ĠGeorg": 8054,
      "Ġmoment": 8055,
      "Ġpe": 8056,
      "ĠZielen": 8057,
      "Ġbestimmen": 8058,
      "ĠFreit": 8059,
      "Ġabgesch": 8060,
      "ĠBrasil": 8061,
      "gten": 8062,
      "ĠVerbreitung": 8063,
      "ĠKomponenten": 8064,
      "ĠWirtschaftswachstum": 8065,
      "Ġersetzt": 8066,
      "Ġchinesischen": 8067,
      "hÃ¤user": 8068,
      "kreis": 8069,
      "Ġletztlich": 8070,
      "wan": 8071,
      "Ġmiss": 8072,
      "Ġvorstellen": 8073,
      "ĠbekrÃ¤f": 8074,
      "Beifall": 8075,
      "Ġjenen": 8076,
      "ĠJohn": 8077,
      "TatsÃ¤chlich": 8078,
      "ĠAL": 8079,
      "riendly": 8080,
      "ĠPoker": 8081,
      "Sow": 8082,
      "mod": 8083,
      "zÃ¼gigkeit": 8084,
      "stande": 8085,
      "Ġtrag": 8086,
      "ĠBoot": 8087,
      "Ġaktuell": 8088,
      "ĠPreisen": 8089,
      "behandlung": 8090,
      "Jedes": 8091,
      "ĠPrin": 8092,
      "ĠEG": 8093,
      "ativer": 8094,
      "ĠSorgen": 8095,
      "ĠBetrug": 8096,
      "ĠStraÃŁ": 8097,
      "Ġmaxim": 8098,
      "UNG": 8099,
      "emburg": 8100,
      "Sta": 8101,
      "ĠhÃ¶chst": 8102,
      "It": 8103,
      "usion": 8104,
      "Ġvorhandenen": 8105,
      "Ġdest": 8106,
      "ĠKorruption": 8107,
      "Ġdein": 8108,
      "ĠGericht": 8109,
      "Ġstre": 8110,
      "ĠAnschluss": 8111,
      "ĠâĢĶ": 8112,
      "IR": 8113,
      "ĠBan": 8114,
      "Ã¶rter": 8115,
      "Ġinstallieren": 8116,
      "ĠMigration": 8117,
      "Ġgestaltet": 8118,
      "Ġbemerken": 8119,
      "ĠWare": 8120,
      "ĠEnergien": 8121,
      "rich": 8122,
      "Ġzusammenarbeiten": 8123,
      "Ġentscheidende": 8124,
      "digen": 8125,
      "ras": 8126,
      "ĠKy": 8127,
      "of": 8128,
      "irk": 8129,
      "ĠBesorgnis": 8130,
      "26": 8131,
      "Ġanalys": 8132,
      "ĠLuxus": 8133,
      "ĠRenten": 8134,
      "ĠGroup": 8135,
      "iers": 8136,
      "ĠWegen": 8137,
      "ĠMedik": 8138,
      "Ġerfolgreiche": 8139,
      "gte": 8140,
      "ela": 8141,
      "avig": 8142,
      "ision": 8143,
      "Ġverwirk": 8144,
      "Ġstehenden": 8145,
      "ehnen": 8146,
      "Ġindividuellen": 8147,
      "ĠBetriebs": 8148,
      "ĠunverzÃ¼glich": 8149,
      "prinzip": 8150,
      "ĠBab": 8151,
      "ĠIP": 8152,
      "Ġindividuelle": 8153,
      "ĠArbeitsk": 8154,
      "gess": 8155,
      "ĠWart": 8156,
      "ukle": 8157,
      "ĠRechnungshof": 8158,
      "Ġisrael": 8159,
      "Ġberuht": 8160,
      "bran": 8161,
      "ics": 8162,
      "Se": 8163,
      "ĠVersand": 8164,
      "ĠFreunden": 8165,
      "Ġaussprechen": 8166,
      "Ġklaren": 8167,
      "90": 8168,
      "Noch": 8169,
      "lecht": 8170,
      "etzte": 8171,
      "ĠMangel": 8172,
      "ĠSchweizer": 8173,
      "wo": 8174,
      "ĠursprÃ¼nglich": 8175,
      "letter": 8176,
      "oriz": 8177,
      "Ġkamen": 8178,
      "ĠschlÃ¤gt": 8179,
      "ĠBetrag": 8180,
      "ĠdÃ¼rfte": 8181,
      "ontroll": 8182,
      "Datei": 8183,
      "Ġausgeb": 8184,
      "ockt": 8185,
      "Ġjener": 8186,
      "sorganis": 8187,
      "reuen": 8188,
      "ĠErzeugnisse": 8189,
      "ĠAsien": 8190,
      "Ġwiederholen": 8191,
      "96": 8192,
      "Ġverdien": 8193,
      "ĠSozialdemokra": 8194,
      "ĠmÃ¼": 8195,
      "ĠiP": 8196,
      "ĠGrÃ¶": 8197,
      "wÃ¤hlen": 8198,
      "Ġ1995": 8199,
      "center": 8200,
      "ĠBord": 8201,
      "Ġbestimmter": 8202,
      "ĠStÃ¤dten": 8203,
      "ĠSektoren": 8204,
      "ĠVerpack": 8205,
      "ĠLive": 8206,
      "Ġfehlt": 8207,
      "Ġluxuri": 8208,
      "Ġ400": 8209,
      "ĠFo": 8210,
      "scheidung": 8211,
      "ĠGere": 8212,
      "ĠAbkommens": 8213,
      "Ġreduzieren": 8214,
      "ĠVerlauf": 8215,
      "Ġoptimal": 8216,
      "ĠverstÃ¤rken": 8217,
      "Ġangewand": 8218,
      "chtigkeit": 8219,
      "Ġbetreffend": 8220,
      "Ġangegebenen": 8221,
      "ĠMitarbeitern": 8222,
      "Ġeingereicht": 8223,
      "zeuger": 8224,
      "Ġup": 8225,
      "ĠKrankheit": 8226,
      "ete": 8227,
      "ĠWerke": 8228,
      "ĠEigentum": 8229,
      "Ġbritische": 8230,
      "ĠUntersuchungen": 8231,
      "Ġpla": 8232,
      "ĠMex": 8233,
      "ĠSerie": 8234,
      "ĠWerkzeug": 8235,
      "Ġinnovative": 8236,
      "ĠHinweis": 8237,
      "ya": 8238,
      "wirkt": 8239,
      "ĠBetracht": 8240,
      "Ġwidersp": 8241,
      "Ġ32": 8242,
      "Ġverkaufen": 8243,
      "kret": 8244,
      "ĠVorstellung": 8245,
      "ohnungen": 8246,
      "anw": 8247,
      "bek": 8248,
      "usÃ¤tzlich": 8249,
      "Ġamtieren": 8250,
      "rucht": 8251,
      "ĠergÃ¤nzen": 8252,
      "frikanischen": 8253,
      "ĠOptionen": 8254,
      "ĠÃ¤uÃŁern": 8255,
      "informationen": 8256,
      "Ġrelev": 8257,
      "ADS": 8258,
      "ĠTabak": 8259,
      "werken": 8260,
      "ĠKontrollen": 8261,
      "Web": 8262,
      "Ġzweit": 8263,
      "ĠMÃ¤nnern": 8264,
      "Ã¤ss": 8265,
      "ĠTochter": 8266,
      "ĠSing": 8267,
      "nerstag": 8268,
      "Ġsepar": 8269,
      "ĠgroÃŁzÃ¼g": 8270,
      "Ġbr": 8271,
      "ĠSpaÃŁ": 8272,
      "ĠAbhÃ¤ng": 8273,
      "ĠUrheber": 8274,
      "ĠAuge": 8275,
      "ĠSchlussfolgerungen": 8276,
      "Ġerhielt": 8277,
      "ĠPin": 8278,
      "ĠBemerkung": 8279,
      "Ġvorbereitet": 8280,
      "ĠDek": 8281,
      "ĠKopenha": 8282,
      "Ġrussischen": 8283,
      "ump": 8284,
      "regeln": 8285,
      "ibl": 8286,
      "ĠCharta": 8287,
      "trags": 8288,
      "ĠMitt": 8289,
      "ĠProgrammen": 8290,
      "ĠGerÃ¤t": 8291,
      "ĠDam": 8292,
      "burger": 8293,
      "vern": 8294,
      "ĠAusmaÃŁ": 8295,
      "kehrt": 8296,
      "ĠWetter": 8297,
      "anne": 8298,
      "Ġempfohlen": 8299,
      "sverl": 8300,
      "Ġnahm": 8301,
      "Kann": 8302,
      "mon": 8303,
      "ura": 8304,
      "Ġhilf": 8305,
      "ques": 8306,
      "Ġerfolgreichen": 8307,
      "region": 8308,
      "Mo": 8309,
      "arr": 8310,
      "ĠMP": 8311,
      "ĠBereitstellung": 8312,
      "skrise": 8313,
      "ĠSemin": 8314,
      "Ġvieles": 8315,
      "Men": 8316,
      "Ġpage": 8317,
      "ĠBÃ¶r": 8318,
      "alisierten": 8319,
      "Ġindividuell": 8320,
      "ĠRadio": 8321,
      "ĠWesent": 8322,
      "atch": 8323,
      "ĠSec": 8324,
      "ĠWohlstand": 8325,
      "ĠMrd": 8326,
      "Ġvermitteln": 8327,
      "Ġtro": 8328,
      "lassung": 8329,
      "ĠRechtsgrundlage": 8330,
      "ĠVerbraucherschutz": 8331,
      "Ġauseinander": 8332,
      "Ġeinig": 8333,
      "schefs": 8334,
      "Ġeingehalten": 8335,
      "zusammen": 8336,
      "Ġkritis": 8337,
      "Ġpoln": 8338,
      "deckt": 8339,
      "For": 8340,
      "ĠZahlung": 8341,
      "gebiete": 8342,
      "kern": 8343,
      "aszin": 8344,
      "Ġerhebliche": 8345,
      "ĠSatz": 8346,
      "ĠausgewÃ¤hl": 8347,
      "ĠRegen": 8348,
      "Ġanwesend": 8349,
      "Ġempfangen": 8350,
      "ĠKonkur": 8351,
      "Ġtransparen": 8352,
      "Ġbeigetragen": 8353,
      "very": 8354,
      "ĠOriginal": 8355,
      "vorschlag": 8356,
      "ros": 8357,
      "ĠPre": 8358,
      "ĠgroÃŁem": 8359,
      "ĠErwÃ¤": 8360,
      "effizienz": 8361,
      "Ġverantwortungs": 8362,
      "sprechend": 8363,
      "EW": 8364,
      "far": 8365,
      "ĠRh": 8366,
      "rau": 8367,
      "edia": 8368,
      "Ġbeteiligen": 8369,
      "Ġru": 8370,
      "ĠTraum": 8371,
      "Stand": 8372,
      "Ã¤umt": 8373,
      "Ġignor": 8374,
      "ehren": 8375,
      "Ġstil": 8376,
      "amente": 8377,
      "ĠSchluÃŁ": 8378,
      "RA": 8379,
      "ĠAnmerk": 8380,
      "olen": 8381,
      "ika": 8382,
      "ĠBrenn": 8383,
      "ĠwunderschÃ¶nen": 8384,
      "werks": 8385,
      "ĠSatelliten": 8386,
      "OT": 8387,
      "hÃ¤ngen": 8388,
      "ĠVorder": 8389,
      "onien": 8390,
      "Ġstamm": 8391,
      "Ġ?": 8392,
      "Ġelektronischen": 8393,
      "ĠZin": 8394,
      "ĠÅ": 8395,
      "Also": 8396,
      "ĠKonsult": 8397,
      "Ġsensi": 8398,
      "zahlen": 8399,
      "ĠSchulen": 8400,
      "Ġbeobachten": 8401,
      "amin": 8402,
      "ĠBelast": 8403,
      "Form": 8404,
      "ĠKlar": 8405,
      "Ġbedauer": 8406,
      "van": 8407,
      "Ġfuer": 8408,
      "Ġpour": 8409,
      "Ġwettbewerbsf": 8410,
      "fÃ¤llig": 8411,
      "ĠVision": 8412,
      "ĠMitgliedschaft": 8413,
      "oÃŁen": 8414,
      "ĠVerd": 8415,
      "ĠKnow": 8416,
      "Ġlast": 8417,
      "ĠKommunikations": 8418,
      "EU": 8419,
      "Ġstolz": 8420,
      "Ġvorrang": 8421,
      "mark": 8422,
      "ĠSupport": 8423,
      "orea": 8424,
      "ĠGegenstand": 8425,
      "orie": 8426,
      "ĠFrankfurt": 8427,
      "Ġprop": 8428,
      "Ġverboten": 8429,
      "ĠSchÃ¶nheit": 8430,
      "ÑĮ": 8431,
      "Ġunvergess": 8432,
      "ĠSchne": 8433,
      "laubwÃ¼rdigkeit": 8434,
      "iegelt": 8435,
      "ĠBIP": 8436,
      "Ġeinzigartigen": 8437,
      "Ġstrategischen": 8438,
      "Ġanbel": 8439,
      "ĠInfl": 8440,
      "Ġbislang": 8441,
      "Ġkomme": 8442,
      "ĠStudio": 8443,
      "Ġgearbeitet": 8444,
      "Ġgekenn": 8445,
      "Ġausgerichtet": 8446,
      "Ġlokale": 8447,
      "Ġtraditionelle": 8448,
      "ĠStimmen": 8449,
      "Ad": 8450,
      "kund": 8451,
      "Ġgenannte": 8452,
      "Ã¶konom": 8453,
      "ZB": 8454,
      "senz": 8455,
      "Ġamerikanische": 8456,
      "Ã¼bt": 8457,
      "ĠVerfahrens": 8458,
      "ĠNachricht": 8459,
      "sstra": 8460,
      "spartei": 8461,
      "Beschreibung": 8462,
      "tiz": 8463,
      "ĠBedrohung": 8464,
      "Ã¤usern": 8465,
      "ehrten": 8466,
      "Ġsolches": 8467,
      "Ġentscheidender": 8468,
      "Ġaktivieren": 8469,
      "21": 8470,
      "ĠArznei": 8471,
      "Sh": 8472,
      "Ġanbelangt": 8473,
      "IB": 8474,
      "imes": 8475,
      "Ġintegriert": 8476,
      "ymbol": 8477,
      "politischen": 8478,
      "urteilung": 8479,
      "ĠBars": 8480,
      "ĠSicherung": 8481,
      "bereichen": 8482,
      "ĠDirekt": 8483,
      "kÃ¼r": 8484,
      "Ġlo": 8485,
      "ĠzustÃ¤ndig": 8486,
      "ĠGewÃ¤hrleistung": 8487,
      "ĠStaates": 8488,
      "Ġverkauft": 8489,
      "ĠWandel": 8490,
      "ause": 8491,
      "Ġhochwertige": 8492,
      "urm": 8493,
      "ĠErstellung": 8494,
      "Ġverbindet": 8495,
      "Ġerzeugt": 8496,
      "ĠOlymp": 8497,
      "Ġbereitgestellt": 8498,
      "wald": 8499,
      "ĠSpeicher": 8500,
      "ĠKonsequenzen": 8501,
      "nien": 8502,
      "ĠISO": 8503,
      "ĠfranzÃ¶sische": 8504,
      "ĠWiderstand": 8505,
      "mittels": 8506,
      "Ġliefert": 8507,
      "Ġkleines": 8508,
      "ĠBlock": 8509,
      "ĠPack": 8510,
      "Ġrest": 8511,
      "eigern": 8512,
      "ĠKaffee": 8513,
      "swerte": 8514,
      "ĠGlaubwÃ¼rdigkeit": 8515,
      "ĠAnsichten": 8516,
      "eigerung": 8517,
      "Deswegen": 8518,
      "Service": 8519,
      "zenten": 8520,
      "Ġschicken": 8521,
      "ssicherheit": 8522,
      "rasse": 8523,
      "ĠDrei": 8524,
      "work": 8525,
      "uchte": 8526,
      "Besonders": 8527,
      "strafe": 8528,
      "ĠTelek": 8529,
      "cor": 8530,
      "plom": 8531,
      "Ġeffizient": 8532,
      "ĠÃľberlegungen": 8533,
      "jekten": 8534,
      "ĠParkplatz": 8535,
      "Ġverteidigen": 8536,
      "ĠAlpen": 8537,
      "ĠSohn": 8538,
      "werden": 8539,
      "folgung": 8540,
      "reche": 8541,
      "geschichte": 8542,
      "Ġletztendlich": 8543,
      "04": 8544,
      "ieden": 8545,
      "Ġweist": 8546,
      "Ġbeantworten": 8547,
      "asy": 8548,
      "atter": 8549,
      "Ġstud": 8550,
      "Ġstammen": 8551,
      "05": 8552,
      "Ġone": 8553,
      "Ġinklusive": 8554,
      "niveau": 8555,
      "version": 8556,
      "ĠVerletzung": 8557,
      "ĠÃ¶konom": 8558,
      "euert": 8559,
      "ĠResort": 8560,
      "Ġwiederholt": 8561,
      "schreiben": 8562,
      "Ġhad": 8563,
      "ĠLeistungs": 8564,
      "Ġsozialer": 8565,
      "liehen": 8566,
      "ĠBush": 8567,
      "ordnungen": 8568,
      "enbezogen": 8569,
      "eira": 8570,
      "ĠÃľbersetz": 8571,
      "ĠAKP": 8572,
      "SL": 8573,
      "SelbstverstÃ¤ndlich": 8574,
      "Ã¤rkt": 8575,
      "chner": 8576,
      "rolle": 8577,
      "mente": 8578,
      "ĠSpitzen": 8579,
      "Ġvirt": 8580,
      "Ġmittleren": 8581,
      "ĠVerarbeitung": 8582,
      "Ġoffenbar": 8583,
      "ĠFahrt": 8584,
      "Ġroman": 8585,
      "nicht": 8586,
      "Ġmachte": 8587,
      "ĠCha": 8588,
      "ĠLieferung": 8589,
      "andt": 8590,
      "skon": 8591,
      "ĠKollegin": 8592,
      "weilen": 8593,
      "ĠAlli": 8594,
      "ĠArb": 8595,
      "ĠZivilgesellschaft": 8596,
      "ĠDigital": 8597,
      "ĠSchloss": 8598,
      "ĠTauch": 8599,
      "ĠFuÃŁball": 8600,
      "Ġoffiziellen": 8601,
      "ĠVerf": 8602,
      "hÃ¤ltnisse": 8603,
      "ĠFreitag": 8604,
      "ĠgenÃ¼gend": 8605,
      "sproblem": 8606,
      "rechter": 8607,
      "2001": 8608,
      "ĠÃ¼berprÃ¼ft": 8609,
      "Ġkonfron": 8610,
      "ĠPositionen": 8611,
      "ĠDonnerstag": 8612,
      "schul": 8613,
      "aria": 8614,
      "Ġherrscht": 8615,
      "weich": 8616,
      "ĠnÃ¶r": 8617,
      "ĠGeschwindigkeit": 8618,
      "Ġwohnen": 8619,
      "Ġinmitten": 8620,
      "Ġmussten": 8621,
      "Res": 8622,
      "Sollte": 8623,
      "Zusammen": 8624,
      "ĠErfÃ¼llung": 8625,
      "Ġweitgehend": 8626,
      "iessen": 8627,
      "tisches": 8628,
      "agentur": 8629,
      "garten": 8630,
      "ĠGang": 8631,
      "Ġhinweg": 8632,
      "Ġmoral": 8633,
      "ĠOut": 8634,
      "ĠAugenblick": 8635,
      "Ġvorzulegen": 8636,
      "Ġ1990": 8637,
      "Ġallzu": 8638,
      "Ġfinanziell": 8639,
      "TA": 8640,
      "ĠRub": 8641,
      "ĠAnstieg": 8642,
      "ĠEntlastung": 8643,
      "ĠBack": 8644,
      "organisation": 8645,
      "ĠGÃ¼ter": 8646,
      "ĠFestpl": 8647,
      "Ġkonkret": 8648,
      "Ġvous": 8649,
      "ĠOptim": 8650,
      "Ġarab": 8651,
      "Ġbreiten": 8652,
      "ĠEingang": 8653,
      "ĠHal": 8654,
      "Insbesondere": 8655,
      "bente": 8656,
      "Ġeinzur": 8657,
      "chst": 8658,
      "ĠRespekt": 8659,
      "Ġerlebt": 8660,
      "Ġbetreiben": 8661,
      "rÃ¤nkung": 8662,
      "ĠWÃ¤l": 8663,
      "ĠEmail": 8664,
      "lÃ¶sen": 8665,
      "strichen": 8666,
      "ĠKonto": 8667,
      "krÃ¤fte": 8668,
      "eiert": 8669,
      "ĠglÃ¼ck": 8670,
      "aw": 8671,
      "Ġgepf": 8672,
      "hÃ¶rt": 8673,
      "ĠGrÃ¼nen": 8674,
      "mung": 8675,
      "ĠOrte": 8676,
      "ĠBeschlÃ¼sse": 8677,
      "wiegend": 8678,
      "Ġ194": 8679,
      "ĠPfer": 8680,
      "ĠKabel": 8681,
      "Ġerstmals": 8682,
      "ĠImp": 8683,
      "ĠRati": 8684,
      "stechnik": 8685,
      "ĠHilfs": 8686,
      "ral": 8687,
      "ĠEinstellungen": 8688,
      "ĠErm": 8689,
      "atische": 8690,
      "ĠBulgarien": 8691,
      "Mitgliedstaaten": 8692,
      "ĠRob": 8693,
      "Ġlag": 8694,
      "Ġentwickelte": 8695,
      "ĠPower": 8696,
      "ĠgÃ¼nstig": 8697,
      "Wird": 8698,
      "Ġstellte": 8699,
      "CC": 8700,
      "Ãº": 8701,
      "Ġernsthaft": 8702,
      "Ġtritt": 8703,
      "ĠPHP": 8704,
      "Sollten": 8705,
      "ĠAnlass": 8706,
      "ĠReduzierung": 8707,
      "Ġhart": 8708,
      "grad": 8709,
      "rÃ¤nke": 8710,
      "ĠCaf": 8711,
      "ranten": 8712,
      "ĠGehminuten": 8713,
      "ĠAutobahn": 8714,
      "Ġaktive": 8715,
      "Ġgelingt": 8716,
      "ĠStoffe": 8717,
      "Ġjahr": 8718,
      "Ġorigin": 8719,
      "LE": 8720,
      "fluss": 8721,
      "ria": 8722,
      "ĠMinisterp": 8723,
      "ĠFinn": 8724,
      "Ġinvestieren": 8725,
      "pol": 8726,
      "ĠÃ¤hnlich": 8727,
      "ĠVerzÃ¶": 8728,
      "Ġ;": 8729,
      "Ġhierbei": 8730,
      "Ġbele": 8731,
      "aller": 8732,
      "ĠPraktiken": 8733,
      "weisungen": 8734,
      "mitglied": 8735,
      "ĠerwÃ¤hnen": 8736,
      "âĢĿ.": 8737,
      "ĠanschlieÃŁen": 8738,
      "ĠDieser": 8739,
      "PA": 8740,
      "Ġrooms": 8741,
      "ĠMadrid": 8742,
      "33": 8743,
      "haltigkeit": 8744,
      "ossi": 8745,
      "Ã¤ngst": 8746,
      "Ġbekommt": 8747,
      "Bar": 8748,
      "viertel": 8749,
      "Ġjur": 8750,
      "ĠSterne": 8751,
      "achteil": 8752,
      "zepte": 8753,
      "ipfel": 8754,
      "Jede": 8755,
      "utern": 8756,
      "ĠSchÃ¼ler": 8757,
      "ĠSonnt": 8758,
      "ĠDenn": 8759,
      "Ġzus": 8760,
      "ĠBitte": 8761,
      "ĠGottes": 8762,
      "Ġhtt": 8763,
      "Ġillegalen": 8764,
      "ĠzukÃ¼nftigen": 8765,
      "Ġhervorra": 8766,
      "Ġversichern": 8767,
      "Ġbreakfast": 8768,
      "Ġunterscheiden": 8769,
      "27": 8770,
      "2009": 8771,
      "ĠMedizin": 8772,
      "Ġeinbezogen": 8773,
      "ĠErlebnis": 8774,
      "steuropa": 8775,
      "Ġletzter": 8776,
      "ĠKonfigur": 8777,
      "ĠWÃ¤hler": 8778,
      "ĠfÃ¼hrende": 8779,
      "Ġangepasst": 8780,
      "ĠGerechtigkeit": 8781,
      "ĠKatastrophe": 8782,
      "Ġvorgesehenen": 8783,
      "Ġinstitutionellen": 8784,
      "strÃ¤ger": 8785,
      "uro": 8786,
      "Ġdeswegen": 8787,
      "onto": 8788,
      "Software": 8789,
      "Ã¤higen": 8790,
      "Ġoptimale": 8791,
      "uverÃ¤n": 8792,
      "Spe": 8793,
      "Ġreduziert": 8794,
      "ĠSÃ¤": 8795,
      "brechen": 8796,
      "Ġkompliz": 8797,
      "Ġunterstreichen": 8798,
      "lager": 8799,
      "Ġbegrenzt": 8800,
      "ĠGleichstellung": 8801,
      "28": 8802,
      "arus": 8803,
      "ĠIst": 8804,
      "Ã¤nglich": 8805,
      "abt": 8806,
      "ĠKontakte": 8807,
      "Ġersetzen": 8808,
      "Ġeinzusetzen": 8809,
      "Ġeinst": 8810,
      "ĠÃľbernachtung": 8811,
      "ĠTÃ¤tigkeiten": 8812,
      "ĠRevolution": 8813,
      "Ġdeutsch": 8814,
      "Script": 8815,
      "Ġgestattet": 8816,
      "ĠQuellen": 8817,
      "osophie": 8818,
      "Ã¤tzt": 8819,
      "Ġbeendet": 8820,
      "Dort": 8821,
      "Ġbehaupten": 8822,
      "Ġsuper": 8823,
      "Ġgetragen": 8824,
      "okratie": 8825,
      "Ġwirtschaftlicher": 8826,
      "ĠPlaneten": 8827,
      "Ġverteilt": 8828,
      "Lie": 8829,
      "ĠStamm": 8830,
      "Ġkontaktieren": 8831,
      "ĠverfÃ¼gbaren": 8832,
      "seiten": 8833,
      "Ġgefallen": 8834,
      "ĠTextil": 8835,
      "sprinzip": 8836,
      "ugang": 8837,
      "ĠKulturen": 8838,
      "solid": 8839,
      "ĠanschlieÃŁend": 8840,
      "www": 8841,
      "Ġbegeg": 8842,
      "ĠKongress": 8843,
      "sfonds": 8844,
      "ĠkÃ¼nftige": 8845,
      "ĠStation": 8846,
      "Ã¶ffnung": 8847,
      "ask": 8848,
      "staatlichen": 8849,
      "kurs": 8850,
      "ĠSchiffe": 8851,
      "uls": 8852,
      "Ġmitteilen": 8853,
      "Ġherum": 8854,
      "woch": 8855,
      "ĠMarke": 8856,
      "ĠAlltag": 8857,
      "unger": 8858,
      "ĠPersÃ¶n": 8859,
      "Ġbedeutende": 8860,
      "ION": 8861,
      "bildungs": 8862,
      "ĠInstitut": 8863,
      "ior": 8864,
      "Ġvollen": 8865,
      "Ġansprechen": 8866,
      "Ġerstre": 8867,
      "Ġkat": 8868,
      "ĠWohnung": 8869,
      "rennt": 8870,
      "ĠSaison": 8871,
      "Part": 8872,
      "ektrum": 8873,
      "ĠExistenz": 8874,
      "Ġspezifische": 8875,
      "Jahr": 8876,
      "umin": 8877,
      "ugos": 8878,
      "stoÃŁ": 8879,
      "ĠSituationen": 8880,
      "ĠEntfern": 8881,
      "ĠPrag": 8882,
      "ĠLiter": 8883,
      "istischer": 8884,
      "igner": 8885,
      "ĠEbenen": 8886,
      "ĠVon": 8887,
      "Will": 8888,
      "zungen": 8889,
      "bÃ¼": 8890,
      "betten": 8891,
      "ĠBou": 8892,
      "ĠbeeintrÃ¤ch": 8893,
      "ĠProzesse": 8894,
      "ammelt": 8895,
      "ĠSachen": 8896,
      "ĠWall": 8897,
      "bring": 8898,
      "Ã¼hrt": 8899,
      "ights": 8900,
      "Wo": 8901,
      "Ġfund": 8902,
      "gerÃ¤t": 8903,
      "Ġhervorgehoben": 8904,
      "Ġbisherigen": 8905,
      "Ġkonzentriert": 8906,
      "ĠgrÃ¶ÃŁeres": 8907,
      "Ġabstimmen": 8908,
      "spielen": 8909,
      "lexibl": 8910,
      "blehnung": 8911,
      "kap": 8912,
      "ĠFrist": 8913,
      "ĠWeiteren": 8914,
      "Ġteile": 8915,
      "ĠPlattform": 8916,
      "bleiben": 8917,
      "gelÃ¶st": 8918,
      "izza": 8919,
      "fernen": 8920,
      "Erst": 8921,
      "ĠAnwender": 8922,
      "Fol": 8923,
      "Ġgewal": 8924,
      "Ġwissenschaftliche": 8925,
      "herstellung": 8926,
      "ĠHerbst": 8927,
      "ĠWiderspruch": 8928,
      "bedarf": 8929,
      "ĠAbfall": 8930,
      "ĠLeiden": 8931,
      "ĠUmsatz": 8932,
      "Ġunterzeichnet": 8933,
      "arma": 8934,
      "ĠVerÃ¤nderung": 8935,
      "Ġlangfristige": 8936,
      "ĠGefÃ¤ng": 8937,
      "Ġkonfrontiert": 8938,
      "Ġschm": 8939,
      "Ã¤rten": 8940,
      "Su": 8941,
      "Ġunterliegen": 8942,
      "Ġoffene": 8943,
      "ĠAblehnung": 8944,
      "Ġmanche": 8945,
      "Ġpotenzie": 8946,
      "ĠFreizÃ¼gigkeit": 8947,
      "ĠDenk": 8948,
      "Ġwhich": 8949,
      "leiste": 8950,
      "Ġgeraten": 8951,
      "elden": 8952,
      "Ġvorgeschlagene": 8953,
      "ĠKriminalitÃ¤t": 8954,
      "eff": 8955,
      "Ġlieber": 8956,
      "Gegen": 8957,
      "ĠBos": 8958,
      "uÃŁt": 8959,
      "ĠDokumenten": 8960,
      "cell": 8961,
      "ĠKlasse": 8962,
      "Alles": 8963,
      "ĠResiden": 8964,
      "ĠApartment": 8965,
      "ĠÃľbergangs": 8966,
      "Ġheim": 8967,
      "rip": 8968,
      "ĠBurg": 8969,
      "Ġgebrauch": 8970,
      "ĠKroatien": 8971,
      "Ġhas": 8972,
      "Ġ2011": 8973,
      "jektiv": 8974,
      "Ġleb": 8975,
      "Ã¶rp": 8976,
      "ĠkÃ¶nnt": 8977,
      "achter": 8978,
      "Ġumge": 8979,
      "ĠSchei": 8980,
      "ĠBetten": 8981,
      "azitÃ¤ten": 8982,
      "initi": 8983,
      "ĠPerspektive": 8984,
      "ĠordnungsgemÃ¤ÃŁ": 8985,
      "Haus": 8986,
      "Ñĭ": 8987,
      "ĠMittag": 8988,
      "Ġumfassend": 8989,
      "drÃ¼ckt": 8990,
      "aison": 8991,
      "ugoslaw": 8992,
      "leidung": 8993,
      "UN": 8994,
      "anzig": 8995,
      "programme": 8996,
      "ĠVideos": 8997,
      "ĠCamping": 8998,
      "Ã¤ÃŁt": 8999,
      "Ġindir": 9000,
      "ÃŃa": 9001,
      "Ġhttp": 9002,
      "Ġabz": 9003,
      "Ġfreundlich": 9004,
      "ĠKreis": 9005,
      "ides": 9006,
      "Ġsign": 9007,
      "ĠPasswort": 9008,
      "Ġherunterladen": 9009,
      "Ġdrama": 9010,
      "Ġï¿½": 9011,
      "ĠArgument": 9012,
      "dy": 9013,
      "ias": 9014,
      "anisch": 9015,
      "ĠAbschaffung": 9016,
      "Ġjap": 9017,
      "Ġergibt": 9018,
      "ypen": 9019,
      "DA": 9020,
      "Ġpersonenbezogen": 9021,
      "ausp": 9022,
      "ĠFormat": 9023,
      "ĠRÃ¼ckkehr": 9024,
      "ĠDeutsche": 9025,
      "dis": 9026,
      "unruh": 9027,
      "lav": 9028,
      "Ġeingegangen": 9029,
      "ef": 9030,
      "ĠKal": 9031,
      "ĠVolkes": 9032,
      "Ġinternen": 9033,
      "ĠAudio": 9034,
      "wechs": 9035,
      "fachung": 9036,
      "Ġfinanziert": 9037,
      "urn": 9038,
      "utsch": 9039,
      "Ġunzur": 9040,
      "annter": 9041,
      "Ġmodif": 9042,
      "El": 9043,
      "ĠFahrzeuge": 9044,
      "ĠBelgien": 9045,
      "ĠgeprÃ¤gt": 9046,
      "enne": 9047,
      "eitigung": 9048,
      "ĠSanta": 9049,
      "Ġausgehen": 9050,
      "Ġenthaltenen": 9051,
      "Ġbehoben": 9052,
      "Ġoffiziell": 9053,
      "Ġanzuzeigen": 9054,
[...]
