{
  "version": "1.0",
  "truncation": null,
  "padding": null,
  "added_tokens": [
    {
      "id": 0,
      "content": "<|startoftext|>",
      "single_word": false,
      "lstrip": false,
      "rstrip": false,
      "normalized": false,
      "special": true
    },
    {
      "id": 1,
      "content": "<|endoftext|>",
      "single_word": false,
      "lstrip": false,
      "rstrip": false,
      "normalized": false,
      "special": true
    },
    {
      "id": 2,
      "content": "<|pad|>",
      "single_word": false,
      "lstrip": false,
      "rstrip": false,
      "normalized": false,
      "special": true
    }
  ],
  "normalizer": null,
  "pre_tokenizer": {
    "type": "ByteLevel",
    "add_prefix_space": false,
    "trim_offsets": true,
    "use_regex": true
  },
  "post_processor": {
    "type": "ByteLevel",
    "add_prefix_space": true,
    "trim_offsets": false,
    "use_regex": true
  },
  "decoder": {
    "type": "ByteLevel",
    "add_prefix_space": true,
    "trim_offsets": true,
    "use_regex": true
  },
  "model": {
    "type": "BPE",
    "dropout": null,
    "unk_token": null,
    "continuing_subword_prefix": null,
    "end_of_word_suffix": null,
    "fuse_unk": false,
    "byte_fallback": false,
    "ignore_merges": false,
    "vocab": {
      "<|startoftext|>": 0,
      "<|endoftext|>": 1,
      "<|pad|>": 2,
      "!": 3,
      "\"": 4,
      "#": 5,
      "$": 6,
      "%": 7,
      "&": 8,
      "'": 9,
      "(": 10,
      ")": 11,
      "*": 12,
      "+": 13,
      ",": 14,
      "-": 15,
      ".": 16,
      "/": 17,
      "0": 18,
      "1": 19,
      "2": 20,
      "3": 21,
      "4": 22,
      "5": 23,
      "6": 24,
      "7": 25,
      "8": 26,
      "9": 27,
      ":": 28,
      ";": 29,
      "<": 30,
      "=": 31,
      ">": 32,
      "?": 33,
      "@": 34,
      "A": 35,
      "B": 36,
      "C": 37,
      "D": 38,
      "E": 39,
      "F": 40,
      "G": 41,
      "H": 42,
      "I": 43,
      "J": 44,
      "K": 45,
      "L": 46,
      "M": 47,
      "N": 48,
      "O": 49,
      "P": 50,
      "Q": 51,
      "R": 52,
      "S": 53,
      "T": 54,
      "U": 55,
      "V": 56,
      "W": 57,
      "X": 58,
      "Y": 59,
      "Z": 60,
      "[": 61,
      "\\": 62,
      "]": 63,
      "^": 64,
      "_": 65,
      "`": 66,
      "a": 67,
      "b": 68,
      "c": 69,
      "d": 70,
      "e": 71,
      "f": 72,
      "g": 73,
      "h": 74,
      "i": 75,
      "j": 76,
      "k": 77,
      "l": 78,
      "m": 79,
      "n": 80,
      "o": 81,
      "p": 82,
      "q": 83,
      "r": 84,
      "s": 85,
      "t": 86,
      "u": 87,
      "v": 88,
      "w": 89,
      "x": 90,
      "y": 91,
      "z": 92,
      "{": 93,
      "|": 94,
      "}": 95,
      "~": 96,
      "¡": 97,
      "¢": 98,
      "£": 99,
      "¤": 100,
      "¥": 101,
      "¦": 102,
      "§": 103,
      "¨": 104,
      "©": 105,
      "ª": 106,
      "«": 107,
      "¬": 108,
      "®": 109,
      "¯": 110,
      "°": 111,
      "±": 112,
      "²": 113,
      "³": 114,
      "´": 115,
      "µ": 116,
      "¶": 117,
      "·": 118,
      "¸": 119,
      "¹": 120,
      "º": 121,
      "»": 122,
      "¼": 123,
      "½": 124,
      "¾": 125,
      "¿": 126,
      "À": 127,
      "Á": 128,
      "Â": 129,
      "Ã": 130,
      "Ä": 131,
      "Å": 132,
      "Æ": 133,
      "Ç": 134,
      "È": 135,
      "É": 136,
      "Ê": 137,
      "Ë": 138,
      "Ì": 139,
      "Í": 140,
      "Î": 141,
      "Ï": 142,
      "Ð": 143,
      "Ñ": 144,
      "Ò": 145,
      "Ó": 146,
      "Ô": 147,
      "Õ": 148,
      "Ö": 149,
      "×": 150,
      "Ø": 151,
      "Ù": 152,
      "Ú": 153,
      "Û": 154,
      "Ü": 155,
      "Ý": 156,
      "Þ": 157,
      "ß": 158,
      "à": 159,
      "á": 160,
      "â": 161,
      "ã": 162,
      "ä": 163,
      "å": 164,
      "æ": 165,
      "ç": 166,
      "è": 167,
      "é": 168,
      "ê": 169,
      "ë": 170,
      "ì": 171,
      "í": 172,
      "î": 173,
      "ï": 174,
      "ð": 175,
      "ñ": 176,
      "ò": 177,
      "ó": 178,
      "ô": 179,
      "õ": 180,
      "ö": 181,
      "÷": 182,
      "ø": 183,
      "ù": 184,
      "ú": 185,
      "û": 186,
      "ü": 187,
      "ý": 188,
      "þ": 189,
      "ÿ": 190,
      "Ā": 191,
      "ā": 192,
      "Ă": 193,
      "ă": 194,
      "Ą": 195,
      "ą": 196,
      "Ć": 197,
      "ć": 198,
      "Ĉ": 199,
      "ĉ": 200,
      "Ċ": 201,
      "ċ": 202,
      "Č": 203,
      "č": 204,
      "Ď": 205,
      "ď": 206,
      "Đ": 207,
      "đ": 208,
      "Ē": 209,
      "ē": 210,
      "Ĕ": 211,
      "ĕ": 212,
      "Ė": 213,
      "ė": 214,
      "Ę": 215,
      "ę": 216,
      "Ě": 217,
      "ě": 218,
      "Ĝ": 219,
      "ĝ": 220,
      "Ğ": 221,
      "ğ": 222,
      "Ġ": 223,
      "ġ": 224,
      "Ģ": 225,
      "ģ": 226,
      "Ĥ": 227,
      "ĥ": 228,
      "Ħ": 229,
      "ħ": 230,
      "Ĩ": 231,
      "ĩ": 232,
      "Ī": 233,
      "ī": 234,
      "Ĭ": 235,
      "ĭ": 236,
      "Į": 237,
      "į": 238,
      "İ": 239,
      "ı": 240,
      "Ĳ": 241,
      "ĳ": 242,
      "Ĵ": 243,
      "ĵ": 244,
      "Ķ": 245,
      "ķ": 246,
      "ĸ": 247,
      "Ĺ": 248,
      "ĺ": 249,
      "Ļ": 250,
      "ļ": 251,
      "Ľ": 252,
      "ľ": 253,
      "Ŀ": 254,
      "ŀ": 255,
      "Ł": 256,
      "ł": 257,
      "Ń": 258,
      "Ġt": 259,
      "Ġa": 260,
      "he": 261,
      "in": 262,
      "re": 263,
      "Ġthe": 264,
      "on": 265,
      "er": 266,
      "Ġo": 267,
      "at": 268,
      "en": 269,
      "Ġs": 270,
      "Ġw": 271,
      "is": 272,
      "Ġc": 273,
      "it": 274,
      "nd": 275,
      "or": 276,
      "es": 277,
      "Ġp": 278,
      "Ġf": 279,
      "Ġof": 280,
      "an": 281,
      "Ġb": 282,
      "ion": 283,
      "Ġin": 284,
      "al": 285,
      "ou": 286,
      "Ġto": 287,
      "ed": 288,
      "Ġand": 289,
      "ar": 290,
      "ing": 291,
      "Ġm": 292,
      "ic": 293,
      "ro": 294,
      "Ġd": 295,
      "Ġth": 296,
      "ent": 297,
      "le": 298,
      "Ġh": 299,
      "st": 300,
      "om": 301,
      "Ġre": 302,
      "Ġn": 303,
      "il": 304,
      "as": 305,
      "ve": 306,
      "ct": 307,
      "Ġis": 308,
      "Ġe": 309,
      "Ġbe": 310,
      "ly": 311,
      "Ġl": 312,
      "ation": 313,
      "ot": 314,
      "Ġfor": 315,
      "ur": 316,
      "Ġon": 317,
      "Ġthat": 318,
      "ut": 319,
      "et": 320,
      "Ġg": 321,
      "id": 322,
      "ce": 323,
      "im": 324,
      "se": 325,
      "ment": 326,
      "ol": 327,
      "ra": 328,
      "ĠC": 329,
      "Ġpro": 330,
      "Ġu": 331,
      "Ġy": 332,
      "ith": 333,
      "pe": 334,
      "ver": 335,
      "Ġwe": 336,
      "ig": 337,
      "Ġcon": 338,
      "The": 339,
      "Ġwith": 340,
      "ch": 341,
      "Ġal": 342,
      "ow": 343,
      "Ġwh": 344,
      "ul": 345,
      "Ġare": 346,
      "Ġst": 347,
      "Ġit": 348,
      "ĠS": 349,
      "ĠE": 350,
      "ort": 351,
      "ay": 352,
      "Ġas": 353,
      "Ġde": 354,
      "ir": 355,
      "Ġyou": 356,
      "ĠM": 357,
      "ĠI": 358,
      "ĠP": 359,
      "Ġha": 360,
      "res": 361,
      "ld": 362,
      "ill": 363,
      "Ġan": 364,
      "ers": 365,
      "Ġcom": 366,
      "ies": 367,
      "ate": 368,
      "ad": 369,
      "am": 370,
      "Ġsu": 371,
      "Ġthis": 372,
      "nt": 373,
      "ble": 374,
      "ĠA": 375,
      "ity": 376,
      "ge": 377,
      "if": 378,
      "ess": 379,
      "her": 380,
      "el": 381,
      "Ġex": 382,
      "pp": 383,
      "est": 384,
      "qu": 385,
      "os": 386,
      "Ġor": 387,
      "Ġnot": 388,
      "Ġv": 389,
      "em": 390,
      "Ġne": 391,
      "ive": 392,
      "op": 393,
      "ke": 394,
      "ist": 395,
      "Ġby": 396,
      "ant": 397,
      "Ġhave": 398,
      "ich": 399,
      "ore": 400,
      "Ġat": 401,
      "art": 402,
      "ain": 403,
      "us": 404,
      "ust": 405,
      "uro": 406,
      "ould": 407,
      "rom": 408,
      "oc": 409,
      "igh": 410,
      "ri": 411,
      "od": 412,
      "Ġint": 413,
      "Ġwill": 414,
      "ect": 415,
      "Ġwhich": 416,
      "Ġr": 417,
      "Ġsh": 418,
      "âĢ": 419,
      "ac": 420,
      "ĠEuro": 421,
      "ial": 422,
      "Ġen": 423,
      "Ġfrom": 424,
      "ĠEurope": 425,
      "ĠB": 426,
      "um": 427,
      "ia": 428,
      "Ġse": 429,
      "un": 430,
      "ure": 431,
      "Ġ1": 432,
      "Ġcan": 433,
      "ions": 434,
      "Ġhe": 435,
      "iv": 436,
      "Ġhas": 437,
      "port": 438,
      "Ġall": 439,
      "and": 440,
      "ĠG": 441,
      "Ġim": 442,
      "omm": 443,
      "our": 444,
      "ard": 445,
      "Ġ(": 446,
      "ie": 447,
      "ight": 448,
      "ĠT": 449,
      "Ġle": 450,
      "sion": 451,
      "00": 452,
      "end": 453,
      "Ġ2": 454,
      "ern": 455,
      "Ġcomp": 456,
      "Ġwor": 457,
      "ĠR": 458,
      "Ġour": 459,
      "all": 460,
      "ast": 461,
      "th": 462,
      "Ġres": 463,
      "Ġch": 464,
      "ber": 465,
      "Ġwas": 466,
      "ĠComm": 467,
      "ĠEuropean": 468,
      "ud": 469,
      "so": 470,
      "ff": 471,
      "ĠF": 472,
      "ther": 473,
      "Ġcont": 474,
      "rou": 475,
      "ount": 476,
      "ĠH": 477,
      "Ġad": 478,
      "ĠD": 479,
      "ical": 480,
      "ere": 481,
      "ak": 482,
      "ĠU": 483,
      "ll": 484,
      "ated": 485,
      "cc": 486,
      "pt": 487,
      "Ġus": 488,
      "ous": 489,
      "ost": 490,
      "able": 491,
      "very": 492,
      "Ġag": 493,
      "Ġalso": 494,
      "du": 495,
      "ĠL": 496,
      "ab": 497,
      "Ġpart": 498,
      "out": 499,
      "ire": 500,
      "Ġpl": 501,
      "age": 502,
      "ans": 503,
      "ations": 504,
      "Th": 505,
      "Ġme": 506,
      "Ġ-": 507,
      "ag": 508,
      "ome": 509,
      "Ġdo": 510,
      "lo": 511,
      "Ġyour": 512,
      "ter": 513,
      "ission": 514,
      "ult": 515,
      "are": 516,
      "'s": 517,
      "We": 518,
      "ide": 519,
      "per": 520,
      "ice": 521,
      "Ġab": 522,
      "ree": 523,
      "vel": 524,
      "act": 525,
      "orm": 526,
      "ake": 527,
      "Ġwhe": 528,
      "ance": 529,
      "ine": 530,
      "Ġbut": 531,
      "Ġthere": 532,
      "ip": 533,
      "ĠSt": 534,
      "Ġqu": 535,
      "Ġgo": 536,
      "gh": 537,
      "Ġj": 538,
      "ary": 539,
      "Ġits": 540,
      "ments": 541,
      "ĠN": 542,
      "ĠCommission": 543,
      "ue": 544,
      "Ġreg": 545,
      "og": 546,
      "cl": 547,
      "Ġwould": 548,
      "Ġun": 549,
      "ident": 550,
      "con": 551,
      "Ġmore": 552,
      "ong": 553,
      "ates": 554,
      "ition": 555,
      "Ġtheir": 556,
      "erv": 557,
      "lic": 558,
      "In": 559,
      "iz": 560,
      "ry": 561,
      "Ġk": 562,
      "Ġbeen": 563,
      "Ġso": 564,
      "ind": 565,
      "Ġman": 566,
      "Ġdis": 567,
      "ction": 568,
      "Ġpol": 569,
      "ime": 570,
      "ru": 571,
      "ear": 572,
      "reat": 573,
      "Ġam": 574,
      "form": 575,
      "..": 576,
      "ark": 577,
      "Ġone": 578,
      "Ġli": 579,
      "pport": 580,
      "ally": 581,
      "ail": 582,
      "Ġapp": 583,
      "ĠW": 584,
      "Ġshould": 585,
      "Ġother": 586,
      "Ġcount": 587,
      "Ġacc": 588,
      "ish": 589,
      "Ġwork": 590,
      "ign": 591,
      "Ġro": 592,
      "si": 593,
      "âĢĻ": 594,
      "Ġnew": 595,
      "It": 596,
      "Ġwho": 597,
      "Ġtra": 598,
      "Ġcomm": 599,
      "Ġoff": 600,
      "ĠUn": 601,
      "ase": 602,
      "ĠâĢ": 603,
      "ub": 604,
      "erm": 605,
      "Ġup": 606,
      "ite": 607,
      "ace": 608,
      "This": 609,
      "ok": 610,
      "ap": 611,
      "ach": 612,
      "au": 613,
      "Ġout": 614,
      "Ġspe": 615,
      "ence": 616,
      "Ġtr": 617,
      "Ġmust": 618,
      "ress": 619,
      "cial": 620,
      "Ġpre": 621,
      "te": 622,
      "ord": 623,
      "ĠPres": 624,
      "ational": 625,
      "one": 626,
      "ack": 627,
      "nc": 628,
      "ities": 629,
      "Ġpos": 630,
      "ens": 631,
      "Ġthey": 632,
      "Ġco": 633,
      "otel": 634,
      "Ġneed": 635,
      "int": 636,
      "Ġvery": 637,
      "Ġpe": 638,
      "Ġlike": 639,
      "Ġte": 640,
      "arl": 641,
      "Ġimp": 642,
      "ĠMr": 643,
      "Ġind": 644,
      "ame": 645,
      "Ġev": 646,
      "Ġprodu": 647,
      "Ġyear": 648,
      "Ġonly": 649,
      "Ġbec": 650,
      "ject": 651,
      "Ġcons": 652,
      "ĠO": 653,
      "ose": 654,
      "Ġtime": 655,
      "Ġar": 656,
      "Ġabout": 657,
      "Ġcl": 658,
      "ember": 659,
      "ĠPresident": 660,
      "Ġthan": 661,
      "Ġund": 662,
      "Ġany": 663,
      "ious": 664,
      "ĠV": 665,
      "Ġper": 666,
      "ep": 667,
      "ĠK": 668,
      "av": 669,
      "ĠJ": 670,
      "Ġprov": 671,
      "ise": 672,
      "Ġright": 673,
      "velop": 674,
      "cess": 675,
      "arlia": 676,
      "Ġbet": 677,
      "Ġthese": 678,
      "Ġpo": 679,
      "Ġno": 680,
      "Ġ200": 681,
      "fore": 682,
      "arliament": 683,
      "Ġsp": 684,
      "ram": 685,
      "Ġrec": 686,
      "Ġrel": 687,
      "Ġimport": 688,
      "ass": 689,
      "ution": 690,
      "Ġsy": 691,
      "pos": 692,
      "Ġreport": 693,
      "ility": 694,
      "Ġpr": 695,
      "Ġ\"": 696,
      "ors": 697,
      "ks": 698,
      "enc": 699,
      "ople": 700,
      "ĠUnion": 701,
      "irst": 702,
      "Ġdevelop": 703,
      "Ġif": 704,
      "ian": 705,
      "Ġra": 706,
      "now": 707,
      "wn": 708,
      "Ġact": 709,
      "Ġthem": 710,
      "ew": 711,
      "ries": 712,
      "ures": 713,
      "fere": 714,
      "Ġtrans": 715,
      "ert": 716,
      "Ġserv": 717,
      "stem": 718,
      "ause": 719,
      "ings": 720,
      "we": 721,
      "Ġover": 722,
      "Ġinst": 723,
      "clud": 724,
      "ular": 725,
      "ile": 726,
      "Ġem": 727,
      "get": 728,
      "ang": 729,
      "Ġinto": 730,
      "Ġpeople": 731,
      "ays": 732,
      "ific": 733,
      "pect": 734,
      "pl": 735,
      "Ġsub": 736,
      "Ġeff": 737,
      "ĠParliament": 738,
      "Ġwell": 739,
      "iew": 740,
      "Ġmy": 741,
      "ft": 742,
      "Ġdes": 743,
      "ĠEU": 744,
      "ounc": 745,
      "ual": 746,
      "Ġwere": 747,
      "Ġsome": 748,
      "Ġsupport": 749,
      "Ġwhat": 750,
      "Ġuse": 751,
      "xt": 752,
      "cre": 753,
      "ful": 754,
      "Ġsuch": 755,
      "ĠStates": 756,
      "low": 757,
      "Ġsa": 758,
      "ĠThe": 759,
      "ade": 760,
      "ric": 761,
      "conom": 762,
      "ced": 763,
      "Ġsystem": 764,
      "Ġob": 765,
      "Ġ19": 766,
      "Ġdif": 767,
      "lect": 768,
      "Ġadd": 769,
      "Ġ3": 770,
      "ices": 771,
      "resent": 772,
      "und": 773,
      "ient": 774,
      "Ġunder": 775,
      "Ġcountries": 776,
      "Ġmark": 777,
      "Ġfirst": 778,
      "Ġwhen": 779,
      "der": 780,
      "ook": 781,
      "Ġinform": 782,
      "ov": 783,
      "ĠMember": 784,
      "Ġ.": 785,
      "ouncil": 786,
      "Ġfin": 787,
      "Ġhis": 788,
      "Ġmost": 789,
      "Ġinv": 790,
      "ild": 791,
      "rit": 792,
      "ating": 793,
      "Ġ,": 794,
      "irect": 795,
      "ater": 796,
      "Ġpartic": 797,
      "Ġloc": 798,
      "ĠCouncil": 799,
      "ative": 800,
      "rough": 801,
      "Ġpolic": 802,
      "ory": 803,
      "sible": 804,
      "Ġnow": 805,
      "Ġagain": 806,
      "sel": 807,
      "ound": 808,
      "Ġimportant": 809,
      "ange": 810,
      "hen": 811,
      "ever": 812,
      "Ġext": 813,
      "Ġjust": 814,
      "Ġmake": 815,
      "ween": 816,
      "Ġcent": 817,
      "Ġtw": 818,
      "Ġknow": 819,
      "Ġprog": 820,
      "Ġdec": 821,
      "Ġgu": 822,
      "Ġent": 823,
      "ĠCh": 824,
      "ren": 825,
      "Ġmany": 826,
      "Ġinclud": 827,
      "Ġhotel": 828,
      "Ġbetween": 829,
      "hed": 830,
      "Ġhow": 831,
      "ink": 832,
      "Ġatt": 833,
      "Ġeconom": 834,
      "ces": 835,
      "Ġpropos": 836,
      "red": 837,
      "roup": 838,
      "cept": 839,
      "ough": 840,
      "Ġrequ": 841,
      "ove": 842,
      "Âł": 843,
      "Ġintern": 844,
      "ĠâĢĵ": 845,
      "Ġbecause": 846,
      "fter": 847,
      "Ġtake": 848,
      "ied": 849,
      "Ġdem": 850,
      "Ġmarket": 851,
      "Ġsit": 852,
      "ph": 853,
      "Ġsc": 854,
      "Ġworld": 855,
      "pon": 856,
      "any": 857,
      "ural": 858,
      "ublic": 859,
      "Ġass": 860,
      "amp": 861,
      "ted": 862,
      "Ġform": 863,
      "Ġmod": 864,
      "ention": 865,
      "ards": 866,
      "Ġsoc": 867,
      "Ġrem": 868,
      "Ġwhere": 869,
      "Ġla": 870,
      "Ġcol": 871,
      "Ġbas": 872,
      "eg": 873,
      "ality": 874,
      "Ġconc": 875,
      "Ġroom": 876,
      "Ġleg": 877,
      "Ġac": 878,
      "Ġinformation": 879,
      "Ġtwo": 880,
      "ob": 881,
      "ell": 882,
      "oth": 883,
      "Ġhigh": 884,
      "Ġgreat": 885,
      "Ġcle": 886,
      "uring": 887,
      "Ġyears": 888,
      "Ġop": 889,
      "Ġpoint": 890,
      "Ġmade": 891,
      "chn": 892,
      "als": 893,
      "...": 894,
      "Ġevery": 895,
      "round": 896,
      "Ġgood": 897,
      "rib": 898,
      "Ġav": 899,
      "olog": 900,
      "Ġeven": 901,
      "ract": 902,
      "Ġiss": 903,
      "Ġthrough": 904,
      "ener": 905,
      "Ġhad": 906,
      "day": 907,
      "Ġthose": 908,
      "Ġway": 909,
      "ax": 910,
      "own": 911,
      "Ġproduct": 912,
      "ives": 913,
      "les": 914,
      "Ġsol": 915,
      "Ġdirect": 916,
      "Ġsee": 917,
      "Ġwant": 918,
      "arm": 919,
      "ues": 920,
      "Ġset": 921,
      "Ġpers": 922,
      "blem": 923,
      "Ġbu": 924,
      "gy": 925,
      "Ġpolit": 926,
      "vern": 927,
      "Ġagree": 928,
      ").": 929,
      "Ġpolicy": 930,
      "Ġtak": 931,
      "Ġfe": 932,
      "ited": 933,
      "Ġproblem": 934,
      "Ġdisc": 935,
      "ieve": 936,
      "Ġmay": 937,
      "ages": 938,
      "ism": 939,
      "arge": 940,
      "row": 941,
      "ib": 942,
      "Ġown": 943,
      "vers": 944,
      "Ġaut": 945,
      "Ġexp": 946,
      "Ġbeing": 947,
      "If": 948,
      "riv": 949,
      "Ġmin": 950,
      "Ġfact": 951,
      "de": 952,
      "gan": 953,
      "Ġparticular": 954,
      "unity": 955,
      "Ġnum": 956,
      "urn": 957,
      "Ġappro": 958,
      "uch": 959,
      "Ġview": 960,
      "Ġprot": 961,
      "ck": 962,
      "Ġlong": 963,
      "Ġstr": 964,
      "air": 965,
      "ection": 966,
      "Ġbel": 967,
      "land": 968,
      "lp": 969,
      "Ġprocess": 970,
      "Ġke": 971,
      "Ġ5": 972,
      "Ġvot": 973,
      "ood": 974,
      "read": 975,
      "You": 976,
      "Ġrespon": 977,
      "Ġprogram": 978,
      "Ġorder": 979,
      "ons": 980,
      "Ġdiffere": 981,
      "Ġcur": 982,
      "Ġquest": 983,
      "ision": 984,
      "ting": 985,
      "ines": 986,
      "Ġ4": 987,
      "Ġarea": 988,
      "me": 989,
      "ince": 990,
      "There": 991,
      "Ġmain": 992,
      "Ġcre": 993,
      "Ġcour": 994,
      "Ġfind": 995,
      "Ġrep": 996,
      "Ġhere": 997,
      "Ġcar": 998,
      "Ġrest": 999,
      "Ġbus": 1000,
      "ork": 1001,
      "Ġmon": 1002,
      "led": 1003,
      "uman": 1004,
      "Ġtechn": 1005,
      "lement": 1006,
      "Ġsm": 1007,
      "On": 1008,
      "Ġsitu": 1009,
      "Ġful": 1010,
      "Ġafter": 1011,
      "Ġ'": 1012,
      "iet": 1013,
      "Ġdef": 1014,
      "Ġpolitical": 1015,
      "ower": 1016,
      "Mr": 1017,
      "Ġplace": 1018,
      "Ġref": 1019,
      "Ġconcern": 1020,
      "Ġpossible": 1021,
      "Ġincre": 1022,
      "ruct": 1023,
      "Ġpublic": 1024,
      "Ġsame": 1025,
      "ouse": 1026,
      "ency": 1027,
      "ning": 1028,
      "erest": 1029,
      "Ġhelp": 1030,
      "Ġdeb": 1031,
      "iness": 1032,
      "Ġprovid": 1033,
      "rat": 1034,
      "ick": 1035,
      "ved": 1036,
      "bers": 1037,
      "Ġend": 1038,
      "Ġconf": 1039,
      "rent": 1040,
      "ath": 1041,
      "Ġexper": 1042,
      "Ġsay": 1043,
      "Ġclear": 1044,
      "Ġph": 1045,
      "Ġcontin": 1046,
      "ents": 1047,
      "Ġaccess": 1048,
      "Ġcould": 1049,
      "iron": 1050,
      "Ġsim": 1051,
      "Ġdoes": 1052,
      "Ġser": 1053,
      "ily": 1054,
      "As": 1055,
      "Ġdevelopment": 1056,
      "Ġcomple": 1057,
      "ten": 1058,
      "itte": 1059,
      "Ġeffect": 1060,
      "oy": 1061,
      "Ġthen": 1062,
      "ered": 1063,
      "ised": 1064,
      "Ġeconomic": 1065,
      "ertain": 1066,
      "Ġinterest": 1067,
      "old": 1068,
      "Ġrights": 1069,
      "hes": 1070,
      "Ġwithin": 1071,
      "Ġresult": 1072,
      "Ġaw": 1073,
      "ts": 1074,
      "),": 1075,
      "io": 1076,
      "Ġcountry": 1077,
      "arch": 1078,
      "Ġagainst": 1079,
      "Ġcall": 1080,
      "ner": 1081,
      "Ġpresent": 1082,
      "Ġavail": 1083,
      "Ġtherefore": 1084,
      "Ġap": 1085,
      "Ġboth": 1086,
      "Ġused": 1087,
      "not": 1088,
      "Ġstand": 1089,
      "ron": 1090,
      "cond": 1091,
      "Ġmuch": 1092,
      "loy": 1093,
      "ute": 1094,
      "ec": 1095,
      "Ġlevel": 1096,
      "ĠAm": 1097,
      "Ġval": 1098,
      "Ġget": 1099,
      "itions": 1100,
      "Ġdist": 1101,
      "ata": 1102,
      "hip": 1103,
      "ran": 1104,
      "com": 1105,
      "utions": 1106,
      "eration": 1107,
      "viron": 1108,
      "Ġmet": 1109,
      "Ġequ": 1110,
      "ploy": 1111,
      "ustom": 1112,
      "Ġgener": 1113,
      "ollow": 1114,
      "Ġest": 1115,
      "Ġdet": 1116,
      "Ġfund": 1117,
      "Ġsocial": 1118,
      "Ġplay": 1119,
      "ict": 1120,
      "ically": 1121,
      "li": 1122,
      "âĢĿ": 1123,
      "ittee": 1124,
      "ĠCon": 1125,
      "Ġ20": 1126,
      "Ġhuman": 1127,
      "Ġdifferent": 1128,
      "Ġmat": 1129,
      "Ġgroup": 1130,
      "aj": 1131,
      "Ġvis": 1132,
      "Ġfinan": 1133,
      "Ġwithout": 1134,
      "Ġsign": 1135,
      "Ġmeas": 1136,
      "its": 1137,
      "Ġlead": 1138,
      "Ġsur": 1139,
      "vironment": 1140,
      "Ġnumber": 1141,
      "ss": 1142,
      "For": 1143,
      "Ġcr": 1144,
      "Ġperson": 1145,
      "Ġfam": 1146,
      "Ġthink": 1147,
      "ef": 1148,
      "Ġconsid": 1149,
      "Ġinternational": 1150,
      "Ġfree": 1151,
      "Ġlast": 1152,
      "Ġvar": 1153,
      "Ġallow": 1154,
      "ĠIn": 1155,
      "uss": 1156,
      "iven": 1157,
      "Ġservices": 1158,
      "Ġens": 1159,
      "ration": 1160,
      "Ġspec": 1161,
      "Ġstill": 1162,
      "embers": 1163,
      "ists": 1164,
      "ty": 1165,
      "Ġreal": 1166,
      "Ġorgan": 1167,
      "Ġterm": 1168,
      "ĠGerm": 1169,
      "Ġrequire": 1170,
      "Ġgovern": 1171,
      "Ġavailable": 1172,
      "How": 1173,
      "sib": 1174,
      "ready": 1175,
      "ics": 1176,
      "Wh": 1177,
      "ĠâĢľ": 1178,
      "Ġsec": 1179,
      "urther": 1180,
      "uture": 1181,
      "Ġadv": 1182,
      "aking": 1183,
      "nce": 1184,
      "Ġconst": 1185,
      "alk": 1186,
      "Ġback": 1187,
      "hing": 1188,
      "Ġspecial": 1189,
      "ulation": 1190,
      "Ġcompet": 1191,
      "Ġcurrent": 1192,
      "self": 1193,
      "Ġoffer": 1194,
      "Ġfollow": 1195,
      "Ġbusiness": 1196,
      "Ġalready": 1197,
      "Ġhand": 1198,
      "Ġoper": 1199,
      "Ġcustom": 1200,
      "Ġbefore": 1201,
      "Ġopen": 1202,
      "Ġbelieve": 1203,
      "ional": 1204,
      "ĠInt": 1205,
      "Ġcond": 1206,
      "Ġfuture": 1207,
      "ants": 1208,
      "ng": 1209,
      "Ġproject": 1210,
      "Ġlook": 1211,
      "Ġstart": 1212,
      "Ġsmall": 1213,
      "Ã©": 1214,
      "alth": 1215,
      "Ġprev": 1216,
      "ral": 1217,
      "Ġtoday": 1218,
      "Ġnational": 1219,
      "ience": 1220,
      "Ġcourse": 1221,
      "ug": 1222,
      "less": 1223,
      "ope": 1224,
      "hor": 1225,
      "ness": 1226,
      "Ġproducts": 1227,
      "omet": 1228,
      "Ġable": 1229,
      "Ġcor": 1230,
      "ased": 1231,
      "Ġdown": 1232,
      "Ġair": 1233,
      "Ġenvironment": 1234,
      "Ġstate": 1235,
      "ital": 1236,
      "ving": 1237,
      "itiz": 1238,
      "Ġinter": 1239,
      "ĠPro": 1240,
      "Ġmed": 1241,
      "pr": 1242,
      "Ġtoo": 1243,
      "lish": 1244,
      "Ġprom": 1245,
      "Ġindust": 1246,
      "uc": 1247,
      "Ġcertain": 1248,
      "ven": 1249,
      "Ġcannot": 1250,
      "Ġide": 1251,
      "ĠHotel": 1252,
      "Ġins": 1253,
      "Ġdata": 1254,
      "Ġdesign": 1255,
      "urity": 1256,
      "Ġcase": 1257,
      "ves": 1258,
      "ample": 1259,
      "Ġservice": 1260,
      "ately": 1261,
      "Ġregard": 1262,
      "ished": 1263,
      "ank": 1264,
      "rol": 1265,
      "tal": 1266,
      "come": 1267,
      "Ġquestion": 1268,
      "Ġput": 1269,
      "ajor": 1270,
      "ne": 1271,
      "That": 1272,
      "Ġcap": 1273,
      "Ġlif": 1274,
      "Ġche": 1275,
      "Ġsince": 1276,
      "Ġoffers": 1277,
      "udget": 1278,
      "Ġimpro": 1279,
      "Ġlaw": 1280,
      "Ġfac": 1281,
      "Ġmeet": 1282,
      "lease": 1283,
      "Ġpur": 1284,
      "fort": 1285,
      "arg": 1286,
      "Ġbr": 1287,
      "ually": 1288,
      "Ġsaid": 1289,
      "ix": 1290,
      "Ġbeh": 1291,
      "Ġfinancial": 1292,
      "Ġreas": 1293,
      "Ġbest": 1294,
      "inc": 1295,
      "Ġcitiz": 1296,
      "ock": 1297,
      "Ġinf": 1298,
      "Ġduring": 1299,
      "ĠDe": 1300,
      "Ġart": 1301,
      "ĠTh": 1302,
      "ird": 1303,
      "Ġ6": 1304,
      "Ġach": 1305,
      "ccess": 1306,
      "ars": 1307,
      "Ġproposal": 1308,
      "ather": 1309,
      "Ġissue": 1310,
      "Ġnat": 1311,
      "Ġmeans": 1312,
      "Ġrespect": 1313,
      "Ġbo": 1314,
      "ains": 1315,
      "ier": 1316,
      "Ġexample": 1317,
      "Ġday": 1318,
      "Ġcity": 1319,
      "Ġdra": 1320,
      "Ġask": 1321,
      "ination": 1322,
      "Ġter": 1323,
      "Ġapplic": 1324,
      "ining": 1325,
      "Ġsaf": 1326,
      "Ġimplement": 1327,
      "Ġlarge": 1328,
      "Ġdebate": 1329,
      "Ġmajor": 1330,
      "Ġquality": 1331,
      "Ġher": 1332,
      "Ġsituation": 1333,
      "que": 1334,
      "ĠAr": 1335,
      "tle": 1336,
      "Ġweb": 1337,
      "Ġnecess": 1338,
      "ĠCommissioner": 1339,
      "Ġcost": 1340,
      "isation": 1341,
      "ined": 1342,
      "ina": 1343,
      "Ġlist": 1344,
      "iss": 1345,
      "Ġcoop": 1346,
      "ified": 1347,
      "ivid": 1348,
      "ys": 1349,
      "Ġamend": 1350,
      "Ġshow": 1351,
      "inist": 1352,
      "Ġsect": 1353,
      "Ġcommon": 1354,
      "Ġprof": 1355,
      "Ġrev": 1356,
      "Ġfound": 1357,
      "Ġelect": 1358,
      "Ġadop": 1359,
      "Ġchild": 1360,
      "ways": 1361,
      "Ġfew": 1362,
      "Ġresol": 1363,
      "bal": 1364,
      "ential": 1365,
      "ized": 1366,
      "Ġener": 1367,
      "Ġeach": 1368,
      "Ġed": 1369,
      "ability": 1370,
      "Ġobject": 1371,
      "But": 1372,
      "Ġcitizens": 1373,
      "Ġredu": 1374,
      "ĠCommittee": 1375,
      "men": 1376,
      "up": 1377,
      "Ġincluding": 1378,
      "reed": 1379,
      "Ġeas": 1380,
      "mit": 1381,
      "imes": 1382,
      "Ġ199": 1383,
      "Ġactiv": 1384,
      "Ġfun": 1385,
      "Ġes": 1386,
      "line": 1387,
      "Ġhist": 1388,
      "illion": 1389,
      "Ġinstit": 1390,
      "ilities": 1391,
      "ware": 1392,
      "alf": 1393,
      "Ġmeasures": 1394,
      "Ġthree": 1395,
      "Ġinvest": 1396,
      "Ġareas": 1397,
      "Ġret": 1398,
      "Ġrepresent": 1399,
      "However": 1400,
      "Ġrooms": 1401,
      "Ġgive": 1402,
      "els": 1403,
      "Ġbl": 1404,
      "Ġdemoc": 1405,
      "Ġensure": 1406,
      "Ġcult": 1407,
      "other": 1408,
      "Ġfl": 1409,
      "Ġnext": 1410,
      "ann": 1411,
      "Ġsuccess": 1412,
      "ield": 1413,
      "Ġpower": 1414,
      "Ġread": 1415,
      "aut": 1416,
      "Ġauthor": 1417,
      "ology": 1418,
      "Ġfurther": 1419,
      "Ġrece": 1420,
      "ward": 1421,
      "Ġbudget": 1422,
      "ared": 1423,
      "Ġenergy": 1424,
      "Ġtaken": 1425,
      "omen": 1426,
      "Ġneg": 1427,
      "Ġprovide": 1428,
      "Ġagreement": 1429,
      "Ġaccount": 1430,
      "Ġemploy": 1431,
      "Ġdep": 1432,
      "ĠSe": 1433,
      "Ġwel": 1434,
      "ption": 1435,
      "itional": 1436,
      "ently": 1437,
      "Ġfore": 1438,
      "ium": 1439,
      "Ġbuild": 1440,
      "Ġtrad": 1441,
      "itive": 1442,
      "Ġsecond": 1443,
      "Ġty": 1444,
      "Ġfar": 1445,
      "Ġestab": 1446,
      "Ġgrow": 1447,
      "Our": 1448,
      "Ġ[": 1449,
      "rodu": 1450,
      "Ġstay": 1451,
      "With": 1452,
      "Ġsupp": 1453,
      "oint": 1454,
      "stand": 1455,
      "Ġ7": 1456,
      "lose": 1457,
      "Ġpay": 1458,
      "eur": 1459,
      "ising": 1460,
      "az": 1461,
      "10": 1462,
      "000": 1463,
      "joy": 1464,
      "here": 1465,
      "ĠSp": 1466,
      "incip": 1467,
      "Ġ10": 1468,
      "ĠIntern": 1469,
      "ible": 1470,
      "Ġshall": 1471,
      "clus": 1472,
      "Ġaccept": 1473,
      "Ġpass": 1474,
      "Ġopport": 1475,
      "Ġnecessary": 1476,
      "Ġproblems": 1477,
      "Ġcome": 1478,
      "Ġcompany": 1479,
      "ik": 1480,
      "ases": 1481,
      "isl": 1482,
      "ivers": 1483,
      "Ġposition": 1484,
      "iving": 1485,
      "ross": 1486,
      "ules": 1487,
      "Ġhope": 1488,
      "Ġsomet": 1489,
      "ests": 1490,
      "ĠUS": 1491,
      "Ġkey": 1492,
      "aur": 1493,
      "Ġchange": 1494,
      "Ġprincip": 1495,
      "Ġ8": 1496,
      "Ġgiven": 1497,
      "Ġsecurity": 1498,
      "Ġdiff": 1499,
      "Ġpract": 1500,
      "utes": 1501,
      "ee": 1502,
      "pecial": 1503,
      "Ġstud": 1504,
      "Ġwhy": 1505,
      "Ġhowever": 1506,
      "Ġhealth": 1507,
      "Ġcooperation": 1508,
      "raph": 1509,
      "lobal": 1510,
      "Ġinvol": 1511,
      "Ġpriv": 1512,
      "eng": 1513,
      "Ġpres": 1514,
      "leg": 1515,
      "Ġwhile": 1516,
      "Ġsimp": 1517,
      "Ġinit": 1518,
      "Ġdid": 1519,
      "unic": 1520,
      "ond": 1521,
      "Ġprotection": 1522,
      "riend": 1523,
      "cell": 1524,
      "Ġimm": 1525,
      "Ġfil": 1526,
      "Ġaff": 1527,
      "sibility": 1528,
      "iety": 1529,
      "Ġbre": 1530,
      "Ġcomplete": 1531,
      "Ġcontrol": 1532,
      "Ġalways": 1533,
      "Ġneeds": 1534,
      "eric": 1535,
      "Ġlife": 1536,
      "ave": 1537,
      "mb": 1538,
      "Ġunt": 1539,
      "cy": 1540,
      "Ġtour": 1541,
      "Ġvote": 1542,
      "Ġclose": 1543,
      "Ġlegisl": 1544,
      "Ġindivid": 1545,
      "ĠZ": 1546,
      "ize": 1547,
      "Ġname": 1548,
      "Ġpop": 1549,
      "Ġcomb": 1550,
      "Ġdeal": 1551,
      "agement": 1552,
      "Ġstrate": 1553,
      "Ġlocated": 1554,
      "inal": 1555,
      "Ġhapp": 1556,
      "ins": 1557,
      "Ġaction": 1558,
      "the": 1559,
      "ĠWe": 1560,
      "ek": 1561,
      "Ġshort": 1562,
      "ference": 1563,
      "Ġbetter": 1564,
      "At": 1565,
      "Ġsk": 1566,
      "Ġdel": 1567,
      "ĠGroup": 1568,
      "Ġfull": 1569,
      "Ġold": 1570,
      "Ġben": 1571,
      "Ġver": 1572,
      "tain": 1573,
      "urg": 1574,
      "To": 1575,
      "Ġrese": 1576,
      "Ġusing": 1577,
      "wards": 1578,
      "ĠUnited": 1579,
      "cing": 1580,
      "ering": 1581,
      "ury": 1582,
      "irm": 1583,
      "Ġconsum": 1584,
      "Ġfav": 1585,
      "Ġcho": 1586,
      "Ġconn": 1587,
      "icult": 1588,
      "Ġvisit": 1589,
      "Ġbased": 1590,
      "ung": 1591,
      "Ġless": 1592,
      "Ġinteg": 1593,
      "ners": 1594,
      "Ġ9": 1595,
      "All": 1596,
      "ets": 1597,
      "Ġpar": 1598,
      "Ġtransport": 1599,
      "Ġworking": 1600,
      "ify": 1601,
      "ote": 1602,
      "Ġlit": 1603,
      "ĠY": 1604,
      "Ġlegal": 1605,
      "Ġterms": 1606,
      "ources": 1607,
      "Ġpri": 1608,
      "par": 1609,
      "Ġaround": 1610,
      "Ġproduction": 1611,
      "to": 1612,
      "over": 1613,
      "pporteur": 1614,
      "Ġword": 1615,
      "por": 1616,
      "Ġwhether": 1617,
      "Ġenjoy": 1618,
      "Ġbecome": 1619,
      "arant": 1620,
      "ises": 1621,
      "Ġsubject": 1622,
      "Ġparticularly": 1623,
      "Ġcrit": 1624,
      "iod": 1625,
      "Ġel": 1626,
      "ĠAl": 1627,
      "gether": 1628,
      "Ġtogether": 1629,
      "ale": 1630,
      "Ġchang": 1631,
      "ĠCommunity": 1632,
      "ling": 1633,
      "Ġdifficult": 1634,
      "aff": 1635,
      "Ġsing": 1636,
      "oura": 1637,
      "Ġnet": 1638,
      "Ġanother": 1639,
      "ands": 1640,
      "Ġhim": 1641,
      "Ġindividual": 1642,
      "Ġfield": 1643,
      "ĠHouse": 1644,
      "Ġcare": 1645,
      "Ġtrade": 1646,
      "gg": 1647,
      "anies": 1648,
      "ights": 1649,
      "Ġchildren": 1650,
      "Ġcontrib": 1651,
      "Ġwhole": 1652,
      "Ġproper": 1653,
      "Ġissues": 1654,
      "Ġca": 1655,
      "Ġglobal": 1656,
      "orth": 1657,
      "Ġmodern": 1658,
      "pecially": 1659,
      "olid": 1660,
      "ĠAmeric": 1661,
      "Ġshe": 1662,
      "iation": 1663,
      "Ġspecific": 1664,
      "Ġconditions": 1665,
      "ense": 1666,
      "ording": 1667,
      "Ġplan": 1668,
      "Ġlim": 1669,
      "ool": 1670,
      "Ġbeg": 1671,
      "ĠIs": 1672,
      "Ġreason": 1673,
      "Ã¼": 1674,
      "Ġnon": 1675,
      "akes": 1676,
      "ocu": 1677,
      "Ġrapporteur": 1678,
      "ftware": 1679,
      "ÂłÂł": 1680,
      "Ġguarant": 1681,
      "Ġrole": 1682,
      "Ġlocal": 1683,
      "Ġwater": 1684,
      "Ġsystems": 1685,
      "eed": 1686,
      "Ġtext": 1687,
      "Ġvarious": 1688,
      "Ġaddress": 1689,
      "Ġcentre": 1690,
      "mental": 1691,
      "What": 1692,
      "selves": 1693,
      "Ġcommit": 1694,
      "Ġcompanies": 1695,
      "When": 1696,
      "Ġexist": 1697,
      "angu": 1698,
      "Ġindustry": 1699,
      "Ġwomen": 1700,
      "Ġappe": 1701,
      "Ġstep": 1702,
      "Ġsector": 1703,
      "Ġbasis": 1704,
      "ively": 1705,
      "Ġaim": 1706,
      "ĠMrs": 1707,
      "Ġexperience": 1708,
      "Ġconsider": 1709,
      "Ġthird": 1710,
      "use": 1711,
      "ead": 1712,
      "ux": 1713,
      "Ġtax": 1714,
      "Ġwrit": 1715,
      "Ġbenef": 1716,
      "They": 1717,
      "Ġmatter": 1718,
      "Ġocc": 1719,
      "reaty": 1720,
      "of": 1721,
      "fact": 1722,
      "Ġrun": 1723,
      "Ġbook": 1724,
      "Ġ...": 1725,
      "Ġeffort": 1726,
      "Ġnear": 1727,
      "Ġmembers": 1728,
      "Ġmonth": 1729,
      "Ġgent": 1730,
      "Ġdone": 1731,
      "imate": 1732,
      "Ġ15": 1733,
      "Ġsum": 1734,
      "Ġespecially": 1735,
      "Ġproced": 1736,
      "nov": 1737,
      "isions": 1738,
      "Ġdiscuss": 1739,
      "aterial": 1740,
      "Ġorig": 1741,
      "Ġresearch": 1742,
      "Ġmove": 1743,
      "osed": 1744,
      "Ġpack": 1745,
      "thing": 1746,
      "lev": 1747,
      "ilit": 1748,
      "Ġris": 1749,
      "Ġnegot": 1750,
      "ah": 1751,
      "room": 1752,
      "Ġreally": 1753,
      "Ġperiod": 1754,
      "Ġfram": 1755,
      "Ġbeaut": 1756,
      "ences": 1757,
      "Ġgentle": 1758,
      "Ġthough": 1759,
      "Ġregion": 1760,
      "Ġcreate": 1761,
      "Ġopt": 1762,
      "ances": 1763,
      "These": 1764,
      "Ġwish": 1765,
      "Ġprior": 1766,
      "Ġimprove": 1767,
      "Ġdocu": 1768,
      "ety": 1769,
      "oney": 1770,
      "Ġbro": 1771,
      "Ġsever": 1772,
      "ended": 1773,
      "Ġfeat": 1774,
      "ours": 1775,
      "Ġfriend": 1776,
      "ique": 1777,
      "Ġstrong": 1778,
      "Ġperform": 1779,
      "Ġpat": 1780,
      "icient": 1781,
      "Ġgovernment": 1782,
      "Ġpress": 1783,
      "work": 1784,
      "Ġturn": 1785,
      "ization": 1786,
      "co": 1787,
      "Ġdecision": 1788,
      "Ġamong": 1789,
      "adies": 1790,
      "ext": 1791,
      "ending": 1792,
      "Ġitself": 1793,
      "Ġfood": 1794,
      "ogn": 1795,
      "tic": 1796,
      "ĠCent": 1797,
      "Ġsomething": 1798,
      "Ġseveral": 1799,
      "lection": 1800,
      "Ġjob": 1801,
      "arn": 1802,
      "ected": 1803,
      "by": 1804,
      "atic": 1805,
      "Ġstruct": 1806,
      "asing": 1807,
      "Ġcomfort": 1808,
      "Ġthank": 1809,
      "ody": 1810,
      "Ġprogramme": 1811,
      "Ġple": 1812,
      "Ġsingle": 1813,
      "Ġsite": 1814,
      "Ġann": 1815,
      "Ġtop": 1816,
      "Ġresolution": 1817,
      "Ġgeneral": 1818,
      "Ġ12": 1819,
      "Ġcontinue": 1820,
      "Ġbed": 1821,
      "Ġpersonal": 1822,
      "Ġgentlemen": 1823,
      "Ġmaterial": 1824,
      "site": 1825,
      "Ġmillion": 1826,
      "Ġexcell": 1827,
      "Ġz": 1828,
      "ories": 1829,
      "pri": 1830,
      "Ġrestaur": 1831,
      "Ġlangu": 1832,
      "Ġbreak": 1833,
      "Ġmaking": 1834,
      "Ġ18": 1835,
      "omp": 1836,
      "Ġpage": 1837,
      "isis": 1838,
      "Ġintrodu": 1839,
      "ither": 1840,
      "side": 1841,
      "rand": 1842,
      "Ġlab": 1843,
      "ĠSw": 1844,
      "outh": 1845,
      "Ġserious": 1846,
      "Ġfollowing": 1847,
      "ably": 1848,
      "Ġopin": 1849,
      "ĠGerman": 1850,
      "Ġmult": 1851,
      "Ġeng": 1852,
      "Ġleast": 1853,
      "Ġlet": 1854,
      "Ġrelations": 1855,
      "way": 1856,
      "Ġdou": 1857,
      "rate": 1858,
      "Ġexpl": 1859,
      "ification": 1860,
      "Ġgoing": 1861,
      "Ġcontact": 1862,
      "Ġpeace": 1863,
      "ework": 1864,
      "Ġoften": 1865,
      "Ġdirective": 1866,
      "Ġdetail": 1867,
      "ror": 1868,
      "ricult": 1869,
      "ash": 1870,
      "Ġrules": 1871,
      "ery": 1872,
      "Ġtown": 1873,
      "Ġkind": 1874,
      "ried": 1875,
      "Al": 1876,
      "Ġmanagement": 1877,
      "Ġadm": 1878,
      "Ġhome": 1879,
      "Ġiniti": 1880,
      "Ġunderstand": 1881,
      "erg": 1882,
      "Ġparticip": 1883,
      "fer": 1884,
      "And": 1885,
      "Ġnegoti": 1886,
      "Ġforward": 1887,
      "Ġcrisis": 1888,
      "Ġtowards": 1889,
      "Ġmus": 1890,
      "Ġmot": 1891,
      "Ġreform": 1892,
      "Ġaway": 1893,
      "Ġfamily": 1894,
      "though": 1895,
      "Ġprogress": 1896,
      "Ġexpress": 1897,
      "Ġonce": 1898,
      "pped": 1899,
      "Ġhard": 1900,
      "]]": 1901,
      "Ġfeel": 1902,
      "Ġet": 1903,
      "Ġrecogn": 1904,
      "icial": 1905,
      "adam": 1906,
      "Ġthings": 1907,
      "Ġwelcome": 1908,
      "Ġmention": 1909,
      "ici": 1910,
      "Ġrange": 1911,
      "lished": 1912,
      "rict": 1913,
      "Ġess": 1914,
      "Ġinstitutions": 1915,
      "ĠGermany": 1916,
      "Ġcommunic": 1917,
      "Ġenc": 1918,
      "ĠGo": 1919,
      "Ġinc": 1920,
      "Ġsoftware": 1921,
      "Ġmoney": 1922,
      "ex": 1923,
      "'t": 1924,
      "Ġapart": 1925,
      "airs": 1926,
      "for": 1927,
      "iol": 1928,
      "Ġreview": 1929,
      "Ġuntil": 1930,
      "ĠAg": 1931,
      "Ġaid": 1932,
      "Ġcustomers": 1933,
      "na": 1934,
      "ĠTreaty": 1935,
      "Ġexpect": 1936,
      "Ġ&": 1937,
      "Ġexcellent": 1938,
      "Ġincrease": 1939,
      "Ġprice": 1940,
      "Ġfavour": 1941,
      "Ġdays": 1942,
      "aps": 1943,
      "Ġbal": 1944,
      "Ġapproach": 1945,
      "reme": 1946,
      "Ġwar": 1947,
      "sequ": 1948,
      "Ġlittle": 1949,
      "Ġline": 1950,
      "Ġbegin": 1951,
      "Ġbring": 1952,
      "idency": 1953,
      "Ġlocation": 1954,
      "most": 1955,
      "Ġopportunity": 1956,
      "Ġve": 1957,
      "atives": 1958,
      "istic": 1959,
      "lin": 1960,
      "ator": 1961,
      "Ġachieve": 1962,
      "che": 1963,
      "Ġpost": 1964,
      "Ġstaff": 1965,
      "Ġactivities": 1966,
      "Ġrather": 1967,
      "Ġkeep": 1968,
      "Ġprofess": 1969,
      "Ġsw": 1970,
      "ĠRe": 1971,
      "load": 1972,
      "iful": 1973,
      "ides": 1974,
      "Ġinstall": 1975,
      "Ġopp": 1976,
      "Ġbar": 1977,
      "ĠTur": 1978,
      "ived": 1979,
      "ĠLe": 1980,
      "Ġchar": 1981,
      "Ġdr": 1982,
      "Ġfunction": 1983,
      "Ġbehalf": 1984,
      "Ġresources": 1985,
      "reedom": 1986,
      "ĠPol": 1987,
      "Ġpartners": 1988,
      "itor": 1989,
      "Ġtry": 1990,
      "20": 1991,
      "Ġprivate": 1992,
      "200": 1993,
      "ĠAf": 1994,
      "ĠQ": 1995,
      "Ġprovided": 1996,
      "Ġmean": 1997,
      "He": 1998,
      "Ġsuff": 1999,
      "Ġtreat": 2000,
      "Ġquite": 2001,
      "Ġseem": 2002,
      "Ġgrowth": 2003,
      "Ġmight": 2004,
      "racy": 2005,
      "Ġfully": 2006,
      "Ġlight": 2007,
      "ĠItal": 2008,
      "ER": 2009,
      "ze": 2010,
      "mber": 2011,
      "ĠMon": 2012,
      "fast": 2013,
      "ocus": 2014,
      "Ġrequest": 2015,
      "Ġladies": 2016,
      "Ġtre": 2017,
      "pare": 2018,
      "Ġinclude": 2019,
      "lex": 2020,
      "Ġsignific": 2021,
      "Ġdev": 2022,
      "So": 2023,
      "aces": 2024,
      "Ġestablish": 2025,
      "Ġproposals": 2026,
      "Ġfour": 2027,
      "Ġyet": 2028,
      "osp": 2029,
      "be": 2030,
      "ĠPl": 2031,
      "orld": 2032,
      "Ġamendments": 2033,
      "Ġbig": 2034,
      "Ġhaving": 2035,
      "ĠState": 2036,
      "Ġwalk": 2037,
      "Ġtechnology": 2038,
      "ĠMembers": 2039,
      "ĠBar": 2040,
      "man": 2041,
      "Ġhig": 2042,
      "sp": 2043,
      "ratic": 2044,
      "reng": 2045,
      "Ġport": 2046,
      "Ġstat": 2047,
      "Ġframework": 2048,
      "Ġsl": 2049,
      "fect": 2050,
      "ule": 2051,
      "Ġ[[": 2052,
      "ront": 2053,
      "ters": 2054,
      "Ã¶": 2055,
      "Ġremain": 2056,
      "Ġpast": 2057,
      "Ġalong": 2058,
      "Ġsafety": 2059,
      "Ġsolution": 2060,
      "ĠMar": 2061,
      "ĠIt": 2062,
      "Ġeduc": 2063,
      "idence": 2064,
      "Ġevent": 2065,
      "sw": 2066,
      "Ġphot": 2067,
      "Ġinstru": 2068,
      "Ġabove": 2069,
      "Ġleft": 2070,
      "Ġadopted": 2071,
      "fully": 2072,
      "Ġclass": 2073,
      "Ġcosts": 2074,
      "Ġspeak": 2075,
      "rad": 2076,
      "uge": 2077,
      "Ġvalue": 2078,
      "Ġheart": 2079,
      "Ġtimes": 2080,
      "Ġregul": 2081,
      "Ġtaking": 2082,
      "Ġaddition": 2083,
      "St": 2084,
      "Ġothers": 2085,
      "ames": 2086,
      "Ġessential": 2087,
      "Ġabs": 2088,
      "Ġstreng": 2089,
      "Ġ2009": 2090,
      "orn": 2091,
      "Ġrecomm": 2092,
      "Ġmen": 2093,
      "Ġopinion": 2094,
      "rated": 2095,
      "stit": 2096,
      "Ġfail": 2097,
      "Ġmakes": 2098,
      "Ġviol": 2099,
      "Ġeconomy": 2100,
      "epend": 2101,
      "Ġentire": 2102,
      "oot": 2103,
      "Ġcreat": 2104,
      "Ġextreme": 2105,
      "Ġlegislation": 2106,
      "Ġagricult": 2107,
      "Ġhistor": 2108,
      "iting": 2109,
      "Ġcharact": 2110,
      "Ġweek": 2111,
      "ĠInd": 2112,
      "An": 2113,
      "Ġtest": 2114,
      "Ġsea": 2115,
      "Ġbeautiful": 2116,
      "ĠFr": 2117,
      "Ġcalled": 2118,
      "Ġcontent": 2119,
      "ivil": 2120,
      "Ġchall": 2121,
      "ilt": 2122,
      "Ã¡": 2123,
      "ites": 2124,
      "Ġdest": 2125,
      "imum": 2126,
      "Ġtool": 2127,
      "hod": 2128,
      "Ġapplication": 2129,
      "Ġfocus": 2130,
      "Ġgr": 2131,
      "Ġresults": 2132,
      "Ġfreedom": 2133,
      "ension": 2134,
      "Ġhead": 2135,
      "Ġcontext": 2136,
      "Ġpoints": 2137,
      "Ġprojects": 2138,
      "Ġnever": 2139,
      "Ġgl": 2140,
      "Ġreturn": 2141,
      "Ġsure": 2142,
      "Ġconcerned": 2143,
      "ret": 2144,
      "Ġattention": 2145,
      "arly": 2146,
      "AT": 2147,
      "Ġresponsibility": 2148,
      "Ġprovides": 2149,
      "Ġwebsite": 2150,
      "Ġeasy": 2151,
      "Ġminutes": 2152,
      "Ġpolicies": 2153,
      "amental": 2154,
      "ĠHe": 2155,
      "pping": 2156,
      "ĠAn": 2157,
      "Ġdue": 2158,
      "Ġ0": 2159,
      "Ġflo": 2160,
      "Ġsimply": 2161,
      "Ġappropri": 2162,
      "ledge": 2163,
      "mes": 2164,
      "Ġbuilding": 2165,
      "Ġimportance": 2166,
      "ode": 2167,
      "stain": 2168,
      "ĠPal": 2169,
      "irc": 2170,
      "mer": 2171,
      "Ġquestions": 2172,
      "Ġdeli": 2173,
      "Ġconv": 2174,
      "Ġgroups": 2175,
      "Ġteam": 2176,
      "Ġprevent": 2177,
      "isc": 2178,
      "ufact": 2179,
      "Ġpark": 2180,
      "Ġyoung": 2181,
      "lick": 2182,
      "edi": 2183,
      "Ġident": 2184,
      "ior": 2185,
      "bon": 2186,
      "Ġsociety": 2187,
      "Ġeffective": 2188,
      "Ġer": 2189,
      "Ġprec": 2190,
      "apt": 2191,
      "Ġautom": 2192,
      "Ġlot": 2193,
      "Ġknown": 2194,
      "Ġtyp": 2195,
      "ceed": 2196,
      "Ġenvironmental": 2197,
      "Ġfarm": 2198,
      "Ġgreater": 2199,
      "word": 2200,
      "Ġstrategy": 2201,
      "ncy": 2202,
      "ows": 2203,
      "Ġtar": 2204,
      "rial": 2205,
      "oom": 2206,
      "Ġinnov": 2207,
      "chool": 2208,
      "Ġenter": 2209,
      "Ġwide": 2210,
      "Ġcontinu": 2211,
      "sh": 2212,
      "Ġprinciple": 2213,
      "Ġholid": 2214,
      "Ġperm": 2215,
      "ĠSh": 2216,
      "Ġanal": 2217,
      "Ġbath": 2218,
      "Ġtem": 2219,
      "Ġstandards": 2220,
      "Ġhost": 2221,
      "ured": 2222,
      "Ġachie": 2223,
      "lig": 2224,
      "idd": 2225,
      "rist": 2226,
      "Ġamount": 2227,
      "Ġperfect": 2228,
      "Ġnatural": 2229,
      "Ġtalk": 2230,
      "Ġadminist": 2231,
      "Ġversion": 2232,
      "Ġwords": 2233,
      "ĠGu": 2234,
      "Ġroad": 2235,
      "Ġ/": 2236,
      "Ġincreasing": 2237,
      "Ġ30": 2238,
      "ĠEx": 2239,
      "Ġmethod": 2240,
      "Ġcred": 2241,
      "After": 2242,
      "ene": 2243,
      "Ġrequired": 2244,
      "Ġmount": 2245,
      "ĠEng": 2246,
      "Ġansw": 2247,
      "Ġmanufact": 2248,
      "ĠAd": 2249,
      "ological": 2250,
      "Ġcheck": 2251,
      "Ġauthorities": 2252,
      "Ġclearly": 2253,
      "ees": 2254,
      "Ġsignificant": 2255,
      "ators": 2256,
      "aster": 2257,
      "Ġtraining": 2258,
      "ruction": 2259,
      "ided": 2260,
      "ĠWorld": 2261,
      "aim": 2262,
      "Ġmeeting": 2263,
      "ring": 2264,
      "Ġmach": 2265,
      "Ġpot": 2266,
      "Ġappl": 2267,
      "Ġeuro": 2268,
      "ograph": 2269,
      "ats": 2270,
      "une": 2271,
      "unities": 2272,
      "Ġgra": 2273,
      "Ġrisk": 2274,
      "Ġwon": 2275,
      "Ġprotect": 2276,
      "Ġvia": 2277,
      "iversity": 2278,
      "pose": 2279,
      "Ġquick": 2280,
      "ape": 2281,
      "Ġreach": 2282,
      "Ġnetwork": 2283,
      "Ġrecent": 2284,
      "arity": 2285,
      "Ġtechnical": 2286,
      "reen": 2287,
      "Ġaccording": 2288,
      "sc": 2289,
      "Ġdemand": 2290,
      "Ġassist": 2291,
      "Ġaspect": 2292,
      "Ġhouse": 2293,
      "Ġsal": 2294,
      "hib": 2295,
      "Ġaware": 2296,
      "tern": 2297,
      "Ġshare": 2298,
      "Ġsugg": 2299,
      "Ġdi": 2300,
      "ateg": 2301,
      "ĠChina": 2302,
      "Ġlink": 2303,
      "Ġban": 2304,
      "rect": 2305,
      "Ġcentral": 2306,
      "Ġinternal": 2307,
      "Ġfight": 2308,
      "ients": 2309,
      "Ã¤": 2310,
      "Ġsuper": 2311,
      "Ġcapital": 2312,
      "Ġmonths": 2313,
      "Ġpages": 2314,
      "Ġpa": 2315,
      "Ġresponsible": 2316,
      "Ġproposed": 2317,
      "ĠEUR": 2318,
      "Ġlonger": 2319,
      "ensive": 2320,
      "rim": 2321,
      "Ġdirectly": 2322,
      "ler": 2323,
      "Ġi": 2324,
      "Ġemployment": 2325,
      "Ġwin": 2326,
      "Ġdistrib": 2327,
      "Ġpositive": 2328,
      "ĠThis": 2329,
      "Ġlarg": 2330,
      "oss": 2331,
      "Ġsolutions": 2332,
      "Ġ|": 2333,
      "bour": 2334,
      "ports": 2335,
      "Ġnature": 2336,
      "ĠRom": 2337,
      "Ġdial": 2338,
      "Ġinterests": 2339,
      "Ġinfl": 2340,
      "Ġdesc": 2341,
      "Ġmom": 2342,
      "Ġregist": 2343,
      "ĠInternet": 2344,
      "Ġindepend": 2345,
      "Ġrequirements": 2346,
      "Ġcurrently": 2347,
      "ĠNew": 2348,
      "ĠSc": 2349,
      "Ġuser": 2350,
      "then": 2351,
      "af": 2352,
      "ĠAust": 2353,
      "Ġarch": 2354,
      "ES": 2355,
      "Ġfish": 2356,
      "Ġcultural": 2357,
      "Ġside": 2358,
      "50": 2359,
      "Ġhistory": 2360,
      "Ġregions": 2361,
      "go": 2362,
      "Ġlog": 2363,
      "ĠMed": 2364,
      "Ġinvolved": 2365,
      "rop": 2366,
      "Ġcharacter": 2367,
      "Ġcivil": 2368,
      "Ġenough": 2369,
      "Ġthemselves": 2370,
      "arian": 2371,
      "Ġdon": 2372,
      "Ġevents": 2373,
      "Ġapply": 2374,
      "anced": 2375,
      "Ġstandard": 2376,
      "Ġpromot": 2377,
      "Ġfundamental": 2378,
      "Ġparties": 2379,
      "Ġguests": 2380,
      "Ġlat": 2381,
      "Ġvoted": 2382,
      "ussia": 2383,
      "Ġrelax": 2384,
      "ored": 2385,
      "Ġtotal": 2386,
      "Ġsustain": 2387,
      "ĠCl": 2388,
      "Ġcompetition": 2389,
      "Ġhappen": 2390,
      "Ġdam": 2391,
      "Ġimplementation": 2392,
      "Ġrefer": 2393,
      "IN": 2394,
      "iter": 2395,
      "Ġlo": 2396,
      "Ġdemocracy": 2397,
      "erous": 2398,
      "Ġguarantee": 2399,
      "Ġforce": 2400,
      "Ġvill": 2401,
      "ached": 2402,
      "Ġefforts": 2403,
      "Ġ11": 2404,
      "Ġsty": 2405,
      "Ġbord": 2406,
      "Ġforeign": 2407,
      "Ġupon": 2408,
      "Ġonline": 2409,
      "Ġneeded": 2410,
      "ogue": 2411,
      "Ġmov": 2412,
      "ĠX": 2413,
      "Ġitem": 2414,
      "key": 2415,
      "aged": 2416,
      "Ġnight": 2417,
      "Ġcentury": 2418,
      "Ġago": 2419,
      "Ġchanges": 2420,
      "acy": 2421,
      "ĠWest": 2422,
      "Ġstre": 2423,
      "Ġpub": 2424,
      "ton": 2425,
      "Ġextremely": 2426,
      "aw": 2427,
      "One": 2428,
      "Ġdom": 2429,
      "ĠMinist": 2430,
      "Ġcaus": 2431,
      "aste": 2432,
      "bo": 2433,
      "Ġfacilities": 2434,
      "Ġlow": 2435,
      "rench": 2436,
      "Ġselect": 2437,
      "Ġcirc": 2438,
      "ien": 2439,
      "Ġlive": 2440,
      "ops": 2441,
      "Ġregulation": 2442,
      "Ġdeveloped": 2443,
      "ĠEast": 2444,
      "Ġmusic": 2445,
      "Ġcontain": 2446,
      "ai": 2447,
      "Ġgen": 2448,
      "Ġvol": 2449,
      "Ġcontract": 2450,
      "Ġcases": 2451,
      "Ġcamp": 2452,
      "Ġnegotiations": 2453,
      "Ġplease": 2454,
      "Ġcomput": 2455,
      "Ġconstit": 2456,
      "Ġsoon": 2457,
      "Ġmob": 2458,
      "ean": 2459,
      "inally": 2460,
      "Ġviews": 2461,
      "Ġdocument": 2462,
      "ired": 2463,
      "Ġanim": 2464,
      "ming": 2465,
      "Ġ14": 2466,
      "Ġlanguage": 2467,
      "ĠAfric": 2468,
      "Ġhold": 2469,
      "atory": 2470,
      "Ġdecl": 2471,
      "Ġcomes": 2472,
      "Ġharm": 2473,
      "ibility": 2474,
      "Ġprevious": 2475,
      "ĠAnd": 2476,
      "ony": 2477,
      "Ġtarget": 2478,
      "rip": 2479,
      "Ġunique": 2480,
      "ommod": 2481,
      "Ġeither": 2482,
      "Ġsubmit": 2483,
      "Ġmarkets": 2484,
      "Ġdeveloping": 2485,
      "Ch": 2486,
      "ression": 2487,
      "ĠPart": 2488,
      "duct": 2489,
      "Ġbroad": 2490,
      "Ġmaintain": 2491,
      "Ġmess": 2492,
      "Ġsubst": 2493,
      "ĠPresidency": 2494,
      "ĠNo": 2495,
      "Ġetc": 2496,
      "Ġdraw": 2497,
      "Ġ2008": 2498,
      "Ġtas": 2499,
      "aced": 2500,
      "Ġindic": 2501,
      "ĠAs": 2502,
      "AN": 2503,
      "Ġcreated": 2504,
      "ged": 2505,
      "ĠMan": 2506,
      "Ġstates": 2507,
      "utional": 2508,
      "ti": 2509,
      "Ġfinal": 2510,
      "Ġ2010": 2511,
      "Ġder": 2512,
      "Ġreserv": 2513,
      "ĠOr": 2514,
      "Ġbreakfast": 2515,
      "ires": 2516,
      "Ġsuggest": 2517,
      "Ġeducation": 2518,
      "empt": 2519,
      "Ġsurround": 2520,
      "unt": 2521,
      "amb": 2522,
      "Ġlater": 2523,
      "Ġrecommend": 2524,
      "Ġ16": 2525,
      "Ġsound": 2526,
      "ĠAll": 2527,
      "ctions": 2528,
      "Ġsituated": 2529,
      "Ġcong": 2530,
      "Ġdemocratic": 2531,
      "30": 2532,
      "ĠGovern": 2533,
      "Ġadditional": 2534,
      "Ġprices": 2535,
      "isher": 2536,
      "Ġwind": 2537,
      "let": 2538,
      "Ġattract": 2539,
      "Ġcolle": 2540,
      "Ġimmedi": 2541,
      "Ġtrue": 2542,
      "Ġground": 2543,
      "Ġeverything": 2544,
      "Ġthus": 2545,
      "ON": 2546,
      "haps": 2547,
      "Ġbeach": 2548,
      "elf": 2549,
      "Ġregional": 2550,
      "lear": 2551,
      "ĠTe": 2552,
      "Ġclimate": 2553,
      "Ġactually": 2554,
      "atis": 2555,
      "Ġmilit": 2556,
      "Ġemph": 2557,
      "Ġalmost": 2558,
      "Ġcut": 2559,
      "Ġseen": 2560,
      "19": 2561,
      "Ġjo": 2562,
      "ulate": 2563,
      "Ġterror": 2564,
      "Ġidea": 2565,
      "Ġreceive": 2566,
      "ino": 2567,
      "Ġstrengthen": 2568,
      "Ġpool": 2569,
      "onst": 2570,
      "Ġliving": 2571,
      "Ġencoura": 2572,
      "Ġexam": 2573,
      "ernal": 2574,
      "oid": 2575,
      "Ġincluded": 2576,
      "Ġmar": 2577,
      "abled": 2578,
      "Ġfunds": 2579,
      "ĠRussia": 2580,
      "Ġenl": 2581,
      "Ġtranspare": 2582,
      "Ġappropriate": 2583,
      "Ġpict": 2584,
      "Ġ50": 2585,
      "Ġknowledge": 2586,
      "ception": 2587,
      "Ġfair": 2588,
      "Ġclean": 2589,
      "Ġprocedure": 2590,
      "Ġheld": 2591,
      "ource": 2592,
      "ĠRes": 2593,
      "Ġmoment": 2594,
      "DE": 2595,
      "Ġland": 2596,
      "ĠPort": 2597,
      "change": 2598,
      "Ġaccommod": 2599,
      "ĠFrench": 2600,
      "Ġofficial": 2601,
      "Ġoblig": 2602,
      "ĠAir": 2603,
      "Ġcat": 2604,
      "eria": 2605,
      "ĠRep": 2606,
      "ĠBer": 2607,
      "Se": 2608,
      "Ġ17": 2609,
      "ison": 2610,
      "Ġtype": 2611,
      "ipped": 2612,
      "Ġassoc": 2613,
      "ĠSch": 2614,
      "ms": 2615,
      "Ġmajority": 2616,
      "Ġstation": 2617,
      "ĠServ": 2618,
      "Ġworkers": 2619,
      "Ġconsult": 2620,
      "Ġmass": 2621,
      "Please": 2622,
      "ser": 2623,
      "Ġsend": 2624,
      "Ġlack": 2625,
      "Ġrestaurant": 2626,
      "ĠInternational": 2627,
      "Ġcal": 2628,
      "Ġtravel": 2629,
      "Ġmind": 2630,
      "Euro": 2631,
      "Ġthing": 2632,
      "ĠDirect": 2633,
      "Ġschool": 2634,
      "Ġarr": 2635,
      "erc": 2636,
      "roll": 2637,
      "ĠÂ": 2638,
      "ipment": 2639,
      "Ġmor": 2640,
      "ĠBrit": 2641,
      "ĠReg": 2642,
      "Ġdesigned": 2643,
      "Ġimpact": 2644,
      "Ġcommunication": 2645,
      "Ġoutside": 2646,
      "Ġfile": 2647,
      "Ġthroughout": 2648,
      "Ġ24": 2649,
      "ches": 2650,
      "Ġfamous": 2651,
      "ians": 2652,
      "Ġ2007": 2653,
      "Ġfeatures": 2654,
      "Ġisland": 2655,
      "Ġfive": 2656,
      "ots": 2657,
      "Ġemphas": 2658,
      "ĠBe": 2659,
      "Ġcustomer": 2660,
      "Ġprofessional": 2661,
      "inks": 2662,
      "Ġrecord": 2663,
      "Ġcollect": 2664,
      "Ġideal": 2665,
      "Ġcomfortable": 2666,
      "sid": 2667,
      "Ġtakes": 2668,
      "rid": 2669,
      "Ġdoing": 2670,
      "Ġcolleag": 2671,
      "Ġhon": 2672,
      "Ġcertainly": 2673,
      "ĠCour": 2674,
      "oh": 2675,
      "Ġconsequ": 2676,
      "From": 2677,
      "Ġlooking": 2678,
      "Ġparts": 2679,
      "clusion": 2680,
      "Ġworks": 2681,
      "Ġpotential": 2682,
      "AR": 2683,
      "Ġearly": 2684,
      "ĠÐ": 2685,
      "Ġadopt": 2686,
      "Ġspace": 2687,
      "Ġacross": 2688,
      "Ġrate": 2689,
      "Ġ25": 2690,
      "ffice": 2691,
      "Ġce": 2692,
      "Ġusers": 2693,
      "Ġhours": 2694,
      "Ġconcept": 2695,
      "Ġjoint": 2696,
      "ĠFrance": 2697,
      "ĠâĢĺ": 2698,
      "rast": 2699,
      "Ġever": 2700,
      "Ġrad": 2701,
      "ables": 2702,
      "ĠSoc": 2703,
      "Ġdate": 2704,
      "Ġtransl": 2705,
      "Ġdispl": 2706,
      "den": 2707,
      "Ġconcerns": 2708,
      "Ġcorrect": 2709,
      "Ġprogrammes": 2710,
      "ĠSy": 2711,
      "Ġexisting": 2712,
      "aring": 2713,
      "Ġdraft": 2714,
      "Ġdownload": 2715,
      "Ġextra": 2716,
      "Ġtraditional": 2717,
      "Ġtook": 2718,
      "Ġdeterm": 2719,
      "Ġmag": 2720,
      "bit": 2721,
      "Ġ100": 2722,
      "Ġinvestment": 2723,
      "Ġmentioned": 2724,
      "Ġconcerning": 2725,
      "ster": 2726,
      "Ġguest": 2727,
      "IT": 2728,
      "Ġcoord": 2729,
      "ĠLis": 2730,
      "Ġconnection": 2731,
      "ĠFund": 2732,
      "atically": 2733,
      "fortun": 2734,
      "Ġreasons": 2735,
      "Ġcomplex": 2736,
      "Ġdecisions": 2737,
      "Ġmonitor": 2738,
      "gu": 2739,
      "opy": 2740,
      "ĠBel": 2741,
      "Ġcross": 2742,
      "Ġvide": 2743,
      "ĠAff": 2744,
      "Ġdemonst": 2745,
      "\".": 2746,
      "eb": 2747,
      "chan": 2748,
      "Ġcompletely": 2749,
      "ÃŃ": 2750,
      "vert": 2751,
      "Ġwriting": 2752,
      "Ġalthough": 2753,
      "Ã³": 2754,
      "Ġcommittee": 2755,
      "Ġthreat": 2756,
      "ones": 2757,
      "Ġleading": 2758,
      "Ġrelated": 2759,
      "Ġmodel": 2760,
      "ĠGovernment": 2761,
      "ober": 2762,
      "iable": 2763,
      "Ġflex": 2764,
      "yn": 2765,
      "Ġbuilt": 2766,
      "Con": 2767,
      "Ġconflic": 2768,
      "oking": 2769,
      "Ġassess": 2770,
      "Ġnothing": 2771,
      "useum": 2772,
      "Ġclaim": 2773,
      "Ġcommunity": 2774,
      "nces": 2775,
      "Ġmember": 2776,
      "Ġagreements": 2777,
      "ĠBl": 2778,
      "Ġsent": 2779,
      "rag": 2780,
      "Ġpractice": 2781,
      "Ġgame": 2782,
      "Ġpopulation": 2783,
      "ria": 2784,
      "Un": 2785,
      "Ġfall": 2786,
      "Ġbasic": 2787,
      "Ġmilitary": 2788,
      "Ġobjectives": 2789,
      "ature": 2790,
      "Ġbecom": 2791,
      "rans": 2792,
      "ĠPar": 2793,
      "EC": 2794,
      "Ġkm": 2795,
      "Ġincludes": 2796,
      "Ġallows": 2797,
      "Ġholiday": 2798,
      "more": 2799,
      "ĠSu": 2800,
      "lt": 2801,
      "Ġadvant": 2802,
      "new": 2803,
      "Ġculture": 2804,
      "Ġtell": 2805,
      "rael": 2806,
      "Ġinterv": 2807,
      "ley": 2808,
      "uted": 2809,
      "iab": 2810,
      "mp": 2811,
      "oph": 2812,
      "Ġsepar": 2813,
      "Ġoriginal": 2814,
      "Ġbody": 2815,
      "ercial": 2816,
      "Ġsolid": 2817,
      "More": 2818,
      "Ġcard": 2819,
      "yl": 2820,
      "cel": 2821,
      "Ġvalues": 2822,
      "Europe": 2823,
      "Ġreceived": 2824,
      "Ġmedia": 2825,
      "Ġfirm": 2826,
      "urs": 2827,
      "Ġjobs": 2828,
      "ĠUN": 2829,
      "Ġhalf": 2830,
      "term": 2831,
      "ival": 2832,
      "Ġestablished": 2833,
      "Ġwr": 2834,
      "itable": 2835,
      "ends": 2836,
      "Ġfre": 2837,
      "ĠCan": 2838,
      "ĠTurkey": 2839,
      "Ġupd": 2840,
      "First": 2841,
      "Ġ13": 2842,
      "Ġsatis": 2843,
      "ĠCourt": 2844,
      "ĠAmerican": 2845,
      "Ġregarding": 2846,
      "Ġconfirm": 2847,
      "Ġapplications": 2848,
      "Ġste": 2849,
      "pite": 2850,
      "11": 2851,
      "ĠYou": 2852,
      "ĠMay": 2853,
      "anish": 2854,
      "rary": 2855,
      "ush": 2856,
      "Ġequipment": 2857,
      "aches": 2858,
      "Ġagricultural": 2859,
      "just": 2860,
      "Ġjud": 2861,
      "iddle": 2862,
      "Ġchoice": 2863,
      "Ġobjective": 2864,
      "ott": 2865,
      "urb": 2866,
      "ĠLisbon": 2867,
      "vious": 2868,
      "ike": 2869,
      "Ġfront": 2870,
      "ĠTra": 2871,
      "aging": 2872,
      "Ġpackage": 2873,
      "Ġdoub": 2874,
      "equ": 2875,
      "Ġcapac": 2876,
      "Ġperformance": 2877,
      "inary": 2878,
      "Ġreports": 2879,
      "EN": 2880,
      "raft": 2881,
      "Ġpurch": 2882,
      "OR": 2883,
      "Ġquickly": 2884,
      "Ġstrateg": 2885,
      "Ġkeyword": 2886,
      "By": 2887,
      "Ġten": 2888,
      "Ġgoods": 2889,
      "enda": 2890,
      "ĠAffairs": 2891,
      "IS": 2892,
      "Ġimage": 2893,
      "ĠTV": 2894,
      "Ġparty": 2895,
      "Ġsearch": 2896,
      "Ġfiles": 2897,
      "Ġaud": 2898,
      "uclear": 2899,
      "Ġself": 2900,
      "Ġbenefit": 2901,
      "Ġwat": 2902,
      "ude": 2903,
      "Ġattack": 2904,
      "sian": 2905,
      "part": 2906,
      "amic": 2907,
      "Ġachieved": 2908,
      "ening": 2909,
      "ills": 2910,
      "Ġtreatment": 2911,
      "ĠVal": 2912,
      "iveness": 2913,
      "know": 2914,
      "Ġinflu": 2915,
      "rec": 2916,
      "Ġinitiative": 2917,
      "Ġmechan": 2918,
      "Ġtransfer": 2919,
      "Ġbelow": 2920,
      "Ġsense": 2921,
      "Ġsimple": 2922,
      "Ġexperi": 2923,
      "su": 2924,
      "Ġindeed": 2925,
      "My": 2926,
      "Ġprep": 2927,
      "Ġdire": 2928,
      "beral": 2929,
      "Ġdefin": 2930,
      "Ġhuge": 2931,
      "Ġface": 2932,
      "ĠJan": 2933,
      "Ġcomputer": 2934,
      "olute": 2935,
      "Ġcontains": 2936,
      "Ġseems": 2937,
      "ï¿": 2938,
      "ĠAmerica": 2939,
      "ï¿½": 2940,
      "Ġurg": 2941,
      "Ġcover": 2942,
      "Ġcongrat": 2943,
      "oll": 2944,
      "Ġsens": 2945,
      "Ġrepl": 2946,
      "Ġpleas": 2947,
      "aving": 2948,
      "wide": 2949,
      "val": 2950,
      "Ġcarry": 2951,
      "Ġrail": 2952,
      "Ġcru": 2953,
      "Ġvict": 2954,
      "Ġdialogue": 2955,
      "Since": 2956,
      "reg": 2957,
      "hic": 2958,
      "vention": 2959,
      "Ġbeginning": 2960,
      "Ġrecently": 2961,
      "Ġpopular": 2962,
      "ĠEnglish": 2963,
      "Let": 2964,
      "ĠSouth": 2965,
      "Ġleaders": 2966,
      "Ġindustrial": 2967,
      "iles": 2968,
      "Ġprint": 2969,
      "face": 2970,
      "Madam": 2971,
      "Ġoil": 2972,
      "Ġsuccessful": 2973,
      "Ġengine": 2974,
      "Ġinternet": 2975,
      "ĠIsrael": 2976,
      "hold": 2977,
      "ched": 2978,
      "Ġ:": 2979,
      "olf": 2980,
      "Ġpresented": 2981,
      "Ġstop": 2982,
      "Ġqual": 2983,
      "Ġ2000": 2984,
      "Ġseries": 2985,
      "Ġanalys": 2986,
      "''": 2987,
      "Ġanswer": 2988,
      "Ġcomprom": 2989,
      "Ġhighly": 2990,
      "ĠBo": 2991,
      "eral": 2992,
      "ilar": 2993,
      "Ġscient": 2994,
      "Ġcarried": 2995,
      "Ġintegration": 2996,
      "Ġeveryone": 2997,
      "Ġlevels": 2998,
      "Ġfel": 2999,
      "Ġattempt": 3000,
      "\",": 3001,
      "Ġsun": 3002,
      "Ġ198": 3003,
      "Ð¾": 3004,
      "wh": 3005,
      "fortunately": 3006,
      "ma": 3007,
      "Finally": 3008,
      "Ġfamil": 3009,
      "Ġwhose": 3010,
      "Ġconsumers": 3011,
      "12": 3012,
      "Ġefficient": 3013,
      "Ġincreased": 3014,
      "ript": 3015,
      "ĠGree": 3016,
      "ĠÃ": 3017,
      "Ġbank": 3018,
      "Ġprinciples": 3019,
      "Ġgovernments": 3020,
      "mosp": 3021,
      "Ġwarm": 3022,
      "Ġagreed": 3023,
      "light": 3024,
      "Ġactive": 3025,
      "Ġequipped": 3026,
      "Ġstage": 3027,
      "Ġamendment": 3028,
      "itect": 3029,
      "Ġoppos": 3030,
      "era": 3031,
      "Ġwa": 3032,
      "Ġgard": 3033,
      "Ġage": 3034,
      "Ġenlarge": 3035,
      "Ġabsolute": 3036,
      "Ġsho": 3037,
      "Ġreviews": 3038,
      "Ġcenter": 3039,
      "Ġpain": 3040,
      "Ġcam": 3041,
      "ticle": 3042,
      "lim": 3043,
      "Ġdang": 3044,
      "Ġseek": 3045,
      "ĠChrist": 3046,
      "Ġcommitment": 3047,
      "pro": 3048,
      "Ġatmosp": 3049,
      "Ġil": 3050,
      "ania": 3051,
      "ges": 3052,
      "Ġexc": 3053,
      "ĠCo": 3054,
      "Ġsix": 3055,
      "Ġoffice": 3056,
      "Ġchalleng": 3057,
      "inated": 3058,
      "ĠPr": 3059,
      "Ġchoose": 3060,
      "Ġsupply": 3061,
      "Ġtraff": 3062,
      "Ġhigher": 3063,
      "orrow": 3064,
      "Ġperhaps": 3065,
      "Ġasked": 3066,
      "wise": 3067,
      "Ġdig": 3068,
      "Ġmatters": 3069,
      "OM": 3070,
      "ww": 3071,
      "ason": 3072,
      "urch": 3073,
      "Ġaspects": 3074,
      "ĠJune": 3075,
      "Ġshows": 3076,
      "Ġcohe": 3077,
      "Ġden": 3078,
      "Ġavoid": 3079,
      "Ġshown": 3080,
      "Ġsubsid": 3081,
      "Ġpromote": 3082,
      "Ġcommercial": 3083,
      "Ġreflect": 3084,
      "Ġvehic": 3085,
      "Ġdirection": 3086,
      "rought": 3087,
      "Ġobtain": 3088,
      "Ġ2006": 3089,
      "Ġfurn": 3090,
      "irt": 3091,
      "Ġthanks": 3092,
      "igration": 3093,
      "ĠPh": 3094,
      "Ġnuclear": 3095,
      "ĠFor": 3096,
      "cent": 3097,
      "ana": 3098,
      "icro": 3099,
      "Ġformer": 3100,
      "Ġfloor": 3101,
      "Ġenable": 3102,
      "Ġtele": 3103,
      "Ġconsist": 3104,
      "itz": 3105,
      "Ġpossibility": 3106,
      "Ġadded": 3107,
      "unch": 3108,
      "Ġrelev": 3109,
      "ij": 3110,
      "race": 3111,
      "uary": 3112,
      "Ġstress": 3113,
      "Ġfriendly": 3114,
      "Ġopportunities": 3115,
      "ĠBerlin": 3116,
      "mark": 3117,
      "illed": 3118,
      "ously": 3119,
      "app": 3120,
      "Ġcame": 3121,
      "Ġfoot": 3122,
      "rehen": 3123,
      "Ġeffects": 3124,
      "ground": 3125,
      "Ġmaterials": 3126,
      "Ġconsidered": 3127,
      "ployment": 3128,
      "ĠBr": 3129,
      "AS": 3130,
      "Ġrout": 3131,
      "Ġspeed": 3132,
      "Ġnote": 3133,
      "lements": 3134,
      "Ġbehind": 3135,
      "Here": 3136,
      "Ġlatest": 3137,
      "Ġexchange": 3138,
      "Ġclick": 3139,
      "Ġmax": 3140,
      "Ġnews": 3141,
      "Ġexclus": 3142,
      "Ġdouble": 3143,
      "Ġreached": 3144,
      "Ġclos": 3145,
      "Ġaltern": 3146,
      "Ġlearn": 3147,
      "issions": 3148,
      "Ġill": 3149,
      "Ġsafe": 3150,
      "Ġcoll": 3151,
      "encies": 3152,
      "Ġdeath": 3153,
      "Ġreject": 3154,
      "Ġcreation": 3155,
      "orks": 3156,
      "Ġresponse": 3157,
      "Ġstudy": 3158,
      "Ġprepared": 3159,
      "Ġhy": 3160,
      "emoc": 3161,
      "Ġexternal": 3162,
      "Ġarriv": 3163,
      "chen": 3164,
      "Ġpan": 3165,
      "Ġproviding": 3166,
      "arily": 3167,
      "Ġrates": 3168,
      "ĠRepublic": 3169,
      "Ġprim": 3170,
      "Ġartic": 3171,
      "Ġexhib": 3172,
      "Ġdecided": 3173,
      "Ġreduce": 3174,
      "Ġsetting": 3175,
      "ira": 3176,
      "Ġtable": 3177,
      "apan": 3178,
      "Ġpressure": 3179,
      "ona": 3180,
      "ĠQu": 3181,
      "Ġsubmitted": 3182,
      "Ġwonder": 3183,
      "Ġsustainable": 3184,
      "ptember": 3185,
      "Ġeasily": 3186,
      "Ġactions": 3187,
      "ĠWh": 3188,
      "Ġord": 3189,
      "arter": 3190,
      "Ġcapacity": 3191,
      "cember": 3192,
      "Ġprecise": 3193,
      "hest": 3194,
      "cret": 3195,
      "ĠMadam": 3196,
      "where": 3197,
      "ĠSpain": 3198,
      "ĠFin": 3199,
      "Ġenlargement": 3200,
      "Ġut": 3201,
      "Ġgives": 3202,
      "uly": 3203,
      "Ġemerg": 3204,
      "Ġcoming": 3205,
      "ĠSocial": 3206,
      "ĠEC": 3207,
      "Ġpriority": 3208,
      "ple": 3209,
      "Ġatmosphere": 3210,
      "Do": 3211,
      "ussion": 3212,
      "Ġdetails": 3213,
      "serv": 3214,
      "Â®": 3215,
      "Ġnorm": 3216,
      "Ġlove": 3217,
      "sibilities": 3218,
      "alu": 3219,
      "ologies": 3220,
      "ĠEn": 3221,
      "Ġsummer": 3222,
      "Ġremains": 3223,
      "Ġlay": 3224,
      "Ġaccommodation": 3225,
      "Ġcharg": 3226,
      "Ġgrant": 3227,
      "Ġregular": 3228,
      "Ġcause": 3229,
      "Ġneigh": 3230,
      "Therefore": 3231,
      "Ġhotels": 3232,
      "Ġemb": 3233,
      "AL": 3234,
      "iterran": 3235,
      "ift": 3236,
      "Be": 3237,
      "Ġfunding": 3238,
      "ĠFran": 3239,
      "mail": 3240,
      "dom": 3241,
      "ane": 3242,
      "etary": 3243,
      "iated": 3244,
      "erve": 3245,
      "istics": 3246,
      "Ġclosed": 3247,
      "Ġnice": 3248,
      "Ġarchitect": 3249,
      "Ġplaces": 3250,
      "Ġdisplay": 3251,
      "Further": 3252,
      "vere": 3253,
      "antly": 3254,
      "Ġconsumer": 3255,
      "Ġfit": 3256,
      "Now": 3257,
      "Ġbuy": 3258,
      "Ġdescrib": 3259,
      "Ġassistance": 3260,
      "Ġbalance": 3261,
      "Ġappear": 3262,
      "Ġsimilar": 3263,
      "Some": 3264,
      "ev": 3265,
      "Ġred": 3266,
      "Ġmovement": 3267,
      "Ġleave": 3268,
      "Ġproperty": 3269,
      "ese": 3270,
      "Ġfig": 3271,
      "ĠAmend": 3272,
      "Ġconduct": 3273,
      "Ġforms": 3274,
      "ume": 3275,
      "Ġdeg": 3276,
      "Ġsites": 3277,
      "ĠArticle": 3278,
      "Ġmanufacture": 3279,
      "Ġconclud": 3280,
      "arent": 3281,
      "ĠComp": 3282,
      "Ġsupported": 3283,
      "ategories": 3284,
      "ĠConvention": 3285,
      "Ġsize": 3286,
      "icy": 3287,
      "iterranean": 3288,
      "Ġregulations": 3289,
      "Ġlimited": 3290,
      "ha": 3291,
      "Ġbathroom": 3292,
      "Ġbrought": 3293,
      "ĠCol": 3294,
      "ief": 3295,
      "Ġprepar": 3296,
      "org": 3297,
      "Ġpow": 3298,
      "Ġindependent": 3299,
      "ĠBank": 3300,
      "IC": 3301,
      "ta": 3302,
      "ĠItaly": 3303,
      "Ġrule": 3304,
      "burg": 3305,
      "pid": 3306,
      "Ġpurpose": 3307,
      "Ġrepe": 3308,
      "âĢľ": 3309,
      "Ġfisher": 3310,
      "ĠSer": 3311,
      "Ġorganis": 3312,
      "ĠDecember": 3313,
      "cle": 3314,
      "ctober": 3315,
      "prise": 3316,
      "ened": 3317,
      "ĠWeb": 3318,
      "Ġpleased": 3319,
      "Ġelse": 3320,
      "iciency": 3321,
      "ault": 3322,
      "Ġge": 3323,
      "Ġterrit": 3324,
      "Ġcreating": 3325,
      "Ġstyle": 3326,
      "Ġcharge": 3327,
      "Ġvideo": 3328,
      "resident": 3329,
      "Ġship": 3330,
      "Ġadapt": 3331,
      "Ġconstruction": 3332,
      "Ġconnect": 3333,
      "Ġrelevant": 3334,
      "Ġspir": 3335,
      "Ġdiscussion": 3336,
      "ĠSeptember": 3337,
      "ĠCont": 3338,
      "Ġlic": 3339,
      "Ġthous": 3340,
      "Ġbillion": 3341,
      "aries": 3342,
      "Ġproduced": 3343,
      "ĠAfrica": 3344,
      "Ġacqu": 3345,
      "imately": 3346,
      "uff": 3347,
      "eneral": 3348,
      "ĠCentral": 3349,
      "Ġbecame": 3350,
      "Ġcredit": 3351,
      "Ġmessage": 3352,
      "oor": 3353,
      "Ġvariety": 3354,
      "oday": 3355,
      "iture": 3356,
      "ronic": 3357,
      "Ġregards": 3358,
      "lands": 3359,
      "Ġinstead": 3360,
      "Ġlargest": 3361,
      "raq": 3362,
      "Ġaccord": 3363,
      "ream": 3364,
      "Ġflow": 3365,
      "Ġexec": 3366,
      "gen": 3367,
      "Ġrelationship": 3368,
      "Ġdeep": 3369,
      "Ġmeasure": 3370,
      "Ġfriends": 3371,
      "Ex": 3372,
      "Ġstability": 3373,
      "Ġconference": 3374,
      "Ġways": 3375,
      "ĠLa": 3376,
      "Ġobvious": 3377,
      "No": 3378,
      "ife": 3379,
      "Ġguid": 3380,
      "ging": 3381,
      "rap": 3382,
      "Ġinteresting": 3383,
      "Ġprocedures": 3384,
      "ump": 3385,
      "Ġfishing": 3386,
      "ĠII": 3387,
      "ras": 3388,
      "Ġboard": 3389,
      "Ġstarted": 3390,
      "uel": 3391,
      "Ġactivity": 3392,
      "ties": 3393,
      "Ġcondition": 3394,
      "Ġallowed": 3395,
      "Ġsett": 3396,
      "Ġround": 3397,
      "Ġparliament": 3398,
      "Ġtrip": 3399,
      "Ġski": 3400,
      "ĠJapan": 3401,
      "Ġpros": 3402,
      "Ðµ": 3403,
      "âĤ": 3404,
      "arth": 3405,
      "Ġmedium": 3406,
      "Ġproduce": 3407,
      "Ġcompromise": 3408,
      "olution": 3409,
      "ĠNet": 3410,
      "Ġtask": 3411,
      "Ġscre": 3412,
      "Ġtrain": 3413,
      "âĤ¬": 3414,
      "Ġcontribution": 3415,
      "Ġsteps": 3416,
      "Ġprovisions": 3417,
      "aily": 3418,
      "Ind": 3419,
      "ĠMinister": 3420,
      "Ġrelation": 3421,
      "Ġ2005": 3422,
      "ĠItalian": 3423,
      "Ġdepart": 3424,
      "yond": 3425,
      "porary": 3426,
      "gar": 3427,
      "put": 3428,
      "ained": 3429,
      "Ġhous": 3430,
      "Ġdamage": 3431,
      "Ġdut": 3432,
      "Ġblo": 3433,
      "Ġmem": 3434,
      "Ġstatus": 3435,
      "Ġprob": 3436,
      "ĠAt": 3437,
      "Ġinstruments": 3438,
      "sive": 3439,
      "President": 3440,
      "ĠMarch": 3441,
      "Ġexact": 3442,
      "ĠWind": 3443,
      "ivity": 3444,
      "enced": 3445,
      "Ġjour": 3446,
      "rs": 3447,
      "Ġcomprehen": 3448,
      "Ġcoast": 3449,
      "ada": 3450,
      "Ġourselves": 3451,
      "Ġlabour": 3452,
      "Ġpartner": 3453,
      "Ġcriteria": 3454,
      "Ġcou": 3455,
      "Ġcompon": 3456,
      "Ġsource": 3457,
      "Ġoption": 3458,
      "Ġbase": 3459,
      "Ġgreen": 3460,
      "Ġgiving": 3461,
      "Ġwritten": 3462,
      "Ġlimit": 3463,
      "ĠDes": 3464,
      "Ġpen": 3465,
      "Ġdocuments": 3466,
      "ini": 3467,
      "rug": 3468,
      "ĠOctober": 3469,
      "Ġstatement": 3470,
      "Ġ40": 3471,
      "ica": 3472,
      "river": 3473,
      "Ġexcept": 3474,
      "Ġquiet": 3475,
      "Des": 3476,
      "Ġcopy": 3477,
      "Ġtom": 3478,
      "Ġrestaurants": 3479,
      "Ġviolence": 3480,
      "verse": 3481,
      "coming": 3482,
      "Ġloss": 3483,
      "Ð°": 3484,
      "conomic": 3485,
      "vis": 3486,
      "ĠBritish": 3487,
      "ka": 3488,
      "Ġminor": 3489,
      "orpor": 3490,
      "Ġfinally": 3491,
      "Ġapartment": 3492,
      "Ġdise": 3493,
      "ĠJanuary": 3494,
      "Ġmountain": 3495,
      "sels": 3496,
      "Ġbat": 3497,
      "zz": 3498,
      "Ġrent": 3499,
      "Ġoptim": 3500,
      "Ġworth": 3501,
      "Ġmechanism": 3502,
      "Ġstructure": 3503,
      "rian": 3504,
      "ĠNorth": 3505,
      "Ġhistorical": 3506,
      "Ġtypes": 3507,
      "velopment": 3508,
      "itude": 3509,
      "Ġrelig": 3510,
      "Ġbenefits": 3511,
      "ĠFl": 3512,
      "Ġpath": 3513,
      "Ġfast": 3514,
      "Ġswim": 3515,
      "OS": 3516,
      "Ġnor": 3517,
      "Ġtransparency": 3518,
      "antic": 3519,
      "istan": 3520,
      "ager": 3521,
      "ixed": 3522,
      "resh": 3523,
      "alled": 3524,
      "Ġimmediately": 3525,
      "Ġemployees": 3526,
      "ĠSpanish": 3527,
      "ĠRights": 3528,
      "Ġelements": 3529,
      "Ġfilm": 3530,
      "Ġcand": 3531,
      "ental": 3532,
      "Ġhighest": 3533,
      "Second": 3534,
      "EL": 3535,
      "Ġwood": 3536,
      "Ġ2004": 3537,
      "ovember": 3538,
      "ull": 3539,
      "Ġsection": 3540,
      "Ġwine": 3541,
      "Ġelections": 3542,
      "Ġcode": 3543,
      "Of": 3544,
      "enge": 3545,
      "Ġuseful": 3546,
      "Ġvillage": 3547,
      "Ġnumerous": 3548,
      "Ġintegrated": 3549,
      "Ġairport": 3550,
      "Ġdistribution": 3551,
      "ishes": 3552,
      "ses": 3553,
      "Ġagenda": 3554,
      "Ġapplied": 3555,
      "Ġaffect": 3556,
      "berg": 3557,
      "quare": 3558,
      "Ġoperation": 3559,
      "dam": 3560,
      "Ġequal": 3561,
      "ession": 3562,
      "rastruct": 3563,
      "Ġreality": 3564,
      "ding": 3565,
      "cks": 3566,
      "Ġsou": 3567,
      "Ġsaying": 3568,
      "AC": 3569,
      "Ġ21": 3570,
      "Ġprocesses": 3571,
      "Ġchallenges": 3572,
      "Ġsolidarity": 3573,
      "ocated": 3574,
      "Ġreading": 3575,
      "Ġlegislative": 3576,
      "Ġkit": 3577,
      "Ġdistance": 3578,
      "Ġilleg": 3579,
      "Ġpover": 3580,
      "aign": 3581,
      "Ġconsequences": 3582,
      "Ġpayment": 3583,
      "ĠNational": 3584,
      "Ġvictim": 3585,
      "Ġpoverty": 3586,
      "ĠPark": 3587,
      "Ġevalu": 3588,
      "Ġcrucial": 3589,
      "Ġoccas": 3590,
      "Ġdie": 3591,
      "ĠPa": 3592,
      "ĠWar": 3593,
      "eks": 3594,
      "Ġpoor": 3595,
      "Ġundert": 3596,
      "oon": 3597,
      "Ġdaily": 3598,
      "Ġled": 3599,
      "Ġcolleagues": 3600,
      "Ġrat": 3601,
      "Ġdrive": 3602,
      "Ġunem": 3603,
      "ĠParty": 3604,
      "ĠIraq": 3605,
      "Ġimpos": 3606,
      "Ad": 3607,
      "ĠSan": 3608,
      "vell": 3609,
      "urance": 3610,
      "Ġgas": 3611,
      "Ġconven": 3612,
      "ĠService": 3613,
      "Ġanalysis": 3614,
      "Ġtools": 3615,
      "ription": 3616,
      "Ġpersons": 3617,
      "ĠJuly": 3618,
      "Ġbeyond": 3619,
      "ĠRus": 3620,
      "Today": 3621,
      "ades": 3622,
      "ĠDemoc": 3623,
      "alls": 3624,
      "ares": 3625,
      "Ġharmon": 3626,
      "cer": 3627,
      "ray": 3628,
      "Ġconflict": 3629,
      "omb": 3630,
      "Ġpractical": 3631,
      "Ġoffering": 3632,
      "Office": 3633,
      "Ġinstrument": 3634,
      "pril": 3635,
      "Is": 3636,
      "Ġgoes": 3637,
      "iate": 3638,
      "Ġapartments": 3639,
      "Ġsufficient": 3640,
      "Ġdigital": 3641,
      "Ġpaid": 3642,
      "ano": 3643,
      "Ġdepend": 3644,
      "Ġlate": 3645,
      "gram": 3646,
      "Ġconstruct": 3647,
      "Ġforest": 3648,
      "Ġvo": 3649,
      "Ġideas": 3650,
      "Ġorganisations": 3651,
      "DS": 3652,
      "Ġir": 3653,
      "ĠMediterranean": 3654,
      "Ġforces": 3655,
      "Ġoffered": 3656,
      "Ġtomorrow": 3657,
      "ech": 3658,
      "Ġcongratulate": 3659,
      "Ġinfrastruct": 3660,
      "Ġrequires": 3661,
      "astic": 3662,
      "Ġdim": 3663,
      "Ġrich": 3664,
      "Ġlux": 3665,
      "Ġdoubt": 3666,
      "'.": 3667,
      "ĠNovember": 3668,
      "ĠAss": 3669,
      "ky": 3670,
      "Ġthought": 3671,
      "Ġlower": 3672,
      "Ġhappy": 3673,
      "Ġadvantage": 3674,
      "Ġweeks": 3675,
      "Ġimplemented": 3676,
      "ĠSwed": 3677,
      "Ġcircum": 3678,
      "hol": 3679,
      "Ġbi": 3680,
      "Ġcurre": 3681,
      "Ġrelating": 3682,
      "Ġbit": 3683,
      "ĠGe": 3684,
      "inate": 3685,
      "Ġreact": 3686,
      "Ġrenew": 3687,
      "enn": 3688,
      "ĠDirective": 3689,
      "13": 3690,
      "AP": 3691,
      "Ġweak": 3692,
      "Ġanti": 3693,
      "Ġminimum": 3694,
      "Ġbrand": 3695,
      "Ġemail": 3696,
      "head": 3697,
      "Ġpartnership": 3698,
      "ĠKing": 3699,
      "Ġ23": 3700,
      "Pro": 3701,
      "ples": 3702,
      "Ġmobile": 3703,
      "Ġmis": 3704,
      "Ġlines": 3705,
      "Ġvac": 3706,
      "la": 3707,
      "Ġmonitoring": 3708,
      "augh": 3709,
      "Ġlinks": 3710,
      "Ġreference": 3711,
      "Am": 3712,
      "ki": 3713,
      "ĠPe": 3714,
      "Ġenh": 3715,
      "Ġpublished": 3716,
      "ilater": 3717,
      "Ġconver": 3718,
      "theless": 3719,
      "rant": 3720,
      "ĠRoom": 3721,
      "Ġ$": 3722,
      "Ġey": 3723,
      "Ġstarting": 3724,
      "Ġsecure": 3725,
      "Ġarm": 3726,
      "Ġliberal": 3727,
      "Sh": 3728,
      "ederal": 3729,
      "ĠPortug": 3730,
      "Ġdriv": 3731,
      "Ġcaused": 3732,
      "Ġsell": 3733,
      "ĠCar": 3734,
      "abor": 3735,
      "Ġaccordance": 3736,
      "Ġsales": 3737,
      "Ġefficiency": 3738,
      "uis": 3739,
      "Ġoperating": 3740,
      "Ġ197": 3741,
      "Ġreduction": 3742,
      "based": 3743,
      "Ġcampaign": 3744,
      "Ġwaste": 3745,
      "Ġlives": 3746,
      "Every": 3747,
      "During": 3748,
      "Ġcomprehensive": 3749,
      "Ġhistoric": 3750,
      "Ġdat": 3751,
      "15": 3752,
      "Ġargu": 3753,
      "Ġcast": 3754,
      "leb": 3755,
      "Ġclients": 3756,
      "Ġmaximum": 3757,
      "Ġamb": 3758,
      "ĠPalest": 3759,
      "Furthermore": 3760,
      "rest": 3761,
      "itarian": 3762,
      "Ġgot": 3763,
      "ole": 3764,
      "Ġspirit": 3765,
      "umb": 3766,
      "pective": 3767,
      "Many": 3768,
      "60": 3769,
      "itors": 3770,
      "respon": 3771,
      "lines": 3772,
      "rative": 3773,
      "Ġmeaning": 3774,
      "ĠMark": 3775,
      "asc": 3776,
      "Ġbad": 3777,
      "Ġfrequ": 3778,
      "Ġcritic": 3779,
      "ulated": 3780,
      "Ġplant": 3781,
      "Ġgrowing": 3782,
      "Although": 3783,
      "estic": 3784,
      "Ġmachine": 3785,
      "Ġextent": 3786,
      "Ġult": 3787,
      "Ġremind": 3788,
      "rain": 3789,
      "works": 3790,
      "ney": 3791,
      "Ġterrorism": 3792,
      "Ġready": 3793,
      "Ġ)": 3794,
      "Ġones": 3795,
      "Ġsometimes": 3796,
      "Ġvoting": 3797,
      "Ġfarmers": 3798,
      "Ġplayers": 3799,
      "Ġanything": 3800,
      "ĠWindows": 3801,
      "ester": 3802,
      "Ġtechnologies": 3803,
      "Ġoptions": 3804,
      "Ġinterp": 3805,
      "ocol": 3806,
      "ĠSal": 3807,
      "Ġrecon": 3808,
      "ĠSec": 3809,
      "Ġhor": 3810,
      "Ġmethods": 3811,
      "Ġchance": 3812,
      "ifically": 3813,
      "Ġserver": 3814,
      "sec": 3815,
      "Ġremov": 3816,
      "Ġadvert": 3817,
      "Ġcy": 3818,
      "ĠApril": 3819,
      "Ġsectors": 3820,
      "Ġcandid": 3821,
      "Ġinterested": 3822,
      "illa": 3823,
      "Ġfulf": 3824,
      "ques": 3825,
      "standing": 3826,
      "inese": 3827,
      "right": 3828,
      "Ġprobably": 3829,
      "Ġtru": 3830,
      "Ġmorning": 3831,
      "ĠDevelopment": 3832,
      "ĠParis": 3833,
      "Ġworldwide": 3834,
      "ari": 3835,
      "Ġlanguages": 3836,
      "Ġparking": 3837,
      "iction": 3838,
      "Ġchallenge": 3839,
      "Ġ2003": 3840,
      "Ġscientific": 3841,
      "Ġconcent": 3842,
      "uine": 3843,
      "US": 3844,
      "Ġrapid": 3845,
      "house": 3846,
      "hern": 3847,
      "Ġcrim": 3848,
      "Ġlands": 3849,
      "iability": 3850,
      "Ġpictures": 3851,
      "Ġsports": 3852,
      "Ġinnovative": 3853,
      "Ġinitial": 3854,
      "semb": 3855,
      "Ġpie": 3856,
      "Ġsport": 3857,
      "vent": 3858,
      "TO": 3859,
      "Ġpowers": 3860,
      "Ġbusinesses": 3861,
      "Ġaccepted": 3862,
      "Ġencourage": 3863,
      "Ġ%": 3864,
      "Ġarrange": 3865,
      "Ġtou": 3866,
      "Ġfine": 3867,
      "Ġexerc": 3868,
      "phone": 3869,
      "Ġded": 3870,
      "Ġrelease": 3871,
      "Ġcert": 3872,
      "ourable": 3873,
      "Ġeth": 3874,
      "Ġrele": 3875,
      "Ġwanted": 3876,
      "Ġraised": 3877,
      "Ġshopping": 3878,
      "reland": 3879,
      "ger": 3880,
      "see": 3881,
      "atform": 3882,
      "Ġselection": 3883,
      "Ġinfluence": 3884,
      "Book": 3885,
      "Ġsche": 3886,
      "Ġexpert": 3887,
      "Ġswimming": 3888,
      "Ġvisitors": 3889,
      "force": 3890,
      "Ġapprec": 3891,
      "Ġdespite": 3892,
      "Ġbur": 3893,
      "Ġtrying": 3894,
      "Ġinvestig": 3895,
      "Ð¸": 3896,
      "ĠOn": 3897,
      "ĠWestern": 3898,
      "iance": 3899,
      "eter": 3900,
      "Ġalternative": 3901,
      "nter": 3902,
      "Ġabsolutely": 3903,
      "ĠMal": 3904,
      "Ġlost": 3905,
      "Ġdemands": 3906,
      "Ġnamely": 3907,
      "anks": 3908,
      "Ġbedroom": 3909,
      "Hotel": 3910,
      "Ġborders": 3911,
      "Ġstreet": 3912,
      "Ġvalid": 3913,
      "ĠTrans": 3914,
      "va": 3915,
      "Ġsav": 3916,
      "Ġinvolve": 3917,
      "Ġgenuine": 3918,
      "izing": 3919,
      "ls": 3920,
      "Ġgarden": 3921,
      "dra": 3922,
      "Ġimages": 3923,
      "Ġrestrict": 3924,
      "hers": 3925,
      "ama": 3926,
      "Ġheav": 3927,
      "ĠâĤ¬": 3928,
      "Ġgames": 3929,
      "Ġdiv": 3930,
      "una": 3931,
      "Ġfields": 3932,
      "Ġrepresentatives": 3933,
      "Ġjoin": 3934,
      "Ġkitchen": 3935,
      "lying": 3936,
      "ĠAut": 3937,
      "Ġproceed": 3938,
      "comm": 3939,
      "ilateral": 3940,
      "Ġ22": 3941,
      "tt": 3942,
      "Ġdrug": 3943,
      "Ã¼r": 3944,
      "Ġque": 3945,
      "Ġhighlight": 3946,
      "Ġtal": 3947,
      "prises": 3948,
      "EP": 3949,
      "Ġadjust": 3950,
      "Ġinnovation": 3951,
      "Even": 3952,
      "Ġearl": 3953,
      "Ġinitiatives": 3954,
      "Ġstrategic": 3955,
      "ĠIran": 3956,
      "formation": 3957,
      "Ġcounter": 3958,
      "ĠAustria": 3959,
      "Ġcalls": 3960,
      "Ã¨": 3961,
      "rab": 3962,
      "Ġcircumst": 3963,
      "ender": 3964,
      "earch": 3965,
      "Ġobserv": 3966,
      "Secondly": 3967,
      "itation": 3968,
      "ava": 3969,
      "Ġexpressed": 3970,
      "body": 3971,
      "Ġsort": 3972,
      "Ġchanged": 3973,
      "Ġvers": 3974,
      "Ġoccur": 3975,
      "verage": 3976,
      "Ġprocessing": 3977,
      "Ġoverall": 3978,
      "Ġintended": 3979,
      "Ġaccession": 3980,
      "Ġfire": 3981,
      "Acc": 3982,
      "Ġorigin": 3983,
      "Ġrespond": 3984,
      "Ġexport": 3985,
      "rem": 3986,
      "Ġannual": 3987,
      "Ġwrong": 3988,
      "Ġyourself": 3989,
      "Ġmotor": 3990,
      "illing": 3991,
      "ĠConference": 3992,
      "ox": 3993,
      "ugust": 3994,
      "iff": 3995,
      "ĠIreland": 3996,
      "Ġheard": 3997,
      "ocks": 3998,
      "ĠCity": 3999,
      "Ġseason": 4000,
      "uses": 4001,
      "Ġcommitted": 4002,
      "Ġplans": 4003,
      "Ġworked": 4004,
      "Ġillegal": 4005,
      "Ġprem": 4006,
      "cape": 4007,
      "Ġdecor": 4008,
      "poses": 4009,
      "Ġtrust": 4010,
      "ondon": 4011,
      "Ġsil": 4012,
      "reement": 4013,
      "Ġtick": 4014,
      "Ġeleg": 4015,
      "Ġtrack": 4016,
      "ĠConstit": 4017,
      "Ġsouth": 4018,
      "Ġresort": 4019,
      "Ġtalking": 4020,
      "ara": 4021,
      "Ġgoal": 4022,
      "Ġclub": 4023,
      "Ġvital": 4024,
      "ĠAmendment": 4025,
      "amed": 4026,
      "Ġaward": 4027,
      "Ġoccup": 4028,
      "While": 4029,
      "Ġsubstant": 4030,
      "Ġsex": 4031,
      "Ġcities": 4032,
      "Ġfresh": 4033,
      "Ġcohesion": 4034,
      "ĠMus": 4035,
      "met": 4036,
      "Ġdyn": 4037,
      "Ġmainly": 4038,
      "att": 4039,
      "Ġborder": 4040,
      "ĠChinese": 4041,
      "sy": 4042,
      "Ġpasseng": 4043,
      "undred": 4044,
      "Ġtraffic": 4045,
      "ÑĤ": 4046,
      "Ġdeliver": 4047,
      "elines": 4048,
      "Ġapproved": 4049,
      "Ġsays": 4050,
      "Ġability": 4051,
      "Ġevening": 4052,
      "ued": 4053,
      "pper": 4054,
      "Ġphys": 4055,
      "AM": 4056,
      "Ġjustice": 4057,
      "Ġplayer": 4058,
      "like": 4059,
      "Ġalone": 4060,
      "Ġwhom": 4061,
      "Ġconclusion": 4062,
      "Ġmenu": 4063,
      "Ġplaced": 4064,
      "ĠBal": 4065,
      "Ġfear": 4066,
      "Ġaffected": 4067,
      "Ġplanning": 4068,
      "orage": 4069,
      "Ġ000": 4070,
      "ĠLi": 4071,
      "mbH": 4072,
      "Ġopening": 4073,
      "Ġfellow": 4074,
      "Ġfamilies": 4075,
      "Ġcircumstances": 4076,
      "Ġimproved": 4077,
      "Ġrunning": 4078,
      "used": 4079,
      "ĠRussian": 4080,
      "Ġhelpful": 4081,
      "Ġtourist": 4082,
      "ED": 4083,
      "Ġdecide": 4084,
      "ĠEl": 4085,
      "Ġspect": 4086,
      "Ġdatab": 4087,
      "Ġcomments": 4088,
      "thern": 4089,
      "Ġbanks": 4090,
      "rief": 4091,
      "Ġunivers": 4092,
      "Ġwalking": 4093,
      "bian": 4094,
      "Ġdiscrim": 4095,
      "craft": 4096,
      "Ġprovision": 4097,
      "ĠUniversity": 4098,
      "Ġvirt": 4099,
      "zech": 4100,
      "Ġcell": 4101,
      "ĠAG": 4102,
      "ifying": 4103,
      "uck": 4104,
      "Ġfeature": 4105,
      "agraph": 4106,
      "ĠCentre": 4107,
      "Ġpriorities": 4108,
      "Ġ60": 4109,
      "Ġsimpl": 4110,
      "anned": 4111,
      "RO": 4112,
      "Ġcompl": 4113,
      "hood": 4114,
      "Ġfeed": 4115,
      "Ġincreasingly": 4116,
      "ĠGmbH": 4117,
      "Ġcurrency": 4118,
      "Ġreduced": 4119,
      "Moreover": 4120,
      "Ġreforms": 4121,
      "Ġsuitable": 4122,
      "Ġcorpor": 4123,
      "Ġautomatically": 4124,
      "Ġcontroll": 4125,
      "Ġterrace": 4126,
      "European": 4127,
      "Ġdelivery": 4128,
      "Ġconfidence": 4129,
      "icians": 4130,
      "Ġcontribute": 4131,
      "Ġadministration": 4132,
      "Ġbegan": 4133,
      "Ð½": 4134,
      "urt": 4135,
      "Ġapprox": 4136,
      "ĠSystem": 4137,
      "Ġsem": 4138,
      "Ġtradition": 4139,
      "Ġstudents": 4140,
      "Ġregime": 4141,
      "Ġvictims": 4142,
      "Ġensuring": 4143,
      "Ġsupports": 4144,
      "ĠCons": 4145,
      "Ġhom": 4146,
      "raz": 4147,
      "ruit": 4148,
      "ĠSo": 4149,
      "Ġstructural": 4150,
      "ĠAb": 4151,
      "Ġcollection": 4152,
      "Ġmiss": 4153,
      "set": 4154,
      "ought": 4155,
      "Ġinfrastructure": 4156,
      "Ġclient": 4157,
      "Ġunemployment": 4158,
      "En": 4159,
      "ca": 4160,
      "Ġemissions": 4161,
      "Ġscope": 4162,
      "ĠAnt": 4163,
      "Ġcove": 4164,
      "Ġseparate": 4165,
      "aint": 4166,
      "Ġspecifically": 4167,
      "Ġceleb": 4168,
      "ET": 4169,
      "Ġcrime": 4170,
      "Ġparticipation": 4171,
      "ĠLondon": 4172,
      "rown": 4173,
      "Ġtabled": 4174,
      "Ġappoint": 4175,
      "ider": 4176,
      "Ġextensive": 4177,
      "Ġphone": 4178,
      "Ġconfig": 4179,
      "Ġmanner": 4180,
      "Ġbelong": 4181,
      "ounced": 4182,
      "ressive": 4183,
      "erland": 4184,
      "Ġplayed": 4185,
      "Ġlaws": 4186,
      "ĠNations": 4187,
      "Ġmere": 4188,
      "rats": 4189,
      "ĠSant": 4190,
      "Ġanc": 4191,
      "Ġelectronic": 4192,
      "Ġintroduced": 4193,
      "Ġagriculture": 4194,
      "Ġbox": 4195,
      "hab": 4196,
      "Ġtit": 4197,
      "Ġfa": 4198,
      "Ġcompetitive": 4199,
      "Ġpurposes": 4200,
      "no": 4201,
      "Ġrise": 4202,
      "Ġpowerful": 4203,
      "Ġprefer": 4204,
      "18": 4205,
      "Ġhundred": 4206,
      "enty": 4207,
      "cast": 4208,
      "Ġreferred": 4209,
      "Ġanimals": 4210,
      "Ġminist": 4211,
      "ferences": 4212,
      "Ġdetailed": 4213,
      "Ġcomment": 4214,
      "cont": 4215,
      "Ġpolice": 4216,
      "17": 4217,
      "Ġhear": 4218,
      "atur": 4219,
      "Ġblack": 4220,
      "Ġaimed": 4221,
      "Ġeffectively": 4222,
      "cers": 4223,
      "road": 4224,
      "Ġ2002": 4225,
      "roy": 4226,
      "Ġtim": 4227,
      "Ġsources": 4228,
      "Ġplatform": 4229,
      "Ġsatisf": 4230,
      "ebru": 4231,
      "kt": 4232,
      "entions": 4233,
      "Ġsan": 4234,
      "Ġmedic": 4235,
      "Ġperman": 4236,
      "Ġmotion": 4237,
      ".,": 4238,
      "Ġchann": 4239,
      "Ġcharm": 4240,
      "Ġusually": 4241,
      "ĠJust": 4242,
      "ĠCzech": 4243,
      "Ġ27": 4244,
      "ĠTour": 4245,
      "Ġhot": 4246,
      "acious": 4247,
      "ching": 4248,
      "Ġeast": 4249,
      "ĠMin": 4250,
      "Ġlarger": 4251,
      "Ġprecisely": 4252,
      "ned": 4253,
      "Ġphoto": 4254,
      "Ġstated": 4255,
      "odies": 4256,
      "ĠEd": 4257,
      "hel": 4258,
      "Ġinstallation": 4259,
      "orthern": 4260,
      "Ġdeleg": 4261,
      "star": 4262,
      "ĠAugust": 4263,
      "Ġbudgetary": 4264,
      "called": 4265,
      "Ġdead": 4266,
      "oo": 4267,
      "Ġfunctions": 4268,
      "Ġdisp": 4269,
      "ĠGod": 4270,
      "Ġprotected": 4271,
      "Ġrepresents": 4272,
      "Ġdiscussed": 4273,
      "Ġexactly": 4274,
      "order": 4275,
      "aves": 4276,
      "Ġserved": 4277,
      "Ġremember": 4278,
      "Ġrural": 4279,
      "Ġforget": 4280,
      "Ġwants": 4281,
      "Ġgetting": 4282,
      "Ġsitting": 4283,
      "Ġbecoming": 4284,
      "ĠPalestin": 4285,
      "bourg": 4286,
      "ont": 4287,
      "Ġsold": 4288,
      "ĠSecurity": 4289,
      "Ġserve": 4290,
      "Ġlies": 4291,
      "Ġdevelopments": 4292,
      "Ġdedic": 4293,
      "Ġwhite": 4294,
      "Ġdiscussions": 4295,
      "ebruary": 4296,
      "Ġblock": 4297,
      "ĠUK": 4298,
      "Thank": 4299,
      "Ġrisks": 4300,
      "iding": 4301,
      "Ġmuseum": 4302,
      "Ġotherwise": 4303,
      "Ġtrend": 4304,
      "Ġrein": 4305,
      "min": 4306,
      "Ġslow": 4307,
      "Ġ2001": 4308,
      "rich": 4309,
      "reak": 4310,
      "ĠLat": 4311,
      "ĠProt": 4312,
      "ĠHung": 4313,
      "Ġthousands": 4314,
      "Ġadministrative": 4315,
      "Ġremark": 4316,
      "categories": 4317,
      "idential": 4318,
      "ĠPC": 4319,
      "Ġregret": 4320,
      "Ġmanaged": 4321,
      "Ġmid": 4322,
      "Ġassessment": 4323,
      "Ġmut": 4324,
      "Ġfacilit": 4325,
      "ipl": 4326,
      "Ġguidelines": 4327,
      "Ġcovered": 4328,
      "ĠSlo": 4329,
      "imb": 4330,
      "40": 4331,
      "oke": 4332,
      "nder": 4333,
      "ĠGeneral": 4334,
      "Ġearlier": 4335,
      "ĠAgreement": 4336,
      "Ġclosely": 4337,
      "Ġmand": 4338,
      "ĠMor": 4339,
      "Ġ80": 4340,
      "Ġcamera": 4341,
      "Ġcritical": 4342,
      "Ġfollowed": 4343,
      "ĠMe": 4344,
      "itzerland": 4345,
      "ovo": 4346,
      "itiveness": 4347,
      "uts": 4348,
      "rel": 4349,
      "ico": 4350,
      "Ġwonderful": 4351,
      "Ġselected": 4352,
      "ĠCD": 4353,
      "ulations": 4354,
      "Ġentry": 4355,
      "Ġintroduction": 4356,
      "'ll": 4357,
      "Your": 4358,
      "Comm": 4359,
      "ĠTH": 4360,
      "Ġcorrespon": 4361,
      "Ġlikely": 4362,
      "Ġlisted": 4363,
      "Ġspread": 4364,
      "Ġenterprises": 4365,
      "Ġweap": 4366,
      "ĠFore": 4367,
      "mar": 4368,
      "idents": 4369,
      "Ġbuildings": 4370,
      "Ġmedical": 4371,
      "Room": 4372,
      "board": 4373,
      "Re": 4374,
      "overy": 4375,
      "ils": 4376,
      "Ġstar": 4377,
      "ĠMa": 4378,
      "Ġprograms": 4379,
      "hr": 4380,
      "Ġnetworks": 4381,
      "ĠBelg": 4382,
      "ecause": 4383,
      "ya": 4384,
      "mbol": 4385,
      "Ġmetres": 4386,
      "Ġspend": 4387,
      "Ġquot": 4388,
      "comp": 4389,
      "Ġexplo": 4390,
      "Ġimmigration": 4391,
      "Only": 4392,
      "Ġcos": 4393,
      "Ġlinked": 4394,
      "time": 4395,
      "ĠCal": 4396,
      "Ġinside": 4397,
      "Ġrelative": 4398,
      "Ġsupporting": 4399,
      "Indeed": 4400,
      "Ġpaper": 4401,
      "Ġimproving": 4402,
      "Ġinstitutional": 4403,
      "oring": 4404,
      "ensions": 4405,
      "Ġoperations": 4406,
      "Ġexpected": 4407,
      "eth": 4408,
      "16": 4409,
      "Ġ''": 4410,
      "Ġactual": 4411,
      "Ġnorth": 4412,
      "Ġspeech": 4413,
      "celona": 4414,
      "Not": 4415,
      "Ġelectric": 4416,
      "Ġaccomp": 4417,
      "Ġ1999": 4418,
      "Ġconsiderable": 4419,
      "ores": 4420,
      "Ġbrow": 4421,
      "Ġmagn": 4422,
      "ĠIS": 4423,
      "ĠChe": 4424,
      "Ġcompens": 4425,
      "ĠUk": 4426,
      "ero": 4427,
      "Ġbuff": 4428,
      "Ġopened": 4429,
      "Ġdegree": 4430,
      "uth": 4431,
      "Ġentit": 4432,
      "Ġunderstanding": 4433,
      "Ġuses": 4434,
      "Ġtourism": 4435,
      "back": 4436,
      "ĠIT": 4437,
      "Ġcombat": 4438,
      "uration": 4439,
      "Ġpresence": 4440,
      "Ġbrief": 4441,
      "crete": 4442,
      "Ġgain": 4443,
      "Ġwinter": 4444,
      "App": 4445,
      "Ġmill": 4446,
      "Ġsubstantial": 4447,
      "Ġfisheries": 4448,
      "ĠMiddle": 4449,
      "ffee": 4450,
      "ĠSum": 4451,
      "Ġhands": 4452,
      "ĠTechn": 4453,
      "Ġtelephone": 4454,
      "ength": 4455,
      "Ġexclusive": 4456,
      "Ġcomponents": 4457,
      "ĠPolicy": 4458,
      "Ġmarketing": 4459,
      "ureau": 4460,
      "ĠEm": 4461,
      "According": 4462,
      "Ġexperts": 4463,
      "Ġcompar": 4464,
      "Ġdelay": 4465,
      "ĠProgram": 4466,
      "ste": 4467,
      "atell": 4468,
      "Ġpercent": 4469,
      "Ġfounded": 4470,
      "Ġproperly": 4471,
      "egu": 4472,
      "Ġtemper": 4473,
      "ĠIf": 4474,
      "ball": 4475,
      "levision": 4476,
      "Ġduty": 4477,
      "Ġcoordination": 4478,
      "ula": 4479,
      "Ġpurchase": 4480,
      "urd": 4481,
      "usiness": 4482,
      "IL": 4483,
      "Ġanimal": 4484,
      "Ġpresidency": 4485,
      "Ġentirely": 4486,
      "ĠSea": 4487,
      "Ġrefuge": 4488,
      "Ġstrict": 4489,
      "spe": 4490,
      "Ġwest": 4491,
      "ingu": 4492,
      "Ġplants": 4493,
      "iers": 4494,
      "Ġcod": 4495,
      "Ġwent": 4496,
      "Ġsuppli": 4497,
      "Ġauthority": 4498,
      "Ġdifficulties": 4499,
      "Ġtack": 4500,
      "Ġdebt": 4501,
      "Ġcriminal": 4502,
      "Ġsave": 4503,
      "Ġdealing": 4504,
      "14": 4505,
      "Ġgave": 4506,
      "Ġpursu": 4507,
      "SE": 4508,
      "Ġcompetitiveness": 4509,
      "Ġitems": 4510,
      "Ġlear": 4511,
      "ĠFebruary": 4512,
      "Ġelement": 4513,
      "Ġsummit": 4514,
      "Ġdispos": 4515,
      "Its": 4516,
      "Ġplaying": 4517,
      "Ġdiscover": 4518,
      "ussels": 4519,
      "Ġrelate": 4520,
      "Ġresist": 4521,
      "Pl": 4522,
      "Ġtypical": 4523,
      "ios": 4524,
      "Ġmap": 4525,
      "utive": 4526,
      "ĠAsia": 4527,
      "Ġincorpor": 4528,
      "Ġgenerally": 4529,
      "Ġsymbol": 4530,
      "Ġorganisation": 4531,
      "Ġstock": 4532,
      "ME": 4533,
      "Ġpoll": 4534,
      "iling": 4535,
      "inux": 4536,
      "bu": 4537,
      "Ġparagraph": 4538,
      "Ġlegit": 4539,
      "nal": 4540,
      "RE": 4541,
      "ishing": 4542,
      "Ġsusp": 4543,
      "ĠIr": 4544,
      "Ġsuc": 4545,
      "Ġvehicles": 4546,
      "mical": 4547,
      "rants": 4548,
      "Ġlos": 4549,
      "Ġnormal": 4550,
      "amber": 4551,
      "Ġexpand": 4552,
      "Ġwilling": 4553,
      "izes": 4554,
      "inding": 4555,
      "Ġapplies": 4556,
      "Ġload": 4557,
      "Ġpleasant": 4558,
      "Ġconsideration": 4559,
      "ĠSol": 4560,
      "Ġtravell": 4561,
      "Ã³n": 4562,
      "Ġsole": 4563,
      "ĠIndia": 4564,
      "Ġtot": 4565,
      "erson": 4566,
      "ĠPublic": 4567,
      "Ġmachines": 4568,
      "Ġmist": 4569,
      "Ġcommand": 4570,
      "Ġthinking": 4571,
      "Ġflexibility": 4572,
      "Ġmeetings": 4573,
      "Ġpicture": 4574,
      "ĠGreece": 4575,
      "Ġhosp": 4576,
      "ocation": 4577,
      "Ġunac": 4578,
      "vey": 4579,
      "Ġspacious": 4580,
      "Ġcolor": 4581,
      "estival": 4582,
      "ÑĢ": 4583,
      "Ġdestroy": 4584,
      "oz": 4585,
      "Ġmodified": 4586,
      "Ġfacing": 4587,
      "Ġadvance": 4588,
      "ĠBarcelona": 4589,
      "ĠSwitzerland": 4590,
      "Ġbecomes": 4591,
      "ĠGreen": 4592,
      "Ġadequ": 4593,
      "Ġcalc": 4594,
      "rade": 4595,
      "Ġnumbers": 4596,
      "Ġreception": 4597,
      "ĠJoh": 4598,
      "Ġenorm": 4599,
      "Ñģ": 4600,
      "Ġspeaking": 4601,
      "',": 4602,
      "esterday": 4603,
      "Ġbodies": 4604,
      "Ġdefence": 4605,
      "Ġpeaceful": 4606,
      "Ġhimself": 4607,
      "Ġmultip": 4608,
      "Ġformat": 4609,
      "Ġsucceed": 4610,
      "Ġbelie": 4611,
      "Ġaverage": 4612,
      "Ġaims": 4613,
      "ĠCy": 4614,
      "sterdam": 4615,
      "ĠBrussels": 4616,
      "Or": 4617,
      "pen": 4618,
      "inter": 4619,
      "Ġfixed": 4620,
      "Ġpractices": 4621,
      "Ð¾Ð": 4622,
      "uisine": 4623,
      "Other": 4624,
      "iar": 4625,
      "Ġstra": 4626,
      "ĠVer": 4627,
      "making": 4628,
      "Qu": 4629,
      "OL": 4630,
      "Ġdistrict": 4631,
      "ĠTurk": 4632,
      "Ġmail": 4633,
      "Ġestablishment": 4634,
      "Ġdefined": 4635,
      "iant": 4636,
      "Ġflexible": 4637,
      "Each": 4638,
      "ato": 4639,
      "Ġgraph": 4640,
      "Ġparliamentary": 4641,
      "Ġincome": 4642,
      "Ġtold": 4643,
      "Any": 4644,
      "Ġpromoting": 4645,
      "Ġmyself": 4646,
      "Ġsigned": 4647,
      "Ġ!": 4648,
      "Ġeasier": 4649,
      "Ġbeds": 4650,
      "Ġbear": 4651,
      "ĠThere": 4652,
      "osen": 4653,
      "Why": 4654,
      "Ġseriously": 4655,
      "fe": 4656,
      "nel": 4657,
      "Ġinformed": 4658,
      "Then": 4659,
      "ĠPoland": 4660,
      "gest": 4661,
      "ĠKos": 4662,
      "Ġshops": 4663,
      "Ar": 4664,
      "year": 4665,
      "ĠRed": 4666,
      "Ġacknow": 4667,
      "Ġhar": 4668,
      "Ġfinancing": 4669,
      "Ġfailure": 4670,
      "sized": 4671,
      "Ġlib": 4672,
      "ĠCast": 4673,
      "Ġclar": 4674,
      "Ġcourt": 4675,
      "sembly": 4676,
      "Ġdomestic": 4677,
      "Ġcateg": 4678,
      "adem": 4679,
      "IP": 4680,
      "VD": 4681,
      "25": 4682,
      "rates": 4683,
      "Ġhour": 4684,
      "Ġsubsidi": 4685,
      "Ġsuppl": 4686,
      "Ġpenal": 4687,
      "ids": 4688,
      "Ġexperienced": 4689,
      "Ġpolitics": 4690,
      "Ġinstance": 4691,
      "Ġ=": 4692,
      "Ġgradu": 4693,
      "Ġconcrete": 4694,
      "known": 4695,
      "Ġdifferences": 4696,
      "ĠSwiss": 4697,
      "ĠCro": 4698,
      "Ġwithdra": 4699,
      "nes": 4700,
      "iver": 4701,
      "Ġpositions": 4702,
      "Ġstructures": 4703,
      "Ġcontem": 4704,
      "ĠYork": 4705,
      "Ġur": 4706,
      "Ġcooper": 4707,
      "Ġfra": 4708,
      "Ġdatabase": 4709,
      "Ġancient": 4710,
      "Unfortunately": 4711,
      "PE": 4712,
      "Ġdangerous": 4713,
      "Ġvoice": 4714,
      "Ġ+": 4715,
      "Ġadoption": 4716,
      "ĠAmsterdam": 4717,
      "Just": 4718,
      "agen": 4719,
      "Ġhappened": 4720,
      "Ġnegative": 4721,
      "Ġconnected": 4722,
      "Ġassociated": 4723,
      "Ġhumanitarian": 4724,
      "Ġadvanced": 4725,
      "ĠAirport": 4726,
      "Ġimplementing": 4727,
      "Â´": 4728,
      "Ġsafegu": 4729,
      "Ġpermit": 4730,
      "Ġbehav": 4731,
      "Ġcuisine": 4732,
      "Ġneighbour": 4733,
      "Ġappears": 4734,
      "Ġestate": 4735,
      "Ġcondem": 4736,
      "Ġelim": 4737,
      "Ġdoor": 4738,
      "Ġmiddle": 4739,
      "Ġhouses": 4740,
      "Ġunaccept": 4741,
      "Ġopposition": 4742,
      "Ġsen": 4743,
      "Ġec": 4744,
      "Ġimag": 4745,
      "Ġanyone": 4746,
      "Ġdifference": 4747,
      "Ġcarefully": 4748,
      "overed": 4749,
      "Ġwelcom": 4750,
      "Ġtranslation": 4751,
      "Ġproducers": 4752,
      "raine": 4753,
      "Ġstatements": 4754,
      "Ġmodels": 4755,
      "Ġexhibition": 4756,
      "ĠKingdom": 4757,
      "Int": 4758,
      "Ġstudies": 4759,
      "ube": 4760,
      "Ġign": 4761,
      "ns": 4762,
      "Ġagencies": 4763,
      "Ġannounced": 4764,
      "Ġconvenient": 4765,
      "Ġpropose": 4766,
      "ylum": 4767,
      "PL": 4768,
      "Ġsong": 4769,
      "Ġcombination": 4770,
      "Ġguarantees": 4771,
      "Also": 4772,
      "Ġmanage": 4773,
      "ĠNe": 4774,
      "ĠUSA": 4775,
      "Ġrecognition": 4776,
      "Ġreducing": 4777,
      "Ġaccur": 4778,
      "Ġcollabor": 4779,
      "reet": 4780,
      "Ġcalling": 4781,
      "Ġlou": 4782,
      "quis": 4783,
      "ĠHigh": 4784,
      "Ġdescribed": 4785,
      "Ġsatisfact": 4786,
      "Ġcourses": 4787,
      "Ġbeaches": 4788,
      "ias": 4789,
      "Ġevidence": 4790,
      "Ġarticle": 4791,
      "Ġimpossible": 4792,
      "ĠMy": 4793,
      "inating": 4794,
      "Ġleader": 4795,
      "aching": 4796,
      "eff": 4797,
      "Ġtruly": 4798,
      "ĠIm": 4799,
      "Ġx": 4800,
      "orial": 4801,
      "Ġspent": 4802,
      "Ġimmediate": 4803,
      "Click": 4804,
      "ĠCas": 4805,
      "Ġlength": 4806,
      "Because": 4807,
      "Ġterritory": 4808,
      "uk": 4809,
      "Last": 4810,
      "Ġdiscrimination": 4811,
      "gn": 4812,
      "Ġarchitecture": 4813,
      "Ġstri": 4814,
      "ips": 4815,
      "Ġpossibilities": 4816,
      "Ġtelevision": 4817,
      "Ġdrink": 4818,
      "ĠArab": 4819,
      "alle": 4820,
      "Ġwishes": 4821,
      "rupt": 4822,
      "Ġshower": 4823,
      "Ġnames": 4824,
      "Ġ500": 4825,
      "rust": 4826,
      "IM": 4827,
      "Ġimprovement": 4828,
      "Ġorganiz": 4829,
      "ĠHuman": 4830,
      "Ġreleased": 4831,
      "ĠEconomic": 4832,
      "Ġmembership": 4833,
      "Ġahead": 4834,
      "Ġattractive": 4835,
      "ĠOb": 4836,
      "Ġunacceptable": 4837,
      "24": 4838,
      "Ġeight": 4839,
      "ĠBudget": 4840,
      "ĠMuseum": 4841,
      "Ġdelight": 4842,
      "Ġscreen": 4843,
      "Ġbackground": 4844,
      "Ġshared": 4845,
      "Ġavailability": 4846,
      "Ġkil": 4847,
      "Ġexcess": 4848,
      "Ġstru": 4849,
      "Ġ28": 4850,
      "Ġfigures": 4851,
      "OT": 4852,
      "Ġparticipate": 4853,
      "rance": 4854,
      "ĠJustice": 4855,
      "Never": 4856,
      "ĠDep": 4857,
      "ny": 4858,
      "Ġdesire": 4859,
      "Ġconclus": 4860,
      "Ġparam": 4861,
      "99": 4862,
      "Ġquant": 4863,
      "Ġcontinued": 4864,
      "ams": 4865,
      "oly": 4866,
      "She": 4867,
      "Ġintroduce": 4868,
      "free": 4869,
      "Ġreasonable": 4870,
      "Ġsand": 4871,
      "Ġtasks": 4872,
      "Ġ196": 4873,
      "off": 4874,
      "elling": 4875,
      "Ġcontinues": 4876,
      "ĠAC": 4877,
      "Ġcharged": 4878,
      "ĠDemocrats": 4879,
      "Ġelegant": 4880,
      "Ġsle": 4881,
      "Ġtransact": 4882,
      "ashion": 4883,
      "Ġexplain": 4884,
      "Ġgreatest": 4885,
      "ĠHow": 4886,
      "ellig": 4887,
      "Ġcards": 4888,
      "view": 4889,
      "Ġentitled": 4890,
      "Ġunfortunately": 4891,
      "ĠArt": 4892,
      "Ġconsumption": 4893,
      "Ġtrading": 4894,
      "Ġstrongly": 4895,
      "Ġowners": 4896,
      "ĠIN": 4897,
      "urban": 4898,
      "Ġdevices": 4899,
      "tenance": 4900,
      "ĠBul": 4901,
      "Ġconvin": 4902,
      "Once": 4903,
      "Ġallowing": 4904,
      "ĠAssoc": 4905,
      "Ġglass": 4906,
      "Ġcompleted": 4907,
      "Ġcombined": 4908,
      "Ġentertain": 4909,
      "Ġvotes": 4910,
      "ĠBoard": 4911,
      "Ġraise": 4912,
      "pir": 4913,
      "wo": 4914,
      "Ġenables": 4915,
      "Ġcars": 4916,
      "oto": 4917,
      "Ġmonetary": 4918,
      "can": 4919,
      "Ġtaste": 4920,
      "ĠVien": 4921,
      "Ġparent": 4922,
      "ĠGrand": 4923,
      "Ġgeneration": 4924,
      "Ġradio": 4925,
      "Ġarrival": 4926,
      "Ġau": 4927,
      "ilst": 4928,
      "Ġstable": 4929,
      "iplom": 4930,
      "Ġappeal": 4931,
      "Ġreligious": 4932,
      "rivers": 4933,
      "Ġsurrounding": 4934,
      "ipe": 4935,
      "Ġunless": 4936,
      "Ġexpend": 4937,
      "Ġdelic": 4938,
      "Ġpackages": 4939,
      "Ġcoffee": 4940,
      "Ġdin": 4941,
      "Ġtransparent": 4942,
      "Ġasylum": 4943,
      "....": 4944,
      "Ġcas": 4945,
      "Ġskills": 4946,
      "Ġhop": 4947,
      "Ġcloser": 4948,
      "ilos": 4949,
      "Ġbeauty": 4950,
      "igned": 4951,
      "DP": 4952,
      "ography": 4953,
      "ĠRoman": 4954,
      "Ġinsurance": 4955,
      "ĠPer": 4956,
      "Ġspl": 4957,
      "Ġregistered": 4958,
      "Ġexercise": 4959,
      "Ġborn": 4960,
      "Ġvolunt": 4961,
      "Ġmission": 4962,
      "--": 4963,
      "Ġnearby": 4964,
      "Ġenormous": 4965,
      "Ġdedicated": 4966,
      "ĠIrish": 4967,
      "ensus": 4968,
      "Ġcompos": 4969,
      "Ġcapt": 4970,
      "Ġsurface": 4971,
      "quality": 4972,
      "ĠInstit": 4973,
      "with": 4974,
      "Ġholidays": 4975,
      "Ġprofession": 4976,
      "Ġclaims": 4977,
      "Ġperspective": 4978,
      "Ġmeters": 4979,
      "Ġforth": 4980,
      "Firstly": 4981,
      "Ġunc": 4982,
      "usion": 4983,
      "anging": 4984,
      "Ġpure": 4985,
      "Ġforced": 4986,
      "Parliament": 4987,
      "ille": 4988,
      "icking": 4989,
      "ĠDebian": 4990,
      "ald": 4991,
      "**": 4992,
      "vest": 4993,
      "Ġbooking": 4994,
      "Ġmer": 4995,
      "ĠEnvironment": 4996,
      "ĠTurkish": 4997,
      "Ġriver": 4998,
      "mon": 4999,
      "aration": 5000,
      "Ġsale": 5001,
      "ounce": 5002,
      "Ġunf": 5003,
      "itch": 5004,
      "Ġreplace": 5005,
      "Ġinstitution": 5006,
      "ĠGuest": 5007,
      "Ġpermanent": 5008,
      "olit": 5009,
      "ĠMad": 5010,
      "going": 5011,
      "Ġconvinced": 5012,
      "Most": 5013,
      "Ġestablishing": 5014,
      "Ġroll": 5015,
      "Ġreliable": 5016,
      "Ġadvertising": 5017,
      "Ġtotally": 5018,
      "atever": 5019,
      "Ġindividuals": 5020,
      "Ġfruit": 5021,
      "nother": 5022,
      "Ġdu": 5023,
      "za": 5024,
      "Ġnotice": 5025,
      "Ġrelaxing": 5026,
      "Ġpal": 5027,
      "ione": 5028,
      "Ġmeant": 5029,
      "ĠDr": 5030,
      "Ġgranted": 5031,
      "ĠEuropeans": 5032,
      "23": 5033,
      "Ġbound": 5034,
      "Ġadult": 5035,
      "'re": 5036,
      "Ġconclusions": 5037,
      "Ġinstalled": 5038,
      "soft": 5039,
      "Ġunion": 5040,
      "Ġ300": 5041,
      "Ġurgent": 5042,
      "ĠApp": 5043,
      "ĠAfrican": 5044,
      "Ġbutton": 5045,
      "Ġant": 5046,
      "enh": 5047,
      "Ġearth": 5048,
      "Ġsquare": 5049,
      "Ġdivid": 5050,
      "Ġstands": 5051,
      "Ġexclud": 5052,
      "Ġprison": 5053,
      "Ġsides": 5054,
      "Ġpassed": 5055,
      "Ġsatell": 5056,
      "AD": 5057,
      "Ġcompared": 5058,
      "ĠNether": 5059,
      "Ġfailed": 5060,
      "âĢĿ,": 5061,
      "Ġrailway": 5062,
      "Ġextended": 5063,
      "Ġfle": 5064,
      "ĠWTO": 5065,
      "Ġkept": 5066,
      "Ġdevice": 5067,
      "oker": 5068,
      "rating": 5069,
      "estaur": 5070,
      "Ġcontrols": 5071,
      "Ġstorage": 5072,
      "Sc": 5073,
      "iscal": 5074,
      "Ġcontrary": 5075,
      "Ġunto": 5076,
      "Ġchair": 5077,
      "Ġmountains": 5078,
      "sm": 5079,
      "Ġconcert": 5080,
      "Ġbiggest": 5081,
      "ken": 5082,
      "ĠCat": 5083,
      "ĠKosovo": 5084,
      "Ġ70": 5085,
      "UR": 5086,
      "Ġ90": 5087,
      "anim": 5088,
      "unction": 5089,
      "igrants": 5090,
      "New": 5091,
      "Ġcandidate": 5092,
      "ĠPlay": 5093,
      "Ġmemory": 5094,
      "Ġdrawn": 5095,
      "Ġunable": 5096,
      "Ġdream": 5097,
      "ĠTre": 5098,
      "Ġattractions": 5099,
      "Ġreservation": 5100,
      "Ġeconomies": 5101,
      "Ġsignal": 5102,
      "Ġfactors": 5103,
      "ĠIsl": 5104,
      "Ġstory": 5105,
      "Ġlearning": 5106,
      "iliation": 5107,
      "Ġsaw": 5108,
      "ancing": 5109,
      "Ġchurch": 5110,
      "Ġweight": 5111,
      "Ġmoving": 5112,
      "ĠRegulation": 5113,
      "Ġambit": 5114,
      "Ġoutd": 5115,
      "itage": 5116,
      "Ġcommitments": 5117,
      "table": 5118,
      "ghan": 5119,
      "Ġsession": 5120,
      "Ġdisease": 5121,
      "Ġlaid": 5122,
      "Ġhonourable": 5123,
      "Ġadvice": 5124,
      "Ġchosen": 5125,
      "Ġrightly": 5126,
      "ĠNetherlands": 5127,
      "FR": 5128,
      "iel": 5129,
      "Ġscience": 5130,
      "vernmental": 5131,
      "Ġwindow": 5132,
      "ament": 5133,
      "Ġstrength": 5134,
      "Ġcorporate": 5135,
      "ĠServices": 5136,
      "iti": 5137,
      "Ġtried": 5138,
      "arc": 5139,
      "Ġweapons": 5140,
      "Ġunit": 5141,
      "Ġexpression": 5142,
      "Ġartists": 5143,
      "Ġmaintenance": 5144,
      "ĠOrgan": 5145,
      "Ġcore": 5146,
      "Ġsecret": 5147,
      "ĠAud": 5148,
      "{{": 5149,
      "ĠMart": 5150,
      "rations": 5151,
      "80": 5152,
      "ĠMarket": 5153,
      "De": 5154,
      "Ġ26": 5155,
      "Ġperfectly": 5156,
      "rew": 5157,
      "irth": 5158,
      "Ġpet": 5159,
      "Ġfinance": 5160,
      "Ġneither": 5161,
      "Ġobligations": 5162,
      "gage": 5163,
      "âĢĿ.": 5164,
      "Ġsensitive": 5165,
      "Ġambitious": 5166,
      "Ġachieving": 5167,
      "Ġspending": 5168,
      "mission": 5169,
      "Ġbott": 5170,
      "Ġagency": 5171,
      "Ġyesterday": 5172,
      "Ġshop": 5173,
      "Ġscale": 5174,
      "sequently": 5175,
      "Ġobst": 5176,
      "Ġoutcome": 5177,
      "ĠStar": 5178,
      "Ġpromotion": 5179,
      "Ġcolleague": 5180,
      "het": 5181,
      "Ġelection": 5182,
      "Ġreve": 5183,
      "ĠFrank": 5184,
      "mal": 5185,
      "Booking": 5186,
      "ĠConstitution": 5187,
      "Ġobviously": 5188,
      "iques": 5189,
      "apers": 5190,
      "ĠGreek": 5191,
      "Ġorganised": 5192,
      "active": 5193,
      "Ġvehicle": 5194,
      "Ġconstantly": 5195,
      "ĠMicro": 5196,
      "Ġintervention": 5197,
      "lantic": 5198,
      "Ġvon": 5199,
      "aza": 5200,
      "Ġvision": 5201,
      "Ġdefinition": 5202,
      "utch": 5203,
      "nergy": 5204,
      "Ġaircraft": 5205,
      "ris": 5206,
      "Ġrenov": 5207,
      "Ġ1998": 5208,
      "Ġinterface": 5209,
      "ĠUkraine": 5210,
      "rep": 5211,
      "bum": 5212,
      "Ġpayments": 5213,
      "Ġdimension": 5214,
      "oe": 5215,
      "Ġluxury": 5216,
      "ĠBu": 5217,
      "Ġlimits": 5218,
      "Ġchemical": 5219,
      "Ġlaun": 5220,
      "Ġelected": 5221,
      "Ġequality": 5222,
      "Ġcontinuing": 5223,
      "Ġrock": 5224,
      "ĠRooms": 5225,
      "Ġoutstanding": 5226,
      "Ġwww": 5227,
      "charge": 5228,
      "ague": 5229,
      "ĠEastern": 5230,
      "sites": 5231,
      "Ġfant": 5232,
      "ented": 5233,
      "Can": 5234,
      "Per": 5235,
      "Ph": 5236,
      "urally": 5237,
      "Ġsituations": 5238,
      "Nevertheless": 5239,
      "Ġcolour": 5240,
      "ett": 5241,
      "ĠAct": 5242,
      "Ġasking": 5243,
      "Ġguide": 5244,
      "Ġproport": 5245,
      "Ġcontents": 5246,
      "Ġlaunch": 5247,
      "ena": 5248,
      "Ġgolf": 5249,
      "Ġdiplom": 5250,
      "Ġsuccessfully": 5251,
      "ĠHealth": 5252,
      "}}": 5253,
      "Ġcompat": 5254,
      "Ġexpenditure": 5255,
      "wing": 5256,
      "ĠVienna": 5257,
      "Ġdistin": 5258,
      "Ġorganization": 5259,
      "ĠAfghan": 5260,
      "ION": 5261,
      "oman": 5262,
      "Ġrecommendations": 5263,
      "Ġcriticism": 5264,
      "aken": 5265,
      "Ġmicro": 5266,
      "Ġnation": 5267,
      "ifications": 5268,
      "ĠCor": 5269,
      "ĠGard": 5270,
      "Ġoccasion": 5271,
      "Ġsurrounded": 5272,
      "condition": 5273,
      "Ġindependence": 5274,
      "Ġtouch": 5275,
      "onia": 5276,
      "Ġrace": 5277,
      "ĠHer": 5278,
      "net": 5279,
      "inations": 5280,
      "Ġgoals": 5281,
      "Ġflight": 5282,
      "Ġsomeone": 5283,
      "Ġupdate": 5284,
      "Ġspecies": 5285,
      "Ġintention": 5286,
      "Ġmerely": 5287,
      "Ġsurv": 5288,
      "ĠPortugal": 5289,
      "Ġseven": 5290,
      "Ġbalanced": 5291,
      "Ġextend": 5292,
      "Another": 5293,
      "Ġacts": 5294,
      "ĠFree": 5295,
      "Ġphysical": 5296,
      "Ġtargets": 5297,
      "Ġstore": 5298,
      "alt": 5299,
      "ĠCong": 5300,
      "ĠPrime": 5301,
      "ps": 5302,
      "ĠPat": 5303,
      "Ġcontained": 5304,
      "abil": 5305,
      "ooth": 5306,
      "Ġwealth": 5307,
      "Ġdefic": 5308,
      "Ġvul": 5309,
      "Ġprevention": 5310,
      "Ġtitle": 5311,
      "Ġcategory": 5312,
      "Ġconsists": 5313,
      "ded": 5314,
      "ĠPeople": 5315,
      "Ġapproximately": 5316,
      "Ġfraud": 5317,
      "ĠKore": 5318,
      "Ġdisposal": 5319,
      "Ġaccessible": 5320,
      "ĠAssociation": 5321,
      "ĠBas": 5322,
      "Ġpreserv": 5323,
      "ĠResearch": 5324,
      "Ġpointed": 5325,
      "Ġphotos": 5326,
      "Ġlandscape": 5327,
      "Ġdepos": 5328,
      "Ġplanned": 5329,
      "Ġgold": 5330,
      "yle": 5331,
      "Ġputting": 5332,
      "ĠForeign": 5333,
      "Ġcommunities": 5334,
      "Ġroute": 5335,
      "ĠPalestinian": 5336,
      "Ġmulti": 5337,
      "Ġbringing": 5338,
      "ĠAc": 5339,
      "Ġchanging": 5340,
      "ĠCroat": 5341,
      "ĠManagement": 5342,
      "Ġmil": 5343,
      "Ġcompli": 5344,
      "ĠThey": 5345,
      "Ġparticipants": 5346,
      "nic": 5347,
      "nge": 5348,
      "estaurant": 5349,
      "ctor": 5350,
      "Ġresponsibilities": 5351,
      "Ġleads": 5352,
      "Ġglad": 5353,
      "Ġguaranteed": 5354,
      "His": 5355,
      "king": 5356,
      "Ġwaiting": 5357,
      "ĠAustrian": 5358,
      "Ġoperate": 5359,
      "ID": 5360,
      "Ġstrengthening": 5361,
      "ellect": 5362,
      "ulating": 5363,
      "estion": 5364,
      "rum": 5365,
      "Ġbuffet": 5366,
      "Ġresulting": 5367,
      "Ġcapable": 5368,
      "Ġconclude": 5369,
      "ĠSummit": 5370,
      "oyal": 5371,
      "ym": 5372,
      "Ġcauses": 5373,
      "Ġprospect": 5374,
      "Ġurban": 5375,
      "Ġfiscal": 5376,
      "Ġgrounds": 5377,
      "Ġsn": 5378,
      "Ġinstruct": 5379,
      "Ġlake": 5380,
      "Ġsmaller": 5381,
      "itness": 5382,
      "Ġdynamic": 5383,
      "Ġexpos": 5384,
      "umn": 5385,
      "Ġfactor": 5386,
      "ĠRome": 5387,
      "Ġafford": 5388,
      "ola": 5389,
      "Ġslight": 5390,
      "SP": 5391,
      "Ġsovere": 5392,
      "Ġconvention": 5393,
      "ĠAgency": 5394,
      "Ġbrings": 5395,
      "Ġacceptable": 5396,
      "Ġcatal": 5397,
      "Ġcheap": 5398,
      "Ġneighb": 5399,
      "Ġexamples": 5400,
      "reakfast": 5401,
      "Such": 5402,
      "ĠMEP": 5403,
      "orough": 5404,
      "Ġtow": 5405,
      "Ġou": 5406,
      "Ġregistration": 5407,
      "Ġcontemporary": 5408,
      "ruption": 5409,
      "Ġdefend": 5410,
      "Ġsafeguard": 5411,
      "âĢĵ": 5412,
      "anc": 5413,
      "ros": 5414,
      "ĠLux": 5415,
      "Ġvalu": 5416,
      "Ġpleasure": 5417,
      "Ġseeking": 5418,
      "Ġassociation": 5419,
      "Ġinterpret": 5420,
      "ĠTrade": 5421,
      "ĠClub": 5422,
      "bar": 5423,
      "Ġphilos": 5424,
      "ĠAN": 5425,
      "erman": 5426,
      "Ġidentity": 5427,
      "Ġsnow": 5428,
      "ĠCost": 5429,
      "obby": 5430,
      "sibly": 5431,
      "Ġhum": 5432,
      "Ġfurnished": 5433,
      "ban": 5434,
      "DF": 5435,
      "ĠCenter": 5436,
      "Ġcancell": 5437,
      "ĠSaf": 5438,
      "Ġspaces": 5439,
      "Ġnations": 5440,
      "Ġspa": 5441,
      "press": 5442,
      "Ġassum": 5443,
      "Ġmanufacturing": 5444,
      ".âĢĿ": 5445,
      "Ġletter": 5446,
      "EM": 5447,
      "Ġminute": 5448,
      "Yet": 5449,
      "Ġpill": 5450,
      "eters": 5451,
      "Ġ29": 5452,
      "nterprise": 5453,
      "...\"": 5454,
      "Ġband": 5455,
      "Ġfuel": 5456,
      "Ġdiscussing": 5457,
      "Ġsatellite": 5458,
      "uting": 5459,
      "ancy": 5460,
      "Ġconsensus": 5461,
      "Ġsteel": 5462,
      "book": 5463,
      "Ġnearly": 5464,
      "Ġfashion": 5465,
      "Ġwrite": 5466,
      "ĠVen": 5467,
      "aper": 5468,
      "isure": 5469,
      "Ġpatients": 5470,
      "Ġliability": 5471,
      "ĠFederal": 5472,
      "Ġveget": 5473,
      "Ġscen": 5474,
      "Ġattacks": 5475,
      "iny": 5476,
      "Ġaddressed": 5477,
      "ĠRules": 5478,
      "Ġtruth": 5479,
      "Ġoverlo": 5480,
      "Ġrepresentative": 5481,
      "rivate": 5482,
      "Ġinhab": 5483,
      "Ġmother": 5484,
      "ĠMac": 5485,
      "place": 5486,
      "ĠLeg": 5487,
      "mitted": 5488,
      "Ġsouthern": 5489,
      "iations": 5490,
      "Ġsets": 5491,
      "Ã±": 5492,
      "Ġthereby": 5493,
      "edia": 5494,
      "Ġbalcon": 5495,
      "Ġpreviously": 5496,
      "Ġvulner": 5497,
      "fare": 5498,
      "Ġbars": 5499,
      "Ġexplan": 5500,
      "Ġdriving": 5501,
      "Ġstim": 5502,
      "Ġzone": 5503,
      "ING": 5504,
      "!!": 5505,
      "ĠAlp": 5506,
      "ĠOffice": 5507,
      "ographic": 5508,
      "Ġprimary": 5509,
      "Ġkinds": 5510,
      "Ġlabor": 5511,
      "Ġprimarily": 5512,
      "Ġadequate": 5513,
      "Over": 5514,
      "ĠBusiness": 5515,
      "Ġ\"...": 5516,
      "IA": 5517,
      "Ġ1997": 5518,
      "Thus": 5519,
      "Ġrefere": 5520,
      "Ġrequested": 5521,
      "Ġconsolid": 5522,
      "Ġphase": 5523,
      "Ġfort": 5524,
      "ivered": 5525,
      "Ġkilomet": 5526,
      "Ġsurpr": 5527,
      "Ġrul": 5528,
      "Ġschools": 5529,
      "Ġrecovery": 5530,
      "Ġearn": 5531,
      "Ġindustries": 5532,
      "Ġfif": 5533,
      "Ġversions": 5534,
      "ĠâĢĶ": 5535,
      "Ġson": 5536,
      "Ġpassword": 5537,
      "Are": 5538,
      "ĠLatin": 5539,
      "Ġdecades": 5540,
      "Ġorders": 5541,
      "Ġremove": 5542,
      "ĠHar": 5543,
      "Ġgovernance": 5544,
      "Ġtalks": 5545,
      "Ġevaluation": 5546,
      "Ġdealt": 5547,
      "Ġmutual": 5548,
      "esides": 5549,
      "Ġtesting": 5550,
      "ĠEst": 5551,
      "ĠNot": 5552,
      "Ã§": 5553,
      "anges": 5554,
      "Ġanaly": 5555,
      "amm": 5556,
      "Ġdetermined": 5557,
      "border": 5558,
      "Ġrob": 5559,
      "ĠHost": 5560,
      "Ġmultiple": 5561,
      "sk": 5562,
      "Ġtend": 5563,
      "98": 5564,
      "ĠJava": 5565,
      "Ġamongst": 5566,
      "Ġunanim": 5567,
      "Ġskin": 5568,
      "Ġpun": 5569,
      "Ġnamed": 5570,
      "ĠLinux": 5571,
      "Ġwaters": 5572,
      "ogle": 5573,
      "razil": 5574,
      "ĠMag": 5575,
      "Ġdelivered": 5576,
      "Ġdiversity": 5577,
      "asters": 5578,
      "Ġexception": 5579,
      "Ġupg": 5580,
      "Ġprepare": 5581,
      "ĠDVD": 5582,
      "Ġmechanisms": 5583,
      "ĠMet": 5584,
      "onom": 5585,
      "acing": 5586,
      "Ġfather": 5587,
      "Ġturned": 5588,
      "Ġalbum": 5589,
      "Those": 5590,
      "Ġtechnological": 5591,
      "Ġliter": 5592,
      "45": 5593,
      "Ã©s": 5594,
      "hus": 5595,
      "Ġconsultation": 5596,
      "Ġqualified": 5597,
      "Ġurge": 5598,
      "ireless": 5599,
      "Ġdram": 5600,
      "ĠInter": 5601,
      "Sub": 5602,
      "Ġfol": 5603,
      "ĠSa": 5604,
      "Ġdefault": 5605,
      "ĠRot": 5606,
      "Ġmanufacturers": 5607,
      "ĠLake": 5608,
      "mas": 5609,
      "Ġinvestments": 5610,
      "ST": 5611,
      "Ġonto": 5612,
      "Ġves": 5613,
      "Ġobser": 5614,
      "Cont": 5615,
      "ellectual": 5616,
      "iced": 5617,
      "Ġopposite": 5618,
      "uries": 5619,
      ",\"": 5620,
      "Reg": 5621,
      "Ġpred": 5622,
      "Ġbooks": 5623,
      "ĠSweden": 5624,
      "Ġcool": 5625,
      "CO": 5626,
      "Ġ31": 5627,
      "Ġintellig": 5628,
      "Ġexistence": 5629,
      "ags": 5630,
      "II": 5631,
      "Ġinsist": 5632,
      "Ġblue": 5633,
      "Ġplus": 5634,
      "Ġaccounts": 5635,
      "ĠMinutes": 5636,
      "how": 5637,
      "Ġrepeated": 5638,
      "aser": 5639,
      "Inst": 5640,
      "Ġpiece": 5641,
      "roud": 5642,
      "Ġstraight": 5643,
      "licit": 5644,
      "Ġknows": 5645,
      "oles": 5646,
      "ĠStrate": 5647,
      "ora": 5648,
      "arus": 5649,
      "Ġattitude": 5650,
      "ĠInst": 5651,
      "Ġvan": 5652,
      "22": 5653,
      "Ġreply": 5654,
      "Ġmix": 5655,
      "riendly": 5656,
      "Ġimprovements": 5657,
      "Ġfeeling": 5658,
      "Ãł": 5659,
      "Ġexceed": 5660,
      "furt": 5661,
      "Ġep": 5662,
      "Ġcorner": 5663,
      "Ġwatch": 5664,
      "ĠTHE": 5665,
      "iner": 5666,
      "abilities": 5667,
      "Ġmarked": 5668,
      "ĠMil": 5669,
      "IV": 5670,
      "ked": 5671,
      "Ġ35": 5672,
      "ĠRomania": 5673,
      "gs": 5674,
      "Ġexperiences": 5675,
      "Ġshape": 5676,
      "Ġforum": 5677,
      "Ġcompetence": 5678,
      "Ġrejected": 5679,
      "Ġdry": 5680,
      "Ġcompliance": 5681,
      "Ġruns": 5682,
      "Ġblood": 5683,
      "Ġgall": 5684,
      "Ġflat": 5685,
      "Ġbrid": 5686,
      "Ġbureau": 5687,
      "ius": 5688,
      "Ġton": 5689,
      "Ġregister": 5690,
      "Ġmoved": 5691,
      "orse": 5692,
      "Ġbirth": 5693,
      "Ġobligation": 5694,
      "Ġ).": 5695,
      "ĠCom": 5696,
      "ĠDutch": 5697,
      "Ġleadership": 5698,
      "ova": 5699,
      "ĠChamber": 5700,
      "Ġrecognise": 5701,
      "oples": 5702,
      "Ġrequests": 5703,
      "Ġhelping": 5704,
      "riers": 5705,
      "Ġbinding": 5706,
      "ancial": 5707,
      "Ġsignificantly": 5708,
      "Ġburden": 5709,
      "Ġheavy": 5710,
      "Ġspeakers": 5711,
      "lav": 5712,
      "Ġlaunched": 5713,
      "Ġcompensation": 5714,
      "Os": 5715,
      "Comp": 5716,
      "aria": 5717,
      "Ġconsistent": 5718,
      "Ġstone": 5719,
      "Ġexpertise": 5720,
      "Ġwithdraw": 5721,
      "cap": 5722,
      "Ġcook": 5723,
      "Ġtreated": 5724,
      "Ġdoll": 5725,
      "Ġpension": 5726,
      "Ġaudio": 5727,
      "quir": 5728,
      "aming": 5729,
      "Ġsanctions": 5730,
      "Ġpresentation": 5731,
      "Ġspok": 5732,
      "Ġdrugs": 5733,
      "Ġjournal": 5734,
      "cription": 5735,
      "son": 5736,
      "ales": 5737,
      "ĠHa": 5738,
      "ĠDis": 5739,
      "Ġsoft": 5740,
      "Ġunits": 5741,
      "ieties": 5742,
      "ĠTerm": 5743,
      "ĠIndust": 5744,
      "Ġhit": 5745,
      "unich": 5746,
      "ds": 5747,
      "Ġrepresented": 5748,
      "lete": 5749,
      "ĠBud": 5750,
      "Ġcomply": 5751,
      "Ġuns": 5752,
      "Ġstreets": 5753,
      "mann": 5754,
      "enses": 5755,
      "ĠChristian": 5756,
      "nis": 5757,
      "Ġoperators": 5758,
      "Ġwebsites": 5759,
      "PS": 5760,
      "ourage": 5761,
      "LA": 5762,
      "Ġdishes": 5763,
      "onym": 5764,
      "Where": 5765,
      "Ġexpensive": 5766,
      "Ġsubstances": 5767,
      "Ġalt": 5768,
      "Sp": 5769,
      "ĠMc": 5770,
      "Ġdestination": 5771,
      "ais": 5772,
      "Ġresolve": 5773,
      "Ġemphasis": 5774,
      "rig": 5775,
      "Ġnar": 5776,
      "Ġprofit": 5777,
      "Cl": 5778,
      "Ġspot": 5779,
      "Ġexpectations": 5780,
      "Ġexists": 5781,
      "ja": 5782,
      "Ġsight": 5783,
      "Ġconstant": 5784,
      "Ġapplicable": 5785,
      "ĠStud": 5786,
      "elcome": 5787,
      "Ġemphasise": 5788,
      "03": 5789,
      "ht": 5790,
      "Ġshut": 5791,
      "ĠFound": 5792,
      "Ġextension": 5793,
      "Ġrefugees": 5794,
      "Both": 5795,
      "Ġwall": 5796,
      "ĠIM": 5797,
      "Ġrecommended": 5798,
      "Ġswe": 5799,
      "ails": 5800,
      "Ġlatter": 5801,
      "Ġcharming": 5802,
      "itely": 5803,
      "Ġarms": 5804,
      "Sim": 5805,
      "Ġnav": 5806,
      "Ġplug": 5807,
      "Ġapproval": 5808,
      "appoint": 5809,
      "ette": 5810,
      "Ġwait": 5811,
      "ĠGal": 5812,
      "Ġprivacy": 5813,
      "iking": 5814,
      "mat": 5815,
      "Ġentered": 5816,
      "Ġadvantages": 5817,
      "ght": 5818,
      "âĢ¦": 5819,
      "Im": 5820,
      "âĦ": 5821,
      "Ġleisure": 5822,
      "ĠLord": 5823,
      "Ġdict": 5824,
      "enture": 5825,
      "Ġdelegation": 5826,
      "ipping": 5827,
      "Ġolder": 5828,
      "Ġaffairs": 5829,
      "SC": 5830,
      "ying": 5831,
      "Ġpil": 5832,
      "Ġproud": 5833,
      "ĠBut": 5834,
      "Ġtrees": 5835,
      "abling": 5836,
      "Ġsupplement": 5837,
      "Ġrig": 5838,
      "Ġrespective": 5839,
      "Ġcart": 5840,
      "]],": 5841,
      "bl": 5842,
      "Ġcentres": 5843,
      "Ġappreciate": 5844,
      "Ġkeeping": 5845,
      "Ġobjects": 5846,
      "Ġtests": 5847,
      "Ġrare": 5848,
      "Ġhelps": 5849,
      "anged": 5850,
      "bed": 5851,
      "Ġoutput": 5852,
      "Ġbrowser": 5853,
      "Res": 5854,
      "Ġcontrast": 5855,
      "Ġrelatively": 5856,
      "Ġwild": 5857,
      "ĠCO": 5858,
      "rier": 5859,
      "Ġmode": 5860,
      "Ġwhatever": 5861,
      "Ġinvolving": 5862,
      "Find": 5863,
      "Ġcovers": 5864,
      "gypt": 5865,
      "Ġtro": 5866,
      "Ġwhilst": 5867,
      "ko": 5868,
      "Ġreven": 5869,
      "Ġhappens": 5870,
      "Ġsuffering": 5871,
      "ĠProf": 5872,
      "Ġpersonally": 5873,
      "Ġpeoples": 5874,
      "Ġsuperv": 5875,
      "ĠTer": 5876,
      "Ġstations": 5877,
      "sch": 5878,
      "Ġengineering": 5879,
      "Ġdanger": 5880,
      "ĠDel": 5881,
      "Ġdisaster": 5882,
      "ella": 5883,
      "Ġarrangements": 5884,
      "rees": 5885,
      "Ġrecognised": 5886,
      "what": 5887,
      "Ġexclusively": 5888,
      "Ġvast": 5889,
      "appe": 5890,
      "Ġarticles": 5891,
      "Ġpas": 5892,
      "Ġfurniture": 5893,
      "Ġfab": 5894,
      "Ġreprodu": 5895,
      "Ġnaturally": 5896,
      "Ġpoliticians": 5897,
      "Ġsubsc": 5898,
      "Ġtaxes": 5899,
      "âĦ¢": 5900,
      "Ġhall": 5901,
      "ĠRo": 5902,
      "iano": 5903,
      "sych": 5904,
      "Ġvaluable": 5905,
      "Us": 5906,
      "ili": 5907,
      "ado": 5908,
      "Despite": 5909,
      "ocal": 5910,
      "Ġfelt": 5911,
      "Ġopposed": 5912,
      "ĠProgramme": 5913,
      "Ġrepeat": 5914,
      "Located": 5915,
      "Ġthorough": 5916,
      "Ġcomplic": 5917,
      "Ġfirstly": 5918,
      "Ġconfirmed": 5919,
      "Ġtrou": 5920,
      "Ġestim": 5921,
      "ridge": 5922,
      "70": 5923,
      "Ġerror": 5924,
      "zen": 5925,
      "operation": 5926,
      "ĠCompany": 5927,
      "Ġdiseases": 5928,
      "Ġlose": 5929,
      "Ġfinding": 5930,
      "Ġjourney": 5931,
      "Ġye": 5932,
      "ÃŁ": 5933,
      "ĠGreat": 5934,
      "Ġtemperature": 5935,
      "TM": 5936,
      "Ġhelped": 5937,
      "Ġenhance": 5938,
      "Thanks": 5939,
      "ĠSm": 5940,
      "ederation": 5941,
      "osc": 5942,
      "%.": 5943,
      "ita": 5944,
      "Ġmobility": 5945,
      "Ġteac": 5946,
      "Ġcombating": 5947,
      "Ġeye": 5948,
      "Gu": 5949,
      "Ġrenewable": 5950,
      "Ġpassengers": 5951,
      "IF": 5952,
      "Ġhostels": 5953,
      "Ġbedrooms": 5954,
      "Ġnoise": 5955,
      "Ġobtained": 5956,
      "Ġtransform": 5957,
      "Ġtexts": 5958,
      "ĠMex": 5959,
      "erb": 5960,
      "Ġsolve": 5961,
      "Ġfigure": 5962,
      "Ġorient": 5963,
      "Ġ1996": 5964,
      "Ġintellectual": 5965,
      "Ġdirectives": 5966,
      "down": 5967,
      "vak": 5968,
      "azz": 5969,
      "ĠCub": 5970,
      "point": 5971,
      "Ġ--": 5972,
      "Ġfill": 5973,
      "orf": 5974,
      "Ġoffices": 5975,
      "Ġbreat": 5976,
      "Ġspring": 5977,
      "Ġinvolvement": 5978,
      "ĠBrazil": 5979,
      "//": 5980,
      "idden": 5981,
      "Third": 5982,
      "Ġentertainment": 5983,
      "Ġdiscovered": 5984,
      "Ġprosper": 5985,
      "ĠSoftware": 5986,
      "Ġfem": 5987,
      "Ġmillions": 5988,
      "Ġfaced": 5989,
      "Ġdetermine": 5990,
      "Å¡": 5991,
      "ATO": 5992,
      "Ġstrugg": 5993,
      "Ġobstac": 5994,
      "Ġbureauc": 5995,
      "Ġ1990": 5996,
      "Ġda": 5997,
      "gment": 5998,
      "97": 5999,
      "Ġprotecting": 6000,
      "Ġpresident": 6001,
      "ĠSuper": 6002,
      "anda": 6003,
      "Ġconserv": 6004,
      "Ġconstructive": 6005,
      "Ġgrand": 6006,
      "Ġarrest": 6007,
      "Ġtours": 6008,
      "Ġserves": 6009,
      "Ġtreaty": 6010,
      "Ġweather": 6011,
      "Ġdischarge": 6012,
      "itime": 6013,
      "Ġbra": 6014,
      "ĠMinisters": 6015,
      "Ġdia": 6016,
      "aught": 6017,
      "Ġrom": 6018,
      "Ġpublish": 6019,
      "Ġtrib": 6020,
      "Ġexceptional": 6021,
      "ountry": 6022,
      "fin": 6023,
      "ethe": 6024,
      "Ġamounts": 6025,
      "arliaments": 6026,
      "Ã¶r": 6027,
      "ĠInstitute": 6028,
      "Ġcontributions": 6029,
      "Ġscript": 6030,
      "):": 6031,
      "iment": 6032,
      "Ġhappening": 6033,
      "Ġremoved": 6034,
      "ĠHead": 6035,
      "Ġcreative": 6036,
      "ĠSwedish": 6037,
      "Ġeyes": 6038,
      "Ġequally": 6039,
      "Ġmandate": 6040,
      "garia": 6041,
      "ĠPaper": 6042,
      "Ġcompr": 6043,
      "Ġminim": 6044,
      "Ġlargely": 6045,
      "ailing": 6046,
      "Ġofficials": 6047,
      "cles": 6048,
      "Ġcontracts": 6049,
      "ĠMicrosoft": 6050,
      "ĠLib": 6051,
      "Sm": 6052,
      "Ġimpressive": 6053,
      "Ġprivile": 6054,
      "pol": 6055,
      "Ġstake": 6056,
      "Ġtemporary": 6057,
      "Ġphilosoph": 6058,
      "Ġlooks": 6059,
      "Ġbattle": 6060,
      "ĠAfghanistan": 6061,
      "Ġreferend": 6062,
      "Ġleaving": 6063,
      "rors": 6064,
      "erce": 6065,
      "Ġpick": 6066,
      "Ġmit": 6067,
      "Ġresidence": 6068,
      "Ġcold": 6069,
      "Ġstrategies": 6070,
      "ttp": 6071,
      "ĠCard": 6072,
      "ĠCharter": 6073,
      "Ġoutdoor": 6074,
      "Ġcommunications": 6075,
      "Ġliberalisation": 6076,
      "ĠStrategy": 6077,
      "cher": 6078,
      "Ġchain": 6079,
      "Ġsleep": 6080,
      "Ġincreases": 6081,
      "Ġissued": 6082,
      "ander": 6083,
      "Ġawareness": 6084,
      "Ġagg": 6085,
      "Ġspectac": 6086,
      "ĠBur": 6087,
      "holders": 6088,
      "Ġpanor": 6089,
      "Ġremaining": 6090,
      "Ġrestrictions": 6091,
      "ĠOur": 6092,
      "Ġrapporteurs": 6093,
      "Ġpreparation": 6094,
      "ĠJew": 6095,
      "Ġorganizations": 6096,
      "Ġautomatic": 6097,
      "Ġdebates": 6098,
      "Ġhandling": 6099,
      "ĠProced": 6100,
      "Ġrequirement": 6101,
      "Ġreserve": 6102,
      "Ġdinner": 6103,
      "ĠMunich": 6104,
      "ĠGold": 6105,
      "akers": 6106,
      "Ġresolutions": 6107,
      "Ġopinions": 6108,
      "ether": 6109,
      "Ġinhabit": 6110,
      "ĠBelarus": 6111,
      "ĠMont": 6112,
      "Ġcharacteristics": 6113,
      "ĠGeorg": 6114,
      "ĠWi": 6115,
      "Ġprohib": 6116,
      "Ġfrag": 6117,
      "Ġhealthy": 6118,
      "iled": 6119,
      "Ġapparent": 6120,
      "Ġpatent": 6121,
      "Ġfighting": 6122,
      "Le": 6123,
      "Ġ;": 6124,
      "Ġboat": 6125,
      "Ġlicense": 6126,
      "Enjoy": 6127,
      "Ġextraord": 6128,
      "sman": 6129,
      "ĠSME": 6130,
      "iest": 6131,
      "ulture": 6132,
      "lymp": 6133,
      "Ġabol": 6134,
      "ĠEgypt": 6135,
      "Ġcollective": 6136,
      "Ġdecis": 6137,
      "90": 6138,
      "ĠCop": 6139,
      "ĠMer": 6140,
      "ĠPlan": 6141,
      "Ġcharges": 6142,
      "stood": 6143,
      "Ġproportion": 6144,
      "ressed": 6145,
      "Ġunderm": 6146,
      "Ġ195": 6147,
      "Ġgir": 6148,
      "Ġfantastic": 6149,
      "Ġincent": 6150,
      "Ġabroad": 6151,
      "Ġfaith": 6152,
      "Ġaft": 6153,
      "Ġther": 6154,
      "Ġphen": 6155,
      "Ġhospit": 6156,
      "Ġbran": 6157,
      "PT": 6158,
      "etic": 6159,
      "Ġvolume": 6160,
      "aled": 6161,
      "Ġimpression": 6162,
      "Ġrecommendation": 6163,
      "atre": 6164,
      "ĠHol": 6165,
      "Ġillust": 6166,
      "andon": 6167,
      "ĠDan": 6168,
      "Ġprove": 6169,
      "Ġidentify": 6170,
      "Ġnewly": 6171,
      "Ġcreates": 6172,
      "ĠFoundation": 6173,
      "Ġreturned": 6174,
      "umin": 6175,
      "Ġexplore": 6176,
      "fol": 6177,
      "Ġfasc": 6178,
      "date": 6179,
      "ĠOpen": 6180,
      "ĠLuxem": 6181,
      "ĠAlliance": 6182,
      "Ġcouple": 6183,
      "ĠWith": 6184,
      "Ġdepends": 6185,
      "Ġannounce": 6186,
      "hent": 6187,
      "Ġdoesn": 6188,
      "iring": 6189,
      "Ab": 6190,
      "Ġintend": 6191,
      "ĠEr": 6192,
      ",âĢĿ": 6193,
      "ittees": 6194,
      "class": 6195,
      "QL": 6196,
      "hether": 6197,
      "ĠTor": 6198,
      "ĠPak": 6199,
      "Ġenthus": 6200,
      "ael": 6201,
      "Ġconsc": 6202,
      "Ġheat": 6203,
      "Ġmaintained": 6204,
      "Ġconflicts": 6205,
      "Ġformal": 6206,
      "IR": 6207,
      "Ġsexual": 6208,
      "Ġwitness": 6209,
      "ĠSte": 6210,
      "Ġmessages": 6211,
      "Ġfamiliar": 6212,
      "Ġoperational": 6213,
      "Follow": 6214,
      "ĠProcedure": 6215,
      "Ġisol": 6216,
      "uls": 6217,
      "Ġhair": 6218,
      "Ġunp": 6219,
      "Ġgets": 6220,
      "Ġfacilitate": 6221,
      "ĠBritain": 6222,
      "my": 6223,
      "Ġregularly": 6224,
      "ĠBalk": 6225,
      "Ġmini": 6226,
      "Ġdisappoint": 6227,
      "Ġcustoms": 6228,
      "ĠJohn": 6229,
      "Ġcry": 6230,
      "Ġattend": 6231,
      "ĠBlack": 6232,
      "ĠControl": 6233,
      "Ġwid": 6234,
      "Ġpattern": 6235,
      "Ġremote": 6236,
      "Su": 6237,
      "Ð»": 6238,
      "Ġdrawing": 6239,
      "Ġsurroundings": 6240,
      "Ġparliaments": 6241,
      "ĠMod": 6242,
      "ployed": 6243,
      "Ġbon": 6244,
      "ĠApart": 6245,
      "Ġyouth": 6246,
      "Ġreported": 6247,
      "Ġmassive": 6248,
      "Ġfee": 6249,
      "Ġprop": 6250,
      "ĠSil": 6251,
      "Ġconducted": 6252,
      "Ġmeat": 6253,
      "://": 6254,
      "ĠTy": 6255,
      "vant": 6256,
      "obile": 6257,
      "Ġgone": 6258,
      "Ġaftern": 6259,
      "Ġpret": 6260,
      "orge": 6261,
      "unicip": 6262,
      "Ġparents": 6263,
      "SS": 6264,
      "ĠOF": 6265,
      "Commission": 6266,
      "Ġphenomen": 6267,
      "Ġcab": 6268,
      "Ġcareer": 6269,
      "Ġcopyright": 6270,
      "Ġhundreds": 6271,
      "run": 6272,
      "ache": 6273,
      "Ġperformed": 6274,
      "ĠMEPs": 6275,
      "cohol": 6276,
      "urious": 6277,
      "Ġshad": 6278,
      "Ġproperties": 6279,
      "Ġtri": 6280,
      "Ġimper": 6281,
      "Ġholding": 6282,
      "iam": 6283,
      "Ġwalls": 6284,
      "ĠRiver": 6285,
      "Ġenforce": 6286,
      "TA": 6287,
      "Ġuniversal": 6288,
      "Ġgrate": 6289,
      "inem": 6290,
      "prus": 6291,
      "Ġmaster": 6292,
      "Ġfollows": 6293,
      "related": 6294,
      "ĠCustom": 6295,
      "ĠHome": 6296,
      "ĠLab": 6297,
      "Ġrecip": 6298,
      "Ġvir": 6299,
      "kes": 6300,
      "Ġtopic": 6301,
      "anied": 6302,
      "Ġdining": 6303,
      "Ġworse": 6304,
      "ĠPan": 6305,
      "ĠStreet": 6306,
      "Ġvisa": 6307,
      "icon": 6308,
      "Ġlisten": 6309,
      "Ġdisplayed": 6310,
      "rase": 6311,
      "Ġhardware": 6312,
      "aling": 6313,
      "rac": 6314,
      "Ġought": 6315,
      "oub": 6316,
      "ĠFrankfurt": 6317,
      "itu": 6318,
      "Ġsupposed": 6319,
      "Ġnoted": 6320,
      "Ġartist": 6321,
      "gl": 6322,
      "Ġaccom": 6323,
      "Ġvacation": 6324,
      "hand": 6325,
      "ĠBay": 6326,
      "Ġdefine": 6327,
      "Ġacquis": 6328,
      "Ġcontinent": 6329,
      "Ġticket": 6330,
      "Ġjoined": 6331,
      "ĠSafety": 6332,
      "ĠPH": 6333,
      "Ġabandon": 6334,
      "ĠSund": 6335,
      "rote": 6336,
      "Ġsomewhat": 6337,
      "Ġdemanding": 6338,
      "26": 6339,
      "iform": 6340,
      "Ġreserves": 6341,
      "ĠBulgaria": 6342,
      "Note": 6343,
      "Ġfavor": 6344,
      "ĠWhite": 6345,
      "Ġdark": 6346,
      "Ġfrequently": 6347,
      "Ġclassic": 6348,
      "Ġminority": 6349,
      "Ġnorthern": 6350,
      "Ġsch": 6351,
      "ĠFrid": 6352,
      "ĠExt": 6353,
      "Ġrevolution": 6354,
      "Ġregulatory": 6355,
      "Ġimpl": 6356,
      "Ġ150": 6357,
      "ĠDen": 6358,
      "fl": 6359,
      "Ġanswers": 6360,
      "MS": 6361,
      "ifies": 6362,
      "Ġje": 6363,
      "Ġemergency": 6364,
      "96": 6365,
      "Ġultimately": 6366,
      "struction": 6367,
      "log": 6368,
      "Ġcable": 6369,
      "Ġdeals": 6370,
      "ĠDub": 6371,
      "Ġislands": 6372,
      "Fi": 6373,
      "uese": 6374,
      "Ġtransportation": 6375,
      "Ġrenovated": 6376,
      "othing": 6377,
      "Ġgender": 6378,
      "Ġmarg": 6379,
      "Ġmetal": 6380,
      "Ġgrateful": 6381,
      "ĠCroatia": 6382,
      "lla": 6383,
      "Ġsauna": 6384,
      "Ġorganized": 6385,
      "Ġbalcony": 6386,
      "Ġmagaz": 6387,
      "Ġconnections": 6388,
      "gent": 6389,
      "ĠInformation": 6390,
      "win": 6391,
      "ĠPolish": 6392,
      "Add": 6393,
      "ansion": 6394,
      "oral": 6395,
      "Ġdrop": 6396,
      "'ve": 6397,
      "Ġfaster": 6398,
      "Ġcommun": 6399,
      "Ġseeing": 6400,
      "Ġlobby": 6401,
      "ĠEnergy": 6402,
      "Ġdiscount": 6403,
      "Ġowner": 6404,
      "ĠLuxembourg": 6405,
      "hotel": 6406,
      "Ġfulfil": 6407,
      "ĠDay": 6408,
      "Ġsevere": 6409,
      "ĠCamp": 6410,
      "ĠMount": 6411,
      "Ġworry": 6412,
      "Ġethnic": 6413,
      "Ġtoler": 6414,
      "umer": 6415,
      "ĠNATO": 6416,
      "Ġlabel": 6417,
      "Ġsettings": 6418,
      "Ġdelighted": 6419,
      "Ġdivided": 6420,
      "ĠCosta": 6421,
      "Ġbehavi": 6422,
      "Ġtowns": 6423,
      "wood": 6424,
      "ĠCyprus": 6425,
      "Che": 6426,
      "Ġtechniques": 6427,
      "ĠKy": 6428,
      "ĠSerb": 6429,
      "Ġheritage": 6430,
      "atures": 6431,
      "enary": 6432,
      "Ġupdated": 6433,
      "je": 6434,
      "itt": 6435,
      "ĠAcc": 6436,
      "ĠBen": 6437,
      "Ġseat": 6438,
      "Ġproducing": 6439,
      "Ġelectricity": 6440,
      "Ġproof": 6441,
      "di": 6442,
      "Ġcourage": 6443,
      "Ġcomplement": 6444,
      "Ġutil": 6445,
      "ĠTo": 6446,
      "Ġstatistics": 6447,
      "ĠJapanese": 6448,
      "Ġwines": 6449,
      "Ġmal": 6450,
      "do": 6451,
      "oured": 6452,
      "enhagen": 6453,
      "ctive": 6454,
      "ilding": 6455,
      "Ġinvolves": 6456,
      "Ġinhabitants": 6457,
      "ĠâĢŀ": 6458,
      "ĠSecret": 6459,
      "Ġtob": 6460,
      "Ġmigration": 6461,
      "vo": 6462,
      "Ġdeclaration": 6463,
      "ĠOlymp": 6464,
      "ĠMonetary": 6465,
      "ĠRoma": 6466,
      "Ġinvite": 6467,
      "Ġprotocol": 6468,
      "stra": 6469,
      "ĠSing": 6470,
      "Ġinterior": 6471,
      "oted": 6472,
      "Ġwelfare": 6473,
      "Ġcontacts": 6474,
      "ĠChurch": 6475,
      "Ġvalley": 6476,
      "ĠSquare": 6477,
      "ĠOper": 6478,
      "Ġbottom": 6479,
      "arp": 6480,
      "ĠLaw": 6481,
      "oviet": 6482,
      "Under": 6483,
      "Ġdriver": 6484,
      "Ġquarter": 6485,
      "Ġpollution": 6486,
      "anqu": 6487,
      "Ġcastle": 6488,
      "Ġtourists": 6489,
      "ĠAustral": 6490,
      "ey": 6491,
      "Ġindicated": 6492,
      "arters": 6493,
      "Ġvisible": 6494,
      "Ġrelaxation": 6495,
      "ogether": 6496,
      "CH": 6497,
      "Ġdates": 6498,
      "rical": 6499,
      "Â°": 6500,
      "Ġadvis": 6501,
      "Ġsubsidies": 6502,
      "uous": 6503,
      "Ġparad": 6504,
      "ĠBos": 6505,
      "Ġdemonstrate": 6506,
      "Ġcareful": 6507,
      "Ġarrive": 6508,
      "Ġdecorated": 6509,
      "ENT": 6510,
      "Ġstarts": 6511,
      "eries": 6512,
      "Ġtrial": 6513,
      "atch": 6514,
      "ĠCap": 6515,
      "Ġmaintaining": 6516,
      "Ġwidely": 6517,
      "35": 6518,
      "ĠGoogle": 6519,
      "ĠGDP": 6520,
      "Ġflights": 6521,
      "Ġcollaboration": 6522,
      "Ġafternoon": 6523,
      "Ġreferendum": 6524,
      "rague": 6525,
      "Ġlibrary": 6526,
      "Ġcorresponding": 6527,
      "Ġaccident": 6528,
      "Ġpresents": 6529,
      "Ġdemonstrated": 6530,
      "Ġstored": 6531,
      "ĠFirst": 6532,
      "med": 6533,
      "Ġdisappe": 6534,
      "Ġtail": 6535,
      "Ġunderstood": 6536,
      "ĠPakistan": 6537,
      "Ġinvestors": 6538,
      "ĠGl": 6539,
      "Ġshowing": 6540,
      "duc": 6541,
      "cling": 6542,
      "Ġ2020": 6543,
      "Ġsigns": 6544,
      "Ġnewsp": 6545,
      "Ġlocations": 6546,
      "Ġposs": 6547,
      "Ġvisited": 6548,
      "Ġdepending": 6549,
      "Ġentrance": 6550,
      "Ġexciting": 6551,
      "Ġamaz": 6552,
      "Like": 6553,
      "Ġchannels": 6554,
      "Ġawa": 6555,
      "ĠPortuguese": 6556,
      "La": 6557,
      "acco": 6558,
      "Ġproved": 6559,
      "Ġdrivers": 6560,
      "Ġstring": 6561,
      "Two": 6562,
      "Ġfocused": 6563,
      "Ġmagnific": 6564,
      "inent": 6565,
      "ructural": 6566,
      "AG": 6567,
      "27": 6568,
      "ĠÃł": 6569,
      "Ġcommission": 6570,
      "ĠIP": 6571,
      "icht": 6572,
      "Ġ45": 6573,
      "Ġprovider": 6574,
      "Ġconcluded": 6575,
      "Ġcutting": 6576,
      "Ġaccompanied": 6577,
      "Ġcategories": 6578,
      "Ġmonu": 6579,
      "Ġcop": 6580,
      "Ġinput": 6581,
      "ecision": 6582,
      "ĠPact": 6583,
      "Ġstylish": 6584,
      "Ġtransition": 6585,
      "ĠGre": 6586,
      "Ġexpansion": 6587,
      "emark": 6588,
      "Ġcommittees": 6589,
      "igen": 6590,
      "Ġmostly": 6591,
      "ĠSchen": 6592,
      "Ġworksh": 6593,
      "ĠVilla": 6594,
      "Ġball": 6595,
      "Ġspoken": 6596,
      "Ġsettlement": 6597,
      "Ġfinished": 6598,
      "Ġrestruct": 6599,
      "Ġforg": 6600,
      "box": 6601,
      "Very": 6602,
      "ura": 6603,
      "Ġcontrad": 6604,
      "Get": 6605,
      "ĠPalace": 6606,
      "ĠPri": 6607,
      "ĠDesign": 6608,
      "ĠSlovak": 6609,
      "Ġeffectiveness": 6610,
      "Ġdistingu": 6611,
      "Ġmatch": 6612,
      "Appl": 6613,
      "ĠStation": 6614,
      "Ġsac": 6615,
      "igation": 6616,
      "Ġliber": 6617,
      "iÃ³n": 6618,
      "ĠSaint": 6619,
      "ĠBro": 6620,
      "Ġimmigrants": 6621,
      "Ġbright": 6622,
      "hy": 6623,
      "Ġcontrolled": 6624,
      "Ġtrafficking": 6625,
      "Ġvisiting": 6626,
      "Ġminorities": 6627,
      "Ġcitizen": 6628,
      "Ġdepartment": 6629,
      "Ġraw": 6630,
      "Ġ1995": 6631,
      "band": 6632,
      "Ġongoing": 6633,
      "IB": 6634,
      "ĠIC": 6635,
      "rence": 6636,
      "Ġsolar": 6637,
      "Ġboost": 6638,
      "Before": 6639,
      "Ġ*": 6640,
      "Ag": 6641,
      "cession": 6642,
      "ĠBaltic": 6643,
      "Ġdocumentation": 6644,
      "ba": 6645,
      "Ġplanet": 6646,
      "Ġrestric": 6647,
      "Ġoccasions": 6648,
      "Ġcash": 6649,
      "Ġoral": 6650,
      "Ġresistance": 6651,
      "Ġpassenger": 6652,
      "Ġbehaviour": 6653,
      "Ġtackle": 6654,
      "uzz": 6655,
      "Ġawarded": 6656,
      "Ġstars": 6657,
      "Ġcrimes": 6658,
      "Ġfoundation": 6659,
      "Apart": 6660,
      "Com": 6661,
      "Ġtheme": 6662,
      "ĠCanada": 6663,
      "Ġexplicit": 6664,
      "Ġprinting": 6665,
      "Ġspeaker": 6666,
      "Ġlovely": 6667,
      "hentic": 6668,
      "Ġbilateral": 6669,
      "inn": 6670,
      "ĠBest": 6671,
      "Ġrecorded": 6672,
      "Ġhostel": 6673,
      "Ġreplaced": 6674,
      "Ġ?": 6675,
      "ĠAL": 6676,
      "ĠLu": 6677,
      "ĠOld": 6678,
      "rapy": 6679,
      "Ġcorruption": 6680,
      "Ġconstitution": 6681,
      "Ġcomplain": 6682,
      "Ġgardens": 6683,
      "ĠRad": 6684,
      "och": 6685,
      "Ġassume": 6686,
      "Ġadopting": 6687,
      "Ġcarbon": 6688,
      "Ġcycle": 6689,
      "ĠFram": 6690,
      "Applause": 6691,
      "Ġnom": 6692,
      "ĠSky": 6693,
      "Ġliqu": 6694,
      "Ġking": 6695,
      "Ġeducational": 6696,
      "eting": 6697,
      "Ġimposed": 6698,
      "ĠDav": 6699,
      "Ġrespected": 6700,
      "Instead": 6701,
      "ĠKorea": 6702,
      "Ġovercome": 6703,
      "Ġfitness": 6704,
      "otic": 6705,
      "Ġterrorist": 6706,
      "Ġsuites": 6707,
      "yer": 6708,
      "Ġdeclared": 6709,
      "Ġfirms": 6710,
      "Ġmanufacturer": 6711,
      "Ġcompetent": 6712,
      "ĠDirector": 6713,
      "Ġspectacular": 6714,
      "Ġsmooth": 6715,
      ");": 6716,
      "Ġfacility": 6717,
      "Ġheating": 6718,
      "ĠHall": 6719,
      "Ġdesired": 6720,
      "ĠSMEs": 6721,
      "Ġfilms": 6722,
      "ĠAgricult": 6723,
      "Ġsad": 6724,
      "Ġpsych": 6725,
      "Ġsubsidiarity": 6726,
      "roc": 6727,
      "Ġconfiguration": 6728,
      "Ġcosy": 6729,
      "ĠInc": 6730,
      "Ġcompatible": 6731,
      "Ġshares": 6732,
      "Ġjudicial": 6733,
      "ĠCopenhagen": 6734,
      "Ġscheme": 6735,
      "care": 6736,
      "Ġrub": 6737,
      "Ġtransactions": 6738,
      "ĠProv": 6739,
      "ĠSchengen": 6740,
      "ham": 6741,
      "Through": 6742,
      "Welcome": 6743,
      "Ġroutes": 6744,
      "Ġglo": 6745,
      "Ġsugar": 6746,
      "Ġendorse": 6747,
      "ĠFunds": 6748,
      "ĠFinancial": 6749,
      "Ġrapidly": 6750,
      "Ġtickets": 6751,
      "Ġwindows": 6752,
      "Ġing": 6753,
      "Ġfacts": 6754,
      "ĠPet": 6755,
      "Ġice": 6756,
      "ĠSpa": 6757,
      "Ġmm": 6758,
      "Â²": 6759,
      "Ġdestruction": 6760,
      "Ġsending": 6761,
      "Ġwoman": 6762,
      "Ġcorrectly": 6763,
      "Ġast": 6764,
      "Ġpurs": 6765,
      "Ġfunctioning": 6766,
      "Ġtight": 6767,
      "Ġdiss": 6768,
      "Ġintens": 6769,
      "Ġaf": 6770,
      "water": 6771,
      "Ġinfring": 6772,
      "acc": 6773,
      "Ġcredibility": 6774,
      "ĠIsraeli": 6775,
      "ĠBon": 6776,
      "Ġcenturies": 6777,
      "ĠSoviet": 6778,
      "Ġsuite": 6779,
      "Ġcontaining": 6780,
      "EU": 6781,
      "Ġpossibly": 6782,
      "visory": 6783,
      "ĠPrague": 6784,
      "Ġsurf": 6785,
      "Part": 6786,
      "ĠHel": 6787,
      "Their": 6788,
      "asy": 6789,
      "ĠOff": 6790,
      "Ġassets": 6791,
      "Ġprofile": 6792,
      "lean": 6793,
      "ae": 6794,
      "Ġuncertain": 6795,
      "Ġalcohol": 6796,
      "ĠEnterprise": 6797,
      "Ġprofessionals": 6798,
      "Commissioner": 6799,
      "NG": 6800,
      "Take": 6801,
      "ĠNor": 6802,
      "Ġgram": 6803,
      "ĠFriday": 6804,
      "ador": 6805,
      "ĠOne": 6806,
      "rog": 6807,
      "Ġpieces": 6808,
      "tical": 6809,
      "Ġplenty": 6810,
      "Ġsatisfied": 6811,
      "Ġprompt": 6812,
      "Ġstronger": 6813,
      "Ġiron": 6814,
      "Ġpartly": 6815,
      "Ġuniform": 6816,
      "Ġpersonnel": 6817,
      "Ġconstitutional": 6818,
      "Ġthousand": 6819,
      "Ġcourts": 6820,
      "bert": 6821,
      "aker": 6822,
      "etheless": 6823,
      "ige": 6824,
      "Ġdivision": 6825,
      "Ġtaxation": 6826,
      "Ġusual": 6827,
      "Ġdign": 6828,
      "Ġvisual": 6829,
      "Ġboast": 6830,
      "Ġdied": 6831,
      "Ġcertific": 6832,
      "zone": 6833,
      "Ġmac": 6834,
      "Pe": 6835,
      "uit": 6836,
      "Whether": 6837,
      "pay": 6838,
      "gic": 6839,
      "ĠRec": 6840,
      "Ġpreparing": 6841,
      "28": 6842,
      "Ġglobalisation": 6843,
      "Ġproposes": 6844,
      "Ġsuppliers": 6845,
      "night": 6846,
      "Ġaddresses": 6847,
      "Ġblog": 6848,
      "Ġsuffer": 6849,
      "Ġinsp": 6850,
      "Ġconsent": 6851,
      "Ġalarm": 6852,
      "Ġeastern": 6853,
      "Ġencouraging": 6854,
      "Ġseas": 6855,
      "Ġidentified": 6856,
      "rd": 6857,
      "Ġplenary": 6858,
      "po": 6859,
      "Ġoffic": 6860,
      "Ġminister": 6861,
      "zy": 6862,
      "Ġpoore": 6863,
      "Ġlounge": 6864,
      "Ġappointed": 6865,
      "Rec": 6866,
      "Ã´": 6867,
      "Ġdefinitely": 6868,
      "ĠLou": 6869,
      "Ġflood": 6870,
      "apter": 6871,
      "Ġextraordinary": 6872,
      "ĠVol": 6873,
      "Ġrid": 6874,
      "Ġformed": 6875,
      "ursday": 6876,
      "elt": 6877,
      "CD": 6878,
      "Ġvoc": 6879,
      "Ġargument": 6880,
      "bus": 6881,
      "Ġmotiv": 6882,
      "ADS": 6883,
      "Ġconsidering": 6884,
      "Ġarmy": 6885,
      "Ġbill": 6886,
      "teen": 6887,
      "]].": 6888,
      "ĠDef": 6889,
      "Ġol": 6890,
      "hof": 6891,
      "Ġinclusion": 6892,
      "ĠGN": 6893,
      "ĠNos": 6894,
      "LE": 6895,
      "ĠThese": 6896,
      "ĠYear": 6897,
      "inen": 6898,
      "Ġplays": 6899,
      "Ġproviders": 6900,
      "Ġresolved": 6901,
      "Ġmagnificent": 6902,
      "Ġcoal": 6903,
      "uality": 6904,
      "ĠSchool": 6905,
      "Ġroads": 6906,
      "100": 6907,
      "Ġbelief": 6908,
      "Ġinflation": 6909,
      "ĠWik": 6910,
      "Ġencount": 6911,
      "Ġensures": 6912,
      "Ġmilk": 6913,
      "Ġwarrant": 6914,
      "Ġrental": 6915,
      "Ġnarrow": 6916,
      "Ġduties": 6917,
      "RA": 6918,
      "Ġsubstance": 6919,
      "Perhaps": 6920,
      "Ġdistributed": 6921,
      "Go": 6922,
      "Ġappeared": 6923,
      "ahn": 6924,
      "Member": 6925,
      "Ġcere": 6926,
      "ĠMuslim": 6927,
      "Ġ194": 6928,
      "Ġgar": 6929,
      "unk": 6930,
      "Ġslightly": 6931,
      "agers": 6932,
      "Ġinj": 6933,
      "Ġvirtual": 6934,
      "Thirdly": 6935,
      "ĠFer": 6936,
      "Ġunw": 6937,
      "while": 6938,
      "Ġactively": 6939,
      "Ġemot": 6940,
      "Ġ400": 6941,
      "Ġdeposit": 6942,
      "Ġproposing": 6943,
      "Ġdecisive": 6944,
      "Ġrenow": 6945,
      "ĠMadrid": 6946,
      "21": 6947,
      "oul": 6948,
      "ĠTransport": 6949,
      "ĠProtection": 6950,
      "Ġsubjects": 6951,
      "ĠfÃ¼r": 6952,
      "Ġweekend": 6953,
      "Ġconcepts": 6954,
      "aud": 6955,
      "Ġassure": 6956,
      "ampions": 6957,
      "ĠHungary": 6958,
      "Ġsolely": 6959,
      "âĢĶ": 6960,
      "amburg": 6961,
      "Ġnevertheless": 6962,
      "Ġhonest": 6963,
      "ĠBelgium": 6964,
      "Ġmiles": 6965,
      "Ġadults": 6966,
      "DA": 6967,
      "stic": 6968,
      "Ġles": 6969,
      "ĠStructural": 6970,
      "Ġexit": 6971,
      "Ġunfor": 6972,
      "33": 6973,
      "Ġbroadcast": 6974,
      "ĠTown": 6975,
      "col": 6976,
      "Ġapplying": 6977,
      "Ġsuit": 6978,
      "Ġzu": 6979,
      "Ġcarrying": 6980,
      "Ġmaritime": 6981,
      "Ġartistic": 6982,
      "isp": 6983,
      "Ġpartial": 6984,
      "Ġfourth": 6985,
      "Ġera": 6986,
      "life": 6987,
      "Ġcomponent": 6988,
      "ida": 6989,
      "rea": 6990,
      "ement": 6991,
      "pet": 6992,
      "tra": 6993,
      "letter": 6994,
      "Ġwestern": 6995,
      "Ġeveryday": 6996,
      "Ġeventually": 6997,
      "Ġtheory": 6998,
      "Ġtast": 6999,
      "ĠDo": 7000,
      "www": 7001,
      "Ġflu": 7002,
      "Ġproven": 7003,
      "Ġtraditions": 7004,
      "Ġlegitimate": 7005,
      "Ġdirector": 7006,
      "Ġtobacco": 7007,
      "Ġdiverse": 7008,
      "repren": 7009,
      "atz": 7010,
      "Ġdomain": 7011,
      "Ġships": 7012,
      "Ġvulnerable": 7013,
      "Ġdecre": 7014,
      "Ġcondemn": 7015,
      "Ġfat": 7016,
      "Ġvary": 7017,
      "Ġjur": 7018,
      "Ġabsence": 7019,
      "Ġinterpre": 7020,
      "ister": 7021,
      "ĠStras": 7022,
      "Ġupdates": 7023,
      "IG": 7024,
      "cean": 7025,
      "Ġvoluntary": 7026,
      "minute": 7027,
      "Ġlots": 7028,
      "stein": 7029,
      "produ": 7030,
      "ĠNG": 7031,
      "Ġinterpretation": 7032,
      "repreneur": 7033,
      "ationally": 7034,
      "Ġeat": 7035,
      "Ġmanager": 7036,
      "Ġluxurious": 7037,
      "economic": 7038,
      "Ġnights": 7039,
      "Ġconditioning": 7040,
      "unning": 7041,
      "ĠISO": 7042,
      "Ġimpose": 7043,
      "Ġarrived": 7044,
      "Ġsupplies": 7045,
      "Ġma": 7046,
      "Ġlie": 7047,
      "Ġmoral": 7048,
      "tion": 7049,
      "ĠMich": 7050,
      "Ġemerging": 7051,
      "Ġelsewhere": 7052,
      "Ġgained": 7053,
      "ĠThat": 7054,
      "enth": 7055,
      "Ġuniversity": 7056,
      "Ġauthentic": 7057,
      "ĠPaul": 7058,
      "Ġpackaging": 7059,
      "Ġdefect": 7060,
      "hips": 7061,
      "ala": 7062,
      "aund": 7063,
      "Ġsched": 7064,
      "Ġmusical": 7065,
      "Ġabuse": 7066,
      "Well": 7067,
      "iences": 7068,
      "Ġcrew": 7069,
      "Ġwrote": 7070,
      "mm": 7071,
      "Ġsuggestions": 7072,
      "Ġfunctional": 7073,
      "enz": 7074,
      "Ðº": 7075,
      "ĠBush": 7076,
      "Ġsto": 7077,
      "lications": 7078,
      "level": 7079,
      "Ġinteract": 7080,
      "Ġacknowledge": 7081,
      "Ġod": 7082,
      "Ġdistort": 7083,
      "ĠAssembly": 7084,
      "Ġgreatly": 7085,
      "Ġdeficit": 7086,
      "Ġinsert": 7087,
      "Ġtun": 7088,
      "Ġexch": 7089,
      "Ġautonom": 7090,
      "Ġcountryside": 7091,
      "01": 7092,
      "Given": 7093,
      "Ġshipping": 7094,
      "Ġvillages": 7095,
      "ĠDom": 7096,
      "ĠNorthern": 7097,
      "Ġexcessive": 7098,
      "Ġpreced": 7099,
      "lights": 7100,
      "urrent": 7101,
      "Ġphilosophy": 7102,
      "2000": 7103,
      "Ġgenerated": 7104,
      "Ġsatisfaction": 7105,
      "Ġreceiving": 7106,
      "Ġlessons": 7107,
      "Ġdecent": 7108,
      "ĠInn": 7109,
      "Ġfran": 7110,
      "Ġcolours": 7111,
      "Ġadvoc": 7112,
      "ĠMexico": 7113,
      "Ġteams": 7114,
      "ĠÂ»": 7115,
      "Ġunforget": 7116,
      "May": 7117,
      "Ġsupplier": 7118,
      "Ladies": 7119,
      "Ġregarded": 7120,
      "Ġdifficulty": 7121,
      "Äį": 7122,
      "Ġsuggested": 7123,
      "ĠThursday": 7124,
      "aughter": 7125,
      "inger": 7126,
      "Ġinvited": 7127,
      "ĠHungarian": 7128,
      "Ġcomparison": 7129,
      "ystem": 7130,
      "Ġspoke": 7131,
      "Ġexports": 7132,
      "Ġtopics": 7133,
      "Ġ),": 7134,
      "oubted": 7135,
      "ido": 7136,
      "Ġattempts": 7137,
      "ĠVAT": 7138,
      "Mrs": 7139,
      "Tra": 7140,
      "tery": 7141,
      "Ġlists": 7142,
      "ĠFramework": 7143,
      "ĠIsland": 7144,
      "Ġpursue": 7145,
      "Ġperiods": 7146,
      "Ġrepresentation": 7147,
      "Ġdrinks": 7148,
      "Ġdeparture": 7149,
      "ographical": 7150,
      "Ġforests": 7151,
      "ribe": 7152,
      "Ġpermitted": 7153,
      "Ġdiscip": 7154,
      "Ġexamine": 7155,
      "Ġhorse": 7156,
      "ĠPre": 7157,
      "osis": 7158,
      "ibet": 7159,
      "ĠEngland": 7160,
      "Ġdestroyed": 7161,
      "Ġfinish": 7162,
      "Ġped": 7163,
      "ĠPack": 7164,
      "Ġacting": 7165,
      "Ġspecified": 7166,
      "ixt": 7167,
      "orry": 7168,
      "Ġchannel": 7169,
      "aft": 7170,
      "Ġpaint": 7171,
      "Ġreservations": 7172,
      "Ġscene": 7173,
      "Ġdescription": 7174,
      "ĠNon": 7175,
      "Ġsus": 7176,
      "Ġsavings": 7177,
      "ĠCam": 7178,
      "Ġhousing": 7179,
      "ĠDeuts": 7180,
      "Will": 7181,
      "ĠFam": 7182,
      "Ġarguments": 7183,
      "29": 7184,
      "Ġconstitute": 7185,
      "Ġretain": 7186,
      "Ġlunch": 7187,
      "ĠRestaurant": 7188,
      "Ġdisabled": 7189,
      "ulf": 7190,
      "Ġsemin": 7191,
      "Ġrefers": 7192,
      "aly": 7193,
      "Ġenabling": 7194,
      "ultane": 7195,
      "uggage": 7196,
      "Ġfreedoms": 7197,
      "gence": 7198,
      "Ġports": 7199,
      "Ġrealistic": 7200,
      "Ġfarming": 7201,
      "ĠSatur": 7202,
      "ĠShe": 7203,
      "gel": 7204,
      "Ġobliged": 7205,
      "Ġcul": 7206,
      "ĠBreakfast": 7207,
      "aby": 7208,
      "Ġcooperate": 7209,
      "ĠNice": 7210,
      "ĠProduct": 7211,
      "Ġenjoyed": 7212,
      "Following": 7213,
      "orient": 7214,
      "ĠGlobal": 7215,
      "Ġedge": 7216,
      "Ġreaction": 7217,
      "ĠFre": 7218,
      "Ġfederal": 7219,
      "Cons": 7220,
      "Ġkilled": 7221,
      "Ġdoors": 7222,
      "Ġdism": 7223,
      "Ġreligion": 7224,
      "ĠACP": 7225,
      "Ġbridge": 7226,
      "ĠSim": 7227,
      "Ġunlike": 7228,
      "Ġcontinuous": 7229,
      "Ġsignificance": 7230,
      "Ġtwenty": 7231,
      "Ġoverview": 7232,
      "ĠWhat": 7233,
      "ĠGene": 7234,
      "nex": 7235,
      "Ġrevision": 7236,
      "Ġequival": 7237,
      "Te": 7238,
      "ĠTechnology": 7239,
      "Ġleaves": 7240,
      "ĠLiber": 7241,
      "onymous": 7242,
      "oration": 7243,
      "ĠAv": 7244,
      "hedral": 7245,
      "Ġsought": 7246,
      "Ġharmonisation": 7247,
      "ĠNord": 7248,
      "heim": 7249,
      "Ġmunicip": 7250,
      "Ġstabil": 7251,
      "ĠSP": 7252,
      "Ġmodule": 7253,
      "Ġpatient": 7254,
      "scale": 7255,
      "ĠDesk": 7256,
      "Ġdelicious": 7257,
      "ĠRule": 7258,
      "ĠCongress": 7259,
      "Ġbomb": 7260,
      "ĠSunday": 7261,
      "UN": 7262,
      "advant": 7263,
      "allel": 7264,
      "Ġreput": 7265,
      "Ġtrademark": 7266,
      "Ġfootball": 7267,
      "ĠHamburg": 7268,
      "anz": 7269,
      "Ġjustified": 7270,
      "ĠÂ«": 7271,
      "Yes": 7272,
      "ĠEarth": 7273,
      "Ġshap": 7274,
      "Ġroof": 7275,
      "Use": 7276,
      "Ġconfirmation": 7277,
      "Ġproceedings": 7278,
      "ĠSanta": 7279,
      "ituated": 7280,
      "oli": 7281,
      "Ġstanding": 7282,
      "roso": 7283,
      "ĠData": 7284,
      "Ġlegally": 7285,
      "ilm": 7286,
      "Ġindirect": 7287,
      "Ġportfol": 7288,
      "Ġnegotiating": 7289,
      "ashing": 7290,
      "Ġpolitically": 7291,
      "Ġsuffered": 7292,
      "Ġunforgettable": 7293,
      "ĠFestival": 7294,
      "Ġpoly": 7295,
      "Ġwelcomed": 7296,
      "âĢĻ.": 7297,
      "Ġpublication": 7298,
      "Ġradical": 7299,
      "Ġ32": 7300,
      "Ġrenowned": 7301,
      "ĠChair": 7302,
      "ĠHotels": 7303,
      "Within": 7304,
      "Ġdependent": 7305,
      "ulous": 7306,
      "Ġremained": 7307,
      "Ġskiing": 7308,
      "Ġmanual": 7309,
      "Ġimports": 7310,
      "75": 7311,
      "ildren": 7312,
      "Ġbanking": 7313,
      "Ġprosperity": 7314,
      "acilities": 7315,
      "Ġrot": 7316,
      "ĠTrek": 7317,
      "Ġupper": 7318,
      "Ġamen": 7319,
      "Ġspecialist": 7320,
      "Ġsocieties": 7321,
      "oubtedly": 7322,
      "fers": 7323,
      "Ġpor": 7324,
      "icing": 7325,
      "Ġist": 7326,
      "Ġappearance": 7327,
      "ĠAuditors": 7328,
      "Ġresource": 7329,
      "Ġcharacters": 7330,
      "Ġpaying": 7331,
      "Ġsupervision": 7332,
      "iro": 7333,
      "ĠHam": 7334,
      "ĠStock": 7335,
      "ĠMedia": 7336,
      "ĠMonday": 7337,
      "==": 7338,
      "Ġinstructions": 7339,
      "General": 7340,
      "ket": 7341,
      "Ġcolon": 7342,
      "pa": 7343,
      "Ġdisadvant": 7344,
      "Ġinspect": 7345,
      "Ġbeings": 7346,
      "500": 7347,
      "2001": 7348,
      "Ġhttp": 7349,
      "ĠSocialist": 7350,
      "Ġuna": 7351,
      "Ġfestival": 7352,
      "Â»": 7353,
      "ĠPage": 7354,
      "Ġpreventing": 7355,
      "Ġforthcoming": 7356,
      "pass": 7357,
      "Ġcomplicated": 7358,
      "Ġfix": 7359,
      "ĠBy": 7360,
      "Ġretail": 7361,
      "ĠSite": 7362,
      "Ġdisk": 7363,
      "Ob": 7364,
      "Ġallocated": 7365,
      "Ġsurely": 7366,
      "Ġantic": 7367,
      "ĠTO": 7368,
      "Ġhomes": 7369,
      "Ġeverybody": 7370,
      "Ġdirected": 7371,
      "Ġhandle": 7372,
      "Ġcontributed": 7373,
      "Ġtrips": 7374,
      "Ġbond": 7375,
      "Ġrising": 7376,
      "Ġentrepreneur": 7377,
      "Ġexplained": 7378,
      "Ġfirmly": 7379,
      "real": 7380,
      "Ġrealise": 7381,
      "dro": 7382,
      "Ġprotest": 7383,
      "Ġsumm": 7384,
      "artment": 7385,
      "ĠAction": 7386,
      "Ġattrib": 7387,
      "Script": 7388,
      "Ġburn": 7389,
      "ĠSloven": 7390,
      "hetic": 7391,
      "Ġfans": 7392,
      "ĠStrasbourg": 7393,
      "04": 7394,
      "Ġtennis": 7395,
      "communic": 7396,
      "Ġwider": 7397,
      "Ġid": 7398,
      "Ġnone": 7399,
      "Ġrank": 7400,
      "Ġ2011": 7401,
      "ĠAnn": 7402,
      "oper": 7403,
      "Ġparameters": 7404,
      "Ġlift": 7405,
      "Ġintroducing": 7406,
      "Ġjudge": 7407,
      "ĠRoyal": 7408,
      "ĠReal": 7409,
      "ante": 7410,
      "made": 7411,
      "Ġinn": 7412,
      "ronom": 7413,
      "Christ": 7414,
      "ĠAmendments": 7415,
      "ownt": 7416,
      "Ġwelcomes": 7417,
      "ĠAuthor": 7418,
      "sem": 7419,
      "Ġdirectory": 7420,
      "36": 7421,
      "pel": 7422,
      "mbud": 7423,
      "Ġacknowled": 7424,
      "34": 7425,
      "ĠMP": 7426,
      "oslav": 7427,
      "Ġhardly": 7428,
      "Ġenabled": 7429,
      "Ġacadem": 7430,
      "Ġoriginally": 7431,
      "Ġenterprise": 7432,
      "Ġeuros": 7433,
      "Ġreconc": 7434,
      "ints": 7435,
      "Ġprogramming": 7436,
      "Ġinvestigation": 7437,
      "Ġpra": 7438,
      "ago": 7439,
      "encing": 7440,
      "Ġvessels": 7441,
      "Due": 7442,
      "ĠPrivate": 7443,
      "Ġmovements": 7444,
      "Ġmissing": 7445,
      "ĠAgriculture": 7446,
      "05": 7447,
      "ingly": 7448,
      "ista": 7449,
      "ima": 7450,
      "ĠZe": 7451,
      "Ġhearing": 7452,
      "Ġindicate": 7453,
      "sequent": 7454,
      "Ġcuts": 7455,
      "Ġpharm": 7456,
      "Ġobstacles": 7457,
      "ĠPower": 7458,
      "izon": 7459,
      "Ġbarriers": 7460,
      "Ñĥ": 7461,
      "ĠEM": 7462,
      "irk": 7463,
      "Ġsounds": 7464,
      "Ġremarks": 7465,
      "ĠWall": 7466,
      "Ġindex": 7467,
      "Ġpassion": 7468,
      "Ġcleaning": 7469,
      "Ġordinary": 7470,
      "Description": 7471,
      "ĠTourism": 7472,
      "ĠSecretary": 7473,
      "Ġreb": 7474,
      "emb": 7475,
      "ĠFlore": 7476,
      "ĠAz": 7477,
      "Ġ1994": 7478,
      "%,": 7479,
      "Ġren": 7480,
      "Ġgather": 7481,
      "ĠStand": 7482,
      "ĠVis": 7483,
      "Ġmir": 7484,
      "Ġbul": 7485,
      "Ġphotograph": 7486,
      "Ġexclusion": 7487,
      "38": 7488,
      "Ġconce": 7489,
      "Ġdeter": 7490,
      "hi": 7491,
      "ignt": 7492,
      "Ġdeserv": 7493,
      "Ġclubs": 7494,
      "ĠLegal": 7495,
      "Ġcollected": 7496,
      "ĠÅ": 7497,
      "Ġrecognized": 7498,
      "Ġinterview": 7499,
      "Ãº": 7500,
      "usal": 7501,
      "Ġwellness": 7502,
      "ani": 7503,
      "Ġshowed": 7504,
      "inf": 7505,
      "west": 7506,
      "Without": 7507,
      "Ġfer": 7508,
      "Ġwhereas": 7509,
      "ultural": 7510,
      "Ġsustainability": 7511,
      "page": 7512,
      "ĠBeach": 7513,
      "Ġsimultane": 7514,
      "Ġalleg": 7515,
      "governmental": 7516,
      "Ġcovering": 7517,
      "Ġtransmission": 7518,
      "Ġromantic": 7519,
      "Ġhes": 7520,
      "Ġdidn": 7521,
      "Ġcombine": 7522,
      "Ġfabric": 7523,
      "UT": 7524,
      "Ġcompact": 7525,
      "Ġerrors": 7526,
      "Ġhospitality": 7527,
      "Ġdisasters": 7528,
      "Ġcells": 7529,
      "Having": 7530,
      "Ġmodules": 7531,
      "Ġpenalty": 7532,
      "Ġfleet": 7533,
      "Ġgallery": 7534,
      "ĠID": 7535,
      "Ġmovie": 7536,
      "Ġstocks": 7537,
      "Ġchecks": 7538,
      "iversary": 7539,
      "Among": 7540,
      "32": 7541,
      "Besides": 7542,
      "ĠFederation": 7543,
      "Ġsaved": 7544,
      "Ġconsiderably": 7545,
      "Ġdignity": 7546,
      "Ġtree": 7547,
      "Ġfees": 7548,
      "Ġboot": 7549,
      "Ġfunctionality": 7550,
      "ophistic": 7551,
      "Ġwelcoming": 7552,
      "Ġimagine": 7553,
      "ĠVice": 7554,
      "ĠFront": 7555,
      "Ġinternationally": 7556,
      "Ġlooked": 7557,
      "Ġsections": 7558,
      "Ġturning": 7559,
      "Ġtea": 7560,
      "wan": 7561,
      "jo": 7562,
      "Ġlegitim": 7563,
      "ĠPHP": 7564,
      "Ġtables": 7565,
      "Ġmuseums": 7566,
      "Ġru": 7567,
      "ernel": 7568,
      "Ġsurve": 7569,
      "Ġviolations": 7570,
      "Ġuniversities": 7571,
      "Ġbag": 7572,
      "Ġministers": 7573,
      "Ġbird": 7574,
      "Ġende": 7575,
      "ĠRel": 7576,
      "Ġdemocrat": 7577,
      "ben": 7578,
      "Ġsharing": 7579,
      "play": 7580,
      "Ġbelieves": 7581,
      "Ġjuris": 7582,
      "95": 7583,
      "Ġenem": 7584,
      "Ġdeliber": 7585,
      "uled": 7586,
      "club": 7587,
      "Ġswitch": 7588,
      "Ġsongs": 7589,
      "ÃŃa": 7590,
      "Ġenhanced": 7591,
      "Ġreflected": 7592,
      "opes": 7593,
      "Ġregardless": 7594,
      "Ġaccurate": 7595,
      "smoking": 7596,
      "ĠAtlantic": 7597,
      "Ġlabelling": 7598,
      "under": 7599,
      "Ġclasses": 7600,
      "lined": 7601,
      "Ġang": 7602,
      "Ġendeav": 7603,
      "lder": 7604,
      "Ġprest": 7605,
      "ĠSalz": 7606,
      "ĠStability": 7607,
      "CC": 7608,
      "ĠTreat": 7609,
      "Ġunited": 7610,
      "Ġexploitation": 7611,
      "des": 7612,
      "Ġadapted": 7613,
      "Ġexcluded": 7614,
      "minist": 7615,
      "ĠBad": 7616,
      "Ġundoubtedly": 7617,
      "Ġmobil": 7618,
      "uster": 7619,
      "ĠFinland": 7620,
      "ĠTime": 7621,
      "friendly": 7622,
      "Ġgenerate": 7623,
      "Ġtimet": 7624,
      "Ġfemale": 7625,
      "ignty": 7626,
      "Ġproductivity": 7627,
      "Ġreaching": 7628,
      "front": 7629,
      "ugoslav": 7630,
      "Ġinev": 7631,
      "Ġthumb": 7632,
      "Ã£": 7633,
      "ĠJac": 7634,
      "Ġacceptance": 7635,
      "ario": 7636,
      "ĠCommissioners": 7637,
      "Ġingred": 7638,
      "km": 7639,
      "iger": 7640,
      "ĠTibet": 7641,
      "Ġtransferred": 7642,
      "ktop": 7643,
      "ua": 7644,
      "ĠGM": 7645,
      "Ġdialog": 7646,
      "Ġgenerations": 7647,
      "being": 7648,
      "ĠMoroc": 7649,
      "COM": 7650,
      "Ġlov": 7651,
      "EO": 7652,
      "pell": 7653,
      "ĠArch": 7654,
      "Ġwireless": 7655,
      "Ġtested": 7656,
      "Ġhonour": 7657,
      "Ġprox": 7658,
      "ĠVill": 7659,
      "ĠCH": 7660,
      "chant": 7661,
      "Ġcaf": 7662,
      "Ġmanaging": 7663,
      "Ġcraft": 7664,
      "ĠBalkans": 7665,
      "ĠGall": 7666,
      "isch": 7667,
      "Ġnovel": 7668,
      "Ġfilled": 7669,
      "Ġdiagn": 7670,
      "Ġnotes": 7671,
      "Ġtravelling": 7672,
      "Ġsplend": 7673,
      "ĠDue": 7674,
      "adequ": 7675,
      "uels": 7676,
      "quiry": 7677,
      "ĠPost": 7678,
      "Ġgap": 7679,
      "Ġcancer": 7680,
      "64": 7681,
      "Vis": 7682,
      "Ġdies": 7683,
      "Ġfreely": 7684,
      "Ġorganic": 7685,
      "rovers": 7686,
      "Ġconcentrate": 7687,
      "mbudsman": 7688,
      "Ġsatisfy": 7689,
      "Check": 7690,
      "stitutional": 7691,
      "ĠPPE": 7692,
      "Ġdos": 7693,
      "using": 7694,
      "ĠDon": 7695,
      "Ġdesk": 7696,
      "Ġundertaken": 7697,
      "Ġnine": 7698,
      "Ġlosses": 7699,
      "ĠHowever": 7700,
      "inet": 7701,
      "iov": 7702,
      "Ġprime": 7703,
      "Ġincred": 7704,
      "Ġsubsequent": 7705,
      "Ġconsulting": 7706,
      "Ġcomputers": 7707,
      "ĠValley": 7708,
      "Ġfan": 7709,
      "Ġsovereignty": 7710,
      "NL": 7711,
      "Ġsophistic": 7712,
      "otive": 7713,
      "Ġstages": 7714,
      "Ġride": 7715,
      "Ġreflects": 7716,
      "Ġvideos": 7717,
      "Ġven": 7718,
      "Ġincom": 7719,
      "stream": 7720,
      "cluding": 7721,
      "Ġpara": 7722,
      "Ġstrengthened": 7723,
      "rie": 7724,
      "ecutive": 7725,
      "ĠIndian": 7726,
      "ĠGeneva": 7727,
      "usc": 7728,
      "Ġworst": 7729,
      "Ġfishermen": 7730,
      "nia": 7731,
      "Ġrestored": 7732,
      "Ġstudio": 7733,
      "ĠAmericans": 7734,
      "Ġsup": 7735,
      "haus": 7736,
      "Ġreliability": 7737,
      "ĠIslamic": 7738,
      "Ġamenities": 7739,
      "Ġreconstruction": 7740,
      "ducation": 7741,
      "war": 7742,
      "ograp": 7743,
      "Ġparallel": 7744,
      "Ġrestore": 7745,
      "Rooms": 7746,
      "Ġliked": 7747,
      "Ġdamages": 7748,
      "irty": 7749,
      "Ġsupplied": 7750,
      "Ġliquid": 7751,
      "ĠOrganisation": 7752,
      "ieval": 7753,
      "ĠSerbia": 7754,
      "Ġarbit": 7755,
      "02": 7756,
      "Ġvig": 7757,
      "2010": 7758,
      "Ġselling": 7759,
      "uer": 7760,
      "Ġsincere": 7761,
      "Ġshadow": 7762,
      "Ġsym": 7763,
      "Ġlas": 7764,
      "Ġarise": 7765,
      "Ġfilter": 7766,
      "appro": 7767,
      "Ġlearned": 7768,
      "ĠSen": 7769,
      "ideo": 7770,
      "Ġcoordinated": 7771,
      "ĠECU": 7772,
      "Ġclimb": 7773,
      "necess": 7774,
      "Ġcultures": 7775,
      "Ġbike": 7776,
      "lets": 7777,
      "Ġrestructuring": 7778,
      "flow": 7779,
      "Ġcrop": 7780,
      "ĠAfter": 7781,
      "Ġsyn": 7782,
      "Ġapprove": 7783,
      "Ġneighbouring": 7784,
      "Ġlived": 7785,
      "olic": 7786,
      "ĠAp": 7787,
      "Ġclause": 7788,
      "Ġstret": 7789,
      "Ġdesigns": 7790,
      "ĠIslands": 7791,
      "Ġanticip": 7792,
      "ĠSaturday": 7793,
      "Ġedition": 7794,
      "ĠYugoslav": 7795,
      "Star": 7796,
      "ĠAlex": 7797,
      "ĠUSB": 7798,
      "Ġplastic": 7799,
      "ĠReport": 7800,
      "inder": 7801,
      "ĠOR": 7802,
      "ĠResort": 7803,
      "ĠSou": 7804,
      "Ġsynt": 7805,
      "ĠMore": 7806,
      "ĠGolf": 7807,
      "Ġ75": 7808,
      "Ġrepair": 7809,
      "Ġbriefly": 7810,
      "Ġtoile": 7811,
      "Ġ00": 7812,
      "itar": 7813,
      "ĠCode": 7814,
      "Ġspons": 7815,
      "Ġcock": 7816,
      "clusive": 7817,
      "ĠMat": 7818,
      "Ġsuperior": 7819,
      "Ġinadequ": 7820,
      "Ġsequ": 7821,
      "Ġcalm": 7822,
      "ĠAsian": 7823,
      "fa": 7824,
      "Ġframe": 7825,
      "Ġvent": 7826,
      "Ġpicturesque": 7827,
      "Ġtrends": 7828,
      "Ġunfair": 7829,
      "Ġassembly": 7830,
      "ĠTun": 7831,
      "ĠChristmas": 7832,
      "'m": 7833,
      "yp": 7834,
      "Ġbio": 7835,
      "Ġanywhere": 7836,
      "Ġprovince": 7837,
      "Ġnecessarily": 7838,
      "ĠMill": 7839,
      "Ġdisag": 7840,
      "Ġtreatments": 7841,
      "SQL": 7842,
      "Ġprocessed": 7843,
      "Ġlistings": 7844,
      "ersonal": 7845,
      "Ġemp": 7846,
      "Ġholds": 7847,
      "Ġheight": 7848,
      "ĠVenice": 7849,
      "Ġthermal": 7850,
      "itative": 7851,
      "ĠFire": 7852,
      "Ġvaried": 7853,
      "Ġadds": 7854,
      "Ġdeeply": 7855,
      "Ġpanoramic": 7856,
      "Ġsud": 7857,
      "Ġfloors": 7858,
      "Ġappropriations": 7859,
      "39": 7860,
      "Ġmultilateral": 7861,
      "edly": 7862,
      "Ġmassage": 7863,
      "Ġordered": 7864,
      "Ġamazing": 7865,
      "Ġhiking": 7866,
      "Ġpeak": 7867,
      "Ġconstitu": 7868,
      "Ġanniversary": 7869,
      "Ġengage": 7870,
      "Bar": 7871,
      "Ġpresenting": 7872,
      "ĠExpress": 7873,
      "Ġhyp": 7874,
      "effect": 7875,
      "Ġdetermination": 7876,
      "uv": 7877,
      "Ġroot": 7878,
      "which": 7879,
      "ĠSun": 7880,
      "Ġtargeted": 7881,
      "Ġlayer": 7882,
      "Ġbreed": 7883,
      "ĠSud": 7884,
      "Ġrac": 7885,
      "Ġengaged": 7886,
      "ez": 7887,
      "ĠGran": 7888,
      "ĠPartners": 7889,
      "Ġtracks": 7890,
      "ĠAustralia": 7891,
      "Ġpretty": 7892,
      "Ġcontrovers": 7893,
      "Ġarising": 7894,
      "ĠCAP": 7895,
      "Ġintends": 7896,
      "Ġindividually": 7897,
      "EW": 7898,
      "iler": 7899,
      "Ġprofits": 7900,
      "umping": 7901,
      "omas": 7902,
      "ĠEnt": 7903,
      "Ġ36": 7904,
      "Situated": 7905,
      "Ġequivalent": 7906,
      "orous": 7907,
      "Ġsensible": 7908,
      "Ġreputation": 7909,
      "Ġpush": 7910,
      "Ġunnecess": 7911,
      "Ġreferring": 7912,
      "Up": 7913,
      "ĠBol": 7914,
      "Ġfactory": 7915,
      "Ġportfolio": 7916,
      "nam": 7917,
      "Ġolive": 7918,
      "Ġeverywhere": 7919,
      "AB": 7920,
      "ĠWill": 7921,
      "Ġphenomenon": 7922,
      "ĠDol": 7923,
      "SL": 7924,
      "Ġsaving": 7925,
      "Ġsights": 7926,
      "Ġpus": 7927,
      "Ġcatch": 7928,
      "Ġtab": 7929,
      "Ġtraged": 7930,
      "ĠYour": 7931,
      "ĠPu": 7932,
      "Ġjurisd": 7933,
      "ĠBarroso": 7934,
      "People": 7935,
      "ĠBern": 7936,
      "Ġentering": 7937,
      "Ġthreats": 7938,
      "Ġstudent": 7939,
      "Ġvine": 7940,
      "ĠCastle": 7941,
      "ellow": 7942,
      "Ġteaching": 7943,
      "HO": 7944,
      "Ġgre": 7945,
      "Ġwarn": 7946,
      "Ġeditor": 7947,
      "Ġformats": 7948,
      "Ġ1980": 7949,
      "ĠECB": 7950,
      "ĠMot": 7951,
      "Ġexecutive": 7952,
      "celer": 7953,
      "Ġtranqu": 7954,
      "Ġwides": 7955,
      "lication": 7956,
      "Ġdownt": 7957,
      "Ġhighlights": 7958,
      "essions": 7959,
      "Ġstruggle": 7960,
      "izz": 7961,
      "ĠProtocol": 7962,
      "ĠBook": 7963,
      "Ġbudgets": 7964,
      "Ġurgently": 7965,
      "ĠForm": 7966,
      "Ġrelates": 7967,
      "ĠAND": 7968,
      "Ġfairly": 7969,
      "ĠBudgets": 7970,
      "Ġtort": 7971,
      "Ġstuff": 7972,
      "ĠST": 7973,
      "Ġliable": 7974,
      "eping": 7975,
      "country": 7976,
      "Ġhill": 7977,
      "ĠCharl": 7978,
      "Ġexecution": 7979,
      "Ġbegins": 7980,
      "ĠAlb": 7981,
      "ĠBelgian": 7982,
      "disc": 7983,
      "Should": 7984,
      "Ġcandidates": 7985,
      "Intern": 7986,
      "ship": 7987,
      "Ġboy": 7988,
      "AV": 7989,
      "Ġvib": 7990,
      "Ġlasting": 7991,
      "Ġoccurred": 7992,
      "See": 7993,
      "Ġdecade": 7994,
      "Ġnormally": 7995,
      "onic": 7996,
      "Ġsam": 7997,
      "Ġguard": 7998,
      "Ġengines": 7999,
      "alling": 8000,
      "Ġgeographical": 8001,
      "ford": 8002,
      "Ġdecline": 8003,
      "Ġpromised": 8004,
      "ading": 8005,
      "endar": 8006,
      "ĠOmbudsman": 8007,
      "Ġefficiently": 8008,
      "Ġunderground": 8009,
      "sen": 8010,
      "Ġinterm": 8011,
      "ĠWed": 8012,
      "Ġpromise": 8013,
      "Free": 8014,
      "Ġproduces": 8015,
      "td": 8016,
      "Ġstrictly": 8017,
      "irable": 8018,
      "ĠRegional": 8019,
      "haust": 8020,
      "Ġassign": 8021,
      "Ġprospects": 8022,
      "Ġstunning": 8023,
      "Ġspell": 8024,
      "ĠKar": 8025,
      "Ġrecording": 8026,
      "Ġusage": 8027,
      "Ġsucceeded": 8028,
      "Ġecological": 8029,
      "orne": 8030,
      "Ġpul": 8031,
      "Ġprinted": 8032,
      "Does": 8033,
      "Ġresulted": 8034,
      "Ġscientists": 8035,
      "Ġoverlooking": 8036,
      "ĠNGOs": 8037,
      "Ġconsequence": 8038,
      "Ġincorporated": 8039,
      "Ã¥": 8040,
      "Ġkilometres": 8041,
      "osing": 8042,
      "Ġseats": 8043,
      "Ġ#": 8044,
      "Ġended": 8045,
      "Ġpanel": 8046,
      "Ġmistake": 8047,
      "rity": 8048,
      "Ġ{{": 8049,
      "ĠPDF": 8050,
      "Ġempt": 8051,
      "Ġreserved": 8052,
      "ĠEADS": 8053,
      "Ġ(\"": 8054,
      "Ġhighlighted": 8055,
      "ĠMichael": 8056,
      "Ġfeet": 8057,
      "otten": 8058,
      "Ġtwice": 8059,
      "Ġdepth": 8060,
      "hered": 8061,
      "Ġconsiders": 8062,
      "ĠFisher": 8063,
      "Lastly": 8064,
      "Ġmeets": 8065,
      "ĠClass": 8066,
      "Ġcoherent": 8067,
      "Ġtill": 8068,
      "Ġmagazine": 8069,
      "ĠExecutive": 8070,
      "uan": 8071,
      "Ġkn": 8072,
      "Ġclin": 8073,
      "Ġmonop": 8074,
      "Ġtaxpay": 8075,
      "Ġshock": 8076,
      "Ġacquired": 8077,
      "ĠIII": 8078,
      "ih": 8079,
      "eds": 8080,
      "Ġoldest": 8081,
      "Ġaer": 8082,
      "Ġabsor": 8083,
      "Ġessentially": 8084,
      "TV": 8085,
      "eras": 8086,
      "uy": 8087,
      "Ġspecialists": 8088,
      "ĠFood": 8089,
      "Ġtroops": 8090,
      "ulsory": 8091,
      "Ġcombines": 8092,
      "Ġaffects": 8093,
      "ĠDenmark": 8094,
      "riage": 8095,
      "pread": 8096,
      "rous": 8097,
      "Ġarg": 8098,
      "Ġlayout": 8099,
      "iem": 8100,
      "Ġwheel": 8101,
      "ĠVan": 8102,
      "Ġairports": 8103,
      "Ġsphere": 8104,
      "Ġassociations": 8105,
      "ourse": 8106,
      "ownload": 8107,
      "Ġmetro": 8108,
      "Ġoperator": 8109,
      "ĠSystems": 8110,
      "Ġhills": 8111,
      "matically": 8112,
      "utors": 8113,
      "Ġterritorial": 8114,
      "Ġrecords": 8115,
      "Ġsharp": 8116,
      "Ġdomin": 8117,
      "oria": 8118,
      "Ġshoot": 8119,
      "Ġmedicine": 8120,
      "Ġ48": 8121,
      "37": 8122,
      "Ġheading": 8123,
      "Ġgradually": 8124,
      "ĠRos": 8125,
      "Ġvit": 8126,
      "Ġbrother": 8127,
      "Ġprisoners": 8128,
      "ĠCorpor": 8129,
      "ĠAng": 8130,
      "Trans": 8131,
      "rus": 8132,
      "Ġvic": 8133,
      "Ġcultiv": 8134,
      "PC": 8135,
      "Ġcausing": 8136,
      "iche": 8137,
      "Ġdog": 8138,
      "Ġdiplomatic": 8139,
      "oud": 8140,
      "Ġends": 8141,
      "quisite": 8142,
      "Ġsurprise": 8143,
      "Ġenvironmentally": 8144,
      "Ġsophisticated": 8145,
      "well": 8146,
      "Ġagents": 8147,
      "itate": 8148,
      "Ġhence": 8149,
      "Ġmouse": 8150,
      "utr": 8151,
      "Ġalumin": 8152,
      "ĠWork": 8153,
      "Ġaccidents": 8154,
      "ĠGeorgia": 8155,
      "Ġwidespread": 8156,
      "bs": 8157,
      "Ġadventure": 8158,
      "Ġprosec": 8159,
      "hors": 8160,
      "apse": 8161,
      "Ġ1992": 8162,
      "ĠMusic": 8163,
      "ĠPeter": 8164,
      "Spe": 8165,
      "Ġvirtually": 8166,
      "Ġsudden": 8167,
      "Ġparticipating": 8168,
      "Ġencouraged": 8169,
      "Ġclarify": 8170,
      "ĠTreaties": 8171,
      "ĠCivil": 8172,
      "Ġaviation": 8173,
      "08": 8174,
      "Ġopens": 8175,
      "Ġseeks": 8176,
      "Ġfault": 8177,
      "cons": 8178,
      "Ġconfidential": 8179,
      "Ġbes": 8180,
      "Ġproducer": 8181,
      "ĠOut": 8182,
      "Ġdivers": 8183,
      "rible": 8184,
      "alities": 8185,
      "Ġdoct": 8186,
      "Ġrecre": 8187,
      "ĠFrom": 8188,
      "ĠStat": 8189,
      "Ġreinfor": 8190,
      "ĠCasino": 8191,
      "Ġattached": 8192,
      "tes": 8193,
      "Ġinequ": 8194,
      "Ġalongside": 8195,
      "ĠSpe": 8196,
      "Ġpilot": 8197,
      "isk": 8198,
      "Ġevident": 8199,
      "ounded": 8200,
      "ĠCommun": 8201,
      "long": 8202,
      "Ġmeal": 8203,
      "Ġspite": 8204,
      "Ġservers": 8205,
      "Ġrestricted": 8206,
      "gi": 8207,
      "Ġcolors": 8208,
      "Consequently": 8209,
      "Ġexplanation": 8210,
      "Ġputs": 8211,
      "ĠSpecial": 8212,
      "()": 8213,
      "Ġutmost": 8214,
      "Ġpillar": 8215,
      "ĠMain": 8216,
      "Ġunus": 8217,
      "Ġharmful": 8218,
      "Ġobserved": 8219,
      "ĠProfess": 8220,
      "Ġaccompl": 8221,
      "Ġbathrooms": 8222,
      "plore": 8223,
      "\")": 8224,
      "Ġintensive": 8225,
      "ĠRober": 8226,
      "Ġfax": 8227,
      "Ġachievement": 8228,
      "Ġthrow": 8229,
      "Ġconvey": 8230,
      "ĠRepresent": 8231,
      "Ġadding": 8232,
      "Ġblind": 8233,
      "Tip": 8234,
      "Ġwarning": 8235,
      "Ġdetect": 8236,
      "Ġpreserve": 8237,
      "Ġstream": 8238,
      "Ġarmed": 8239,
      "Ġcontextual": 8240,
      "Ġreiter": 8241,
      "ilarly": 8242,
      "utin": 8243,
      "adays": 8244,
      "istical": 8245,
      "Ġrecy": 8246,
      "Ġteachers": 8247,
      "ĠConstitutional": 8248,
      "urf": 8249,
      "ĠAcadem": 8250,
      "Ġdispute": 8251,
      "Ġpurely": 8252,
      "market": 8253,
      "inity": 8254,
      "claim": 8255,
      "Ġsurprised": 8256,
      "ĠEmp": 8257,
      "Ġquote": 8258,
      "Ġquotas": 8259,
      "Ñı": 8260,
      "Ġchoices": 8261,
      "Ġrevenue": 8262,
      "organ": 8263,
      "ĠCulture": 8264,
      "Ġsky": 8265,
      "Ġprize": 8266,
      "TP": 8267,
      "Ġfal": 8268,
      "Ġrational": 8269,
      "DR": 8270,
      "utor": 8271,
      "Ã£o": 8272,
      "Ġmarks": 8273,
      "from": 8274,
      "Ġconvergence": 8275,
      "ĠIslam": 8276,
      "edy": 8277,
      "Ġgrown": 8278,
      "Who": 8279,
      "Ġhat": 8280,
      "Ġgraphics": 8281,
      "ĠMartin": 8282,
      "Ġmort": 8283,
      "Ġdas": 8284,
      "Ġsecondly": 8285,
      "ĠLith": 8286,
      "ito": 8287,
      "Ġwooden": 8288,
      "Ġsoil": 8289,
      "2009": 8290,
      "Ġdance": 8291,
      "Ġhunt": 8292,
      "stal": 8293,
      "asse": 8294,
      "Ne": 8295,
      "Ġtoward": 8296,
      "ĠDanish": 8297,
      "ĠConsumer": 8298,
      "Ġhidden": 8299,
      "Ġsuperb": 8300,
      "ursions": 8301,
      "Ġna": 8302,
      "Ð²": 8303,
      "Ġhabit": 8304,
      "Ġreporting": 8305,
      "Ġpremium": 8306,
      "cul": 8307,
      "Ġnative": 8308,
      "Ġrow": 8309,
      "utt": 8310,
      "Ġmeals": 8311,
      "ĠJavaScript": 8312,
      "Ġconferences": 8313,
      "Ġkernel": 8314,
      "Ġsurvey": 8315,
      "Ġspecialized": 8316,
      "Ġproc": 8317,
      "ĠInterg": 8318,
      "Ġpassing": 8319,
      "levator": 8320,
      "Ġauf": 8321,
      "phrase": 8322,
      "Ã¶n": 8323,
      "MA": 8324,
      "inals": 8325,
      "Ġairlines": 8326,
      "ĠForum": 8327,
      "Ġthumbn": 8328,
      "institutional": 8329,
      "ĠÃ©": 8330,
      "Ġserving": 8331,
      "ĠConf": 8332,
      "Ġstick": 8333,
      "ĠTr": 8334,
      "Ġcapabilities": 8335,
      "Ġblocks": 8336,
      "ĠTai": 8337,
      "Ġrely": 8338,
      "ĠWhen": 8339,
      "sts": 8340,
      "Ġepis": 8341,
      "conn": 8342,
      "Ð¼": 8343,
      "Ġhopes": 8344,
      "Ġdefe": 8345,
      "Ġcommunicate": 8346,
      "Co": 8347,
      "Ġcomplim": 8348,
      "ĠUser": 8349,
      "style": 8350,
      "Ġseconds": 8351,
      "def": 8352,
      "49": 8353,
      "Pr": 8354,
      "hem": 8355,
      "Ġextending": 8356,
      "Ġrecognize": 8357,
      "Ġpermission": 8358,
      "06": 8359,
      "ĠNotes": 8360,
      "Ġmacro": 8361,
      "ĠDist": 8362,
      "Ġintegrate": 8363,
      "Ġbeer": 8364,
      "ĠAward": 8365,
      "Ġcasino": 8366,
      "ĠJer": 8367,
      "Ġconventional": 8368,
      "ĠExchange": 8369,
      "Ġsufficiently": 8370,
      "Ġinspired": 8371,
      "ĠCond": 8372,
      "Ġinitially": 8373,
      "Ġflows": 8374,
      "Ġupgrade": 8375,
      "Don": 8376,
      "ĠProject": 8377,
      "TH": 8378,
      "Ġfly": 8379,
      "Ġstories": 8380,
      "building": 8381,
      "Ġpercentage": 8382,
      "fit": 8383,
      "ÅĤ": 8384,
      "Ġaus": 8385,
      "bur": 8386,
      "Ġsqu": 8387,
      "Ġtelecommunic": 8388,
      "Ġexem": 8389,
      "ĠRead": 8390,
      "Ġshortly": 8391,
      "ĠAgenda": 8392,
      "Ġschemes": 8393,
      "Ġshuttle": 8394,
      "ĠDublin": 8395,
      "Ġlicens": 8396,
      "state": 8397,
      "Ġshift": 8398,
      "Ġestimated": 8399,
      "ĠEN": 8400,
      "Ġmanif": 8401,
      "Ġaudience": 8402,
      "olo": 8403,
      "48": 8404,
      "Ġvictory": 8405,
      "ishment": 8406,
      "text": 8407,
      "Ġassigned": 8408,
      "Ġrefund": 8409,
      "ĠElect": 8410,
      "Ġthick": 8411,
      "Ġraising": 8412,
      "Ġoperates": 8413,
      "Ġ250": 8414,
      "ibly": 8415,
      "Ġbonus": 8416,
      "Ġfest": 8417,
      "Ġexpense": 8418,
      "Ġbelieved": 8419,
      "Out": 8420,
      "overnmental": 8421,
      "utical": 8422,
      "ĠPic": 8423,
      "ĠEducation": 8424,
      "Ġpromises": 8425,
      "Ġsettle": 8426,
      "ĠArgent": 8427,
      "Ġdevelopers": 8428,
      "Ġmedieval": 8429,
      "dep": 8430,
      "ĠAR": 8431,
      "Ġhousehold": 8432,
      "Ġindoor": 8433,
      "ĠCup": 8434,
      "oriented": 8435,
      "Ġexhaust": 8436,
      "Ġamended": 8437,
      "Ġviolation": 8438,
      "Ġimplications": 8439,
      "Ġhorizon": 8440,
      "Ġpipe": 8441,
      "Ġstudied": 8442,
      "Ġeliminate": 8443,
      "Ġenthusia": 8444,
      "ĠJose": 8445,
      "SA": 8446,
      "Ġhol": 8447,
      "09": 8448,
      "Ġnegotiation": 8449,
      "Ġfalls": 8450,
      "Ġrelationships": 8451,
      "Ġstem": 8452,
      "ĠCommon": 8453,
      "31": 8454,
      "ĠJes": 8455,
      "Ġmeaningfully": 8456,
      "Me": 8457,
      "adt": 8458,
      "aus": 8459,
      "ĠGent": 8460,
      "erts": 8461,
      "Ġoverw": 8462,
      "Ġaccompany": 8463,
      "ĠRotary": 8464,
      "ennium": 8465,
      "ĠVia": 8466,
      "cht": 8467,
      "Ġstores": 8468,
      "ĠPoker": 8469,
      "Ġapproaches": 8470,
      "Ġconstitutes": 8471,
      "nesday": 8472,
      "Ġguided": 8473,
      "Ġwhereby": 8474,
      "Ġcrises": 8475,
      "odes": 8476,
      "Ġune": 8477,
      "Ġabstain": 8478,
      "Christian": 8479,
      "ati": 8480,
      "Ġyes": 8481,
      "Ġrough": 8482,
      "da": 8483,
      "ificial": 8484,
      "amps": 8485,
      "Ġneighbours": 8486,
      "Ġï¿½": 8487,
      "ĠNap": 8488,
      "ĠOnline": 8489,
      "Ġenvis": 8490,
      "Ġresc": 8491,
      "Ġdescribe": 8492,
      "Ġmedicines": 8493,
      "Ġedited": 8494,
      "Ã¢": 8495,
      "Ġresearc": 8496,
      "Ġvilla": 8497,
      "Ġcampaigns": 8498,
      "Ġingredients": 8499,
      "ĠPo": 8500,
      "ĠTem": 8501,
      "Ġcomposition": 8502,
      "ĠIndustry": 8503,
      "eller": 8504,
      "Ġgoverning": 8505,
      "Would": 8506,
      "ĠKong": 8507,
      "proof": 8508,
      "inery": 8509,
      "Bl": 8510,
      "uing": 8511,
      "ĠLtd": 8512,
      "ipt": 8513,
      "ĠInvest": 8514,
      "ĠHy": 8515,
      "Ġchapter": 8516,
      "Ġacceler": 8517,
      "Ġscheduled": 8518,
      "Ġsatisfactory": 8519,
      "Ġrend": 8520,
      "Ġscan": 8521,
      "BS": 8522,
      "Ġ1993": 8523,
      "Ġincident": 8524,
      "ĠMaria": 8525,
      "osit": 8526,
      "ĠAdd": 8527,
      "Ġenforcement": 8528,
      "apest": 8529,
      "eches": 8530,
      "ĠGreens": 8531,
      "gies": 8532,
      "ĠBM": 8533,
      "Ġtrig": 8534,
      "Ġcontextually": 8535,
      "Ġgrammatically": 8536,
      "Ġbought": 8537,
      "ulpt": 8538,
      "obe": 8539,
      "Ġchairman": 8540,
      "Ġconcentration": 8541,
      "Ġenjoys": 8542,
      "Ġaddressing": 8543,
      "Ġurgency": 8544,
      "Ġsplendid": 8545,
      "Ġratification": 8546,
      "ela": 8547,
      "ĠTim": 8548,
      "Ġjoining": 8549,
      "Ġcompulsory": 8550,
      "ĠRE": 8551,
      "Ġinspir": 8552,
      "Ġemployed": 8553,
      "Ġtourna": 8554,
      "Ġdollar": 8555,
      "Ġorganise": 8556,
      "ĠManager": 8557,
      "aga": 8558,
      "rowth": 8559,
      "ĠFisheries": 8560,
      "[[": 8561,
      "ĠProdi": 8562,
      "Ġsoul": 8563,
      "reshold": 8564,
      "âĢ¢": 8565,
      "ĠLuc": 8566,
      "Ġclassical": 8567,
      "Ġpoorest": 8568,
      "ĠSk": 8569,
      "ounds": 8570,
      "print": 8571,
      "ĠTerms": 8572,
      "igious": 8573,
      "add": 8574,
      "Ġmoreover": 8575,
      "aceutical": 8576,
      "arged": 8577,
      "Ġflag": 8578,
      "las": 8579,
      "zer": 8580,
      "Ġpainting": 8581,
      "Ġappointment": 8582,
      "Ġwed": 8583,
      "iones": 8584,
      "El": 8585,
      "Ġmerg": 8586,
      "urement": 8587,
      "ĠFundamental": 8588,
      "Ġremarkable": 8589,
      "68": 8590,
      "Ġinsuff": 8591,
      "Set": 8592,
      "adic": 8593,
      "ĠFranc": 8594,
      "ĠIntergovernmental": 8595,
      "oses": 8596,
      "Ġheads": 8597,
      "ĠCatal": 8598,
      "mod": 8599,
      "acht": 8600,
      "viously": 8601,
      "Ġju": 8602,
      "Ġaccounting": 8603,
      "ĠBox": 8604,
      "jud": 8605,
      "ĠEP": 8606,
      "oliday": 8607,
      "Ġheadqu": 8608,
      "cho": 8609,
      "Ġobserve": 8610,
      "Ġcinem": 8611,
      "Ġgross": 8612,
      "Ġhect": 8613,
      "Ġowned": 8614,
      "ferent": 8615,
      "ĠAuthority": 8616,
      "LO": 8617,
      "ropical": 8618,
      "rend": 8619,
      "Ġfoundations": 8620,
      "ker": 8621,
      "Ġreferences": 8622,
      "ĠBa": 8623,
      "Ġdiam": 8624,
      "ĠCustomer": 8625,
      "Ġtimetable": 8626,
      "Ġempty": 8627,
      "ician": 8628,
      "Ġenjoying": 8629,
      "ĠGarden": 8630,
      "Ġdeserves": 8631,
      "hard": 8632,
      "igital": 8633,
      "Ġaside": 8634,
      "creen": 8635,
      "Ġtaxi": 8636,
      "Ġtranslated": 8637,
      "Med": 8638,
      "ĠMosc": 8639,
      "âĢĻ,": 8640,
      "Ġconsiderations": 8641,
      "Ġconciliation": 8642,
      "Ġtechnique": 8643,
      "Ġcompletion": 8644,
      "ĠObama": 8645,
      "ĠSub": 8646,
      "Ġdebating": 8647,
      "Ġflav": 8648,
      "str": 8649,
      "Ġpersist": 8650,
      "Ġfavourable": 8651,
      "Ġultimate": 8652,
      "Ġmel": 8653,
      "ĠBet": 8654,
      "Ġboats": 8655,
      "Ġease": 8656,
      "ĠTeam": 8657,
      "Ġbearing": 8658,
      "Ġchief": 8659,
      "Non": 8660,
      "rot": 8661,
      "Ġexperim": 8662,
      "zza": 8663,
      "Ġcodecision": 8664,
      "ĠCuba": 8665,
      "Ġconscious": 8666,
      "ĠUp": 8667,
      "Ġlegend": 8668,
      "ĠFinn": 8669,
      "Ġfewer": 8670,
      "2008": 8671,
      "Ġincentives": 8672,
      "richt": 8673,
      "Ġintelligent": 8674,
      "Ġguaranteeing": 8675,
      "Ġsurprising": 8676,
      "Ġfascinating": 8677,
      "uter": 8678,
      "Ġmoder": 8679,
      "author": 8680,
      "Sw": 8681,
      "car": 8682,
      "Ġ800": 8683,
      "Ġnavigation": 8684,
      "Ġelectrical": 8685,
      "Ġattach": 8686,
      "Ġkill": 8687,
      "Ġpersu": 8688,
      "Ġjournalists": 8689,
      "Ġadmit": 8690,
      "Ġgenuinely": 8691,
      "Ġreinforce": 8692,
      "Ġdictators": 8693,
      "oric": 8694,
      "ĠGames": 8695,
      "acks": 8696,
      "Americ": 8697,
      "Ġpreferred": 8698,
      "Ġmo": 8699,
      "Ġconvert": 8700,
      "2003": 8701,
      "Ġstip": 8702,
      "Ġforemost": 8703,
      "ni": 8704,
      "orrect": 8705,
      "oked": 8706,
      "Ġsymp": 8707,
      "Ġbegun": 8708,
      "ĠEv": 8709,
      "ĠGen": 8710,
      "Ġsubsequently": 8711,
      "Ġcoastal": 8712,
      "Ġlegitimacy": 8713,
      "TS": 8714,
      "Ġ..": 8715,
      "including": 8716,
      "Ġtheatre": 8717,
      "Nor": 8718,
      "eper": 8719,
      "Ġbroken": 8720,
      "Ġupgrad": 8721,
      "Ġsuspect": 8722,
      "ĠFe": 8723,
      "ĠNetwork": 8724,
      "Ġthumbnail": 8725,
      "mo": 8726,
      "ĠDu": 8727,
      "rooms": 8728,
      "ĠMinistry": 8729,
      "High": 8730,
      "ĠdÃ©": 8731,
      "Ġmaybe": 8732,
      "Ġ>": 8733,
      "ĠSam": 8734,
      "ĠTar": 8735,
      "arer": 8736,
      "Ġinspe": 8737,
      "ĠKyoto": 8738,
      "Ġboasts": 8739,
      "Ġmixed": 8740,
      "Ġrefused": 8741,
      "ĠNews": 8742,
      "Ġrepeatedly": 8743,
      "stan": 8744,
      "Ġthreshold": 8745,
      "Ġwinning": 8746,
      "Ġinadequate": 8747,
      "Ġalter": 8748,
      "Ġactors": 8749,
      "ĠServer": 8750,
      "Ġunnecessary": 8751,
      "Ġblow": 8752,
      "ĠQue": 8753,
      "Ñĭ": 8754,
      "Ġauthors": 8755,
      "ĠSecond": 8756,
      "Disc": 8757,
      "ĠGr": 8758,
      "Ġspeeches": 8759,
      "Ġfreight": 8760,
      "oms": 8761,
      "Ġbug": 8762,
      "Ġoppon": 8763,
      "Ãª": 8764,
      "erne": 8765,
      "ouses": 8766,
      "Subject": 8767,
      "Good": 8768,
      "Ġmoments": 8769,
      "Ġneighbourhood": 8770,
      "Ġwear": 8771,
      "Ġrespects": 8772,
      "ĠAcademy": 8773,
      "Ġwife": 8774,
      "Ġexposed": 8775,
      "Ġluck": 8776,
      "Ġimportantly": 8777,
      "Ġcharacteristic": 8778,
      "Ġchat": 8779,
      "ĠInf": 8780,
      "Ġsizes": 8781,
      "Ġseemed": 8782,
      "Ġcancellation": 8783,
      "umes": 8784,
      "othes": 8785,
      "ĠCF": 8786,
      "ĠFamily": 8787,
      "Serv": 8788,
      "raid": 8789,
      "olved": 8790,
      "ĠMult": 8791,
      "Ġintentions": 8792,
      "Ġextract": 8793,
      "Ġexpenses": 8794,
      "Ġportal": 8795,
      "Ġincomp": 8796,
      "ĠLam": 8797,
      "Ġmanagers": 8798,
      "Ġfost": 8799,
      "Ġsecondary": 8800,
      "rick": 8801,
      "Ġelectron": 8802,
      "Ġmarine": 8803,
      "ĠKh": 8804,
      "Ġbusy": 8805,
      "Ġrepresenting": 8806,
      "Ġgirls": 8807,
      "Based": 8808,
      "ĠHong": 8809,
      "Ġrain": 8810,
      "everal": 8811,
      "eneration": 8812,
      "Ġfaces": 8813,
      "Ġchecked": 8814,
      "Ġdramatic": 8815,
      "Ġcompete": 8816,
      "Ġautumn": 8817,
      "spec": 8818,
      "Ġeconomically": 8819,
      "Ã©e": 8820,
      "ĠPass": 8821,
      "soever": 8822,
      "ĠJewish": 8823,
      "Ġunderlying": 8824,
      "Ġsheet": 8825,
      "ĠIMF": 8826,
      "Ġhaz": 8827,
      "Ġinstantly": 8828,
      "Ġmur": 8829,
      "Ġreass": 8830,
      "ĠEc": 8831,
      "Ġsplit": 8832,
      "Ġsmart": 8833,
      "CE": 8834,
      "Ġoperated": 8835,
      "Ġprincipal": 8836,
      "asp": 8837,
      "CS": 8838,
      "Ġmig": 8839,
      "urities": 8840,
      "ĠWomen": 8841,
      "ĠHostels": 8842,
      "ĠBra": 8843,
      "Ġresidential": 8844,
      "Ġvocational": 8845,
      "Ġtragic": 8846,
      "Ġsorry": 8847,
      "ĠRef": 8848,
      "Ġinvo": 8849,
      "Ġopenness": 8850,
      "ĠFlorence": 8851,
      "Ġslopes": 8852,
      "Ġpools": 8853,
      "ville": 8854,
      "Ġweakness": 8855,
      "Ġbiod": 8856,
      "Ġjointly": 8857,
      "ĠGra": 8858,
      "Ġdoctor": 8859,
      "2002": 8860,
      "Ġnewsletter": 8861,
      "Ġamending": 8862,
      "Ġpump": 8863,
      "Ġhung": 8864,
      "Ġchart": 8865,
      "ĠEmployment": 8866,
      "Ġexpanded": 8867,
      "ROM": 8868,
      "Ġinformal": 8869,
      "ictions": 8870,
      "GB": 8871,
      "arians": 8872,
      "ĠPlease": 8873,
      "ĠDiv": 8874,
      "erto": 8875,
      "Ġscand": 8876,
      "Ġexamination": 8877,
      "ĠAlps": 8878,
      "TR": 8879,
      "Ġlively": 8880,
      "Ġlect": 8881,
      "imedia": 8882,
      "Ġcomplaints": 8883,
      "oni": 8884,
      "Ġdro": 8885,
      "rators": 8886,
      "aundry": 8887,
      "ĠLeban": 8888,
      "Ġpurchased": 8889,
      "Ġtravellers": 8890,
      "VI": 8891,
      "Ġ37": 8892,
      "UM": 8893,
      "endo": 8894,
      "via": 8895,
      "Ġlistening": 8896,
      "ungs": 8897,
      "Ġescape": 8898,
      "ĠSlovakia": 8899,
      "55": 8900,
      "ĠWell": 8901,
      "Ġsuggests": 8902,
      "Ġoccupation": 8903,
      "ĠWednesday": 8904,
      "cal": 8905,
      "Ġletters": 8906,
      "Ġwillingness": 8907,
      "Ġyield": 8908,
      "Ġaccordingly": 8909,
      "Ġjurisdiction": 8910,
      "Pre": 8911,
      "Ġcater": 8912,
      "Ġtextile": 8913,
      "Ġdevoted": 8914,
      "Ġpossess": 8915,
      "Ġinsufficient": 8916,
      "ĠBosnia": 8917,
      "Ġclarity": 8918,
      "Bel": 8919,
      "Ġarranged": 8920,
      "Using": 8921,
      "amin": 8922,
      "Ġ120": 8923,
      "ĠAnge": 8924,
      "Ġsample": 8925,
      "Ġdisturb": 8926,
      "Ġinvent": 8927,
      "Ġswit": 8928,
      "Ġmotorway": 8929,
      "ĠDepartment": 8930,
      "acific": 8931,
      "Ġ600": 8932,
      "Ġforecast": 8933,
      "}})": 8934,
      "Ġtragedy": 8935,
      "Ġterrible": 8936,
      "ĠPlaza": 8937,
      "Ġlogic": 8938,
      "Ġfolder": 8939,
      "Ġpour": 8940,
      "Ġownership": 8941,
      "Ġfeaturing": 8942,
      "dule": 8943,
      "conf": 8944,
      "Ġexcursions": 8945,
      "Ġclicking": 8946,
      "Ġaccessories": 8947,
      "Ġstaying": 8948,
      "beit": 8949,
      "illance": 8950,
      "07": 8951,
      "Ġbread": 8952,
      "Ġein": 8953,
      "Ġdup": 8954,
      "ĠHist": 8955,
      "Ġinspection": 8956,
      "Ġwave": 8957,
      "enery": 8958,
      "ĠIndones": 8959,
      "Ġsteam": 8960,
      "Ġbranch": 8961,
      "Ġsacr": 8962,
      "TER": 8963,
      "law": 8964,
      "Ġreward": 8965,
      "Ġbigger": 8966,
      "asion": 8967,
      "Ġdestinations": 8968,
      "Ġstrike": 8969,
      "national": 8970,
      "inational": 8971,
      "ikes": 8972,
      "ĠHeads": 8973,
      "asting": 8974,
      "lich": 8975,
      "Ġoptimal": 8976,
      "olitical": 8977,
      "Ġfifth": 8978,
      "Ġsimultaneously": 8979,
      "Ġcomposed": 8980,
      "Ġmeasurement": 8981,
      "BC": 8982,
      "ĠAP": 8983,
      "2006": 8984,
      "udes": 8985,
      "Ġspectrum": 8986,
      "uct": 8987,
      "Ġexpressly": 8988,
      "Man": 8989,
      "ilation": 8990,
      "emed": 8991,
      "ords": 8992,
      "Ġgrat": 8993,
      "Ġcontinuously": 8994,
      "Ġplate": 8995,
      "Ġrevised": 8996,
      "Ġfo": 8997,
      "Ġafraid": 8998,
      "Look": 8999,
      "arest": 9000,
      "Ġcertified": 9001,
      "ĠMel": 9002,
      "formance": 9003,
      "Ġwhatsoever": 9004,
      "Cent": 9005,
      "bre": 9006,
      "ĠUSD": 9007,
      "Ġoppose": 9008,
      "uj": 9009,
      "Ġdoubts": 9010,
      "ĠMoscow": 9011,
      "pie": 9012,
      "ando": 9013,
      "Ġartificial": 9014,
      "Ġrecall": 9015,
      "Ġcalendar": 9016,
      "Ġsunny": 9017,
      "arsh": 9018,
      "ĠPhil": 9019,
      "Ġdynam": 9020,
      "Ġaffecting": 9021,
      "annes": 9022,
      "Ġpromoted": 9023,
      "bi": 9024,
      "Ġmanufactured": 9025,
      "Ġcertification": 9026,
      "Ġaqu": 9027,
      "ĠJean": 9028,
      "Ġassert": 9029,
      "Ġfinds": 9030,
      "Ġtransaction": 9031,
      "bel": 9032,
      "Ġelder": 9033,
      "ĠGood": 9034,
      "ĠViet": 9035,
      "Ġasset": 9036,
      "Ġfalse": 9037,
      "ga": 9038,
      "ĠNav": 9039,
      "ĠVict": 9040,
      "ĠDavid": 9041,
      "Ġexamined": 9042,
      "Ġmodify": 9043,
      "Ġdiving": 9044,
      "47": 9045,
      "Ġgift": 9046,
      "Ġunity": 9047,
      "ĠInternal": 9048,
      "Ġbaby": 9049,
      "Ġintense": 9050,
      "Smoking": 9051,
      "Ġforgotten": 9052,
      "Ġmine": 9053,
      "Ġinfo": 9054,
      "ĠMorocco": 9055,
      "Ġconj": 9056,
      "ĠBre": 9057,
      "ĠRh": 9058,
      "Ġdeadline": 9059,
      "Bet": 9060,
      "ĠSalzburg": 9061,
      "Ġstopped": 9062,
      "Four": 9063,
      "ulates": 9064,
      "ĠZur": 9065,
      "field": 9066,
      "atural": 9067,
      "arious": 9068,
      "ĠGar": 9069,
      "ĠLand": 9070,
      "ĠNik": 9071,
      "Ġupload": 9072,
      "Ġtransfers": 9073,
      "Ġpaths": 9074,
      "Mod": 9075,
      "leted": 9076,
      "Ġbasically": 9077,
      "Ġdelays": 9078,
      "Ġstressed": 9079,
      "Ġsovereign": 9080,
      "Ġremoval": 9081,
      "Ġbelongs": 9082,
      "ĠPalestinians": 9083,
      "UL": 9084,
      "conditioning": 9085,
      "Ġfell": 9086,
      "Ġrefuse": 9087,
      "ĠGeorge": 9088,
      "Ġinner": 9089,
      "Ġspecially": 9090,
      "Ġtariff": 9091,
      "à¸": 9092,
      "ĠNaz": 9093,
      "Ġnobody": 9094,
      "ĠConc": 9095,
      "Ġgranting": 9096,
      "Ġvacc": 9097,
      "ashington": 9098,
      "Ġicon": 9099,
      "Ġbeef": 9100,
      "ipher": 9101,
      "Ġtransitional": 9102,
      "athy": 9103,
      "Ġdriven": 9104,
      "born": 9105,
      "Ġperpet": 9106,
      "Ġsake": 9107,
      "agon": 9108,
      "Ġphotograp": 9109,
      "Ġtang": 9110,
      "Ġring": 9111,
      "Ġlosing": 9112,
      "Ġtrouble": 9113,
      "Ġfrequency": 9114,
      "speed": 9115,
      "Ġrubber": 9116,
      "session": 9117,
      "Ġriding": 9118,
      "Ġsculpt": 9119,
      "Ġintegrity": 9120,
      "Ġinstallations": 9121,
      "rison": 9122,
      "Ġelectoral": 9123,
      "Ġconvenience": 9124,
      "ogen": 9125,
      "Ġknew": 9126,
      "Ġsoldiers": 9127,
      ".)": 9128,
      "Ġbot": 9129,
      "Ġresidents": 9130,
      "Ġdeclare": 9131,
      "Ġstead": 9132,
      "Ġcommod": 9133,
      "ĠLeft": 9134,
      "Ġ1970": 9135,
      "Ġpace": 9136,
      "iera": 9137,
      "Ġ1991": 9138,
      "Ġparks": 9139,
      "rator": 9140,
      "Ġfocuses": 9141,
      "Ġarrangement": 9142,
      "Ġdimensions": 9143,
      "Ġplain": 9144,
      "Ġcollapse": 9145,
      "Ġbehavior": 9146,
      "irts": 9147,
      "Ġethical": 9148,
[...]
