#version: 0.2
e n
e r
i n
Ġ a
Ġ t
Ġ d
c h
e s
o n
Ġt h
u n
i t
i s
Ġ s
Ġ w
a t
i e
o r
a n
Ġth e
r e
Ġ b
Ġ o
a l
a r
Ġ in
Ġ f
i ch
Ġ m
t e
i on
Ġ e
Ġa n
u r
a s
l e
Ġ p
Ġ c
Ġ un
Ġ h
u s
g e
en t
Ġo f
r o
Ã ¼
Ġ n
Ġ S
Ġ v
in g
un g
Ġan d
Ġt o
Ã ¤
l l
e d
Ġd ie
o m
Ġd er
Ġun d
i g
s t
i c
Ġb e
Ġ A
Ġ is
Ġ E
Ġe in
i r
Ġ z
i m
Ġ g
e l
Ġ M
Ġ P
u t
r a
Ġ B
t er
e m
i l
t en
o l
at ion
d er
e it
e t
Ġ l
a m
d en
Ġ re
Ġ I
h r
i es
u m
Ġ F
o p
Ġ G
c t
s ch
Ġ K
u l
Ġ k
u f
Ã ¶
b er
i v
d e
l ich
Ġ R
Ġ C
Ġf or
a b
o t
Ġ T
Ã¼ r
is ch
Ġ H
Ġ V
ich t
i er
g en
Ġ D
Ġd as
Ġ on
Ġz u
Ġ W
er e
Ġd en
l y
es t
es s
Ġth at
o s
h e
an d
i d
Ġ L
c e
om m
er s
e in
Ġa l
Ġp ro
o w
Ġw h
a ch
Ġv on
Ġ r
or t
Ġ ge
u ch
Ã Ł
Ġ im
Ġs t
Ġ y
it h
Ġ U
Ġw ir
k t
i f
Ġc on
Ġis t
Ġv er
Ġ er
Ġw ith
v er
Ġa uf
Ġw e
Ġf Ã¼r
ur op
a y
i ll
Ġd es
Ġ it
v e
Ġm it
a d
Ġa re
t s
in d
Ġa s
c k
Ġs o
â Ģ
Ġd e
Ġn e
is s
Ġy o
Ġ 1
Ġ N
Ġd ies
t r
en d
a f
p p
ĠE urop
at e
m ent
i k
Ġ Z
Ġ (
Ġs e
q u
T he
t h
ung en
l a
0 0
isch en
Ġ 2
n en
m en
i b
Ġal s
ĠS t
Ġein e
a k
Ġe x
n e
ĠV er
f or
Ġd em
Ġth is
it y
ĠI n
Ġh a
an t
i en
iv e
i al
a h
is t
Ġ or
Ġ j
ar t
Ġn icht
p e
un d
Ġw er
u g
Ġc o
Ġn ot
an n
Ã¼ ber
s te
ĠU n
Ġs ich
Ġa ll
Ġ le
Ã¤ n
u b
f f
Ġwer den
Ġ -
te l
Ġ J
w e
Ġb y
Ġha ve
a g
Ġdas s
ro m
ĠR e
ĠS ie
ig en
Ġa t
ig h
ĠA n
us t
Ġ es
as s
en s
Ġa us
a in
al l
ul d
Ġyo u
u p
s p
Ġw ill
o d
Ġa b
Ġc om
Ġun s
ie l
er n
Ġ Ã¼ber
a us
u re
Ġ i
Ġs h
Ġm e
z e
Ġwh ich
a ge
ion s
omm iss
te d
Ġw as
Ġa uch
Ġ O
b en
r an
l ie
h en
D ie
ĠP r
Ġf rom
a hr
h al
ung s
d u
o ch
ĠEurop e
ar d
Ġ um
ĠS ch
o uld
Ġs ind
Ġ us
ter n
Ġ ch
Ġs ch
ommiss ion
id ent
o g
I n
Ġp r
. .
ĠP ro
Ġ ent
f er
Ġ âĢ
Ġv or
Ġwir d
us s
es ch
u e
Ġh as
Ġh ab
sch af
i p
f t
i z
m er
p ort
in e
Ġw or
T h
g r
Ã¶ n
s s
u d
Ġr es
Ġ en
an g
o c
ĠE n
ll en
o us
isch e
ic k
o k
Ġd a
Ġw ie
en n
as t
Ã¤ t
ĠB e
o ur
ĠP ar
Ġh e
Ġc an
m e
ur ch
Ġm an
is e
ab le
et z
Ġa m
er r
for m
i re
i ge
k eit
Ġh at
Ġ ich
Ġs ein
p r
o st
a p
Ġo der
er t
Ġo ur
am ent
i a
ĠA r
b e
or e
o tel
c c
er v
Ġcom p
Ġz ur
ul t
Ġals o
b eit
ation s
ĠEurope an
ĠE r
Ġhab en
Ġs ie
ct ion
ation al
h er
ic al
h eit
it ion
Ġa d
es e
ĠA us
lich en
ic e
at ed
l o
a re
o ut
der n
Ġbe i
Ġd o
Ġein er
Ġk Ã¶n
om e
Ġ "
s e
r it
ol it
r u
at en
t z
h l
th er
ar k
or d
f Ã¼
e ct
ier en
p t
Ġun ter
Ġ Ã
Ġ2 00
is h
Ã¼ n
Ġn ach
Ġ qu
a c
' s
Ġein en
ĠG e
h t
schaf t
m s
ig n
Ġp art
te t
ĠPar l
Ã¤ r
ier t
Ġyo ur
igh t
el t
ĠUn ion
Ġit s
ĠM it
at es
v el
o un
ak e
Ġt e
t ra
e ar
Ġre g
it e
Ġd urch
Ġg ro
i an
a u
an k
g er
f en
Ġs u
y ste
Ġs p
Ġb ut
Ġw ur
em ber
ar y
Ġ ro
Ġa g
i de
Ġg o
o ll
c ial
ĠkÃ¶n nen
Ġth ere
ĠB er
lich e
g t
p er
Ã¤ s
W e
Ġa pp
os e
c on
h re
Ã¶ r
Ġd is
Ġd ar
ĠE in
Ġs te
an z
ch t
Ġt ra
Ġw ar
ĠE U
u al
ĠF ra
D as
ch en
ĠC ommission
ĠV or
c l
im e
Ġs pe
Ġw ould
er en
Ġ 3
Ġm Ã¶
an ce
Ġm ore
t w
a il
o v
i le
Ġz um
ĠA b
Ġthe ir
Ġein em
Ġ1 9
omm en
Ġbe en
m p
Ġg en
Ġb es
Ġcon t
re at
g lich
im m
u te
as e
u ÃŁ
am e
on g
a ct
ch n
ch te
ĠEurop Ã¤
Ġa r
I ch
ĠâĢ ĵ
il d
ut z
g ra
Ġk ann
âĢ Ļ
Ã¼ ck
os s
Ġf in
b le
ch e
Ġon e
a ck
Ġdies e
Ġa cc
Ã¼ ss
on t
Ġn ur
ug h
on e
ĠW e
ent s
Ġp er
Ġco un
ĠT e
Ġc omm
Â ł
ĠG r
g an
st en
g es
h n
Ġsh ould
Ġal le
Ġbe t
ah l
Ġp l
Ġwor k
p l
w er
ik e
ut ion
Ġne w
ĠD e
ge b
ein e
Ġ .
ier ung
Ġ up
ĠS p
Ġ ,
ĠL e
Ġc l
o b
W ir
Th is
ĠUn ter
z u
a uf
el y
h men
l and
re e
ĠC h
I t
hr en
Ã¤s ident
kt ion
t o
Ġo ut
Ġdies er
a v
Ġo b
n er
ig keit
r ie
ĠH otel
ĠJ ahr
l ic
l d
ol le
Ġj ed
on s
re ich
Ġp re
.. .
ing s
Ġver y
Ġcoun tr
Ġin d
Ġm ust
Ġwh o
Ġin ter
k e
Ġz w
Ġo ther
ĠK ommission
Ġda ÃŁ
b ar
Ġn och
ĠPr es
Ġpro du
it ies
form ation
Ġm a
Ã¤ hr
Ġe v
m it
Ġthe y
ĠM r
Ġp e
in k
Ġw eit
Ġne ed
gra m
c es
p ro
ĠH err
w o
or s
Ġwur de
at er
te ll
ment s
D er
Ġn o
Ġb er
Ġme hr
Ġso ll
sch en
Ġon ly
Ġin tern
Ġy ear
Ġf e
Ġcon s
ge l
Ġbe c
Ġsu pp
Ġl ike
ĠA uf
Ġst r
Ġa ber
p le
ol og
o in
g lie
Ġt ime
yste m
Ġab out
Ġw enn
Ã¼ss en
te il
f e
p os
ĠPr Ã¤sident
Ġp olit
E s
ib le
ent r
Ġan y
ĠS e
ĠPres ident
i ous
D ies
ass en
c ed
an ge
u en
Ġg es
Ġpro v
Ġ 5
) .
le ich
Ġse hr
x t
Ġm Ã¼ssen
vel op
l in
er m
Ġt ran
al ly
j ect
en z
it Ã¤t
Ġuns er
al t
Ġw o
Ġ 4
n ah
c ess
Ġe ff
Ġs ow
h nen
Ġb is
i ament
ĠRe g
an s
Ġ ra
ar beit
Ã¼ tz
on der
Ġth ese
ĠParl ament
i ent
am men
r at
ĠAr beit
Ġre c
Ġs erv
i o
Ġs ol
Ġd ire
Ġof f
ul ar
for e
at z
ow n
Ġv ie
f ahr
Ġh in
ie d
ib t
le d
il ity
Ġim port
us ammen
ĠMit glie
at ive
al s
Ġdies em
p h
Ã¤ l
ers on
st it
Ġt r
ir st
i der
op le
r ing
aus e
ur es
ĠM ember
st a
ÃŁ en
ig t
ĠM en
Ġge gen
Ġ if
Ġde velop
c y
Ġl a
Ġs uch
hal ten
w end
Ġre port
is m
f ol
o ok
ay s
Ã¤n d
f l
Ġa ct
Ġi hre
un den
ĠEuropÃ¤ ischen
w n
sch e
Ġp ol
ĠA l
Ġg r
etz t
ig er
Ġs ub
ĠT h
iv en
d ition
ate g
Ġm y
k s
if ic
Ġin s
it u
Ġre l
w or
Ġo ver
al e
ne hmen
ĠZ eit
Ġin to
Ġw ere
Ġpe ople
ĠM a
ĠF or
ĠT he
Ġi hr
fÃ¼ hr
k te
st r
Ġwe ll
ic es
c re
Ġge m
i den
Ã ©
Ġb est
Ġ2 0
Ġintern ational
ĠParl iament
k en
er g
ir t
) ,
Ġs ome
b s
em ent
U n
Ġv iel
ĠmÃ¶ chte
Ġwh at
o u
Ġus e
l ung
c il
ach t
en den
Ġin v
is ten
ľ ber
Ġs a
en e
Ġd if
Ġh ier
ĠSt ates
con om
Ġm ark
ar ge
ĠMitglie d
A n
Ġh igh
ich er
Ġh er
f r
urop Ã¤
Ġein es
us tr
am en
Ġk n
ĠM ar
re i
ver y
Ġh otel
ĠC oun
or y
Ġb ed
u ll
Ġf irst
Ġl oc
Ġge w
Ġcountr ies
Ġin cl
Ġv om
Ġth an
Ġm ost
ent ion
z eit
Ġh is
Ġh el
Ġw icht
Ġwh en
olit ik
Ġde c
it te
at ing
es ent
Ġl ie
Ġpart ic
ie t
pe ct
Ġv ers
Ġthe m
Ġund er
ĠO r
a ce
ard s
in n
ag es
it z
ĠCoun cil
l es
Ġd am
Ġj ust
et t
s icht
Ġsow ie
Ġw el
Ġpol ic
at t
on d
Ġe le
ĠMen schen
Ġag ain
Ġn ow
ab e
Ġe uropÃ¤
ĠEn tw
ĠU m
t re
Ġsupp ort
e ver
Ġdies es
Ġg u
ĠK on
Ġb as
Ġm ake
igh ts
l Ã¤
Ġimport ant
Ã¤n der
at s
we en
Ġa ut
ĠBer icht
h o
Ã¤ ch
el s
Ġp la
Ġg ibt
hal t
ĠÃ ľber
ĠL and
Ġman y
k l
u es
Ġro om
Ġh ow
ess en
k ommen
Ġbet ween
st Ã¼tz
Ġas s
f in
Ġe conom
j e
Ġpro pos
ot h
ĠM e
h and
Ġf r
Ġre qu
hal b
Ġm o
an y
f ter
Ġte chn
Ġ Q
iss en
Ġp oss
iv es
Ġbec ause
sta aten
b st
ig ung
en ce
w are
lie ÃŁ
ur al
ter s
Ã¶ s
ĠC omm
Ġzw ischen
Ġle g
d r
Ġt ake
Ġber eit
Ġf re
le gen
m al
Ã¶ glich
z ie
Ġk on
ub lic
Ġp os
o te
Ġmark et
Ġwor ld
u er
ĠVer b
ar m
f ul
Ġ 6
ĠEntw ick
Ġc re
Ġ '
Ġm uss
ĠB ed
oin t
c ted
Ġf o
ro ugh
Ġf ind
ble m
o ff
at h
z ial
ĠF l
m in
ic t
Ġs el
w eit
am p
h Ã¶r
le ar
Ġo p
Ġuns ere
Ġp ar
Ġs on
oun t
d em
Ġn ational
Ġwh ere
Ġm in
Ġk eine
Ġgo od
ĠP l
ĠN e
om p
al ity
d it
A l
n is
Ġh and
ra g
Ġg reat
Ġb ie
Ġt wo
âĢ ľ
Ġa v
Ġn at
Ġin formation
esch Ã¤
ur ing
ur n
Ġe mp
ĠS tr
ĠI hnen
ra uch
ach en
ver n
ĠG es
ĠIn tern
i um
ĠEn t
Ġh ad
S ie
Ġre m
Ġe very
Ġein z
Ã¶ ff
Ġma de
Ġver b
ĠM in
Ġyear s
Ġcon c
ÃŁ e
a ut
s el
Ġand eren
am il
Ġm ein
h m
ro l
st and
ĠPro du
un kt
ĠU S
Ġ end
Ġev en
ĠAr t
sch ie
la ub
Ġth rough
f ort
Ġw ay
B e
ce pt
Ġis s
a ir
ge ben
ĠGr und
Ġge t
Ġs ystem
Ġth ose
Ġprodu ct
is ion
ch ten
isch er
Ġse e
ĠMitglied staaten
for der
ess ion
gen d
ere ich
is ter
Ġs c
g ung
Ã¤l t
ste ll
l ish
Ġan ge
Ġweit er
w s
ĠI hre
im mer
ĠS o
Ġ19 9
ur r
y s
in a
d ay
ow er
gan is
la g
Ġim mer
we ise
Ġor der
ow s
ĠÃ Ħ
ĠZ usammen
Ġt ak
Ġm ay
ere in
ĠâĢ ŀ
uÃŁ er
Ġpolic y
l ick
Ġdire ct
Ġdis c
ĠEurop a
um ent
Ġd ann
um an
sp r
st er
h ne
Ġr ight
itu ation
Ġa c
un ity
r if
Ġbe ing
I f
ĠR at
ĠVor sch
iv ers
all s
Ġn um
Ġf act
Ġbe g
ch ts
Ġbes te
Ġ 7
it ed
it al
is en
Ġr est
Ġk e
00 0
1 0
er ation
Ġc ar
I m
Ġbe lie
Ġdies en
âĢ Ŀ
Ġpartic ular
Ġapp ro
Ġwie der
Ġdif fer
Ġdam it
nah men
c om
ĠF r
Ġc ent
n ung
Ġco ur
g est
Ġg er
ion en
it t
Ġ1 0
i or
Ġwur den
Ġz we
ĠH aus
v or
Ġincl ud
Ġ 8
Ġtran s
Ġg anz
p art
Ġo wn
a ur
Ġg esch
ĠB ereich
Ġ [
Ġpro cess
Ġf Ã¼
ein s
iss e
o ugh
r y
icher heit
Ġres p
a de
ad t
in ess
Ġd el
Ġkn ow
el n
ge t
in nen
Ġm on
re ad
ze ich
b al
at ter
ĠW elt
ous e
tra g
ĠD ie
ol d
gram m
Ġare a
Ġb us
E in
el le
Ġqu est
l er
Ã¤n dern
Ġm ain
stit ution
W enn
a z
o y
Ġp h
Ġb u
schie den
Ġk ein
h in
Ġunser er
z en
o ol
Th ere
it Ã¤
Ġag re
al k
Y ou
ro und
re chen
ĠG ro
Ġhab e
i x
ĠH and
Ġh ere
Ġre al
ĠâĢ ľ
Ġhel p
ĠGe b
Ġs m
Ġson dern
et h
schaf ts
p iel
Ġst and
Ġa fter
Ġcomp le
Ġsein e
ur s
le g
Ġjed och
Ġde b
r es
in ce
Ġfor m
est s
g esch
ĠH e
eit e
M r
Ġpla ce
te gr
Ġpolit ical
ru ck
Ġex p
Ġg ut
Ġp ublic
ĠEuropÃ¤ ische
Ġi de
el d
m b
Ġconc ern
Ġposs ible
ĠI hr
Ġpro te
is tr
Ġin cre
a x
mit tel
v ed
Ġs ame
en de
Ġ 9
er k
ĠE x
ent ly
ĠB Ã¼r
Ġs im
Ġaus ge
Ġs er
Ġc lear
Ġe tw
ir on
kt iv
at a
F or
Ġw Ã¼r
Ã¶glich keit
b ens
ier te
sch lieÃŁ
er al
ĠF in
Ġh uman
t al
Ġne ue
Ġco uld
Ġw ant
in es
ĠIn ter
ten s
Ġbe f
Ġd r
Ġhe ute
l ine
ĠB es
Ġnum ber
f ach
ĠG em
ĠIn formation
Ġs ay
la gen
Ġcont in
n der
Ġof fer
Ġp erson
A s
Ġdo es
v en
Ġg leich
Ġth en
Ġ est
Ġc urr
ic s
ert ain
Ġdevelop ment
Ġwith in
us e
Ġo pp
ĠB ar
Ġeff ect
an ts
is k
tr Ã¤
it i
Ġw en
ĠB r
Ġr ights
ÃŁ nahmen
Dies e
tell t
e p
ra ft
ĠSt a
Ġbereit s
ĠK olle
ĠUnter nehmen
ost en
Ġav ail
ĠTe il
Ġf est
Ġtran sp
ur o
Ã¤ hl
M it
Ġagain st
Ġsel bst
Ġex am
y p
Ġm ich
Ġo hne
a up
al en
H err
h ip
Ġm uch
an der
Ġf und
m a
Ġeconom ic
Ġus ed
Ġb oth
b es
Ġv is
Ġv al
la ge
ĠÃĦ nder
Ġthere fore
ĠIn d
Ġpro f
ic ult
ĠEntwick lung
ĠF re
Âł Âł
Ġl ang
Ġwicht ig
W h
Ġihr er
ent lich
st ru
ĠSch l
Ġs ur
Ġsoll te
ut ions
Ġle vel
f ern
o ck
Ġv ar
r Ã¤
Ġh ist
Ġs ign
if e
qu e
ier ten
ust om
ft ware
lo y
Ġne uen
Ġ ...
s etz
Ġm ed
d s
ĠeuropÃ¤ ischen
v iron
Ġe qu
er ung
Ġreg ion
Ġp ra
Ġ1 5
ĠS te
ul ation
ĠF ran
Ġb ring
Ġf un
iv id
st Ã¤nd
ĠC on
Ġpl ay
u x
af f
Ġf ull
lo bal
en g
Ã¤ re
ĠJahr en
Ġprov id
Ġand ere
s atz
Ġb o
ĠR icht
ur g
reich en
Ġc r
e ut
ĠG erm
fahr en
Ġso cial
ĠH er
w ay
Ġzwe i
Ġcountr y
ical ly
age ment
n et
Ġe igen
itte e
Ġb re
Ġth ink
Ġden n
Ġvie w
Ġcon f
eit en
w ert
Ġgro up
Ã¶ ÃŁ
Ġl ast
E r
it s
ĠV ers
Ġwith out
Ġp oint
Ġst ill
Ġle tz
Ġex per
wor k
viron ment
et s
Ġfin an
w ick
ke hr
tr ib
lich er
ich te
Ã¤n g
un der
Ġme as
imm t
Ġden en
ĠP re
Ġ Y
Ġ ens
Ġo per
b r
w ir
c ur
Ġcons ider
ess e
p ar
ĠFra u
iv er
o ver
S t
Ġsoll ten
Ġdiffer ent
at or
Ġserv ices
Ġfin den
g ar
Ġad v
Ġacc ess
ff en
nah me
Ġl ong
ĠS icherheit
Ġgem eins
ĠmÃ¶ glich
m an
Ġm od
ĠFra ge
ĠN ach
f ra
Ġo pt
Ġpr iv
E R
es en
i ze
Ġver schieden
is ts
w ort
Ġspe c
l im
Ġ ers
o hl
ĠB et
onder e
h or
ĠA s
entr al
Ġ1 8
ze ug
Ã¤hr end
Ġd own
n ess
ĠM on
Ġf ree
Ġpr in
ation en
Ġat t
oll ow
Ġavail able
H ow
Ġge l
op e
r icht
w ar
Ġab le
Ġrequ ire
ak ing
Ġunter stÃ¼tz
Ġb ack
u de
ĠBÃ¼r ger
Ġ1 2
Ġc ap
ut ure
or te
Ġgo vern
Ġind ustr
h ol
ib ility
Ġbie tet
rit t
Ġk le
ĠW irt
read y
a kt
ĠD aten
is ed
z ahl
i ÃŁ
p f
ur ther
Ġspe cial
at ur
Ġbus iness
t ing
ab ility
k un
ien ce
Ġda zu
v ers
yste ms
al th
ĠP erson
ĠH in
y n
Ġbe fore
Ġl ook
ĠZ u
Ġsm all
ge m
ĠK ont
Ġc ustom
Ġlie gt
Ġall en
Ġm achen
af Ã¼r
is piel
Ġvie le
ĠF e
pp en
ien st
Ġal ready
l oss
Ġb en
Ġwe il
Ġp ers
Ġg est
ĠP art
Ġbelie ve
Ġf uture
Ġall er
O n
ah men
Ġz e
Ġbe k
Ġc or
ab en
ĠK ommiss
Ġa ir
un e
w ard
te m
in s
ah re
pr ess
il t
der s
2 00
Ġs om
con d
S o
as ed
ct ions
Ġsein er
ĠMit tel
ct or
Ġh al
] ]
kt ur
v es
A ll
z ug
Ġcour se
Ġop en
ann t
Ġdar auf
Ġdes ign
Ġpro ject
gram me
Ġto day
k ten
an te
ese ll
Ġs et
j or
ĠI s
w elt
Ġj etzt
Ġin st
ĠkÃ¶n n
a gen
Ġto o
v ing
Ġproduct s
ĠM Ã¶glichkeit
ĠA m
Ġserv ice
Ã¤ ÃŁ
ism us
Ġe t
Ġc ann
Ã¤ h
r on
ah er
Ġe ing
ĠSt and
ĠA ut
Ġen vironment
Ġgr Ã¶ÃŁ
ĠTh em
Ġf l
om en
Ġresp ons
h Ã¤lt
it iz
ic a
c r
Ġc ertain
in ation
Ġcann ot
ll t
Ġf ac
ĠR ahmen
z us
n isse
r en
ĠFin anz
Ġd ata
Ġge b
m ar
ten d
Ġge ht
Ġsch on
ot her
cur ity
Ġpre v
ater ial
Ġm ir
c ome
le ase
Ġein fach
Ã¶ l
ĠL age
ĠMa ÃŁnahmen
Ġf ollow
Ġf ra
Ġc ase
Ġb ro
Ġb in
at ely
ol ution
ĠT ra
ch ie
op eration
Ġre du
c o
ok rat
Ġind ivid
2 0
iv ing
Ġin t
kl Ã¤r
Ġoff ers
l os
Ġne g
ar s
ĠZ iel
Ġein ige
Ġreg ard
ol id
Ġp ut
Ġd afÃ¼r
or n
re d
Ġquest ion
t ain
ĠInformation en
abe i
E N
ĠV erein
Ġe as
ĠRe chts
ra ph
Ġim pro
Ġs eit
Ġar t
in al
Ġv oll
ĠGem ein
ĠM ed
cc ess
Th at
Ã¤t z
af fen
Ġt er
erv ice
Ġj e
ent ial
ual ly
e ich
ĠHerr n
if ied
i ber
Ġ &
Ġc ity
Ġin tegr
erg y
at her
fol g
ah n
Ġsa id
ĠG en
Ġre as
is ierung
im es
Ġd uring
Ġre pr
Ġim ple
ĠSt adt
Ġpos it
ĠM an
Ġch ange
il it
Ġ[ [
Ġfinan cial
ĠAus sch
ĠD em
ut es
Ġ Ã¶ff
ich ten
gr und
Ġc itiz
Ġre v
all en
Ã¼n d
Ġd ay
an den
Ġact iv
Ġi hren
Ã¼ h
Ġzur Ã¼ck
le x
o ve
uch t
ĠIntern et
Ġf ar
Ġpro m
Ġpro blem
Ġf ol
Ġalle m
am m
ich ter
Ġinv est
Ġde ut
in en
Ġn un
uch en
ĠP ol
Ġme ans
Ġst at
Ġiss ue
Ġa chie
c ing
ĠJ ahre
Ã¤ m
Ġpropos al
bs ite
Ġl arge
Ġs af
Ġas k
a um
s o
t t
Ġk l
loss en
Ġm eine
il y
ie le
R e
re ib
is l
w ays
Ġexam ple
Ġz usammen
Ġqu ality
Ġapp lic
sche id
Ġma jor
Ġ200 9
Ġf amil
Ġm ember
bes ondere
n ov
Ġme et
Ġmo dern
ĠR uss
ill ion
Ġpr esent
heit en
Ġent sp
Ġs ince
Ġs ituation
ud get
Ġge f
hal ts
Ġco st
Ġb esch
p unkt
i end
Ã ¡
Ġg lobal
Ġroom s
lich keit
Ġdeb ate
Ġbes onder
Ġne cess
ĠT ran
un ter
gr ess
it es
Ġ 0
ĠA mer
et her
Ġwo llen
Ġstr ateg
aup t
Ġuns eren
Ġsich er
ĠCommission er
Ġver fÃ¼
fÃ¼hr t
u le
am er
as h
ant wort
or g
iz ed
p re
Ġein ge
Ġtechn olog
o ten
f ts
il ities
Ġch ild
Ġam end
ktion en
te llen
le ist
Ġcomm on
an gen
Ġen g
Ġe ach
eschÃ¤ ft
ble ms
B ut
Ġad op
ĠwÃ¼r de
ĠZ immer
h af
D es
Ġp ass
Ġch e
P ro
kun ft
ir d
etz en
Ġinclud ing
ĠKommiss ar
or en
f ass
Ġg ar
ĠComm ittee
ĠP al
o de
ach e
om at
Ġcomp et
ĠK in
ĠÃ ĸ
imm ung
ĠParlament s
o h
re it
Ġc olle
Ġcitiz ens
c ip
Ġp ower
Ġre f
N ach
ĠGe w
gen ommen
ĠArbeit s
Ġste hen
Ġth ree
Ġetw as
Ġw Ã¤hrend
ĠEn erg
b ed
ĠG esch
op p
p or
Ġsa gen
v ention
aur ant
Ġst ay
Ġfo und
ie der
ab lish
Ġall ow
ĠEn g
in ing
i pp
Ġare as
Ġne xt
ĠP olitik
Ġres pect
Ġc ult
Ġob ject
Ġst ud
ge w
e ll
Ġmeas ures
gan gen
ï ¿
ĠVorsch lag
ï¿ ½
Ġd och
ain s
ort h
ĠW ir
Ġg ive
Ġor ganis
ĠB est
ĠFor m
Ġso zial
u ge
How ever
z w
Ġfe w
and s
Ġ /
ĠW or
ze pt
Ġre ce
ord nung
u gen
Ġaut hor
Ġb r
Ġ3 0
lin ie
Ġens ure
ĠB ild
Ġdisc uss
Ġk omm
Ġdem oc
Ġ %
Ġpr es
ra che
ug ht
l ing
as ch
Ġf urther
Ġth ank
Ġres ult
Ġhist or
Ġer m
Ġprov ide
Ã¼r lich
Ġen ergy
Ġt un
Ġtak en
Ġw issen
ĠP h
Ġf il
Ġm us
if f
f alls
Ġbu ild
ĠE uro
schaf ten
un de
Ġins besondere
Ġagre ement
ĠU r
Ġc al
Ġsu ccess
ĠB o
Ġer halten
Ġcont rol
stell ung
Ġad dition
Ġk om
g leich
s er
i ate
e k
ag t
stÃ¼tz ung
sch l
Ġd ra
ĠL Ã¤nder
g re
ank en
it or
Ġein mal
Ġwar en
ind et
Ġd et
O ur
Ġemp loy
z iel
Ġp ay
ĠL Ã¶s
w irt
Ġa uÃŁer
ĠVer fÃ¼
pe cial
Ġpos ition
W ith
as es
ck en
Ġest ablish
Ġre ad
ĠF all
le gt
Ġk ommen
1 9
il fe
Ġla w
Ġab s
l ungs
uf f
itÃ¤ ten
dit ions
chn olog
Ġv o
g ang
ig ten
Ġbe im
o hn
Ġcom e
ĠPro blem
Ġd u
ul es
Ġl ink
je kt
ro ss
ar te
ĠDe ut
ĠÃĦnder ungs
ĠK unden
Ġer sten
t schaft
Ġs k
ar n
Ġopp ort
Ġin de
Ġcomp any
Ġsh all
m m
b o
Ġp op
Ġgro w
Ġpro blems
em ents
ĠMar kt
ar en
ut en
Ġd id
Ġnecess ary
Ġver w
ĠG o
Ġim p
ar ten
ĠZusammen arbeit
igkeit en
ro p
A T
ĠI tal
ĠGro up
un ic
Ġt err
ot t
f re
Ġl assen
utz en
A uf
Ġprin cip
E ine
Ġd rei
Ġe l
um s
Ġsch w
p end
ĠA ll
um en
ess er
ĠQ ual
le men
Ġleg isl
ĠN amen
A N
Ġbe gr
Ġke y
F Ã¼r
Ġb udget
Ġg iven
ĠUnter stÃ¼tzung
ĠG er
ĠS h
Ġpra ct
is es
Ġgro ÃŁ
f ung
Ġ Ã¤
p olitik
el f
Ġge ben
Ġse curity
f ang
m ed
Ġer st
Ġ Â
Ġinv ol
H e
b au
Ġ |
Ġ Ð
Ġe m
Ġwir k
esell schaft
Ġh ope
g lichen
b urg
Ġhow ever
Ġse cond
Ã¶r der
or gen
it er
ass e
Ġwh y
ct ive
Ġch ar
Ġhe alth
T o
j oy
l ungen
icht s
I N
Ġle ad
w ards
ĠZ ug
is ation
Ġver l
is ing
ĠSch w
ĠR es
Ġ2 5
be wer
Ġent wick
iet y
ĠSp iel
are d
ĠM us
ĠUm welt
iv ely
Ġco operation
ĠPro ble
ĠSt ra
a ve
E S
ĠB l
Ġb l
ge ther
ne ll
ĠM ill
f te
Ġre t
Ġwh ile
Ġbeste ht
ĠRe cht
ur z
Ġloc ated
fÃ¼hr ung
v on
S ch
Ġ ir
Ġand er
sp ro
Ġw ish
Ġst art
Ġl ife
Ġg ra
ar ch
Ġprote ction
ĠR o
Ġwir tschaft
Ġre fer
ĠD ienst
Ġimple ment
sch ied
Ġal ways
Ġ1 4
alt ung
Ġtra dition
Ġcomple te
ur y
Ġw rit
Ġneed s
wend ung
Ġsein en
E n
Ġse hen
ĠfÃ¼ hren
te xt
Ġste ht
Ġv ote
er b
ĠM ein
rie d
ear ch
ĠL Ã¤ndern
Ġin form
lich t
Ġ X
zie h
al d
ĠG eschÃ¤
ĠT ag
le ct
i que
pp e
o gen
Ġst att
Ġcom b
Ġbe h
k on
Ġs ens
Ġ1 1
ce ll
Ġdif f
h Ã¤ng
ĠDe b
c a
k re
ĠI ch
Ã¶ t
W ie
ĠCh ina
t ion
ste llen
b y
Ġbet ter
Ġ1 6
Ġw Ã¤re
ĠFra gen
Ġa kt
Ġt re
ichter st
ĠS ystem
Ġd abei
ch es
al le
iv il
ett bewer
Ã¤t ze
dr ess
Ġa ction
ĠB eit
Ã¤ d
z ess
Ġm ult
ĠH ouse
A t
ĠV ol
ĠKolle gen
ĠUn ited
S e
Ġg laub
Ġacc ount
sch ein
ial og
Ġge hÃ¶r
i ation
g aben
z Ã¼
Ġinter est
ĠA t
Ġn et
Ġleg al
ĠR est
ĠT r
Ġm en
Ġf iel
Ġwor den
ber eich
Ġus ing
Ġn or
is te
ĠLe bens
ch er
uf t
Ġf av
Ã¤ mp
Ġletz ten
ent en
Ġch o
re chte
Ġm uÃŁ
Ġh Ã¶
se qu
ĠR ed
ĠD es
i od
ĠP ort
Ġde fin
l ess
ik an
ĠS w
ĠReg ierung
ob il
Ġs ing
sch rif
ĠA d
Ġm ov
o f
cl us
Ġre ach
ier ungs
r Ã¤n
ĠComm unity
Ġ1 7
Ġa round
Ġb le
ing ungen
ĠEnerg ie
Ġ20 10
Ġbas ed
ge hen
ĠBed eut
Ġcon ne
Ġ200 8
Ġcons um
und heit
Ġtransp ort
ĠK r
F ra
Ġgro ÃŁen
g abe
ig es
ĠVerfÃ¼ gung
Ġder en
Ġad d
ges tellt
Ġwel che
ĠS pe
Ġwork ing
Ã¶l k
gen den
Ġ5 0
if y
Ġgro ÃŁe
Ġter ms
Ġm et
mar kt
3 0
ab il
Ġcurr ent
ĠBedeut ung
erv or
ĠS eite
ass er
Ġin ner
ge d
Ġprodu ction
ĠEnt scheid
le v
um ents
Ġsh ort
ĠK om
ra cht
Ġst ru
b lick
Ġwh ether
pp orte
Ġbec ome
ĠQ u
Ġcent re
ho f
ĠB el
Ġc rit
off e
ĠEr geb
Ġparticular ly
Ġn on
ĠD as
ed er
Ġl im
Ġl ess
Ġindivid ual
Ġto gether
Ġex tre
Ġdiff icult
ĠUS A
Ġvis it
Ġbe l
lo ad
ĠR om
Ġan other
Ġne ar
Ã¼n st
ĠReg ion
Ġor ig
fer enz
Ġh o
ut er
Ġh im
Ġde f
Ġres earch
Ġd ist
Ġz ahl
Ġst ate
d ruck
Ġcl os
Ġre p
Ġw ater
os ition
k auf
an ies
Ġtra de
Ġc are
Ġe ar
im men
ĠSch utz
ustr ie
Ġchild ren
ĠS k
ĠF amil
ro om
Ġbe ach
ĠC l
Ġwho le
Ġnot wend
pecial ly
ben e
Ġcon trib
Ġex ist
Ġto ur
Ġs l
tell ung
ĠVer trag
ot s
Ġb ene
Ġjed er
Ġiss ues
as tr
Ġh ervor
Ġloc al
n ers
ak es
Ġbie ten
ĠRe gel
5 0
trÃ¤ ge
ĠÃ¶ff ent
t y
ord ing
entr um
Ġda von
Ġcon ditions
i ar
c kt
Ġ1 00
ar ante
le it
ĠThem a
am es
Ġspec ific
Ġfr iend
Ġdar Ã¼ber
ĠL a
ie w
Ġreas on
Ġent fern
at te
Ġr icht
Ã¼ t
Ġen joy
Ġk m
ĠB esch
Ġe ben
t on
Ġc all
Ð ¾
ult ur
Ġer forder
Ġsub ject
Ġsh ow
Ġb ook
h ang
O N
od y
Ġa ff
ort s
Be i
x im
ad ies
Ġste llen
Ġan n
Ġbe w
Ġall es
Ġgegen Ã¼ber
our s
Ġd aher
Ġ200 7
ĠKin der
rie den
h Ã¶
Ġs ystems
Ġad dress
ik el
ateg or
Ġvar ious
ĠU N
b t
uf en
enn t
Ġra pporte
Ġro le
Wh at
ĠWe ise
k ungen
Ġsch nell
Ã Ń
Ġb rauch
v est
Ġr un
Ġeigen en
eng th
ĠS ervice
W hen
Ã ³
Ġexper ience
ĠWirt schafts
Ġ2 4
ail s
ik a
ĠM al
ro w
Ġcomp anies
Ġor gan
Ġges am
Ġt ax
ĠProble me
Ġp age
f Ã¤h
Ġw omen
Ġo ld
ĠBe ispiel
Ġindustr y
s k
Ġste p
ĠBer ichterst
Ġsow ohl
Ġhat te
gem ein
ĠG Ã¤
is ions
sch utz
Ġbas is
ĠT ur
Ġ ur
isch es
Ġbef indet
Ġgu arante
Ġse ctor
Ġweit ere
Ġa im
Ġn Ã¤ch
ro du
ro ll
s en
as ter
ese hen
Un d
ĠW ahl
N e
Ġo cc
The y
ĠMr s
ĠIntern ational
ĠHaus halts
wirt schaft
one y
Ġd ort
th ing
iti ative
ne ten
Ġp at
Ġbe aut
ĠWe g
Ġbene f
ir m
Ġer reichen
Ġpolit ischen
Ġp ack
Ġprof ession
Ġre ally
Ġmein er
Ġcom fort
ĠIhr er
ĠEU R
ĠA ir
ĠFra uen
Ġm atter
in o
ge ord
Ġd i
Ġwirk lich
Ġse ver
Ġde al
Ġnat Ã¼rlich
ĠS an
A us
lo ck
ĠB us
ĠkÃ¶nn te
ch an
A R
ĠG u
a i
Ġcomm it
ĠGerm an
ĠF ahr
Ġar beit
" ,
reat y
Ġc ol
Ġth ird
Ġmon th
o ber
W as
Ġt yp
Ġbesonder s
in ter
iv ed
Ġpr ior
ĠB en
ĠZ ahl
gen de
Ġb ar
Ġbre ak
Ġi hnen
ĠAussch uss
rit te
ab ly
Ġes pecially
b ild
Ġd oc
Ġd one
ĠF ol
Ġst aff
ĠZu kunft
Ġmember s
Ġper iod
Ġin nov
Ġcl ose
Ġg ent
Ġverschieden en
am t
an ces
ĠunterstÃ¼tz en
Ġs he
ĠSt ud
Ġpro ced
cell ent
ĠGeschÃ¤ fts
t il
ĠL in
if iz
ĠK l
e an
ĠSta aten
Ġm ot
et y
re g
ĠEn de
fin den
Ġentfern t
Ġ1 3
ĠD er
d ings
tre ten
iv al
og raph
eth ing
wer k
id es
ĠF un
ĠM ark
Ġto p
ĠH aupt
z uf
" .
ic an
Ġfo od
Ã¼n ft
u ktur
Ġgovern ment
Ġinner halb
ĠFor sch
I T
Ġh och
Ġperson al
Ġfe at
ĠS eiten
Ġneg ot
Ġte il
Ġcre ate
sp l
iz ation
Ġviel en
a pp
Ġt urn
ĠProdu kt
Ġloc ation
ne h
ĠS ituation
ra um
Th ese
Ġs ite
Ġrepr esent
ĠF ort
Ġper form
k ung
Ġp le
ich tet
Ġs um
Ġpriv ate
ĠR olle
Ġbe tr
Ġpr ess
e c
ic ient
du c
Ġin stit
Ġent er
er ien
en ces
Ġpro p
Ġzw ar
as ing
Ġgen er
Ġappro ach
ind ung
sche iden
Ġev ent
Ġso c
we isen
ens ion
f ast
om ent
Ġp oin
ĠPro gramm
Ġinternational en
Ġam ong
Ġsing le
u c
Ġsom ething
Ġst ar
Ġdec ision
ĠDeut sch
ĠW ettbewer
ul ts
Ġsever al
ord in
Ġits elf
Ġj ob
Ġl o
Ġlang u
im ate
Ġbest imm
z ip
Ġre form
ĠmÃ¶ chten
i ol
Ã¼ d
ol f
Ġw elt
ĠF est
' t
Ġgen eral
ĠPar k
Ġfav our
Ġl ist
Ġdo ub
w h
1 1
Ġm aterial
kt or
Ġinst all
ut h
Ġstru ct
min istr
Ġto wn
ue llen
if t
land s
tem ber
itt le
at iven
Ã¼ hr
ĠRicht linie
at ch
o or
Ġres our
ian s
e ign
Ġauf ge
U m
ĠW och
Ã¤n de
Ġdire kt
Ġpro gramme
ond s
Ġm aking
m os
Ġd Ã¼r
Ġcontin ue
Ġhin aus
I S
Ġres olution
me work
ĠD isk
ĠI hren
ĠVerb rauch
ĠG ru
an e
Ġle ast
w Ã¤r
Ġm illion
Ġen c
is is
ific ation
An d
c el
y l
Ġaut omat
Ġgent lemen
Ġfollow ing
Ġint rodu
ĠT err
Ġac cept
sp rache
V er
ra el
Ġgo ing
g o
ĠN utz
w Ã¤
ĠA fr
ĠE l
i ations
ĠT our
Al s
ĠSo ftware
Ġa way
A uch
Ġser ious
Ġle t
Ġop in
Ġex cellent
ĠL ie
Ġg l
ĠK Ã¼
Ġk ind
D a
Ġte xt
ĠC omp
Ġpro gress
Ġpe ace
Ġrel ations
Ġh ome
neh mer
h ens
be i
Ġof ten
Ġman agement
Ġn ame
Ġ :
ĠStr ateg
Ġers te
if en
at ives
Ġs up
C H
r im
Ġfamil y
Ġkon n
m iss
ĠAb st
ier e
Ġpartic ip
au er
Ġunder stand
Ġm ar
Ġdirect ive
Ġr ules
le t
Ġof fen
ĠGerm any
Ġan s
Ġt ro
A ber
ĠW er
ot o
gr icult
fe hl
ĠeuropÃ¤ ische
Ġa part
ap s
str ument
Ġcont act
ant rag
ĠN ot
Ġrapporte ur
ic le
ĠE s
or m
ĠHotel s
Ġan al
ĠU hr
ĠGe gen
ĠR Ã¼ck
ĠMein ung
ĠC hr
und s
Ġ200 0
Ġs ett
f ect
th ough
y pe
pro du
Ġreg ul
Ġfe el
ik en
Ġm ach
Ġto wards
ks am
Ġcr isis
we g
H ier
Ġfor ward
Ġso ftware
ic ial
Ġm oney
Ġex press
Ġon ce
1 2
ier ungen
t he
Ġpr ice
on y
ĠNe w
Ġeinz el
Ġr ange
leist ungen
Ġl ine
ull y
Ġkl ar
th ers
Ġin c
Ġwel come
pe kt
Ġon line
Ġth ings
Ġextre m
Ġet c
Ð µ
Ġst ark
st Ã¼ck
pr Ã¼
Ġabs ol
Ġf ast
ĠW ind
etz ung
ĠBer lin
z ogen
Ġl ittle
teil ung
fer ence
Ġh Ã¤t
Ġrec og
ĠZusammen hang
Ġm ention
v oll
we is
ĠGes undheit
ad am
Ġcomm unic
Ġ ident
Ġd est
w ach
Ġb al
D E
ĠAb geord
Ġun til
if ft
h aus
Ġinstit utions
uÃŁ en
Ġz us
ĠO n
Ġan t
Ġp ost
ĠK re
Ġs itu
i j
ub l
ĠRe p
Ġunser em
itÃ¤ ts
ĠUn ivers
Ġbei den
A b
Ġd ays
es ten
ĠF isch
ist ic
A S
Ġkomm t
Ġst re
w and
Ġw alk
a den
w w
out h
ĠTran sp
as st
Ġcustom ers
ure d
enz en
Ð °
en nen
ĠD ire
Ġopt im
g Ã¤n
air s
b et
Ġpl an
Ġm ilit
ĠWor ld
v ent
ies en
um e
at ten
is on
z immer
ĠT reaty
Ġa id
Ġentsp rechen
ang es
Ġstr ong
ĠGÃ¤ ste
Ġ ess
ĠPart ner
Ġfin anz
lÃ¤ ge
ĠPerson en
ĠJ an
O R
tra ct
ie ten
le an
omm end
ĠFran k
Ġincre ase
Ġag ree
ĠEnt schlieÃŁ
ĠE mp
ĠH ilfe
ĠM et
iden ce
ĠSp an
n a
Ġopport unity
Ġ19 8
Ã¤ch st
fass ung
Ġbeste hen
le icht
ĠK omm
Ġv e
iden cy
Ġke ep
Ġactiv ities
Ġfun ction
ĠBerichterst atter
e u
ĠZ we
re ch
Ġr ather
hal f
Ġm ind
ĠG ra
y r
cr ip
Ġh ard
Ġqu ite
ĠVer antwort
ed om
st ra
ĠN ov
ĠO p
oc us
iel en
Ġste llt
we il
Ġwelt weit
Ġ200 6
m et
Ã¤ uf
Ġb zw
Ġche ck
ĠSchl uss
Ġ il
Ġj a
an a
s ide
ĠTe chnolog
Ġbring en
m Ã¤ÃŁ
lie ÃŁen
Ġposit ive
ĠArt ikel
Ġtr y
ĠPrÃ¤sident in
ĠLÃ¶s ung
Ġprovid ed
ann ten
en der
ĠIn vest
bar en
ĠB ank
ĠU ms
Ġbegr Ã¼
Ġb ig
Ġse em
ĠS u
Ġt as
Ġele ct
ĠK o
ĠK lim
ĠLe ben
Ġs w
ĠD ies
ĠF il
Ġresour ces
p ly
ue ll
eit s
Ġpart ners
ĠI t
Ġs ug
Ġdar an
Ġde v
Ġt reat
Ġbe half
Ġst Ã¤r
Ã¤r en
Ġme an
ĠfÃ¼ hr
Ġide al
in ed
Ġind em
Ġg ilt
ide o
Ġp ort
ĠN ational
rol le
ere cht
Ġm ight
Ġqu al
ĠOr ganis
Ġcl ass
Ġfull y
Ã¤m lich
reich e
ĠMe hr
am b
Ġwen iger
Ġgew Ã¤hr
Ã¼ck sicht
ĠK ultur
forder ungen
Ġl and
mos ph
ĠDem okrat
Ġf our
hn t
on a
Ġjed en
L e
Ġges agt
Ġgrow th
Ġincl ude
Ġetw a
Â ®
Ġn Ã¤mlich
ĠMin ister
ab hÃ¤ng
ĠN atur
if ul
ĠC ent
le tz
st adt
zeit ig
ĠJ ul
u h
Ġb itte
Ã¤hl en
legen heit
ĠSe p
ament al
Ġy et
fra ge
Ġp ark
Ġg ute
Ġl ab
Ġha ving
Ã¼ hren
wo hl
Ġsign ific
Ġm ag
Ġpers Ã¶n
ĠD urch
Ġval ue
fer t
ein ander
Ġum f
Ġl adies
Ġp ur
on ger
it ions
s h
pro chen
cept ion
Ġtechnolog y
ĠI m
k omm
A m
O M
Ġso gar
Ġfiel d
Ġgen au
al es
tel le
setz ung
ĠR ates
Ġpropos als
ag er
Ġent scheiden
op s
ĠSt ate
ĠMember s
b on
Ġamend ments
wend et
re cht
sel f
ĠSo zial
lich es
rat ic
ĠOr t
Ġger ade
Ġb or
ĠC ar
ap an
Ġal ong
ĠS er
ĠProdu kte
ill a
Ġ u
h under
Ġbek annt
Ġle ft
tra gen
Ġt imes
ĠEr fahr
ro ffen
Ġsol ution
Ġk urz
Ġfra mework
Ġe duc
arm on
Ġer folg
ar f
Ġrem ain
Ġl og
Ġne hmen
Ġt em
Ġk osten
Ġmin utes
v Ã¶lk
f ully
Ã¤ch lich
Ġsaf ety
pl an
Ġar ch
ĠCh ar
Ġl ight
Ġrec ommend
s ere
ĠEurop as
Ġer war
Ġspe ak
ver b
it en
at iv
Ġi hn
ĠPro jekt
Ġab ove
le i
in ge
ĠG eld
Ġwe ek
Ġeas y
op h
ĠAus tr
Ġcost s
an st
an c
st ant
Ġo thers
ra cy
Ġtak ing
m ost
Ġadop ted
Ġeben falls
Ġi hm
ĠJahr es
ĠSep tember
ĠP unkt
Ġn ie
ing en
ĠGr Ã¼n
ĠPre is
Ġp a
Ġess ential
al ten
le ment
iber al
ĠTe xt
led ge
Ġsein em
eth od
Ġf lo
w ahl
ĠK osten
Ġunter schied
z a
ĠFra ktion
Ġgem acht
Ġre cht
Ġstr ength
Ġ Ã¼
hand lungen
Ġm akes
Ġme isten
Ġopin ion
ĠA ss
Ġc reat
Ġcont ent
ĠB as
A L
un st
at ors
Ġchar ac
Ġent ire
Ġd essen
ĠZug ang
ĠAn ge
Ġv iol
Ġto ol
ĠT Ã¼r
ier s
Ġeconom y
Ġcal led
ĠBe zug
Ġverb unden
M an
Ġge hen
Ġb esser
ĠS c
Ġpolit ische
Ġdar f
Ġle d
port s
Ġb ath
Ġf lex
Ġcon stru
at is
Ġwe bsite
ne te
Ġret urn
Ġlegisl ation
Ġne ver
Ġa gricult
yste me
ĠG ar
aur ants
ĠAn d
ĠunterstÃ¼tz t
b are
ib en
Ġw esent
re en
Ġapplic ation
Ġan ges
tel s
ach ten
w ord
ig ital
Ġres ults
Ġf ocus
geb ung
es ted
Ġ2 1
re icht
Ġt erm
Ġbuild ing
ig r
Ã¼n f
Ġpoin ts
Dies es
ile d
ĠZ ust
Ġa k
Ġver st
Ġs ure
Ġprovid es
Des halb
ĠRe chte
vern ment
aus sch
age d
Ġb ank
Ġd ue
Al le
Ġproject s
ĠP e
Ġfre edom
Ġw ahr
ĠWirt schaft
l iament
Ġdar in
Ġdel iver
Ġatt ention
Ġbeg inn
s weise
ar ian
Ġpro gramm
Ġ4 0
ĠVer kehr
ĠIn stitution
Ġconcern ed
Ġf air
u z
ĠK omp
Ġhe art
Ã¼ l
Ġco ver
Ġr en
bens o
Ġglaub e
ĠWe b
Ġstand ard
ot ing
ĠS a
Ġrespons ibility
ir c
Ġbeaut iful
in er
Ð ¸
ĠdÃ¼r fen
ĠÃ¶ffent lichen
Ġp ot
mit ted
Ġpolic ies
Ġein igen
Ġsim ply
E urop
Ġp ast
uf act
r ic
n ow
Ġre la
E L
Ġte am
Ġappro pr
ber g
Ġnicht s
â Ĥ
Ġper fect
Ġder zeit
ish ed
âĤ ¬
Ġquest ions
reib en
ĠK ap
Ġgroup s
ĠIs rael
Ã ¨
Ġimport ance
Ġyo ung
ĠEntwick lungs
ĠMill ionen
i ents
Ġto tal
ĠGemein schaft
Ġsch affen
Ġr isk
ĠDeutsch land
z entr
Ġhe ad
Ġb it
Ġm ass
Ġso llen
ĠB uch
b our
Ġab ge
ĠAn tw
Ã¤ he
h ing
af en
ad a
ĠWe bsite
ĠF rei
er st
d ing
w Ã¼r
Ġ200 5
ĠFl ug
ĠRe i
amp f
schlieÃŁ lich
Ġihre m
Ġcon text
Ġkn own
ce ed
Ġmo der
D ar
Ġsoc iety
Ġeffect ive
ĠQual itÃ¤t
Ġkein en
E C
Ġbrauch en
Ġd om
Ġh olid
Ġad ministr
ĠJan u
g esehen
Ġse a
Ġhand elt
ĠB eschÃ¤ft
Ġnational en
ĠP at
zus tellen
wÃ¤r t
ust ain
Ġenvironment al
arbeit en
un kte
Ġcontin u
Ġgreat er
Ġm ethod
ĠAus sprache
ver kehr
sp olitik
ĠA pp
t lich
Ġstrateg y
ĠW asser
al er
Ã¤ us
utz t
Ġvers ion
Ġar r
on nen
Ġro ad
H otel
ĠVerbrauch er
u elle
ĠT V
ist an
i qu
ĠKolle g
Ġzus Ã¤tz
ĠM Ã¤r
Ġnat ural
sta at
ĠAn geb
Ġstand ards
pf licht
Ġprincip le
ĠF ir
e x
Ġverb ess
Ġt able
le ben
Ã¤ ter
ĠH Ã¶
it ive
zie hen
' '
Ġt alk
m at
h ib
un Ã¤chst
Ġvers te
Ġn a
Ġm iss
Ġweiter hin
Ġat tra
Ġbetr ifft
h a
Ġra d
O S
Ġwor ds
et te
une hmen
ring en
Ġs end
em p
eu tet
ĠE bene
Ġer klÃ¤r
halt ung
Ġrequire d
Ġver sch
ĠJahr hunder
rie g
A fter
n ing
ll er
ĠS itz
ĠM o
Ġse i
Ġvie ws
Ġincre asing
Ġin stitution
ber eit
ur f
Ġher aus
Ñ Ĥ
fr astr
Ġch allen
id ed
zeich net
use um
ĠPr iv
ra ch
F in
Ġh ouse
un ities
ac y
Ġman ufact
is iert
ult ure
Ġwen ig
h an
ĠTh is
Ġm oment
Ġ200 4
ĠI I
ĠFort sch
Ġtra ining
Ġmus ic
ran k
Ġmeet ing
Ġres erv
ĠÃĦnderungs an
Ġdes halb
ĠFr Ã¼h
Ġclear ly
Un sere
Ġbed eutet
Ġsignific ant
Ġc entral
Ġm acht
ĠN o
Ġauthor ities
ĠVer w
ig ent
Ġben Ã¶t
ĠG l
ĠMe er
ar i
ĠAbst immung
on en
Ġd on
f il
Ġsol che
Ġdeut lich
Ġqu ick
Ġun ver
Ġle a
v o
ĠP ra
Ġbes ten
ic ro
Ġrela x
ĠT re
spr uch
st off
lÃ¤ ss
Ġus er
Ã¤n ger
Ġc la
an ze
Ġnet work
at al
Ġinter ess
Ġex tra
Ġn ight
zÃ¼ glich
c ent
schl uss
y le
b an
Ġbreak fast
rit ten
ispiel sweise
Ġkom ple
it ing
ĠGes etz
ĠS al
Ġle arn
ĠGro ÃŁ
ter m
m als
Ġauf grund
Ã¤s ent
Ġin fl
Ġas pect
ĠLe ist
Ġacc ording
ĠN or
Ġachie ve
Ġtechn ical
pr il
al itÃ¤t
zieh ungen
Ġrec ent
f all
Ġdem and
Ġf a
ĠB em
Ġso ur
gend a
Ġm at
ĠwÃ¼r den
Ġl ar
Ġwicht ige
Ġsh are
ach st
P r
or k
ag ing
er ous
Ġp ages
Ġcap ital
A P
ĠChr ist
ĠG esellschaft
uch e
Ġdis trib
c al
Ġv ia
Ġse le
Ġof t
ges etzt
U S
ĠD ok
Ġnat ure
on es
ie f
Ġc lean
A D
Ġapp ear
Ġfund amental
hÃ¶r den
he b
Ġmonth s
ge legt
he im
Ġintern al
pl atz
j en
Ġdirect ly
Ġfind et
Ġfac ilities
Ġf ish
Ġth ough
Ġs ide
wo hn
Ġpre c
Ġl onger
Ġob l
ĠKlim a
Ġrespons ible
ĠUms etzung
ch ange
Ġv erein
ĠnÃ¤ch sten
Ġim m
Ġpropos ed
Ġen ough
ĠMit arbeit
ĠF ar
el ves
un ch
ĠMenschen rechte
Ġsol utions
Ã¶rder ung
ĠW ohn
Ġemploy ment
ĠK unst
gen cy
ĠgewÃ¤hr le
Dies er
ĠAn sicht
Ġhist ory
Ġcult ural
ĠO b
Ġvor gesch
Ġer n
ub e
Ġgu ests
Ġt est
pt ion
ĠBe vÃ¶lk
k Ã¤mp
A r
ĠBet rie
1 3
Ġer ne
Ġrequire ments
el bst
ĠHerr en
ĠI de
Ġcurr ently
Ġn utzen
Ġv ol
ĠNov ember
Ġinter ests
ĠRicht ung
Ġv ier
Ġcharac ter
Ġbet re
Ġsub s
I C
G e
t ag
t es
ĠJ u
Ġprev ent
ĠDes ign
ĠSch ul
Ġl ange
Ġmain tain
Ġass ist
ff e
Ġev ents
ĠN Ã¤he
Ġreg ions
umen te
ith er
o od
Ġc ivil
g ent
Ġm ount
ab les
ĠInd ustrie
O ne
Ġaller dings
Ġterr or
Ġinvol ved
ĠDemokrat ie
lieÃŁ lich
e le
Ġthe ms
Ġ2 3
gr u
ist ischen
Ġthems elves
Ġil leg
Ð ½
1 5
ver stÃ¤nd
dr Ã¼ck
Ġapp ly
Ġan im
Ġpart ies
t a
Ġwe b
u k
Ġs y
ĠB Ã¼
la uf
ĠVerantwort ung
ste hen
esen ted
Ġl ive
Ġz ie
e llen
Ġrecog n
Ġha ppen
Ġcompet ition
fr ist
h as
Ġvo ted
Ġs ustain
Ġh offe
Ġge geben
ĠWind ows
v al
Ġb il
ĠIn sel
ĠB ro
ll ig
Ġextrem ely
Ġrequ est
Ġneed ed
ĠC as
d am
Ġst ation
fol gt
ĠBed ingungen
ck e
Ġimplement ation
richt ung
ĠAn wendung
Ġgemeins amen
wir kungen
mb H
ĠGeb iet
Ġnotwend ig
Ġfor ce
ap er
te ile
ĠC o
en ch
Ġup on
Ġlangu age
Ġf ight
Ġc amp
ubl ik
ĠI ra
Ġguarante e
ie llen
ĠBes uch
ĠEntscheid ung
Ġfor eign
ĠStr uktur
Ġdemoc racy
omm od
es tern
ĠW ert
g u
Ġit em
ĠR aum
ire d
Ġcent ury
Ġje weil
Ġeff orts
Ġd ank
g liche
r i
ĠgehÃ¶r t
Ġk ont
Ġbe ispielsweise
ĠA pril
ob ile
Ġag o
Ã¼r z
pe ten
Ã¼ss el
r up
ĠA G
lin ien
ĠZ iele
ĠInter esse
E x
an o
Ġkle inen
en ken
Ġch anges
Ġwo hl
ĠH a
ĠFe hl
ien en
ĠVorsch lÃ¤ge
ĠB rit
Ġpre p
Ġc aus
ĠBen utz
Ġbed eut
Ġviel leicht
ĠB au
Ġch arge
in zip
yn am
Ġ )
Ġdis k
tr ie
6 0
lie d
ĠP f
ĠG mbH
ra gen
Ġsozial en
b ank
Ġver wendet
Ġent halten
Ġp lease
ĠK ons
is her
Ġc irc
ĠSt at
Ġer ziel
Ġse par
Ġcont ain
Ġex pect
ig ur
Ġw ind
at ory
ĠT ages
ĠD ruck
Ġsp rechen
b el
ĠIhre m
ver t
Ġz ust
ĠGrund lage
ĠK ar
Ġdevelop ed
gr if
Ġcor re
ĠJ apan
Ġdem okrat
and id
ĠPar te
am ous
Ġerm Ã¶glich
- ,
ig ungs
Ġbe vor
Ġl ot
Ġf arm
im s
ĠC an
C h
je kte
Ġreg ulation
Ġl ow
sch n
ĠW ort
ch s
Ġso on
ke y
ĠVer fahren
on str
de ut
ĠRei he
Ġprote ct
Ġne u
Ġc ases
Ġcomfort able
Ġ Ã¶
ĠPar is
Ġwer de
ff ice
ĠMus ik
Ġer reicht
hand lung
ĠT ats
Ġ200 3
Ġm ess
cr ib
tend ed
Ġp ool
ĠEr folg
Ġma xim
pl ay
wÃ¼r d
sicht lich
ĠA uÃŁen
ne hm
ip s
ĠW achst
Ġn am
ĠEin satz
Ġ2 2
T O
Ġnegot iations
Ġcom es
ĠGesch ichte
Ġsitu ated
k er
imm ungen
ĠSt re
Ġber Ã¼cksicht
Ġprev ious
u ct
teil t
ipp ed
Ġhal ten
Ġe ither
b l
ens e
ĠA uss
Ġsaf e
ĠN ord
Ġrest aurant
eit er
ur t
Ġer fÃ¼
gel n
arbeit ung
il der
ĠMÃ¶glichkeit en
Ġt arge
teil en
am a
ĠK rit
Ġeing es
in i
mer ksam
Ã¤t zen
pr ise
ll ing
Ġp ub
R O
Ġ19 7
ĠD ate
in ner
ĠTe le
h end
ĠC our
ĠDeb atte
Ġevery thing
ĠD amen
on n
Ġregion al
ĠN etz
ra d
g ern
or ge
Ġh os
Ġaus gest
b est
ĠJ un
ĠÃ¼ber n
Ġind ic
st all
ĠF rieden
ab el
ĠPro t
Ġfin al
ĠS oc
Ġmarket s
ze igt
Ġsur round
Ġmin im
au en
um p
Ġcre ated
ĠRest aurant
Ġdevelop ing
ĠW h
d ate
ĠB lick
Ġf Ã¼nf
ĠHer aus
is tet
ers eits
Ġarbeit en
at tet
Ġun ique
ition en
Ġam b
Fra u
ĠG leich
ĠI r
ĠPres idency
V or
Ġl ater
rie ben
ĠC ont
Ġverschieden e
Ġimpro ve
schrif ten
Ġvorgesch lagen
ĠHin blick
ĠhÃ¶ ch
ĠEr weit
Ġp ict
k a
an ten
Ġm er
ĠW ar
Ġst ates
T e
Ġacc ommod
ĠA ug
Ġpr ices
un ik
m ark
Ġeduc ation
i able
Ġkon kre
Ġim med
ĠE ur
ĠkÃ¶nn ten
Ġschw ier
Ġtr ue
Ġaddition al
Ġinclud ed
ich en
in t
Ġ6 0
ĠS ol
Ġ âĤ¬
g ing
el ess
ip ment
ĠArbeit spl
Ġmon itor
Ġal most
haf t
Ġqu e
ig te
Ġex pl
chn ik
Ġl iving
Ġcon tract
h aps
Ġal tern
ul ate
Ġgemeins ame
Ġanal ys
Ġst or
Ġact ually
or ted
ĠverfÃ¼ gt
ĠM ot
m ut
spr Ã¤sident
ĠFran ce
ĠA ktiv
ĠEr klÃ¤r
ĠMin uten
ĠSch we
Ġdemoc ratic
ĠP er
ib r
Ġtra vel
Ġdoc ument
Ġide a
iÃŁ t
D urch
Ġth us
Ġc ut
ĠermÃ¶glich t
ĠEin z
la ck
Ġse en
omm er
Ġfor t
Ġble iben
re chts
Ġcl imate
pend ent
ĠSte uer
b ahn
Ġw ide
es ter
O b
ĠS outh
ĠM ont
ge gen
Ġhat ten
we gen
v in
ĠFr ench
ĠDisk uss
I P
d le
Ġj oin
or f
la den
ĠInstitution en
Ġf ile
Ġrece ive
ing t
ĠAus wirkungen
iel le
i kt
m ail
Ġpro gram
ĠD r
ĠRe chn
ent al
Ġenc our
ĠA ff
i os
ĠRuss ia
Ġt ype
Ġak zept
ĠM ay
ĠK raft
Ġt ats
ĠW ieder
jen igen
Ġknow ledge
ĠâĢ ĺ
Ġh old
Ġvoll stÃ¤nd
Ġl ack
Ġze igt
Ġd ialog
ra chten
Ġappropr iate
ĠPl atz
ĠPro zess
il ar
Ġv ill
bar keit
ir es
Ġhel d
ĠV iel
Ġfund s
Ġerforder lich
k ra
Ġbis her
f rei
Ñ Ģ
Ġen l
ĠStrateg ie
hin der
c ies
us st
Ġoff icial
Ġproced ure
ĠAus druck
ĠfÃ¼hr t
ĠL is
Ġha pp
ĠForsch ung
Ġass oc
ĠDienst leistungen
Ġsch ein
Ġout side
ĠAbgeord neten
ĠM od
setz en
Ġall gemein
ĠTran s
ĠReg ionen
Ġgesam ten
ĠH och
au ber
Ġsch ool
P lease
Ġth ing
ĠW issen
Ġer wÃ¤
ĠSicherheit s
ad urch
Ñ ģ
fol gen
ct ors
Ġwirtschaft lichen
tern al
Ġan geb
Ġdesign ed
am s
ĠPl an
ĠE C
ĠIn tegr
ian ce
ĠZ us
Ġeinzel nen
f eld
l le
Ġdar um
ĠK ir
atis f
ĠWe bs
Ġe benso
Ġmajor ity
ĠS port
ĠLand es
fra gen
1 8
Ġwork ers
ĠErgeb nis
Ã¤hl t
Ã¶ff entlich
Ġfeat ures
op er
Ġprop ert
Ġsug gest
Ġprofession al
og ra
Ġf amous
D aher
Ġd anken
ie ÃŁen
Ã¶ glichen
ste ad
P l
ie ws
Ġfun ktion
ĠVer tre
an ced
c ure
Ġh on
Ġsp Ã¤ter
ĠS ub
j Ã¤hr
ĠKolleg innen
v a
ond on
f s
V on
cl ud
Ġre lev
ot os
d es
Ġe uro
Ġentwick elt
f el
ĠD ank
Ġf ive
Ġcommunic ation
Ġlook ing
ce p
Ġthrough out
Ġdra w
Ġc op
Ġden ke
Ġear ly
E T
Ġr ate
Ġans wer
ĠSch ritt
Ġan genommen
Ġex clus
ĠÃĦnderungs antrag
Ã¤n den
ĠFamil ien
Ð¾ Ð
igr ation
or re
uÃŁer dem
Ġcustom er
ĠB innen
Ġsp ace
us h
ver fahren
o x
o id
ĠFun ktion
Ġh ours
mittel n
ĠÃĸ ff
ĠTats ache
ĠH ers
Ġbe hand
o und
is ieren
Ġdown load
ĠK le
Ġtak es
ind est
Ġwork s
Ġemp has
Ġtrans l
Ã¤s st
ĠAr ch
Ġdo ing
Ġ 000
F rom
Ġimp act
im me
ĠPort ug
arbeit et
Ġbe tra
l Ã¤ndern
Ã¼l t
Ġjed em
Ġac ross
Ġnor mal
Ġ2 7
Ġwe iÃŁ
Ġlink s
kÃ¤mp fung
Ġd ate
Ġen able
fÃ¤h igkeit
Ġstrength en
ĠBereich en
ĠÃĦnderungsan trÃ¤ge
Ġcertain ly
Ġun ivers
Ã¤nder t
ĠFrÃ¼h stÃ¼ck
Ġpar ts
sch lag
ĠAmer ican
Ġpro per
ĠVer handlungen
Ġw ider
A C
ĠGemein schafts
Ġe ver
Ġa ud
ĠhÃ¤t te
ĠMitglie der
Ġkonn te
Ġinternational e
Z u
ien s
Ġcolle ag
Ã¤ che
lie gen
iel t
Ġpot ential
Ġc a
Ġsol id
Ġbe finden
Ġus ers
Ġcon sequ
ur en
ĠÃ¤ uÃŁer
k n
pr ession
il le
Ġgemeins am
A M
Ġgu est
z if
on om
ar a
ĠR ad
Ġto ok
ĠVers ion
Ġs etzen
k o
Ġtradition al
Ġrec ord
ĠVerein igten
ĠP osition
Ġne ues
Ġvor h
Ġgleich zeitig
Ã¤ llen
Ġme chan
Ġweit eren
Ã¶s en
Ġorig inal
1 7
h ab
ĠW est
b ru
ĠAntw ort
k r
ere i
z er
Ã¼ gen
ĠL uft
ĠF und
st re
Ġpub lish
ĠD ialog
Ġam ount
Ġhin ter
Ġe th
ĠGen eral
ch sel
Ġd ivers
Ġexist ing
Ġhe iÃŁt
Ġconcern s
ĠBe ziehungen
ĠSta ats
i as
ĠZ entrum
Ġprogramm es
Ġres ol
bild ung
ĠW Ã¤hr
ĠI ran
Ġconne ction
ĠR is
te id
S h
Ġz uf
Ġer hÃ¶
Ġcomple x
Ġumf assen
av a
Ã¤ ss
ok ing
ĠBevÃ¶lk erung
u ted
ĠPro f
ĠHand els
Ġse arch
b all
Ġinvest ment
Ġc ross
Ġ200 2
ĠW erk
Ġmention ed
h ung
Ġne ben
Ġ8 0
Ġl at
gr iff
hal te
Ġconcern ing
se hen
ĠAb kommen
c en
ip l
al ter
Ġal though
ĠL ondon
om s
Un ser
Ġte le
Ġrel ig
l ang
an de
fort un
Ġwrit ing
ke i
Ġpar liament
g l
ĠB re
ĠAug ust
ĠN orth
Ġjed e
Ġl ux
ĠInter essen
Ġpr im
Ġabsol ute
Ġreas ons
Ġc ard
Ġmod el
Ġv Ã¶
Un ter
ĠK os
Ġhel fen
o le
al y
ĠCour t
ĠPro gramme
ĠK Ã¶n
Ġa ktiv
Ġcomplete ly
Ġa ware
f ace
ay er
richt ungen
ĠBeit rag
hl en
B ook
at ure
ĠH os
Ġdem onstr
E D
l Ã¤nder
Ġdec isions
M y
aff ung
Ġbu ilt
Ġnot hing
Ġg ame
Ġlead ing
ĠGo vernment
te mp
Ġrel ated
ran ge
ĠVer tra
Ġj oint
I D
es h
Ġgel ten
ĠPro z
Ġex tens
ĠP ak
Ġgegen wÃ¤rt
ĠM il
ĠSchluss el
ar ing
Ġemp f
Ġges tellt
ĠF Ã¼hr
ess erung
Ġr und
z Ã¶s
ĠVer pflicht
ĠAuf gabe
Ġcomm unity
Ġ200 1
Ġhal f
Ġfriend ly
G en
ĠF Ã¶rderung
Ġkle ine
ĠFl ugh
Ġcomm ittee
amer a
Ġwicht igen
ar ity
Ġmein en
Ġin tens
Ġbe it
Ġunser es
ĠHand el
ĠKont rolle
un a
ĠL iste
Ġenl arge
ĠS Ã¼d
ĠF uÃŁ
Ã¼ss e
ĠN icht
Ġass ess
Ġfr ont
m ore
Ġbas ic
S E
Ġcult ure
ĠTÃ¼r kei
ĠAn t
Ġholid ay
ĠThem en
Ġpract ice
Ġconf lic
Ġpra kt
or ten
qu is
Ġm id
Ġintern et
fÃ¼ hren
ĠVerb indung
Ġd igital
ĠBe g
olog ical
Ġinclud es
Ġs ag
Ġs pr
uf fer
gr at
ahr en
l ies
Ġver d
M ail
Ġg ab
Ġsch wer
ĠP C
Ġagre ements
s pe
1 4
ĠErweit erung
al ien
Ġcons ult
ĠWettbewer bs
ĠTerr or
ode ll
ĠSt abil
it able
gangen en
Ġpop ulation
ĠK ampf
ĠC D
ol z
ĠP a
Ġall ows
ĠDe c
Ġgest immt
Ġmed ia
Ġobl ig
ĠEng lish
w ie
ter min
Ġlie gen
in den
Ġer inn
es te
for men
Ġspe zie
. ,
ĠJ ust
Ġwe gen
Ġbec om
en k
bed ingungen
ĠC or
y ing
n issen
Ġcomm er
Ġb ody
ĠAusschuss es
Ġmilit ary
st att
Ġadv ant
Ġjed es
Ġcon clus
S eit
z unehmen
ill s
lick en
D och
Ġw a
Ġ- ,
Ġobject ives
fl uss
Ġbe kommen
C on
F irst
Ġcho ice
g n
ĠM or
Ġrece ived
Ġer r
it ness
ze ugen
l ant
iter ran
Ġble ibt
M ore
Ã¤l le
Ġw Ã¼n
ĠVer ordnung
Ġorig in
ov o
er y
ra chen
ann te
Ġsim ple
B y
am it
ĠEntschlieÃŁ ung
Ġtrans fer
as on
Ġval ues
i ated
Ġs atisf
ĠS y
str uments
v ement
ĠOn line
Ġwar m
Ġjob s
D e
Ġna he
ĠBar cel
ĠKon ferenz
Ġestablish ed
Ġpl ann
ag n
our n
Ġcomp uter
end ing
Ã³ n
u ck
Ġapplic ations
ĠTur key
Ġequ ipment
gesch lossen
ĠVol k
i h
min ister
o o
Ġf ail
Ġange m
ĠNutz ung
Ġregard ing
ĠStr and
mb ol
Ġricht ig
Ġb ess
Ġpack age
ĠBe hÃ¶rden
ĠRe form
ĠAmer ica
Ġperform ance
ĠIn form
s itz
Ġh armon
ab on
Ġmo ve
Ġw under
ikan ischen
ĠF ern
Ġj ud
Ġger ne
Ġcap ac
Ġe mer
Ġcent er
Ġer laub
Ã¶r dern
Ġ199 9
l en
enn ung
Ġdurch ge
Ġ $
ĠLis bon
D o
ĠEinz el
Ġl ok
1 6
p ite
Ġple as
Ġim age
Ã¶ st
pe cted
Ġfil es
p ass
ĠA ugen
Ġver antwort
Ġp oor
Ġwichtig sten
ĠFe bru
at ic
Ġagricult ural
Ġp urch
v ious
Ġatt ack
Ġobject ive
Ġs un
Ġin iti
ĠL iss
Ġun abhÃ¤ng
Ġmehr ere
ic les
Ġbro ad
Ġquick ly
in ne
ĠAuf ent
os en
Ġreport s
om b
os ed
er c
Ġst op
d ie
ra b
Ġkey word
Ġw onder
Ġso und
S p
Ġh err
ges amt
ĠMitarbeit er
ro s
Ġc ru
ĠAff airs
er ve
ĠFor der
Ġf ace
Ġbel ow
im ension
s eit
ge f
ess our
Ġpart y
Ġg anze
Ġganz en
Ã¶ hn
Ġgood s
ĠK op
Ġhin sichtlich
stell ungen
Ġeing er
uc lear
Ġf ran
ĠI S
ĠGru ppe
Ġcre dit
ĠNot wend
und es
h em
em b
ĠRe ise
m ann
Ġindustr ial
ĠVerb esserung
br igen
Ġwo bei
ĠUr laub
ĠVol ks
Ġno te
Ġso uth
ĠWoch en
Ġerm Ã¶glichen
ĠKr ise
f ten
Ġexper ien
p s
tell er
Ġsel f
er nen
Ġtreat ment
ĠLiss abon
w ide
ch ter
Ġent hÃ¤lt
Ġh uge
ĠAus wahl
4 0
Ġsch Ã¶n
Ã ľber
ot ion
Ġco de
Ġpop ular
Ġbenef it
Ġnach halt
Ġsens e
Ġachie ved
A uÃŁerdem
it ect
Ġcont ains
Ġtro tz
l assen
ster reich
Ġopt ion
ein er
Ġp assen
ll a
av ing
Ġra il
schlieÃŁ end
Ġin itiative
ut t
ent wick
opp ing
Ã¤ um
Ġseem s
w ander
B er
Ġinde ed
ĠVer anst
Ġgar ant
ĠI T
Ġze igen
ĠP ass
ĠBinnen markt
ĠO ber
Ġle ben
ed en
er weise
Ġbe ein
Ġrec ently
Ġl os
ĠDok ument
m Ã¶glichkeit
L et
Ġsp ac
Ġcar ry
Ġeng ine
d om
ĠW ill
iven ess
R E
Ġcorre ct
ĠGe legenheit
m or
Ġ ill
Ġve h
Ġv ict
Ġdoub le
le y
f on
ĠSch affung
B es
Ġcon grat
V D
Ġgr und
Ġbeginn ing
ist ische
ĠL ux
S ince
it el
j ahr
Ġdialog ue
âĢ ĵ
Ġser ies
Ġr uh
ĠGeb Ã¤
l am
ĠFrank reich
ĠU kra
l ass
ien ste
Ġlea ders
s uch
p ut
an ia
opp el
Ġflo or
Ġsp ielen
Ġpr esented
ĠS ant
Ġhigh ly
Ġo il
ken nen
ĠB ad
h aupt
st ens
wert ungen
Z um
r ig
Ġfr Ã¼
ĠC ity
ÃŁ t
c er
Ġn ice
f onds
Ġevery one
Ġequ ipped
w ill
st ances
Ġeff icient
ĠE ast
Ġgar den
ĠH ome
M adam
ut ter
ĠvÃ¶ llig
Ã¤t igkeit
Ġhe ut
vor schriften
Ġlevel s
t liche
Ġsc ient
b a
n ern
Ġsuccess ful
Ġcl ick
ĠPr ior
la ce
Ġact ive
ink s
forder t
Ġcomp rom
on se
Ġre d
ic ien
ĠF ach
Ġintegr ation
ĠVer wendung
Ġeinz ig
P E
p id
I M
Ġex change
O L
Ġ !
Ġ +
Ġcar ried
fortun ately
ĠG ree
ĠAngeb ot
Ġp ain
Ġk ulture
Ġverbess ern
er ing
ĠNotwend igkeit
Ġf urn
ff iz
me hr
Ġwh ose
is ted
Ġf rei
ĠErgeb nisse
Ġl Ã¤sst
or ganis
Ġincre ased
ĠBe f
Ġst age
auf en
Ã¶r per
ĠWoch e
ĠBarcel ona
ab or
Ġconsum ers
Fin ally
ĠCl ub
A d
ĠWachst um
anz en
ĠT age
Ġgrund legen
Ġd re
Ġb lock
Ġprincip les
Ġse x
Ġa ge
ate ll
Ġgut en
um b
Ġt w
Ġagre ed
ĠMan agement
Ġgovern ments
j ust
Ġs ent
Ġoff ice
ĠS up
I L
ĠAm ster
imm ing
ho ben
Ġeigen e
ĠGew alt
o z
a pe
a ction
Ġask ed
Ġverw enden
p ose
j a
ĠM acht
l ier
ĠZ e
Ã¼tz en
ĠAn zahl
ĠKÃ¶n ig
Ġst ra
sch w
b uch
Ġamend ment
Ġrev iews
ĠverfÃ¼ gen
ĠA part
2 5
ann er
Ġbath room
ĠD is
ĠgroÃŁ er
Ġsozial e
ĠI mm
ĠZeit punkt
ik o
Ġex c
Ġdire ction
ĠS erv
ĠK ern
Ġver g
asch inen
Ġd ang
un t
Ġtra ff
b ie
ic o
Ġm al
Ġs ix
ĠJ une
ĠTe am
Ġcho ose
Ġcommer cial
Ġco ll
Ġgef Ã¤hr
Ġr at
Ġmein em
Ġh Ã¤uf
icher ung
grif fen
Ġob tain
ĠM aterial
w ise
Ġsim ilar
Ġsubs id
Ġadd ed
end s
Ġte ll
Ġhigh er
Ġcommit ment
Ġprof it
x is
Ġsch Ã¶
Ġdisk ut
Ġsee k
ĠverfÃ¼ g
mit t
ap t
Ġsupp ly
at ast
Ġk Ã¼nft
il es
verstÃ¤nd lich
kl us
Ġsh ows
Ġf Ã¶rdern
Ġper haps
Ġgesam te
ĠLie fer
Ġz unÃ¤chst
sch t
Ġstr ess
Ġan zu
ĠgehÃ¶r en
Ġ5 00
Ġaspect s
Ġnew s
loy ment
Ġat mosph
Ġob s
Ġav oid
Ġsh own
Ġmat ters
Ġgleich en
ĠSoc ial
Ġinfl uen
Ġc ame
ĠLÃ¶s ungen
Ġ You
Ã¤n gt
st anden
h es
Ġconsider ed
ĠJu gend
ĠM y
ĠT at
Ġthank s
ĠProdu ktion
ĠBer g
Ġfor mer
Ġb i
uff icient
Ġ2 8
us ion
ck s
ĠB ud
Ġprom ote
ing er
Ġre in
ĠM iss
ig lich
al u
Ã¤nd ig
Ġspe ed
f Ã¤lt
Ġge legen
ir it
Ġinnov ative
pf lich
Ġp an
Ġvorh anden
ĠVor aus
Ġtats Ã¤chlich
gre ifen
ĠH igh
e hr
ak ter
Ġhotel s
ĠAn fang
ĠBeschÃ¤ft igung
k i
fahr t
Ġd ynam
Ġn uclear
Ġposs ibility
ĠStand ard
Ġlat est
2 4
Ġs orgen
ĠM Ã¤n
ĠL eit
l Ã¶s
Ġein deut
Ġbeh ind
ĠY ork
Ġmaterial s
Ġeffect s
ĠHer zen
ĠD u
en cy
ĠMa ÃŁ
Ã¤ st
ĠC entral
ĠIntegr ation
Ġopport unities
crip t
ĠMehr heit
aus ch
ĠT od
ot es
ous ly
ast ic
ĠIn itiative
or ed
ĠK rieg
Ġr ates
aussch uss
Ġge fÃ¼hrt
ĠB alk
art ige
ow ers
R o
Ġso fort
ieren den
D enn
ĠS tellung
Ġcon dition
olog y
ĠErfahr ung
Ġverst Ã¤r
H ere
ĠW ein
Ġd raft
Ġer k
ok oll
il en
ĠP an
Ġde pend
essour cen
Ã¼ hm
Ã¤ cht
Ġl ik
Ġreach ed
ĠSe e
Ġa f
Ġrev iew
Ġern st
ĠÃĦnder ungen
itt ing
Ġph ys
Ġe ig
ĠRep ublic
ĠPerson al
Ġsett ing
Ġentwick eln
b re
ĠBesch l
l i
wh ere
Ġaccommod ation
Ġresp onse
alt ungs
ĠS olid
ĠÃ¤uÃŁer st
Ġatmosph ere
Th ank
Ġsum mer
ic y
Ġprovid ing
gen e
Ġeas ily
ar ent
ĠOrganis ation
un sch
Ġde ath
ĠCh in
Ġcre ation
Ġle icht
9 9
ĠN ieder
Ġprep ared
Ġverste hen
r id
ĠR u
ĠEin fÃ¼hrung
ĠP ost
ĠPro gram
ĠH am
Ġex hib
rif ten
ict ion
z ub
Ġh off
N o
ĠgrÃ¶ÃŁ ten
Ġrelev ant
zeug t
Ġex ternal
Ġsom it
ĠL es
Ġcrit er
Ġs ize
Ġ9 0
id el
u el
Ġdet a
Ġdec ided
ne y
ĠJun i
ĠE igen
ar ily
ĠLe g
he ben
uff et
ĠDe z
ĠgewÃ¤hrle isten
le b
Ġd ring
Ġgesch lossen
Ġredu ce
Ġpre par
ĠÃ ł
Ġpress ure
ĠL auf
um mer
ĠReg ierungen
rech end
Ġsch le
qu are
ist ics
ĠR el
Ġcon du
Ġele kt
k raft
ĠM ac
ĠRat sprÃ¤sident
Ġho hen
ĠUm gebung
re c
Ġver pflich
Ġgeb racht
Ġled iglich
Ġsub mitted
I s
ĠSp ain
Ġter ra
Ġbe teil
Ġsustain able
Ġsag te
Ġcapac ity
Ġact ions
ĠS elbst
Ġv ideo
ĠCon vention
Ġst yle
Ġpla ces
ĠRuss land
Dar Ã¼ber
Ġcom ing
Ġg ives
stell t
ĠIn nov
Ġpro b
Ã© s
Ġdet ails
ib ilities
ĠG olf
oun ts
es tens
cre en
Ġemploy e
Ġerfolg reich
ĠHÃ¶ he
Ġcon cept
ul gar
ĠM adam
ier ter
ĠA gr
itz en
Ġarch itect
Ġreg ular
Ġs ites
ĠAmster dam
Ġ19 6
Ġne igh
Ġander er
u ern
Ġt en
Ġgro ss
ĠKon fl
i ately
ĠA kt
ĠM ag
ĠI mp
ĠFamil ie
Ġ7 0
ĠSp rache
v olle
ĠH o
ĠA ktion
Ġclos ed
Ġreg istr
ĠVerein bar
2 3
Ġenlarge ment
ĠStand punkt
Ġann oun
ĠBus iness
Ġde p
Ġbestimm te
Ġs uffer
W er
res p
il os
ro at
ĠE rachten
Ġpropert y
Ġver n
ĠMa i
P L
Ġausgest attet
ĠB ra
Ġmein es
ma ÃŁnahmen
Ġprior ity
Ġc ause
ĠErachten s
D amit
ĠG lobal
ind ustrie
la v
Ġrem ains
s y
al a
Ġzw eite
Ġle ave
re hens
ze uge
ĠInform ations
ĠKomm unik
Ġer schein
Ġdis play
it ure
ĠKomp rom
Ġwirtschaft liche
rie f
ad em
Ġtra in
ĠS icht
Ġis land
rim in
o der
ĠL at
et ing
ĠA ud
S ome
Ġreg ister
s on
ĠTransp ort
N ow
ien te
Ġbestimm ten
ĠL og
komm ens
ĠD inge
There fore
ĠBe kÃ¤mpfung
Ġ =
Ġzahl reiche
ĠR ot
ĠKommissar in
ĠItal y
ĠWettbewer b
Ġdes crib
ĠVertrag s
Ġ3 00
Ġvor gesehen
at o
Ġpart ner
ĠAm end
em in
ĠF erien
Ã¼nd et
zieh ung
ĠW ahr
ĠN et
Ġ ut
Ġun e
Ġfund ing
Ġassist ance
ĠAs pe
Ġbal ance
F urther
men ted
Ġf al
Ġconsum er
ĠDeb ian
Ġob wohl
ĠSt ad
.. ..
Ġlim ited
ĠPart y
Ġmov ement
ĠW TO
ug s
Ġa mer
Ġfor ms
Ġdisc over
setz ungen
ĠKos ovo
Ġw oll
ct ober
P ar
Ġer hÃ¤lt
ĠFrei heit
ĠM ich
ĠVerkehr s
spr Ã¼n
legen heiten
' .
ter ne
atast rop
iterran ean
sel ves
Ġs port
ĠP ers
u ert
itz er
ĠM useum
Ġsupp orted
ĠC ol
Ġtra gen
g han
Ġde cl
ategor ies
Ġent de
Ġfo ot
Ġhigh l
Ġbro ught
ĠC he
Ġne uer
Ġtransp aren
ĠArt icle
Ġ' '
ĠauÃŁer dem
Ġgro und
ĠHin ter
Ġv irt
miss ion
s ystem
Ġel se
ig ungen
Ġ2 6
ĠE ing
ĠÃľber ein
schn itt
ourn al
Ġvor lie
Ġpro t
ĠAktiv itÃ¤ten
ran g
Ġregul ations
Ġg reen
Ġschein t
Ġbest Ã¤t
Ġinde pendent
ĠG ed
g esellschaft
stit ute
ĠIn strument
Ġar g
velop ment
ĠDec ember
ĠÃ¤ hn
Ġn orth
ĠKont akt
c le
ĠAfr ica
Ġer weit
Ġvers uchen
ĠD ar
Ġalle in
wert ung
icien cy
Ġh or
ĠM ad
reib ung
Ġr ule
Ġge wor
N G
ste in
ĠT o
Ġw ww
ĠFortsch ritte
ie g
Ġqu iet
Ġlim it
et imes
ĠSp a
Ġf ig
ĠFehl er
u is
ge ber
el ten
Ġsol chen
Fra ktion
Ġple ased
v iew
Ġconstru ction
ĠBest immungen
ber t
Ġunter st
ĠUkra ine
Ġexp la
Ġ x
ĠA dr
Ġrest aurants
Ġer ster
ĠBrit ish
Ġor d
Ġpur pose
hin dern
Ġvar iety
a der
Ġcreat ing
Ġl ic
Ġd adurch
Ġgem Ã¤ÃŁ
e hen
Ġzw eiten
Ġeff iz
Ġre gel
ĠS telle
ĠV is
Ġfriend s
en a
Ġm obile
Ġapart ment
Ġeff e
st ag
Ġre pe
p age
Ġeinz ige
ĠItal ien
Ġdiscuss ion
ĠGe fahr
Ã¼tz t
ĠMed ien
Ġfran zÃ¶s
ĠSt unden
ĠO kt
Ġth ous
d ra
an ischen
Ġex ec
Ġmess age
Ġins gesamt
P res
Ġs us
Ġf ix
ategor ien
Ġauf genommen
ĠI N
ĠIn stall
Ġprodu ced
Ġf isher
Ġh y
Ġbec ame
merksam keit
Ġin stead
ĠItal ian
Ġho he
ĠMar ch
Ġren ov
is ters
* *
Ġb illion
mÃ¶glichkeit en
end es
unter nehmen
Ġw id
ĠP unkte
t ent
Ġver gangenen
Ġlar gest
âĢ ¦
ĠW estern
ĠM icro
Ġair port
F R
Ġcon ference
mÃ¤ÃŁ ig
Ġcon tr
Ġde ep
er o
Ġer heb
O r
ĠW ohl
Ġstud y
Ġinterest ing
Ġreg ards
ĠAuf merksamkeit
Ġacc ord
ĠFol gen
ĠDez ember
af t
Ġrelations hip
is p
Ġal ten
Ġh ost
Ġbo ard
ĠUnter k
b us
ĠF ed
ĠS il
Ġw ays
ar enz
Ġsch lieÃŁlich
be wertungen
w a
Book ing
Ġob vious
entlich keit
Ġmeas ure
rit ts
Ġstar ted
le gung
ĠUn d
b esch
ĠJahrhunder t
la re
Ã¼r f
8 0
Ġeff ort
Ġch em
ĠErklÃ¤r ung
Ġst ability
Ġstep s
k ont
ĠPre ise
Ġallow ed
Ġ199 8
Ġfish ing
com ing
Ġactiv ity
Ġproced ures
Ġgen ieÃŁen
ĠA f
Ġein schlieÃŁlich
Ġde termin
Ġver treten
S T
Ġ Ã¤ndern
ĠPriv at
f alt
y ond
por ate
ĠBenutz er
rÃ¤ fte
Ġr ich
ĠEntscheid ungen
Ġin strument
Ġtas k
Ġoper ation
Ġprodu ce
E P
Ġmed ium
ron ic
ug g
Ġkein er
an lage
Ã¤ gt
ang t
Ġh ous
W Ã¤hrend
ĠBild ung
ĠSta at
Ġhervor ra
Ġstat us
Ġd iv
ĠBericht s
al tet
n o
ĠAn forderungen
se e
Ġm orgen
Ġac cep
Ġlegisl ative
ĠFil m
conom ic
so ft
Ġcomprom ise
ĠR ights
Ġkon zentr
ĠBas is
Ġd ut
Ġrel ation
Ġcontrib ution
ĠKÃ¼ che
Ġprov isions
pr ises
Ġsour ce
ĠO ctober
Ġex act
Ġeig entlich
ĠSchwe iz
Ġb eschÃ¤ft
ĠD i
Ġt Ã¤
ad es
g round
itu de
ĠGÃ¤ste bewertungen
an nen
ĠK ing
ĠAl t
Ġj Ã¼n
ĠÃĸff entlichkeit
ĠAb end
ĠVorsch riften
ĠC ons
Ġbet roffen
Ġdam age
ĠSer ver
Ġp urs
Ġwrit ten
u ed
b or
Ġdis p
Ġf all
ĠDiskuss ion
ir a
ib il
ĠD om
Ġfor der
Ġlab our
Ġapp e
wend ungen
Ġwor d
Ġl iberal
B itte
Ġin struments
Pres ident
Ġs an
Ġvill age
glie d
s icherheit
lin es
ĠG ip
ĠZ eich
l Ã¤nd
ĠO per
Ġm or
Ġkonn ten
ĠUnternehmen s
ĠGru ppen
it ial
Ġdist ance
ĠBereich e
ient en
Ġerwar ten
Ġcomp on
Ġg iving
for d
- -
ĠEr zeug
Ġour selves
Ġk it
d ienst
ennt nis
E M
Ġle isten
im inal
ok er
âĢľ ,
Ġeinges etzt
over ty
ĠH ar
Ġle ider
Ġfe hl
Ġd ise
Ġg ot
id ge
ck er
iv ity
ĠSt Ã¤d
Ġcriter ia
. )
ĠFlugh afen
Ġdoc uments
Ġg ain
ĠGr enzen
et ary
ĠhÃ¤uf ig
k osten
Ġhistor ical
ĠLand wirtschaft
T od
ĠB undes
Ġcon ven
ĠArbeit nehmer
ĠO pt
il fen
Ġmin or
U R
Ġstat ement
ĠJanu ary
rat s
Ġp en
ĠOkt ober
Ġwen ige
ĠT er
Ã¼h ungen
ĠSpan ish
if ik
ĠK an
un k
Ġl oss
Ġgen ommen
O ffice
Ġst a
Ġmount ain
ĠMÃ¤r z
wor ks
Ġw on
p olit
Ġev alu
g y
cre t
Ġkle in
Ġd at
ĠPr Ã¼
Ã¶ff net
Ġver m
Ġele g
Ġpre fer
ie te
Ġdurchge fÃ¼hrt
ĠPrÃ¤sident en
w esen
le kt
ĠÃ¼ber w
Ġf irm
Ġgewor den
fre und
Ġla unch
Ã ±
ĠS ite
ĠS ystems
Ġg ran
Ġde part
ĠN ationen
Ġb ase
Ġfin ally
Ġfil m
Ġviol ence
Ġcomp rehens
Ġfe ll
Re g
ĠGesundheit s
ĠTransp arenz
Ġm em
Ġinter pre
ĠP ap
ĠW ider
or gt
Ġtyp es
Ġstruct ure
ĠD on
Ġber Ã¼hm
y a
ĠAn satz
ĠSt Ã¤r
ĠOr gan
ogra f
o ught
ĠS inne
ĠbenÃ¶t igen
Ġun mittel
Ġz entr
ĠPr inzip
ul s
letz t
ĠE re
ĠC amp
ĠTages ordnung
oc ated
Ġimmed iately
ter prise
ater al
Ġsuch en
Ġse ction
Ġw orth
lichkeit en
he ad
forder ung
Ġe dit
or gung
te uer
Ġbenef its
Ġb ra
e ks
O T
Ġcon stant
Ġw ine
Ġele ments
ieren de
Ġp ath
z we
Ġ2 9
... "
h ere
Ġihr es
Ġemploye es
Ġhigh est
ĠGrÃ¼n den
an ted
ĠBel g
Se cond
O f
ĠAuf trag
ĠB ilder
ĠeuropÃ¤ ischer
ĠC om
Ġobs erv
y er
drÃ¼ck lich
Ġw est
! !
w ind
Ġfre und
Ġper fe
Ġb rit
ĠTe x
Ġdistrib ution
Ġk ennen
Ġg as
Ġtransparen cy
Ġkann st
Ġgef unden
Ġg rat
ĠVor sitz
orn ing
crip tion
Ġbe zÃ¼glich
leit et
ĠIn n
Ġakt uellen
ur ance
for dern
ĠS ommer
h ouse
zeich nung
z one
Ġsup er
p en
Ġwicht iger
Ġn ied
ĠS l
ĠGem eins
ĠM art
ie ht
ĠH ung
Ġuse ful
ĠEmp fehl
frastr uct
Ġth reat
zus ch
ene w
Ġw eder
Ġintegr ated
Ġge le
Ġnum erous
ĠSchw ier
ĠJul i
Ġvor ge
Ġst ock
amm lung
T ra
Ġequ al
ĠUnter such
Ġread ing
ĠAuf fassung
ĠhÃ¶ her
a ign
Ġg re
Ġur sprÃ¼n
ĠFir ma
ĠS ache
ĠMet ho
Ġanges ichts
ĠE d
Ġele ctions
Ġapp lied
Ġpark ing
ern er
ĠRed e
mosph Ã¤re
Ġl ate
Ġaff ect
Ġhal te
Ġl ower
Ġaltern ative
Ġz eit
Ġgesch affen
ĠUnivers ity
Ġc y
Ġ ult
Ġson st
ĠPortug al
ĠAufent halt
Ã¤n gen
Ġhelp ful
ĠCent re
Ġa genda
Ġre ality
Ã¤ te
ik er
Ġdr ive
ĠSt ar
ĠN r
be zogen
ĠServ ices
r al
Ġapart ments
l ose
r Ã¼
ĠPro jekte
ĠVer Ã¤nder
Ġco ast
Ġpay ment
Ġro und
Ã¼ck en
Ġcons ist
ĠDe velopment
ol a
ĠAf ghan
ĠÃ¼ brigen
wor tern
Ġe mb
Ġda ily
Z ur
Ġte ach
Ġprocess es
Ġsay ing
ĠDem oc
Ġe her
Ġsk i
P S
ĠInvest itionen
ĠLin ux
Ġm is
ph one
Ġocc as
ĠIn nen
leg ation
Ġsie ht
acht ung
9 8
W el
ĠComp uter
af e
Ġchallen ges
Ġoffer ing
Ġh om
ĠT ro
ĠM ann
ĠJul y
ĠPrÃ¤sident schaft
Ġtool s
ĠbegrÃ¼ ÃŁe
Ġerne ut
ĠÃ¼ber prÃ¼
Ġtre ffen
Ã¼n de
Ã¼nst ler
I I
Ġbe m
ĠLebens mittel
p ark
own load
ĠInd ustr
Ġsolid arity
og le
Ġbring t
ĠB ulgar
Ġdie jenigen
Ġem iss
ĠK ur
fr ont
Ġt im
Ġconsequ ences
ar es
Ġph ot
Ġanalys is
zuf Ã¼hren
Ġm ut
ĠS um
Ġentsprechen den
ilos oph
Ġb ad
Ġpers ons
r ichten
Ġpa id
en gen
Ġhin zu
Ġcru cial
Ġp overty
ĠE m
ĠIra q
Ġper man
ĠRegel n
Ã §
spro zess
Ġdis tr
Ã¶r en
ĠStra ÃŁen
ĠRe v
ion e
Ġund ert
ĠM id
iz in
spr Ã¼
ĠEre ign
a ktion
ĠG al
Ġver Ã¶ffentlich
Ġbe yond
Ġpl ant
e g
Ġk rit
Ġcolleag ues
Ġth ought
y e
ĠB ahn
Ġer fahren
Ġoffer ed
Ġzie hen
ĠM obil
Ġsp irit
ĠSolid ar
ĠJanu ar
Ġ ign
Ġhuman it
sp iel
Ġgo es
m Ã¶
Ġwissen schaft
Ġilleg al
spr icht
Ġun emp
ze hn
ie gel
ĠEn ts
d ed
fol ge
Tod ay
Ġleg it
ĠBe teil
ĠJ ava
ĠSchlussel wortern
ĠC ost
Ġbeit ragen
ĠG ott
ĠD an
ĠÃĦnder ung
ĠK oh
Ġp al
uf e
ĠAuf gaben
Ġhapp y
Ġl as
ĠÃ¶ffent liche
ĠD VD
ĠFl or
Ġ3 5
Ġpract ical
ĠF Ã¤llen
b ack
Al so
Ġ199 7
ul a
Ġentsp rechend
ot he
Ġv an
Ġverg essen
v ors
ĠG ast
ĠMon aten
Ġconflic t
I A
im ent
ws er
Ġs ufficient
Ġk ur
ĠLin ie
Q u
ien z
ob by
Ġide as
ĠAgr ar
sch lieÃŁen
Ġk il
ĠZ w
D abei
ĠfrÃ¼ her
schein lich
ĠMed iterranean
i ability
fÃ¼ hl
leist ung
Ã¼r ger
ĠU p
los en
an geb
ĠBed Ã¼rf
D F
S S
f o
c ement
Ġze hn
J ed
Ġh ar
Ġex ception
ĠC O
ĠBem Ã¼hungen
Ġausge zeich
z y
ĠFol ge
Ġh il
ĠT erm
oc ol
Ã¼ cht
Ġgen annten
Ġget an
ĠRep ublik
Ġp ie
Ġorganis ations
Ġwe eks
ive au
ir l
Ġver hindern
Ġ3 1
w art
ĠT a
ĠBÃ¼r gern
ĠSitz ung
Ġfor ces
ĠVertre ter
{ {
ĠhÃ¤t ten
tell ten
ĠNach bar
Ġbehand elt
Ġb an
c raft
Ġto mor
Ġun be
Ġrequ ires
Ġminim um
Ġadvant age
ĠW unsch
str umente
Ġfre qu
sy ch
ang ing
Ġspe e
Ġin frastruct
b ased
Ã ł
Ġtomor row
Ġer folgt
Ġpr Ã¤sent
Ġander em
Ġdoub t
ĠD et
ĠT agen
ĠM os
ĠD ritt
Ġcongrat ulate
ca pe
Ġmod ified
ur b
Ġlang frist
Ġvor her
ĠAr mut
Ġhistor ic
E very
Ġs ales
if el
Ġhe ar
ĠV Ã¶lk
ĠO st
Ġcl ients
2 2
at Ã¼rlich
Ã¼ ge
pro gramm
Ã¶ ÃŁe
Ġwas te
ĠAut o
v ere
ĠDire ctive
Ġm orning
Ġsh opping
Ġimple mented
Ġrel ating
gew iesen
Ġrefer ence
ĠSpe zial
Ġpartners hip
Ð »
Ġse cure
re t
Ġn immt
Ġl ines
ĠBe handlung
Ġpublish ed
Ġwe ak
ib e
0 3
h old
Ġstart ing
v is
Å ¡
isch em
ĠR essourcen
esell schaften
Ġmonitor ing
) :
Ġvers ucht
Ġbed room
Ã¤n ge
ord ination
4 5
Ġpa ar
ĠG as
ain t
Ġr enew
Ġrest r
ĠRest aurants
ĠV en
Ġbes ondere
Ġre ich
w Ã¼n
est ic
Ġsch l
Ġmaxim um
Ġo l
ĠjÃ¼n g
Ġsim pl
ĠBeg inn
z t
Ġcaus ed
ick en
o on
th eless
ĠAn str
Ġs yn
Ġoper ating
Ġread y
ĠD o
Ġus w
Ġfor dern
Ġmach ine
ĠW inter
Z weit
ĠBÃ¼rger innen
Ġcirc um
Ġcomprehens ive
Ġl ives
pect ive
Ġeff iciency
ĠB a
D uring
ĠS ign
Ġaccord ance
ĠAt mosphÃ¤re
Ġredu ction
Ġser ver
A pp
ĠGer ichts
ĠDies e
C O
ĠK or
Ġaus reich
gru ppe
Ġcamp aign
a is
Ġw r
ĠVer l
Ġse lect
b ook
ĠGebÃ¤ ude
n ungen
ĠKre dit
sch reit
Ġf ul
Ġgew esen
stitution al
ĠTechnolog ie
ĠerklÃ¤r t
ĠBetrie b
Ġse chs
Ġmean ing
i us
ĠPal est
ziel le
re m
sch Ã¶
Ġm Ã¼
Ġj en
ĠV al
Ġstre et
ungs ver
A cc
p ack
Ġs ports
ateg ie
frastr uktur
ĠÃ¼ber haupt
P h
haf te
Ġre con
Ġany thing
M any
ad o
N ur
b in
c ia
Al though
ĠNe u
Ġant i
ich ert
Ġin itial
ic it
ĠN acht
ĠB ot
Ġopt ions
Ġun bed
Ã ´
alt ungen
p ool
Ġd ed
Ġmit t
ĠErfahr ungen
ul ated
schrif tlich
Further more
Ġbe ant
ĠerfÃ¼ llen
Ġplay ers
Ġzahl reichen
ĠFinanz ierung
Ġgrow ing
L A
stand ing
Ġsom etimes
it ch
ĠV illa
Â Ń
Ġcrit ic
ĠOp en
Ġbeg in
ĠberÃ¼cksicht igt
ĠM ult
' ,
ĠForsch ungs
m us
Ġ urg
Ġfol gen
at form
ĠMin der
Ġon es
ĠProt okoll
Ġad vert
Ġpict ures
Ġk o
Ġbor der
Ġwar um
Ġs Ã¤m
Ġg Ã¼nst
Ġch arm
Ġbetre ff
Ġtechnolog ies
bo ard
Ġg erecht
Ġex tent
Ġlangu ages
ĠVer gangen
as ten
Ġoff iz
Ġch ance
Ġsw imming
fl Ã¤che
ĠAustr ia
Ġst immen
} }
ut ive
ĠgrÃ¶ÃŁ er
Ġprob ably
trÃ¤ gen
I V
aly se
ĠVer teid
Ġwel ches
Ġbe gan
Ġterror ism
h otel
Ġrem ov
ĠWer te
ĠPra xis
S P
Ġmen sch
ĠAspe kte
S tr
it ation
ĠCent er
Ġv oting
Ġein geb
Ġdec or
ich ern
Ġricht ige
Ġfarm ers
ĠO l
Ġmethod s
Ġra pid
Ġinter ested
Ġun er
Ã¤ llt
leg ten
Ġem ail
ok e
ĠIn halt
ie ll
if ically
Ġcoun ter
Ġjeweil igen
ĠSe curity
ĠVergangen heit
Ġex port
Ġs av
Ġc andid
Ġw anted
Ġworld wide
it ten
Ġl ands
Ġs al
Ġmot or
Ġste ts
Ġtour ist
Ġverpflich tet
id ing
Ġein heit
Ġc ast
ĠgrÃ¶ÃŁ te
9 7
Ġb ur
ig ation
ĠCon ference
ffiz ienz
Ġse ctors
Ġconc entr
Ġresp ond
ĠIn iti
Ġadop t
iz es
Ġtransp arent
gr enz
ĠK e
Ġsein es
ĠW eit
ĠZ entral
Ġhistor ischen
w el
ĠM c
ĠV ideo
Ġchallen ge
ĠTerror ismus
Ġsy mbol
ĠMenschen rechts
ĠR ats
Ġe hem
Ġc ert
zeit en
ĠA gent
Ġval id
Ġscient ific
ĠSt ock
Ġb ill
Ġg ames
ĠBer uf
vo llen
Ġl es
ĠF Ã¤h
Ġw Ã¤hlen
ĠGr and
n ungs
re land
Ġre lease
Ġar range
Ġbe in
kt ive
Ġsta at
fen ce
Ã¤ chen
Ġsele ction
ĠH el
Ġre le
Ġaccep ted
Ġb ald
ĠT est
ĠA k
ĠRe al
ĠEr d
k arte
s am
ĠauÃŁer halb
w enden
ĠAn frage
ĠTra dition
Ġk am
ĠT ier
icht lich
Ġex erc
ĠGe f
ĠAir port
Ġbef Ã¼r
s c
ĠD a
f igur
ĠOp fer
f urt
ĠSch ritte
Ġapp rec
rÃ¤n kt
in ary
pos es
en ze
Ġbe trÃ¤
ĠC al
â Ħ
ab kommen
Ġbusiness es
Ġverantwort lich
Ġmoder nen
me er
ĠG reen
Ġup d
Ġf ine
Ġb lo
Ġzum indest
ĠRechts vorschriften
iz ing
âĢĿ .
Ġfol gt
en h
Ġgem ein
i ant
Ġp owers
ĠSpan ien
f Ã¼r
Ġim ages
Ġexp ert
Ġvisit ors
k om
tem pt
Ġtry ing
Ġl ay
ĠM er
Ġwalk ing
Ġrem ember
ĠT H
ĠAnge legenheit
b as
Ġver kauf
Ġt Ã¤t
Ġl ies
ĠD at
Ġver ab
um m
z ul
er dings
ĠZ ivil
ĠG el
Ġl ost
Ġdes pite
M eine
ĠWe ll
atal og
ĠvollstÃ¤nd ig
Ġheut igen
Ġgen u
Ġra ised
Ġw ach
im b
Ġabsolute ly
Ġco up
ĠM and
ĠpersÃ¶n lichen
Ã¤mp fen
Ġsepar ate
af fe
ĠM ass
Ġgen ug
Ġinfluen ce
ĠAnge legenheiten
Ġsch Ã¼tzen
ak te
Ġf ant
Ġeleg ant
ĠBer at
Ġen orm
Zweit ens
ĠG arten
tr itt
AT O
ĠW enn
ĠG et
Ġtechn ischen
ĠFir men
los igkeit
r aten
M S
and a
erk ennung
Ġcompet it
ĠW aren
ĠK n
im ed
Ġk omp
Ġerinn ern
bar er
ver age
ĠVer gleich
Ġpr Ã¼
g a
Ġco hes
M L
Ġfol genden
ick et
Ġin e
ĠP et
ges etz
Ġaus schlieÃŁlich
âĦ ¢
ĠParte ien
ĠC ap
Ġhe av
ĠSchwier igkeiten
qu em
Ġdeut schen
Ġerlaub t
ĠD oppel
ĠEx per
Ġsub stant
Ġdem ands
olog ie
ĠH y
ĠAn nahme
Ġref lect
Ġcl ub
Ġaff e
s Ã¤tze
Ġmanufact ur
I F
Ġhon our
Ġand ers
Ġs il
hÃ¤lt nis
ĠHeraus forderungen
st ar
wer te
ĠHin sicht
Ġnam ely
Ġbess ere
Ġerwar tet
l ast
Ġun ten
ĠEin wander
Ġspe zif
ĠEntschlieÃŁ ungs
ĠReg ierungs
ter e
Ġbor ders
Ġ199 6
ĠstÃ¤r ker
Ġl isten
ĠâĢ Ķ
hand el
zus etzen
Ġangem essen
Ġin sp
Ġfiel ds
ĠCh ance
I ON
Â ´
ab r
ĠI d
g Ã¼lt
Ġan erk
ĠT or
Ġzu k
lemen te
ĠVertra uen
7 0
Ġ ).
Ġr is
Ġchange d
Ġget roffen
re ise
ĠE ss
ch tet
Ã¶r t
att le
/ /
ĠIhr es
zu legen
Ġge k
Ġf ire
Ġv ital
N atÃ¼rlich
id s
ge hend
E ven
b it
ul y
E G
Ġrepresent atives
ĠH al
Ġmen u
âĢ ŀ
Ġkit chen
Ġit alien
Ġse ason
h ilfe
Ġg lo
un ge
ĠÂ »
Ġpro ceed
Ã¤tz lich
Ġallgemein en
Ġver urs
ĠÃ¼ber nehmen
Ġc alls
us es
ro gen
am in
ĠGes pr
Ġinnov ation
Ġstrateg ic
Ġges etz
Ġover all
iar den
igh ted
ĠEin richtung
ind ungen
Ġwork ed
ĠI reland
Ġg esehen
us ed
ĠG ran
Ġeven ing
Ġyour self
Ġsl ow
rup tion
at ers
eng ungen
Ġplay er
Ġim pl
He ute
kon om
ĠEn d
ar ies
Ġtr ip
ĠSpiel er
it ts
L a
ĠMicro soft
Ġprocess ing
Ġzuk Ã¼nft
vors itz
Ġiniti atives
z iert
pp ort
as c
sp rechen
ĠS m
Ġhe ard
ĠU K
Ġbit ten
Ġj Ã¤hr
Ġann ual
Ġwieder hol
Ġin tended
Ġexpress ed
T ro
ĠM odell
ĠE igent
w an
ĠbegrÃ¼ ÃŁen
Second ly
Ġa ward
imm ern
ĠChin ese
Ġwr ong
ly mp
ĠP H
Ġehem al
Ġdar stellt
d i
ĠOr d
m and
Â ²
Ġver tra
ĠH uman
is ely
Ġpl ans
ĠS en
Ġtra ck
gru ppen
kr ise
h ers
Ġangeb oten
Ġoff ens
ĠGen eration
w es
Ġneg ative
Ġocc up
ĠProz ent
Ġbeg innen
ĠM ess
Ġacc ession
Ġpriv aten
eign et
ĠB al
Q L
ĠVerw altung
um in
Ġend lich
Ġs etzt
ul ations
i Ã³n
Ġb ir
Ġcommit ted
it a
n el
ĠVer fassung
Ġc ell
Ġautomat isch
Ã¶rder t
ĠProdukt ions
Ġan gene
Ġzu dem
ĠL iberal
A G
au ern
Ġnat Ã¼r
ru it
ĠRuss ian
Ġtraff ic
Ġl ove
G leich
Europ ean
Ġf alls
Ġtalk ing
Ġgo al
Ġletz te
Ġflex ible
ĠT em
ild et
yste men
ĠArbeitspl Ã¤tze
in ens
Ġeindeut ig
Ġbest immt
zeich en
g ere
9 0
Ġfr esh
Ġrestr ict
ĠJ ohn
T V
Ġent gegen
oll ar
ifiz ierung
Ġd eine
Ġph oto
Ġl Ã¤nd
Ġc ities
ĠS Ã¼
Wh ile
ĠH ause
clud ed
Ġab ility
Ġdat ab
ĠPr Ã¤
st offe
N ot
ust ausch
Ġpla ced
or ies
ĠS onder
ĠSolidar itÃ¤t
Ġj em
ĠKap ital
ĠBerichterstatter in
Ġs ays
Ġmain ly
Ġ rom
Ġtarge t
s et
z lich
ĠA gre
Ġh ot
Ġbr and
ĠÃĸ sterreich
Ġrun ning
Ġd ipl
Ġt it
ĠF alle
ĠAn trag
Ġspe ct
ĠAmend ment
ĠAfghan istan
b um
b ringen
Ġbem Ã¼
idel ines
Ġt al
ĠPre m
Ġs inn
r as
Ġplann ing
ĠSw iss
ho od
Ġdring end
Ġterra ce
ag raph
Ġele ment
ĠKon zept
Ġaut om
Ġal one
Ġrem ind
Ġfamil ies
Ġ19 5
Ġcohes ion
9 6
et ten
Ġstud ents
Ġappro ved
geb iet
ĠG ene
ĠE ind
Ġopen ing
ĠA mb
Ġbei de
ĠHos tels
Ġbe ge
pl es
ĠIs lam
C D
g ers
ĠLe ute
ĠHe im
kauf s
ĠEin fluss
Ġconf irm
or es
ĠD el
Ã¼ b
ĠT al
ĠFre iz
Ġan c
Ġl Ã¤nger
il s
Ġjust ice
ĠZust immung
Ġimpro ved
Ġver me
ĠT Ã¤tigkeit
a cc
ĠK rank
Ġwh om
Ġf ear
ĠVerpflicht ungen
Ġbu y
Ġcomm ents
Ġeth n
ĠAussch uÃŁ
ĠAnstr engungen
Ġaffe cted
ze ch
Ġto t
Ġconclus ion
ib ly
ĠM Ã¼n
rie b
ĠgrÃ¶ÃŁ ere
Ġfeat ure
Ġre ag
Ġgen annt
Ġben utzt
ĠKomprom iss
it ory
Ġdec ide
Ġk aum
Ġla ws
ze igen
bour g
Ġat tempt
Ġir gend
gra ms
Ġadministr ative
Ġum fang
Ġcircum stances
d o
ĠN ATO
Ġbank s
Ġsu itable
Ġkom fort
Ã¼ ckt
Ġgen utzt
an ach
Â »
m el
Ġc ele
Ġbil den
ĠS am
Ġto uch
ĠG old
Ġcolle ction
Ġbo x
In de
Ġprov ision
ĠVer halten
Ġph one
Ġbe zahl
ĠAn erkennung
ĠV oll
itz t
ify ing
Ġ15 0
asch ine
ar ia
Ġautomat ically
ĠzusÃ¤tz liche
Ġunbed ingt
ĠAus gang
ĠOrganis ationen
Ġin n
Ġcurr ency
as te
Ġbelie b
ĠMit te
Ã¤nd igen
Ġeinge hen
qu ate
ĠGes amt
L assen
ĠB ade
Ġent spricht
Ġredu ced
ĠJ e
Ġvor gelegt
ĠGe org
ĠIde e
D en
ĠRom a
Ġdeliver y
Ġp o
ĠÃ¼ber zeugt
Ð º
ĠP la
ĠG od
b Ã¼
ag o
Ġincreasing ly
Ġprior ities
ĠT her
ĠS lo
ĠMe x
ĠÂ «
Ġselbst verstÃ¤ndlich
Ġemiss ions
Ġo ben
Ġmoder ne
s es
ent y
Ġm ill
Ġent stehen
Ġfe ed
al led
More over
ĠC y
h ow
Ġent schieden
ĠGo ogle
Ġc os
ĠA c
ig ran
Ġreform s
K on
ĠA C
Ġadministr ation
Ġge gr
ĠN ations
rei ber
ang s
a el
Ġsupport s
Ġg ere
Ġcontrib ute
Ġextens ive
ra y
Ġex tend
ĠÃľber wach
Ġconf idence
Ġer sch
Ġges etzt
enden ce
Ġunter b
Ġin tell
la ufen
ian o
Ã¡ n
Ġk Ã¼rz
ĠQual itÃ¤ts
Ġh ol
Ne ben
Ġer kennen
el te
f un
Ġzuf rieden
ĠF ree
ĠNe ws
Ġreg ime
ĠP ublic
ĠK auf
ĠF lex
âĢĿ ,
oc ation
f Ã¤lle
Ġelekt ron
Ġco ordin
end et
ĠAn g
m on
2 6
ver lÃ¤ss
ĠberÃ¼cksicht igen
Ġc e
ĠD ub
: //
Ġens uring
Ġst abil
Ġwesent lich
ium s
Ġvict ims
stru ktur
Ġparticip ation
ĠDurch fÃ¼hrung
ĠC op
Ġunterschied lichen
ĠWahl en
Ġstruct ural
ĠB ur
Ġaus zu
Ã¤ her
iz enz
ĠH off
âĢľ .
Ġspec ifically
Ġinfrastruct ure
t ime
Ġm anner
Ġcr ime
ĠVereinbar ung
P T
Ġplay ed
ide os
art igen
fol ger
om et
Ġan z
am ing
ĠSch wer
Ġsc ope
ĠWissen schaft
is c
Ġencour age
Ġange geben
Ġunemp loyment
ĠÃĸ l
let ter
az z
entwick lung
Ġmed ic
ĠKrit erien
Ġspezie ll
Ġfell ow
Ġc as
re l
All erdings
Ġh und
ĠL icht
ĠL ang
ong s
Ġmehr eren
d aten
ese arch
Ġb lack
Ġmind estens
I G
Ġelect ronic
amp ag
I R
Ġmilit Ã¤r
Ġvor aus
Ġge zeigt
Ġnach dem
ĠH olz
Ġe d
Ġmit tel
Ġpower ful
ĠBo den
ben en
Ġtable d
ĠAl le
Ġpur poses
z entrum
ĠK Ã¶rper
haf ten
IN G
Ġintrodu ced
Ġher unter
Ã¼nd ung
gew Ã¶hn
Ġbew usst
ly ing
la us
Ã¤st inens
ar us
ĠCost a
Ã¤ den
Ġdank e
il er
Ġhoch wert
h et
Ġpl us
Ġch urch
Ġr ise
Ġakt uelle
ĠverfÃ¼g bar
Ġagricult ure
Ġget ting
od ies
Ġhin weisen
b rit
V iele
Y our
wir ken
ĠAb schluss
Ġdemokrat ischen
Ġer reich
Ġentsprechen de
ĠG laub
ĠGr ie
Ġs creen
Ġrep la
af ft
Ġanim als
rÃ¤ ge
ĠW affen
Ġvor sch
Ġpol ice
Ġwonder ful
Ġdeta iled
ĠEr k
Ġpl atform
in ian
an lagen
Ġserv ed
Ġsh ip
ĠArch ite
ĠBest and
Ġrefer red
ĠKommunik ation
Ġsour ces
cht ung
ĠGar ant
am ber
ĠAn spruch
ĠH aft
Ġbesch lossen
Ġus ually
ick ets
Ġ199 0
a ktiv
zeich nen
Ġcl ient
ĠAus bildung
Ġglaub en
Ġh arm
Ġ" ...
ĠO sten
Ġeffect ively
Ġwh ite
ĠParte i
ĠerwÃ¤ hnt
Ġe uch
Ġfun ctions
Ġlar ger
ĠMit teilung
Ġges prochen
m ack
Ġf ert
Ġded ic
Ġaim ed
Ġmot ion
l Ã¼ck
id a
Ã¶ m
s m
Ġsum mit
Ġcompet itive
Ġe c
Ġn Ã¶t
ident ial
Ġm m
ĠB ran
av i
Ñ ĥ
es ents
ĠG est
Ġpleas ant
Ġs ort
Ġexact ly
Ġinstall ation
ter t
at ik
Ġqu ant
ĠB on
ĠC zech
Ġwer t
Ġanges prochen
f a
Ġde ad
ĠSe a
Ġbesonder en
f u
ĠAut om
ĠW ik
Ein ige
Ġst ated
ĠAgre ement
ier tel
Ġ4 5
Ġocc ur
ĠSp rachen
Ġser ve
zie ht
Ġs itting
sp unkt
Ġprote cted
Ġz entral
Ġre ception
ĠD re
ĠWÃ¤hr ung
itzer land
ing u
b ad
Ġnational e
cal led
Ġkont roll
sch uld
ĠStabil itÃ¤t
Ġp oll
ut s
Ġprec isely
Ġlux ur
Ġr ural
Ġv ac
Ġch ann
Ġpre m
Â °
Ġcom peten
o ted
oun ge
fÃ¼hr er
un kten
Ġc amera
ĠR a
ĠVor teile
Ġw ants
Ġeinger ichtet
fahr ens
Ġeinz us
Ġrepr esents
Ġsicher zustellen
f iz
Ġakzept ieren
' ll
g ree
ĠEn terprise
Ġm and
Ġdiscuss ed
ĠKo ordin
ĠD en
Ġother wise
ĠVerw altungs
P er
ator en
ĠSch aden
Ġbudget ary
ĠIn halte
r ip
Ġtem per
ĠZeich en
Ġge eignet
ibil itÃ¤t
3 5
ident s
olog ischen
u ber
h y
w eder
Ä į
ĠEin sch
Ġdiscuss ions
Ġinstitution al
W ar
ĠHinter grund
Ġbecom ing
ĠI P
la w
ĠSchl af
I E
we gung
at ively
iel d
age gen
ud em
Ġ20 20
Ġfac ilit
Ġver z
ĠM io
enh agen
Ġsol d
ĠBo ard
ĠT ab
ĠMen sch
Ġben utzen
W ann
ĠFisch erei
ĠL ab
Ġerziel t
ĠE as
Ġdevelop ments
Ġe hr
Ġ ;
Ġzu g
Ġbestehen den
Ġm ix
N un
ĠE lekt
j o
Ġar m
Ġspac ious
Ġcon vin
ĠAl tern
ĠHome page
je cted
Ġaut h
tr y
B et
Ġ *
Ġthous ands
Ġman aged
0 1
Ġcon ver
Ġris ks
S pe
ĠE t
im a
ĠAss oc
Ġfor get
ĠFrank furt
ĠBesuch er
Ġexp ens
Ġwahr scheinlich
Ġw atch
Ġmet res
m as
uis ine
Ġre chts
Ġausge w
D em
Ġfre uen
u it
Ġcover ed
st ieg
ĠK arte
Ġfest gelegt
en te
Ã¼ ste
w asser
ĠK ind
ĠIra k
ĠH altung
ĠBem erk
ĠId ent
Ġassess ment
Ġrem ark
Ġent ry
qu ality
ĠHaus halt
Ġzu letzt
Ġins ide
Ġdom in
In s
ĠAuf nahme
Ġcor resp
ach tet
ĠSe ktor
ĠN ahr
amen te
obil ien
Ġnotwend igen
ĠPol icy
ĠF ot
ĠK enntnis
ĠEr n
Ġex pected
c ategories
Ġgu idelines
Ġsele cted
ĠprÃ¼ fen
ĠE st
ĠRom an
Ġear lier
Ġprov ider
Ġwo od
Ġander es
Ġsp end
On ly
ĠL iber
Ġcrit ical
Ġge Ã¤ndert
Ġact ual
Ġum gesetzt
ĠKonfl ikt
Ġpro grams
ag s
Ġhoff en
schie de
ĠMill iarden
ĠRegion al
Ġw inter
ĠBeit ritts
c ause
ens ions
2 7
m od
ĠA L
Ġsch rif
Ġrad io
ĠS and
wer ke
Ġfollow ed
Ġglobal en
ĠS pr
ĠmÃ¶glich erweise
Ġfinanz iellen
as ts
Ġexp and
ĠerfÃ¼ llt
Ġclos ely
Ob wohl
Ġintrodu ction
Ġunter s
Ġv otes
Ġmed ical
ĠD av
Ġj ene
ĠSal z
ad s
ĠUnterk ategorien
Ġbuild ings
ur a
r um
ĠSch engen
Ã¤us er
ore a
Ġp aper
Ġl isted
ĠA cc
Ġbe quem
ĠRe formen
ĠAus gaben
ĠStra ÃŁe
Ġlik ely
ick s
ĠO lymp
Ġd ienen
ĠA N
ĠD ol
ure au
Ġc entr
pos ed
ĠS ing
ĠI f
ĠMid dle
Ġer greifen
in u
lev ision
Ġfre ien
i at
Ġ199 5
ĠA genda
ĠS erb
ĠC ast
ĠMon ate
Ġbe ziehen
ĠW el
ul ieren
Ġim press
Ġjeder zeit
ĠC ode
ĠVor bereit
Ġwe ap
M ein
b u
ĠF Ã¼r
ĠF akt
ĠRicht linien
ĠAs ia
Ġsp read
Ġenter prises
ĠH ow
Ġsc en
pr Ã¤sident
Ġdis app
Ġnet works
ĠwÃ¼n schen
g al
urop a
ĠC ard
den ken
ĠProdu kten
ĠFun ktionen
ĠLux em
Ġf ahren
ail ing
h am
Ġtr ust
wer ten
ĠPl ay
ony m
ĠSchl Ã¼ssel
ĠWettbewerbs fÃ¤higkeit
ge ts
ĠAn pass
chnolog ie
Ġl Ã¶sen
ĠTechnolog ien
eit her
ĠGe h
S oll
Ġg raph
Ġverme iden
or a
ĠFisch ere
Ġcol or
Ġopen ed
iqu es
Ġschwier ig
ĠA rab
Ġlink ed
ĠAn n
Ġoper ations
Ġaus ger
Ġterr itor
ish ing
ĠTur k
Ġgleich e
ĠKom fort
Ġmarket ing
je kten
ĠH aup
Ġr ies
Ġimm igration
sch er
Ġsupport ing
Ġimpro ving
Ġge d
av es
ĠGrie chen
Ġelect ric
ĠSte llen
v ements
Ġw ent
Ġein zu
in c
Ġexp lo
ul ierung
reit en
Ġs Ã¼d
ĠBe w
Ġcomm ent
Tro tz
enn is
T A
Ġa de
Ġtele phone
ra hmen
ĠMot or
In tern
ĠÃ ©
Ġspee ch
wir k
ĠÃ¶ff entlich
Ġbrauch t
Inde ed
Ġexclus ive
ĠUm st
Ġn ah
ĠMe ter
frei heit
Ġunderstand ing
ĠKin dern
Ġkosten los
M ar
as er
ĠHer z
ĠWell ness
I hre
n ach
et ze
ĠAr ten
Ġbed s
Ġstatt finden
ĠD ownload
ome ter
y m
ĠS on
ĠViel falt
Ġus es
Ġs agt
Ġ ?
Ġde gree
Ġhand s
k ap
Ã Ħ
Ġcomp ens
Ġsicher lich
Ġverbess ert
Ġl esen
ĠL ink
Ġconsider able
I B
fol gend
ĠDate ien
gen cies
le isch
ro h
Ġcomp ar
Ġmult ip
Ġm ap
cre te
ĠC r
kon ferenz
Ġacc omp
c ers
Ġent it
Ġf allen
cl ude
g ment
ak fast
ĠSch iff
isten ce
Mit glied
kt iven
Ġab st
Ġemp fehl
D ann
Ġm il
a w
c an
Ġg ave
m Ã¶glich
Sch lieÃŁlich
ĠZwe ck
Ġpres ence
ĠI M
Ġgem Ã¼t
Ġtem por
Ġac qu
Ġf rag
ĠB i
ĠE v
Ġsubstant ial
ĠInnov ation
Ġtour ism
Ġsh ower
ol den
ĠMen ge
brit ann
Ġgel angen
prÃ¼ fung
ĠIn frastruktur
istr ib
2 000
ĠSt il
Ġg ern
ĠEin richtungen
Ġdest ro
ĠGrund satz
AD S
Ġproper ly
2 8
ige m
leit ung
Ġjeweil s
uss els
Ġplay ing
Ġc uisine
Ġsa ve
Ġgew Ã¼n
Ġmult il
F l
Ġab zu
ĠFebru ary
Ġb rief
V iel
ĠH il
ĠSt imme
Ġper cent
Ġcompon ents
Ġphot ograph
Ġdar unter
Ġ4 00
ĠS uche
G er
Ġg ing
Ġange zeigt
Ġexper ts
l ad
E U
Ġdel ay
Ġpurch ase
Ġdo or
Ġeffiz ient
ĠB u
Ġb ott
Ġitem s
por ted
Acc ording
ĠWe ge
br uch
ĠForder ung
Ġfisher ies
Ġdut y
p unkte
Ġanim al
Ġfound ed
it ors
in der
it ter
Ġent weder
ĠH ier
Ġerziel en
ĠStand ards
Ġconven ient
Ġpict ure
un ion
gem eine
ĠFre m
I ts
2 1
ut ing
b and
ĠSt art
ĠInd ia
pre is
F alls
J ust
Ã¼t ze
ĠO ffice
ĠÃ¼bern achten
ste lle
ikan ische
wohn er
ch mal
geb aut
Ġer gÃ¤n
Ġaus drÃ¼cklich
Ġge kommen
ĠStre et
Ġsh o
Ġentire ly
ĠVerein ten
ĠPa ul
R A
it ze
Ġso le
Ġpl ants
Ġinc or
Ġhos p
Ġform at
ĠChar akter
z ieren
ĠKle in
Ġco ordination
Ġtyp ical
ĠTele fon
ĠT ar
Ġstr ict
sche ch
Ġbes uchen
Ġref uge
ĠSt ation
rÃ¤ ft
sp er
sp ort
ĠSw itzerland
ĠS inn
Ġauthor ity
D P
Ġpres idency
p rechen
Ġco ffe
ĠerhÃ¶ hen
Ġdeal ing
Ġwoll te
Ġwel cher
Ġgener ally
temp or
Ġun tern
cl ub
Ġt ack
Ġdifficult ies
Ġtechn ische
ĠBe ih
Ġteil weise
Ġdeb t
ma ÃŁ
Ġcomb at
Ġst Ã¤ndig
Ġgr enz
Ġcr iminal
ĠP rag
Ab schlieÃŁend
Ġm obil
Ġw Ã¤ren
Ġe lim
Ã ĥ
Ã¼ nen
Ġst imme
ĠstÃ¤r k
Ġkommen den
Ġorganis ation
Da zu
Ġun c
Ġkomple tt
sch ul
Ġinterpre t
Ġcompetit iveness
pl Ã¤tze
ĠInstall ation
ve y
om an
ĠLe hr
ĠK y
Ġrecog nis
Ġdis pos
ĠM ilit
Ġbet onen
Ġers tellt
Ġn ieder
ĠTh ere
ĠNetz werk
Ġwill ing
ĠDate i
Ġrel ate
ĠVÃ¶lk er
Ġdet ail
ĠA p
Ġcon stit
Ġver ur
Ġperman ent
sch lossen
ĠS im
Ã¼n den
ĠT un
Ġsh ops
ĠEntw urf
Ã¼ck e
Ġinform ieren
Ġdra mat
et ter
ers tellen
ĠPl en
ish es
ĠStat us
Ġzu vor
fÃ¼ ll
gew icht
Ġveh icles
ĠBÃ¼ ro
ĠAb s
Ġpr Ã¤
R es
Ġal te
Ġk lare
ov a
M U
Ġcal c
f achen
Ġpeace ful
r ies
ĠO ff
Ġto ld
Ġhand eln
ĠW ie
Ġmach ines
Ġs and
y ear
oss ible
Ġpar agraph
Ġkomple x
Ġfunktion iert
E A
ame ter
Ġsu c
ĠKlima wand
Ġl ernen
Ġthink ing
Ġfac ing
Ġp sych
Ġspe aking
um n
ak en
ĠBer eit
Ġmeet ings
ĠBel arus
ĠIS O
op ol
Ġres ort
Ġtra ve
Ġfra gen
Ġdistr ict
ĠIn strumente
ĠArbeit en
ĠBr ussels
hens wÃ¼rd
Ġapp lies
ĠAr g
ĠGree ce
Ġdar stellen
Ġ19 4
ĠZeit raum
Ġconsider ation
Er stens
ĠWebs eite
ĠW ien
pp er
pl iz
ĠGl Ã¼ck
ind ing
Ġh our
ash ion
Ġo ber
Ġnumber s
Ġflex ibility
te te
ĠD ienste
An y
Ġres ist
ĠIniti ativen
Ġs auber
ĠAbgeord nete
ĠLeist ungen
Ġmor al
Ġge fordert
h aben
ran ken
Ġbe ar
alle l
be w
ĠBer ichte
port ion
o very
ct s
erm an
Ġbecom es
Ġa verage
ĠS ach
ĠB os
Ġad just
ĠMad rid
ĠEx p
l as
Ġd agegen
r ich
Ġs le
sch ung
ik ing
ĠWir k
ester day
Ġfix ed
C C
ĠBe griff
Ġkonkre te
ĠFebru ar
y es
ĠVerÃ¤nder ungen
3 3
Ġd ro
Ġprom otion
Ġ- -
ĠTe ile
Ġwen igen
ĠK ol
Ġr uss
hr ase
Ġs org
ĠEng agement
Ġhim self
Ġpract ices
Ġopp osition
emb ly
Ġin stru
20 10
ĠP ack
ĠB il
Ġj ur
ĠGip fel
Ġsch em
hn ung
ĠAb satz
N icht
m Ã¤r
ĠHe il
ĠW ass
s b
ak er
l ern
ĠE isen
ĠZeit en
hÃ¶r de
Ġunter nehmen
ĠMitglied staat
ĠB ay
i ro
Ġdurch aus
i ÃŁen
ĠBus h
Ġb odies
ĠÃ ľ
Ġer leben
ĠS ysteme
Ġor ient
a e
ĠVer stÃ¤nd
S C
ĠB and
l ike
L E
Ġsuc ceed
ĠF onds
ĠgewÃ¤hrle istet
Ġv olle
Ġaim s
Europ e
Ġcon tra
ĠM aschinen
ĠstÃ¤r ken
ill ing
) ;
Ġmy self
Ġgra du
ub a
re ifen
w agen
ĠHaus es
ww w
ere hr
ĠApart ments
Ġprop ose
Ġsup erv
S L
ĠN ame
Ġeing esch
ĠHers tellung
t te
qu alitÃ¤t
war en
d a
Ġr ent
ĠL ib
ĠGu est
S elbst
ĠPh il
E ach
leist ungs
ber icht
Ġver ring
ist a
ĠAn gaben
ct ing
ĠPro te
ich e
Ġl if
Ġtr Ã¤gt
Ġabsol ut
ĠÃľber gang
Ġlok alen
ĠBar ro
Wh y
Ġch ines
ĠEin igung
fÃ¼hr ten
Ã© e
Ġfre ue
Ġdefin ed
ĠGr enz
Ġlie be
Ġsign ed
d is
ck now
ĠGeb ieten
Ġestablish ment
f ree
a ult
Ġeas ier
ĠGroÃŁ britann
Ġ3 2
schrif t
I st
Ġf it
ĠPol and
Ġin come
Ġh Ã¤lt
Ġwir ks
ĠerklÃ¤r en
T hen
Ġhin zuf
Ġcl ar
Ġsign al
ĠverÃ¶ffentlich t
Ġdatab ase
Ã¤ umen
kn own
wor ten
is ms
Ġcla im
k le
is ierten
Ġinform ed
ĠKrit ik
and o
ĠRegel ung
ĠN ah
ĠbenÃ¶t igt
ĠSch n
Ġer folgen
ac cept
ĠKÃ¶nig reich
ĠW orte
Ġprom oting
Ġparliament ary
Ã¶ der
oy al
Ġfr Ã¼h
Ġserious ly
Ar t
e ig
ib et
L ast
Ġmid dle
Ġexperien ced
Ġa cknow
Ġverw ende
Ġz ul
ĠStellung nahme
Ġh tt
ĠAn teil
Ġerschein t
Ġfail ure
Ġanc ient
ĠRats vorsitz
0 4
Ġdom estic
ĠK il
ĠR ein
Ġdenn och
lÃ¤ gen
Ġ Å
Ġany one
Ġvo ice
Ġcoffe e
Ġl ength
ĠE conomic
ĠK al
Ġtransl ation
ĠW ander
Ġfinanz ielle
ĠRechn ung
Ġh op
bo x
Ġfinan cing
Ġmult i
Ġre ch
Ġpolit ics
l isch
ĠPak istan
lÃ¶s ung
ĠmÃ¶glich st
0 5
]] ,
ĠnÃ¤ch ste
200 1
wo gen
ĠRis iko
Ġcele br
r is
D ank
Ã¼ g
ĠV ill
Ġge ograph
Ġger ing
Ġest ate
Ġkl ass
S he
Ġpro s
ĠT ool
ĠV ien
Ġde fence
Ġadv anced
ĠR esearch
qu al
ĠHeraus forderung
p endence
ĠEin haltung
9 5
Ð ²
ĠTe chnik
de ck
Ġgegen seit
Ġinst ance
ĠPrior itÃ¤ten
z ig
ĠVers uch
W ill
Ġconne cted
ĠSe henswÃ¼rd
zept ion
Ġim ag
ĠPro v
ers e
Ġposit ions
Ġers tellen
ĠZwe ifel
ein en
Ġst y
ibr ary
ĠN I
Ġco oper
Ġcon crete
ĠÃ¼ber tragen
Ġstruct ures
Ġkonzentr ieren
m aking
ar ter
ĠB anken
Ġk licken
art a
ĠForder ungen
ĠS P
ĠH afen
D A
fl anzen
Ġdiffer ences
Ġorgan iz
Ġwith dra
Ġstud ies
Un fortunately
EN T
Ġf le
Ġdang erous
Ġdiffer ence
C lick
ic ians
ĠG N
ungs k
P art
ĠAt lant
per atur
Ġwel com
Ġassoc iated
Ġneigh bour
Ġhous es
Ġber u
Ġhappen ed
Ġt ut
ĠS onnen
ll os
u a
Ġz erst
ĠGew Ã¤hr
ĠKir che
verkehr s
ĠS M
Ġdr ink
Ġopp os
Ġun to
ib el
ĠFor men
um Ã¤n
Ġmod els
ĠpersÃ¶n lich
ĠT itel
ĠBr Ã¼ssel
ĠM oment
Ġappear s
ĠAssoc iation
Ġst able
ĠFl Ã¼cht
Ġbeach es
ifiz iert
Ġn ames
ĠKing dom
Ġadop tion
Ġart icle
Ġunterschied liche
ĠAs pekt
Nach folgend
Ñ ı
Ġun ge
Ġappro xim
yr ight
ateg ory
g as
Ġsafe gu
Ġend gÃ¼lt
Ġimplement ing
Ġn ennen
d oor
ĠAn alyse
Ġcomb ination
L AN
ĠMittel meer
Ġhumanit arian
Ġcour ses
Ġcare fully
ĠGemeins amen
b ody
ĠAs yl
Ġexhib ition
Ġannoun ced
ĠW eiter
Ġver folgen
p erson
Ġte levision
Ġp et
ten ance
ĠEntschlieÃŁungs antrag
Ġnat ur
Ġgele istet
ĠGe ist
gre if
z z
ĠLes ung
Ġun accept
Ġbook ing
C hr
ab y
Ġcon dem
Ġcoll abor
Ġle gen
Ġsp ielt
Ġgegr Ã¼ndet
ĠP ower
ol o
Ġumf asst
ĠF ore
ĠF ound
Ġacc ur
lie fer
Ġstat ements
zw ischen
Ġman age
if fer
Ġsp ent
rÃ¤ ume
Ġverl assen
Ġarr ival
Ã º
ib li
Ġprodu cers
ro llen
statt ung
Ġamer ikanischen
Ġdiskut ieren
Ġaus ges
ĠSe kt
leit en
ĠtÃ¤ glich
Ġposit iv
licher weise
est aurant
ar ischen
ĠM ount
e ing
Ġa gencies
rauch er
Ġden ken
Ġimp ossible
ĠA g
ĠLeist ung
ĠTerr asse
zeug ung
Ã¼ ter
em a
ĠschÃ¶ nen
Ġun an
ĠFor um
ĠHe alth
Ġverl oren
S er
abhÃ¤ng igkeit
Ġlea der
Ġbetra chtet
Ġarchitect ure
l ik
In nen
ro ad
Ġind ire
Ġcall ing
Ġimmed iate
Ġdescrib ed
Ġful fil
Z udem
re gel
ĠMe chan
ĠPH P
Ġa u
Ġad apt
ĠSant a
D ate
st immung
ĠEn vironment
Ġreason able
B ar
s ized
Ġtr uly
ĠF en
Ġguarante es
Ġattra ctive
ĠunabhÃ¤ng ig
ha ber
Ġrecogn ition
Ġha ir
Ġbeh aup
ad or
ĠAuf bau
Ã¤l ter
r uf
Ġhtt p
ĠB lack
oin ted
lÃ¤ uf
k Ã¼nd
ad ing
Ġglo b
Ġcomp la
k or
ĠD orf
Ġev idence
Ġrele ased
Ġfest stellen
Ġerforder lichen
ĠPak et
n y
Ġab geschlossen
Ġredu cing
Ġal t
Ð ¼
gel t
Ġcharge d
Ġzw eit
Le ider
ĠCas ino
k arten
id o
ut in
Ġs atell
or ient
ĠVer fass
Ġh Ã¶ren
Ġ20 11
ĠPol ize
hinder t
ĠK enn
ĠK atastrop
ĠFern se
la ger
Be cause
organis ation
Ġsh ared
Ġback ground
rim ination
h le
m eld
Ã¤r m
Ġterr itory
U N
Ġein iger
Ġgenu ine
ohl en
Ð ĵ
act ive
Ġer leich
Ġgarant iert
ĠH armon
ĠM esse
Ġarbeit et
ĠJahrhunder ts
Ġc ards
Ġent h
w urf
ĠTex te
Ġent ertain
Ġcre d
Ġtas te
% .
Ġadv ance
ĠViel zahl
Ã¤ ck
ir us
ĠJust ice
0 2
Ġa head
Ġw in
Ġm ist
Ġfor est
ug os
7 5
Ġposs ibilities
ĠKom peten
Ġimpro vement
re ten
Ġavail ability
ĠSehenswÃ¼rd igkeiten
Ġbe mer
ĠA v
Ġbegr enz
Ġdisc rimination
tempor ary
Ġwish es
ĠÃ¼berprÃ¼ fen
ok raten
Ã¤ ten
pre ise
ĠZug rif
ĠIr ish
G u
Ġtra g
ĠIde en
iend ly
auf trag
it ious
at isch
et o
ĠSte in
jÃ¤hr igen
S cript
spro gramm
Ġkulture llen
n am
or ing
con dition
Ġgl ass
Ġrelax ing
ĠStÃ¤r kung
Ġhin gewiesen
ĠE ine
Ġnear by
ĠS orge
Ġmembers hip
1 00
w issen
rÃ¤n ken
Ġsp l
Ġown ers
3 4
Ġunaccept able
pos it
N ever
Ġex cess
w ith
olog ische
ĠRu he
Ġtas ks
ĠKommiss ions
ĠtÃ¤t ig
ĠAn wendungen
Ġste ll
bie ter
gra de
ĠRes erv
Ġfig ures
3 6
ran ce
gest immt
Ġparticip ate
ĠC re
ick ing
Ġc ur
Ġcontinu ed
c omm
ÃŃ a
ĠS aint
Ġmit einander
Ġoccas ion
Ġun a
Ġis ol
Ġdes ire
Ġintrodu ce
Ġs n
Ġausreich end
Ġun z
Ġcar s
ens us
we ist
Ġdel ic
hal tet
Ġtra ding
Ġbe zeichnet
ĠH ol
formation en
ĠSt rom
ist isch
ar ation
Ġgreat est
ĠEntwick lungen
G r
fÃ¼hr ungen
' re
3 2
Pro du
Ġsk ills
Ġatt ach
Ġricht igen
ĠHam burg
Ġcomple ted
Ġcontin ues
Ġweiter er
ĠL am
ĠHers teller
Ġgen eration
On ce
Ġcomb ined
Ġdev ices
B ahn
k m
S ystem
ĠÃľberwach ung
ĠW ald
Ġex cept
ĠWÃ¤hr ungs
ĠDemoc rats
Ġstrong ly
ĠAuss icht
ber e
ass ung
ĠBed arf
Ġha up
Ġsurround ing
ire less
Ġallow ing
Ġentit led
il st
Ã¶ ss
Ġcon v
Ġun fortunately
ĠUm fang
Ġo w
ĠS af
Ġpack ages
Ġvern Ã¼nft
Ġexp end
Ġzahl en
Ġeinge fÃ¼hrt
chn et
Ne w
Ġun less
ĠTour ismus
Ġmiss ion
C an
Ġs ale
part ner
ut ch
ĠKon z
sequ ent
Ġconsum ption
Ġbeaut y
Ġregister ed
Ġauf merksam
3 8
p a
ĠArbeits losigkeit
Ġeffe ktiv
yl um
Ġra ise
go vernment
Ġattra ctions
ĠBedÃ¼rf nisse
ĠE lement
ĠVer letz
Ã¶ se
ch em
Ġs quare
ub le
ĠProble men
Ġme ters
Ġen ables
ĠK Ã¼nstler
Ġgew innen
ĠFest ival
Ġer f
ĠHeim at
Ġp ure
sch lÃ¤ge
ĠPat ienten
Ġr iver
andid aten
ĠNahr ungs
Ġappe al
Ġb orn
Ġprofit ieren
ĠFound ation
Ġtrans ition
ĠW and
ĠRechn ungs
S ub
ĠW Ã¼n
ĠFre und
Ġkon stru
ĠBeit ritt
Ġrelig ious
V ers
ĠEng land
ĠZust Ã¤nd
Ġf ruit
Ġd anach
ĠGeschÃ¤fts ordnung
ĠA chtung
Ġgesch ehen
Ġm icro
Ġmon etary
ĠTe chn
wind igkeit
Ġsur face
Ġbeginn t
H er
J etzt
ĠR and
Ġdedic ated
con t
ĠS uch
Ġver t
ĠAfr ican
ĠÃ¼ b
Ġvorlie genden
Ġins urance
k rieg
ik al
ĠbestÃ¤t igt
om as
all ery
Ġent standen
Ġspe zielle
Ġwind ow
v iel
Ġl iter
ĠÃ¼ber all
b ieten
tz eit
stand s
hÃ¶r en
F e
Ġunterst Ã¼tze
M ost
re al
Ġ199 4
ĠsÃ¤m tliche
Ġclos er
ĠN utzen
Ġkeiner lei
Ġein setzen
ĠR ome
ign ed
Ġholid ays
Ġ7 5
rÃ¼ st
Ġbur den
rimin ierung
Ġexerc ise
b rauch
Ġbes itzt
T E
Ġcomm and
Ġregion alen
ĠGroÃŁbritann ien
an ische
Ġv ul
ĠN ether
on ia
ĠAll gemein
ĠVerpflicht ung
vers ion
Ã¼r k
C ont
Ġver folgt
Ġref le
Ġas ylum
ĠW all
ĠAn w
ple x
ĠTurk ish
O ther
ĠM el
Ġear th
ĠK urs
ĠGerichts hof
ĠT op
ĠD rogen
ag ue
Ġcla ims
ro chen
Ġrel ativ
ĠVerteid igung
ĠgegenwÃ¤rt ig
ausschuss es
ĠVer sch
te chnik
ĠJust iz
Ġbeteil igt
glie der
i am
ĠfranzÃ¶s ischen
ĠPol en
ĠImm obilien
Ġfor ced
U p
ste ht
Ġtot ally
ĠZ ur
Ġrom ant
Ġv erehr
lin ge
Ġfol gende
Ġadvert ising
Ġcour t
Ġein st
ĠF inn
Denn och
Ġenorm ous
l og
Ġnot ice
Ġnor m
Ã ĸ
ate ver
Ġpers pective
ĠE ffe
ĠE lemente
af r
ĠRo oms
Ġgrenz Ã¼ber
Ġs ides
Ġconf ir
Ġvoll kommen
Ġur ban
Ġrail way
Ã £
ĠLand wir
lei hen
ĠAus fl
Ġke pt
Ġreserv ation
ĠW i
Ġindividual s
ĠA K
Ġk ons
is ierte
ĠAn lagen
ĠCh anc
Ġme ant
ĠÃ¶ k
Par liament
se ktor
Ġrel iable
Ġn Ã¼tz
Ġein ver
ĠÃ¤ uÃŁ
ĠAlt stadt
ĠC olle
ges ichts
ĠAfr ika
Ġinst alled
hÃ¶ hung
Ġzentr ale
Ġgest alten
First ly
Ġbut ton
ĠgroÃŁ es
Ġ3 6
Ġoffens ichtlich
ĠChrist ian
ĠP oker
ĠM use
im it
ĠPartner schaft
Ġgran ted
ĠEuropÃ¤ er
wer b
ze p
ge geben
Ġsh op
ĠWor ten
ĠPrior itÃ¤t
Ġcomp ared
a ktionen
mit tag
Ġst ory
ol ge
P e
Ġlux ury
Ġhaup ts
Ġun ion
ist ik
ĠOr ig
Ġd iss
ĠTeil nehmer
Ġdev ice
F i
ĠgrÃ¶ÃŁ eren
Ġlearn ing
Ġv ision
hl t
Ġeinfach e
Ġconvin ced
Ġestablish ing
Ġpar a
r ate
ĠVien na
p al
gy pt
Ġempfehl en
Ġmem ory
Ġer geben
200 9
Ġqual it
Ġse ven
Ġmount ains
Ġgr ant
ĠGlobal isierung
s ysteme
is cal
Ġstand s
Ġstor age
ĠVer st
Ġpolit ischer
ĠFortsch ritt
ĠStad tz
ĠGr unde
Ġge eig
att form
ĠM P
ĠB ern
Ġex tended
Ġfa iled
Ġnied r
Ġbig gest
ĠE ADS
Ġwar ten
Ġs ession
ĠgegenwÃ¤rt igen
ra m
ĠEuropean s
Ġgarant ieren
u pp
ĠB ut
uch ten
Ġpass ed
Ġhighl ight
it age
Ġb uffet
ell er
Ġconclus ions
Ġgesch Ã¼tzt
Ġre produ
ĠTra de
re isen
Ġfor th
Ġch air
5 00
Ġpr ison
ĠhÃ¶ch ste
In d
ĠRegel ungen
ĠPr ime
ĠH all
x ts
Ġgut es
Ġve get
Ġurg ent
Ġst im
re u
re ibt
Ġgr unds
Ġp or
ĠM utter
ĠF oto
ĠUS B
Ġsol cher
Ġmag n
ĠA lex
Ġverbunden en
Ġg olf
ath ed
2 9
ĠT isch
erm a
am mer
ĠV o
ipp ing
Ġk Ã¼
ĠD ollar
ĠReg ulation
ĠBe wertung
Ġr u
ĠMeer es
ĠzusÃ¤tz lich
on ial
te ten
erg ie
ĠIr land
Ġsc ience
z ust
6 4
Ġh um
ĠMa ÃŁe
Ġcontrol s
Ġbein haltet
Ġelim in
ĠSch if
Ġda uer
re is
Ġbe ige
Ġinternational er
ĠBeteil igung
ĠIn s
ĠFÃ¼hr ung
il ot
Ġun able
ĠM ik
Ġumfassen de
Ġmov ing
pr inzip
ĠBarro so
Ġt ried
al ia
Ġadv ice
C om
heb ung
ĠEind ruck
Ã¤ fen
= =
O s
Ġt ief
ĠF el
io de
ĠNether lands
Ġcontr ary
en kt
or am
Ġfor mal
ĠL ake
Ġauf zu
d et
Ġgen et
I hr
Ġ ),
Ġun it
Ġso gen
Ġen for
Ġperfect ly
as il
Ġaus fÃ¼hr
Ġwesent lichen
Ġart ists
ing ton
S terne
S QL
igran ts
Ġdra wn
mÃ¶ gen
stra ÃŁe
heit s
Ġsa w
Ġcor porate
Ġd imension
lÃ¤ gt
Ġfact ors
Ġcandid ate
Ġe arn
ak et
Ġle b
Ġro b
Ġmain tenance
ĠP PE
Ġl Ã¤
ĠUnivers itÃ¤t
Ġdefin ition
Ġdef end
ĠM un
Ġch osen
ĠD igital
act ions
Ġla id
v erein
Ġp our
Ġex pression
Ġinvest ig
Ġdise ase
Â «
ist or
ĠBe ach
iert es
ĠmÃ¼ s
Ġeconom ies
s etzt
Ġl iber
Ġmot iv
an cy
Ã¼ gel
ĠH ard
st Ã¤t
Ġmo de
ĠGeb rauch
Ġm atch
Ġgu ide
ĠDe fin
lÃ¼ck wÃ¼n
Ġdestro y
Ã¤uf er
M e
id ung
ĠFed eral
ic ed
Ġc ore
Ġ 00
wor fen
Ġsp a
Ġteil nehmen
Ã ľ
utz er
ĠP DF
ĠH aut
ĠUr s
ĠM ond
ĠM Ã¼
Ġa gency
M ehr
Ġcommit ments
ĠVer trie
Ġfin ance
it ar
Ġj our
. âĢĿ
H in
ĠH T
Ġfre ie
ĠMed ia
Ġcondem n
ĠF otos
A dr
ibli othe
re ck
Ġun f
ĠMon at
ennt nisse
f allen
War um
g ibt
Ġwunder schÃ¶
ĠTod es
Ġsc ale
Ġer h
vor schlag
En t
Ġbeg lÃ¼ckwÃ¼n
Ġs em
Ġk os
ĠLeist ungs
ĠPe ople
Ġhonour able
an cial
ĠPal ace
Ġdefin it
ĠM indest
S uch
mittel t
Ġweap ons
ĠGr Ã¶ÃŁe
Ġinter face
D R
ĠEas tern
ap ers
Ġk orre
Ġse cret
Ġright ly
ie fer
Ġlegit im
ĠIn stitute
we chsel
Ġsp ending
ĠAustr ian
ĠPr esse
nehm ern
Ġn either
ĠVer mitt
Ġinter vention
le un
bal d
b ring
0 8
Ġoblig ations
ĠCon stitution
hol ung
ĠGrÃ¼n de
alt y
Ġbal con
Ã ¥
Ġro ck
ĠL izenz
ĠGriechen land
inn ing
Ġdipl omat
Ġcol our
Ġspezie llen
Ã¤l fte
Ġy esterday
ĠB udget
Ġsch ed
Ġ ï¿½
as chen
om in
Ġro ute
ĠVer z
ichte te
ĠGree k
Ġout standing
um er
Ġachie ving
ĠGegen satz
Ġbetra chten
Ġamb itious
ter nen
ran s
sequ ently
ĠA ber
Ġd ient
Ġs am
ĠD us
ĠNutz er
el a
Ġobvious ly
Ġfl ight
ut ers
Ġl angen
Ġsitu ations
Ġen or
Ġorganis ed
Ñ Į
ĠI C
ĠL ive
Ġph otos
ĠMÃ¤r kte
ĠStÃ¤d te
Ġtit le
. -
Ġwe ight
Ġgel ungen
Ġveh icle
ĠUn abhÃ¤ngigkeit
j et
Ġmin ute
Ġcolleag ue
ic kt
Ġout come
ĠKoh Ã¤s
Ġconstant ly
uz z
Ġfest ge
Ġele ction
i ov
Ġse ll
Ġsome one
or ial
ĠA ktionen
wor tet
as ters
Ġsens itive
government al
Ġanal y
B r
lo ok
ĠWe chsel
Ġchem ical
Ġup date
ĠThe y
ur m
ĠG re
ĠTre k
Ġcorresp ond
ĠErklÃ¤r ungen
ĠN av
Ġsurround ed
ĠEr de
ĠVerstÃ¤nd nis
Ġer fre
ar io
ĠCont rol
ĠF itness
end um
F re
vers orgung
ĠBeschÃ¤ft igungs
Ġe p
fÃ¤h ig
ĠEC U
ĠSch Ã¶n
ĠerhÃ¶ ht
3 9
Ġver gleich
Ġcomp at
kl ang
Ġpat ent
Ġlim its
Ġpay ments
Ġinform iert
Ġd ur
on enten
Ġdist in
Ġask ing
f est
ĠEreign isse
, "
Ġdar aus
ĠMark en
M einer
Ġste igen
K licken
Ġge Ã¶ffnet
U T
N L
ĠLat in
er a
is ure
ĠschÃ¶ ne
Ġl auf
Ġcontinu ing
Ġst ore
Ġum welt
Ġben ach
P C
i pe
ific ations
Ġele cted
ĠBahn hof
ĠSÃ¼ den
ĠC H
el be
A B
Ġequ ality
Ġcont ents
ĠMittel n
ĠComp any
ĠKop f
Ñ ĭ
ar th
Ġn Ã¤her
ĠC am
ĠUnter kunft
Ġsuccess fully
Ġc ategory
ab ilities
Ġorgan ization
at ures
gef Ã¤hr
utz ung
ĠRes ort
Ġstark e
ĠK arten
ĠS Ã¤
ĠZw ischen
B en
man agement
n d
Ġc ra
ĠC a
Ġaccess ible
ĠSum mit
Ġair craft
kn Ã¼
ĠAn lage
Never theless
Ġre ject
k y
ĠAus land
ĠFra ktionen
reit ung
Ġbrit ischen
ĠEmpfehl ungen
aus o
ategor ie
ĠBot schaft
ĠFore ign
ĠA gency
Ġra ce
Ġbo und
Ġex klus
reit et
ĠMark et
l ament
Ġpriv ile
ĠBeschl uss
Ġrecommend ations
ĠWir kung
0 9
or et
W eit
ĠR os
Ġche ap
E W
k urr
Ġeinver standen
ĠN iveau
ĠRe alitÃ¤t
Ġgo als
Ġgut er
ĠTH E
ĠAgent ur
E O
ĠÃ¼ber ein
ap ter
Ġexpend iture
Ġsur v
Ġph ilosoph
is men
Ã ¢
ĠArchite ktur
Ġspec ies
Ã¤ hren
ĠFlex ibilitÃ¤t
ĠI D
ens wert
ĠProgram ms
ĠC roat
Ġsorg fÃ¤lt
ĠBetrie bs
Ġphys ical
ĠD imension
err y
An der
ĠSup er
ĠMich ael
Ġall gemeine
An other
G em
Ġsatell ite
as k
tel lect
Ġbeach ten
Ġinde pendence
Ġ4 8
Ġein sch
Ġge halten
c ast
Ġd Ã©
Ġp un
w ers
ĠP o
Ġfest gestellt
ĠFar ben
Ġhaupts Ã¤chlich
Ġr ig
Ġgesch ieht
Ġrev olution
Ġmitt l
Ġact s
Ġtre ten
Ġint ention
Ġcons ists
Ġde te
ĠauÃŁer ord
Ġfurn ished
An gesichts
Ġide ale
ĠL o
ob ility
ĠGeb iete
Ġnie mand
im al
Ġl ake
ĠF eld
Ġbal anced
ot ten
Ġeinz igen
Ġapproxim ately
Ġge be
Ġmit tels
ĠDaten schutz
Ġmer ely
ĠZahl en
Ġre ve
ktiv itÃ¤t
ĠHoff nung
ab l
ĠmÃ¶ glichen
Ġher zlich
Ġcontain ed
g barkeit
Ġh oh
Ġman chmal
ĠStud ien
Ġwa iting
0 6
Ġg rie
ĠWh ite
ĠO ut
able d
ĠRe ich
Ġcon temporary
Gleich zeitig
ĠBeih ilfen
b ett
hand els
Ġtarge ts
ĠVoraus setzungen
ĠGesetz gebung
ĠL inks
Ġs age
b indung
Ġspr icht
Ã¼n fte
wend ungs
ĠStud io
ĠLiberal isierung
Ġpres erv
Ġk aufen
b Ã¼rger
k an
le ge
ĠP ool
Ġ( "
Ġt Ã¼rk
ĠE miss
Ġwe alth
ĠFr ont
Ġlands cape
ĠD ay
ein d
Ġso bald
ĠWieder auf
Ġch anging
Ġput ting
ĠKo operation
Ġprev ention
Ġr asch
Ġuntern ommen
ĠF ert
ĠV e
ĠL ord
Ġn ar
Ġvorgeschlagen en
S im
ĠU l
Ġsub mit
Ġplann ed
ĠM ail
Ġparticip ants
ĠGegen teil
ĠV an
ĠGrund rechte
Ġgro unds
ĠKont roll
Ġb ars
ĠR ob
Ġcomm unities
Ġdispos al
Ġj ungen
Ġfra ud
a ub
Ġth er
ĠGar den
Ġs we
ĠS yn
ann ung
ĠInd ien
Ġdynam ic
( )
ĠVer kauf
3 7
W o
Ġbring ing
C omp
Ġgl ad
ist ungs
ĠO ption
vers e
Ġmechan ism
ĠVor teil
Ġpoin ted
ĠÃ¼bern ommen
a ul
Ġmass ive
O ver
Ġsl ight
rup t
Ġaus lÃ¤nd
Ġschnell er
c ap
ĠAl s
ĠArbeits markt
Ġguarante ed
Ġsmall er
Ġcoun t
Ġlead s
200 8
ar tet
Ġco ol
ĠPalest inian
Ġwe bs
ans ion
ĠjÃ¼ng sten
Ġgew iss
ĠII I
ĠRel ig
ĠReg istr
Ġsel ten
Ġbl og
ĠL ag
Ã¤hl ten
in ent
ĠS quare
Ġqu ot
Ġteil en
ĠAl ban
Ġwrit e
ĠSch m
ĠMark eting
spl an
une hm
ĠEr wart
Ġdam als
ul ating
T P
end ung
ĠM ain
ĠAn s
ĠpersÃ¶n liche
Ġoper ate
Ġd ig
ĠZ oll
h el
Ġfact or
ĠHaupt stadt
ake te
weg s
k unden
Ġerforder t
ĠgewÃ¼n sch
ost er
Ġnational er
Ġrespons ibilities
Ġlab or
Ġbe ob
Ġcap able
Ġan bieten
Ġregel mÃ¤ÃŁig
z il
ĠMitglie dern
]] .
Ġresult ing
Ġp ill
od urch
Ġf ashion
ĠMan ager
Ġaccept able
Ġcon vention
Ġpleas ure
ĠAll iance
r ist
in ts
Ġbetroffen en
Ġpros pect
Ġander erseits
Ġcaus es
ie b
cc o
ĠDeut sche
Ġstrengthen ing
vel y
Ġn av
Ġviel er
" )
Ġpre d
Ġb erecht
rit tens
H is
Ġab hÃ¤ng
Ġf iscal
qu es
isten z
Ġcon clude
Ġseek ing
re a
ĠG az
Ġbr ings
aus ende
Ġver k
r ess
ĠA ct
Ġb and
as en
ĠB ill
Ġmed izin
Ġregistr ation
g in
ar ium
Ġun g
Ġlet ter
w iesen
ĠMitglied s
ĠMilit Ã¤r
Ġgra mm
rÃ¤n kungen
om it
ien e
Ġvorsch lagen
Ġassoc iation
Ġexam ples
erma ÃŁen
ss ystem
Ġund erg
vent ions
Ġprakt isch
ĠF ischer
richt linie
k rat
V ielen
Ġz Ã¤hlen
ĠRis iken
Ġl ov
Ġgemein schaft
Ã¤ ume
Ġre tain
vere ign
go ing
ĠB la
ĠPrÃ¼ fung
ĠA uch
Ġzu gleich
g esellschaften
Ġso vereign
ĠBe ob
Ġexpla in
Ġval u
ĠGes am
ĠMart in
ife llos
ĠTour isten
ĠM EP
ĠIs land
Ġ id
ĠPh ase
ĠFrieden s
ĠBestand teil
S V
Ġspac es
ĠbeschÃ¤ft igt
i ot
ĠJ ournal
Ġsch n
Ġnachhalt ige
ĠNieder l
Ġa cht
r ant
m lich
ĠMÃ¤n ner
sp h
ĠTre ffen
Ġsie ben
ĠG reat
ĠTeil nahme
Ġident ity
Ġz one
ĠF ire
ĠSp rach
weit en
ĠSl ow
Ġth erm
ĠJ ac
ĠExper ten
Ġsafegu ard
Ġto ler
Ġw odurch
E l
ĠCh amber
es halb
cl ing
l iance
ut r
ab len
Ġnear ly
In ter
Ġwe g
Ġen h
wach st
Ġmanufact uring
ĠLand schaft
ĠKoordin ierung
Ġincor por
Ġz unehm
ĠÃľber prÃ¼fung
Ġsur pr
Ġkle iner
war z
Ġass um
Ġwithdra w
S m
our ce
Ġrequ ested
ĠEr hÃ¶hung
Ġsie he
Ġpass word
Ġwach s
Ġe chte
ges tellten
ĠPf licht
ĠR ules
Ġir gende
Ġtradition ellen
Ġsich ern
Ġste el
Ġn ations
Ġwichtig ste
ier end
Ġreg ret
Ġprin t
ĠSch ne
Ġat tend
Ġmultip le
Ġpat ients
Ã£ o
Ġf uel
ĠW erb
ĠApp arte
zw ungen
Y et
Ġpro portion
kt op
st ation
Ġ199 2
ĠGed anken
Ġs ets
Ġvers ions
ĠE N
ĠGe fÃ¼hl
ĠBe i
Ġseit ens
Ġade quate
p lace
G o
ĠPe ter
Ġtest ing
Ġerne uer
S ol
Ġdiscuss ing
Ã ª
Ġtr uth
Ġsouth ern
ĠH Ã¤lfte
ĠJ o
organis ationen
oc al
z ur
ĠKom b
ĠLauf e
Ġrepresent ative
ĠNicht raucher
ĠE ffizienz
sp rach
od es
Ġdr iving
le bt
ir ing
Ġl iability
Ġcons ensus
Ġoptim al
Ġtr end
Ġd ivid
ĠF ax
sel ben
ĠP ublik
Ġele gan
sprÃ¼ che
Ġin hab
Ġbess eren
Ġattack s
ĠO S
Ġf Ã¤llt
Ġaddress ed
ĠS T
iss ens
ĠAb sicht
Ġher gestellt
Ġarg ument
Ã¼ ben
M A
ĠAnpass ung
leg te
Ġgovern ance
Ġcop y
Ġl au
Ġprevious ly
s id
ac es
piel t
ĠSt reit
ĠZ immern
ĠK affe
ĠSu pport
Ġunterschied lich
ĠVorbereit ung
r or
Ġrec overy
Ġschool s
ĠInternational en
ĠR iver
ahr t
Ġkind s
Ġjem and
Ġex plan
pos ition
gÃ¤n glich
ĠNor den
Ġprim arily
Ġm aster
Ġres pekt
Ġdiskut iert
Ġd isch
Ġweiter es
Ġprim ary
ĠKlima anlage
ĠA kte
ĠAus nahme
ĠgrenzÃ¼ber schreit
Ġzunehm end
Ġe ight
kt ions
ĠEin kaufs
Ġbl ue
p hrase
Ġ25 0
Ġexpens ive
Ġthere by
Ġvul ner
ampag ne
ĠBos n
Ġf if
ĠG ent
ĠT yp
Ġrem ove
Ġdeut sche
ĠR oyal
ent ure
Ġviel fÃ¤lt
ann es
Ġcons olid
ĠJava Script
les en
Ġbeg ann
Ġver teid
Ġph ase
ĠTeil en
ĠCy pr
Ġm ail
ĠA R
iqu id
Ġtal ks
Ġa p
ĠMetho de
Chr ist
Ġakt ual
produ ktion
Ġrein for
Ġauth ent
Ġfin de
Ġindustr ies
ĠBl og
Ro om
Ġevalu ation
ic on
nah m
Ġkon text
Ġorder s
Ġt a
Ġj unge
ze ÃŁ
ĠInsel n
ĠOrd nung
ĠkÃ¼rz lich
Ġse c
Th us
M ed
ĠSch ool
ĠChar ter
ĠJ oh
il ing
200 3
bereich e
Ġaf ford
leb nis
Ġcondu ct
ĠDisk riminierung
k rÃ¤fte
ĠStadtz entrum
C he
J eder
Ã¤d t
B S
ak s
A V
S te
ent scheid
Ġj ournal
g ro
ier n
Ġwill kommen
Ġeinzel ne
ĠMetho den
ĠD utch
ĠMar ia
Ġgew Ã¤hlt
Ġreag ieren
ie gen
ĠVeranst altungen
Ġs now
ĠMo dern
Ġde alt
ah nen
ĠGÃ¤ sten
Ġturn ed
Ġakzept iert
Ġaud io
ent lichen
Ġdec ades
ver w
Ġnam ed
ĠWill en
Ġb io
oten zial
ĠB an
zahl ung
ĠPolitik er
Ġm el
ent er
gram ms
ĠEl tern
Ġdetermin ed
Ġbook s
ĠM at
Ġn ation
ad y
fÃ¼ gt
ĠP ic
Ġbet ont
C l
bor der
Ġdemokrat ische
is er
Ġb ran
W or
Ġmut ual
kre t
met ho
Ġdo ll
Ġdeliver ed
Ġl ag
Ġbehand eln
Ġdies be
Ġcap t
Ġfl ow
4 8
Ġw aters
Ġb ere
Ġoppos ite
Ġcor ner
200 6
Ð ´
t ten
Ġamong st
ĠAn griff
Ġanerk annt
ĠlÃ¤nd lichen
c or
ĠF irst
ĠZ uf
Ã¤ ger
Ġsinn voll
Se hr
ĠM erk
Ġf ried
ess or
Ġco ok
k und
ĠCh em
cil iation
tellect ual
ĠH or
Ġb on
Ġon to
f angen
s ein
ungs verfahren
Ġgen Ã¼
ĠberÃ¼hm ten
Ġprep are
Ġnoch mals
Europ a
Ġd ritten
ĠPro vin
ĠÐ ¿
se c
3 1
Å Ĥ
un sten
Ġange ht
ĠB ol
ĠVer hÃ¤ltnis
Ġvor be
ĠV alle
ĠForm ular
str ategie
Ġposit iven
Ġbel ong
Ġunan im
utt le
ĠDub lin
ĠBer Ã¼cksicht
Ġbeg onnen
ir y
at lant
ou ver
ĠFreiz eit
ĠBild ungs
ĠSw eden
Ġdivers ity
Ġd ry
ĠAn liegen
st at
A re
Ġw all
Ġfeel ing
me ister
Ġqual ified
ĠGl as
clud ing
k urs
Ġz unehmen
n es
Ġmechan isms
Ġbe wegen
Ġges pe
d own
o ÃŁ
ĠAut or
ĠD ach
Ġum geben
umin ium
Th ose
Ġextre me
E F
u y
Ġmanufactur ers
ian a
Ġgrie ch
ĠEin klang
Ġtechnolog ical
ĠverstÃ¤r kt
Ġterritor ial
ĠâĢ ¦
ĠfÃ¼hren den
ĠT iere
Ġconsult ation
Ġth re
ed s
ig ern
ĠJ ose
ĠCh amp
Ġp ension
Ġur ge
ĠZust and
bereit et
Ġsp Ã¤t
200 2
grif fe
ĠFÃ¤h igkeit
Ġsich erstellen
f ers
Ġno ise
Ġsk in
ĠUmst Ã¤nden
ĠS onn
ĠRe aktion
Ġviel mehr
Ġpar allel
Ġacc ounts
u j
Ġe ye
Ġinvest ments
grund lage
de te
ĠSt unde
ĠBerÃ¼cksicht igung
Ġdivers e
ĠF Ã¤lle
ĠAl ter
Ġgr and
ĠP in
ab sicht
klÃ¤r ung
Ġmov ed
Ġcharm ing
ĠD ata
Ġim per
Ġh all
ĠÃľber n
Ġf and
Ġat temp
i ary
op t
Ġatt itude
Ġg esellschaft
sp art
M ember
Ġmark ed
je ction
ĠMin utes
ĠRe pr
ĠGra f
Ġb ureau
Ġex ceed
Ġme ist
icher ungs
Ġkn ows
folger ungen
ĠZahl ungs
jÃ¤hr ige
Ġrepe ated
D S
m o
ĠRom ania
ĠPro di
Ġsp ot
ĠMinder heiten
Ġla ut
Ġehemal igen
Ġre jected
wo od
ĠFl uss
Ġex istence
Ġw he
Ġzu verlÃ¤ss
Ġult im
Ġrun s
g g
Ġle iden
ĠK orea
ĠSt Ã¼ck
fol io
Ġber uf
zahl t
Ġer griffen
Ġzust immen
âĢ Ķ
Ġ ..
Ġin ten
Ġverl ieren
Ġschle cht
T ER
gen ce
ĠR oh
Ġimpro vements
Ġvor genommen
Ġrep ly
Ġse ien
ĠO F
Ġbar r
Ġderzeit igen
Ġ >
ĠE th
fert igt
Ġexperien ces
ĠÃ¼ber zeugen
it o
stru ction
Ġbef assen
ĠFre ude
0 7
term ine
iz ont
ang er
Ġcomp liance
Ġsp ok
Ġforder t
on te
Ġgew isse
ĠR umÃ¤n
ĠB ack
Ġ8 00
Ġst one
org nis
ĠFen ster
c ar
ĠVer Ã¶ffentlich
ke hren
ĠK ong
stoff en
ven ue
Ġblo od
Ġrequ ests
Ġill ustr
at ically
ĠB M
ĠT ai
ĠF lÃ¤
bere cht
Ġheav y
im in
ĠVerfÃ¼ gbarkeit
4 9
ur ies
Ã¶ p
ĠUnter schiede
Ġf ed
ĠEinwander ung
ĠGr enze
Ġwa it
ĠN ik
Ġc m
Ġbed arf
ĠAut ob
Ġ #
Ġsch lieÃŁen
Ġstre ets
geb racht
Ġwieder um
Ġhelp ing
igen ce
Ġsh ape
Pro gramm
Ġabge le
ĠRe f
ĠPr Ã¤s
Ã¨ s
ĠSch Ã¤den
Ġl ock
op les
Ġrecommend ed
U s
Ġcompeten ce
ĠCh urch
Ġbir th
Ġglob ale
it ime
ĠC ustom
Ġd ah
pp ed
Ġkonkre ten
ĠDiskuss ionen
ĠPat ent
or ough
Ġle isure
Ġstra ight
Ġpie ce
ak ten
Ġper mit
Ġdest ru
Ġtre ated
Ġstark en
Ġleaders hip
ĠKlimawand el
kun fts
ĠKomb ination
sicht s
ĠRo om
Ġbetre ffen
Ġar ms
Ġpriv acy
me chan
ĠDienst leistungs
Ġspeak ers
ĠHand eln
ĠK unde
ne w
ĠnÃ¶t ig
ik te
iger ung
uropÃ¤ ischen
Ġb ildet
Ġoblig ation
Ġexpert ise
te hen
Ġges tern
Ġpresent ation
ĠUntersuch ung
Ġlaunch ed
le chter
iet ies
Ġwel chen
Ġd ir
Ġsignificant ly
Ġge ehr
Ġde le
ĠPra kt
Ġbedroom s
Ġb inding
on i
lich em
fÃ¼ll ung
z ed
ĠVerb esser
L ocated
Ver y
ĠPers pekt
ĠlÃ¤ uft
ĠGes etze
i ating
ge ht
la use
S A
Ġun its
ĠEx press
Wh ere
Ġcompens ation
gr Ã¶ÃŁ
ĠEr wach
Ġro t
Ġdr ugs
Nach dem
Ġsw itch
Ġrecogn ise
rif t
ĠV ision
he ber
Ġconf igur
Ġf elt
Ġconsist ent
Ġsle ep
er ungs
Ġland wirtschaft
own ed
isp iele
ĠFre unde
ies t
Ġkein es
Ġdest ination
Ġwebs ites
v ak
istrib ution
ĠB alt
ĠRev olution
ĠSw ed
ĠAdr esse
Ġpolit isch
ĠQ ue
ent wurf
Ġ199 3
ĠThe ater
Ã¤hr t
ĠP flanzen
schaf fen
ĠSp iele
ak ers
Ġsubsid iar
6 8
Ġpar ad
ĠStruktur fonds
te en
Ro oms
Ġfurn iture
st Ã¤nde
Ġtrans form
Ġfl at
Ġsan ctions
Ġd ishes
ĠK ranken
Ġbas iert
Ġexpect ations
ĠV ia
Ġeng ag
ettbewer bs
ĠRot ary
ud s
ĠGrund sÃ¤tze
iv ate
amer as
Ġrepr esented
ĠFl ash
ĠStra f
ge iz
if orm
be ziehung
Ġemphas is
Ġf ir
ĠL os
ru ppen
Ġoper ators
Ġextens ion
ĠL u
Ġcomp ly
zÃ¼ g
Ġum fass
Be im
Ġkom pliz
Ġv ess
hand lungs
sp arte
t i
Ġwir ksam
Ġsp rach
G B
ĠL ast
Ġgen auso
k op
Ġl ose
ĠKy oto
Ġsub stances
at re
zub auen
D r
ol i
ĠEigen schaften
Ġent lang
stit ut
e v
f are
Ġapplic able
st ance
ĠO ne
Ġbro wser
ĠLa w
B esch
Ġcomp lic
ĠBre akfast
Ġs ights
Ġst ations
al ys
ĠKolle ge
ĠAllgemein en
Ġtre es
ir k
Ġw ild
Ġbe zieht
Ġverl angen
abil itÃ¤t
Z immer
Ġex ists
ichte ten
bahn hof
Ġd og
ĠAngeb ote
at i
Ġ198 0
Ġpro ud
form ance
ĠJahr zehn
Ġdef ault
Ġd einer
ĠB Ã¶r
Ġresol ve
B oth
ĠMen Ã¼
Ġ6 00
Ġfant astic
Ġol der
est ion
âĢ ¢
oss en
ĠZ ul
och en
uch er
ĠS atell
Ġze ich
ro te
Ġbe iz
d ass
h op
z za
th eit
ĠO ur
ĠO ld
isch ung
Ġenter ed
Ġt ests
ok ument
Ġtr ial
ĠEng lisch
Ñģ ÑĤ
Ġk or
Ġspe zial
ĠDok umente
ĠMÃ¼n chen
gra d
ĠSign al
ĠH erk
Ġappro val
Ġcentr es
ot te
Ġhelp s
Ġart icles
Ġobject s
ĠMaÃŁ nahme
Ġl atter
Ġwichtig es
Ġd ict
ĠS un
if all
us te
ĠDaten bank
ĠLeit linien
ĠabhÃ¤ng ig
Ġad j
Ġra re
Ġindivid uell
Ġrefuge es
Ġemphas ise
Ġdisch arge
Ġre icht
Ġerr or
Ġapprec iate
ur ger
tra gung
Ġkeep ing
ĠB io
s ervice
Ġc old
Z unÃ¤chst
Ġrel atively
ĠL Ã¶
Ġlie fern
sch ule
ĠGew inn
Ġs enden
wh at
B is
ach er
Ġadvant ages
Ġitalien ischen
Ġal ter
Ġout put
Ġakt uell
ĠAr gent
Ġv ast
ĠUnter schied
re chten
Ġe ur
ĠfÃ¼hr te
ab ling
ĠEn ergy
Ġzie mlich
Ġwh ilst
ĠCl ass
A part
ĠDet ails
ĠKÃ¼ ste
Ġtrotz dem
ĠOrig inal
in ations
Ġwh atever
ĠJ ack
ĠBe wegung
Ġengine ering
us al
ant ly
Ġumfassen den
n etz
o be
icht ig
Ġaff airs
h ard
ĠAntw orten
Ġco vers
Ġd inner
an i
Ġbek annten
ĠSchl oss
Ġge ist
Ġde legation
ĠDefin ition
f it
ĠK reat
Ġtemper ature
Ġho her
Ġw enden
ĠA ustausch
sp ar
Ġrespect ive
Ġ3 7
S ervice
fl ug
co de
Ġhapp ens
Ġy e
Ġpl ug
Ġmin i
ĠW esten
reg ion
e y
ĠS ud
Ġarrange ments
ĠauÃŁer gewÃ¶hn
lÃ¤ ne
ĠVerb rechen
Ġob st
Ġo d
Ġge pr
Ġte xts
St ar
Ġcl oth
ĠO s
Ġhelp ed
ĠSchwer punkt
o ÃŁen
weit e
Ġunmittel bar
ĠMun ich
O P
Ġentertain ment
ĠMin isters
ĠerhÃ¤lt lich
w in
re ds
ĠBed enken
Ġfind ing
Ġad ap
ĠFrem den
Ġinvol ving
m aschinen
uch te
Ġregion ale
Ġfav or
Ã¨ re
Ġent re
Ġs i
Ġf oll
Ã¤tz ung
Ġperson ally
Ġsuffer ing
ĠS D
ĠS yr
ĠG ut
ĠU ser
Ġest im
ĠP aper
ĠR ich
in os
ĠJ es
Ġma ÃŁ
Ġpe oples
Ġ12 0
pre ch
ĠZus atz
waren ess
Ġexclus ively
Ġtax es
ĠBes itz
T S
Ġth orough
ild ing
tell te
Ġhistor ische
U M
Ġdis aster
ĠBeruf s
Ġange p
ĠWahr heit
Thank s
Ġto urs
ĠZugrif f
ik as
Ġentsp annen
Ġm useum
Ġerweit ert
f Ã¤
spruch s
Ġnatur ally
Ġrecognis ed
Ġzu ge
unkt ions
ĠD rit
ĠSch ule
Ġeng l
Ġdang er
ĠPrem ier
Ġg ather
Ġsc rip
Ġvalu able
Ġer Ã¶ffnet
ĠVer trÃ¤ge
Ġconfir med
Ġver f
ĠWachst ums
F ind
Ġbesch rieben
R estaurant
ve c
gel assen
Des pite
ĠFahr zeug
ĠW in
be hÃ¶rden
ĠS he
ĠL ou
ĠSan ktionen
Ġspr ing
Ġspect ac
ur d
ĠbetrÃ¤ gt
Ġin tend
Ã© r
Ġrelig i
S eine
trÃ¤ cht
Weit ere
Ġg Ã¼lt
ĠIn de
ĠBe weis
Ġpolit icians
Ã¤nd ige
Ġin f
ĠW ith
Ġwe ather
f Ã¤llen
is ory
amer ika
Ġb reat
ne ter
Ġfal sch
ĠPla za
E benso
ĠKon sequ
ĠkÃ¼nft ig
Ġkomm un
ĠPr ess
ĠH ong
iz z
Ġre ichen
ĠT ibet
Ġopp osed
rÃ¼st ung
ĠGes icht
ĠUmwelt schutz
Ġjour ney
à ¸
tr an
que llen
a j
Ġp ick
ĠAm ts
w est
ul ted
fl Ã¤chen
Ġut il
ĠLandwir te
komm t
ĠPl ayer
ĠBra zil
Ġdise ases
Ġentde cken
Ã¼r en
ĠDe legation
v ol
p ers
ĠR ock
Ġf ill
ĠJ ean
ĠFar b
u den
ach te
Ġfirst ly
ĠR ub
ĠStrateg y
Ġout door
ĠzusÃ¤tz lichen
ĠTechnolog y
Ġko ordin
ĠAn gel
Ġm obility
Ġg irl
Ã© n
ĠE G
Ġhos tels
Ġthre aten
b aut
Ġobtain ed
Ġrepe at
ru ct
ĠH oll
Ġkurz em
Ġso ft
ĠSo und
ĠHerk un
Ġfig ure
z in
Ġres idence
Ġerschein en
polit ischen
cl ass
Ġzu gÃ¤nglich
uf Ã¼hren
ĠBes tell
Ġcons erv
ĠAr m
Ġsol ve
T R
ĠG M
f ar
Ġinteress iert
reu ung
L in
Ġin tellectual
ess ene
Ġvoll er
Ã¤nd ler
Ġfamil iar
N ote
Ġge prÃ¼
Ġd ans
Ġoff ices
Ġgrundlegen den
ch ron
5 5
Ġdiscover ed
ĠschÃ¶n sten
Ġpassen gers
Ġrenew able
ol er
ĠEr wÃ¤
ĠhÃ¶ here
J e
Ġgef Ã¶rdert
ĠBerichterst at
Ġschwier igen
ĠMaterial ien
n ot
az ine
ĠStud enten
onder s
Ġ1 000
ĠStrateg ien
Ġcomb ating
trie ben
Ġexception al
Ġl aufen
Ġlook s
ĠSu ite
ĠM ach
ĠP op
Ġbes itzen
Ġgesch rieben
ĠWirk lichkeit
ĠB aum
Ġl Ã¤ng
Ġso fern
p ol
ĠM orgen
ik es
ĠWor k
Ġwesent liche
Ġe igent
C S
ĠMittel punkt
ĠSwed ish
icht bar
Ġex em
Ġstr ugg
h me
id den
u ens
Ġeigen es
de ten
ug nisse
Ġw eshalb
iv a
ĠErwart ungen
Å ¾
Ġ3 8
alt a
st es
Ġdirect ives
ĠEisen bahn
Ġmill ions
Ġfac ed
Auf grund
Ġnie mals
Ġacc om
Ġch ain
Ġhil ft
M od
Ġdire kte
ĠÃ¶ff nen
act ory
ĠEss en
Ã¶ ger
ĠT it
lie fert
Ġein erseits
Ġde termine
ink en
ĠHe iz
A ut
V om
V ert
ĠFin ancial
Ġinvol vement
bau en
stehen den
Ġcoup le
ĠAmb iente
ĠUm gang
ĠStud ie
Ġkulture lle
Ġzwe ifellos
and on
Ġweltweit en
ĠEmpfehl ung
Ġe yes
lie ben
Ġhervorra gende
a al
m l
ĠNach richten
ĠAgrar politik
gend es
Ġcreat ive
ĠRad io
Ġserv es
hand elt
Ġbedeut en
Ġobst ac
h i
be k
ĠBade zimmer
ĠK andidaten
ĠMon te
ll es
ĠHin dern
ec utive
ĠM aster
d ire
an cing
Ġdurch zufÃ¼hren
Ġenth us
ank s
Ġimpress ive
Ġpres ident
Ġp ush
Ġausgezeich nete
astr onom
Ġa uÃŁen
Ġle aving
ĠEnts p
Ġzu erst
Ġbureau c
ĠK ategorie
istr y
ĠBerat ung
ĠnatÃ¼r lichen
weis ung
ĠW as
ĠDav id
Ġprotect ing
Ġneues ten
Ġdoes n
Ġkom bin
Ġremov ed
ĠAmer ika
ic ip
and al
we i
leg ungen
ump ing
ges undheit
ĠjÃ¤hr lich
ĠDire ctor
ĠOb ama
O W
ab we
T ats
Ġconstru ctive
ĠEr inner
Ġcritic ism
Ġver Ã¤ndert
Ġam ounts
Ġsp anischen
Ġt reaty
ĠW Ã¼r
rÃ¤ ften
ĠE gypt
ĠPro ced
ĠSk ype
vention en
ĠFerien wohn
ing esch
ĠAt om
Ber icht
Ġre den
Ġhappen ing
ĠKar l
Ġstatt f
ĠbemÃ¼ ht
F r
Ġcontrib utions
En joy
Ġautomat ic
d essen
Th ird
Ġnew ly
Ġhosp it
ĠÃľber setzung
Ġequ ally
Ġin zwischen
ĠNach frage
ap est
Ġge pl
ĠAd ministr
Ġlic ense
ĠM assen
Ġlarge ly
ĠVeranst altung
itÃ¤ re
Ġ {{
ed e
Ã¶r ung
Ġcommunic ations
Ġruh igen
Ġausgezeich neten
lo oking
ĠVer k
ted ly
ĠKomm ent
Ġinteress ant
Ġbetreff enden
Ġorganiz ations
ĠT on
ĠD iv
M ill
m es
Ġim pression
Ġst ake
gemein schaft
Ġofficial s
Ġmand ate
re b
ver letz
Ã¤hl te
Ġprepar ation
4 7
ĠB or
Ġstrateg ies
ĠUn gleich
gem Ã¤ÃŁ
l ight
p Ã¤ck
in stitution
Ġcontract s
r d
Ġtempor ary
an en
ĠF er
Ġge tr
Ġres erve
ĠEin stellung
Ġlo vely
Ġcan cel
Ġhand ling
, âĢĿ
ĠK rie
ĠO pp
Adr esse
Ġh it
Ġla den
ĠPap ier
Ġge legt
Ġa wareness
Ġiss ued
unic ip
Ġremain ing
Ġsch reiben
Ġmus ste
ein richtungen
Ġpro hib
Ġrequire ment
ash ington
Ġincre ases
fre ie
Ġqual ifiz
ĠursprÃ¼n glichen
Ġinstall iert
Ġbo at
ste uer
fin anz
ĠGra d
Ġc er
Ġac quis
ĠVoraus setzung
ĠfÃ¼ hlen
St and
ĠEntwicklungs lÃ¤ndern
Ġchar ges
Wel che
Ġrestrict ions
J a
Ġhealth y
Ġoffen en
ĠPriv ate
' ve
Ġ Ã¤lter
ĠIn c
s ystems
Ġliberal isation
Ġ essen
ent ions
Ġver Ã¤ndern
ĠE P
Ġr ichten
Ġvol ume
ĠS und
hm igung
[ [
Ġein fachen
Ġgen e
ĠÃľber zeugung
ĠbetrÃ¤ cht
ĠTem peratur
ad ow
ĠNor men
Ġbalcon y
ĠVerbesser ungen
ĠprÃ¤sent iert
Ġan wes
Ġinhab it
ĠM ut
Ġm ur
ĠFran c
Ġkomm er
Ġcharacter istics
ĠSchul den
Ġdeb ates
ĠMein ungs
Ġrapporte urs
Viel leicht
Ġdec is
Ġab road
Ġopin ions
ĠGN U
ip el
Ġauf zunehmen
Ġcont roll
St a
hol ders
Ġs orgt
Ġd ich
Ġa chten
Ġp hen
Ġrem ote
ĠKÃ¼ sten
Ġreturn ed
Ġmensch lichen
Ġal bum
be hÃ¶rde
Ġd ining
ĠK now
Ġsurround ings
Ġgrundlegen de
st ood
hol en
meld ung
reich ung
ĠBau ern
wir kung
Ġextra ordin
Ġinc ent
sch irm
Ġgew alt
- /
hr t
Ġst immt
Ġen han
Ġfight ing
grenz ung
Ġab ol
Ġunivers al
n ischen
Ġdeta ill
Ġabgele hnt
Ġl obby
ĠL as
Ġtr ifft
Ġresol utions
ĠLuxem bourg
Ġf asc
Ġpro ve
Ġcolle ctive
200 5
Ġs la
ĠT om
Ġsu ite
Ġoper ational
Ġentscheiden d
ĠA z
Ġge zogen
ĠSt ahl
Ġber aten
Ġv ous
Ġsch lieÃŁ
Ġmaintain ed
Ġfunktion ieren
angeb ot
ĠSaf ety
G et
Ġw alls
% ,
or ia
Ġ198 9
Ġfa ith
Ġc ry
Ġst arten
Ġco her
u ite
Ġcre ates
Ġorganis iert
ĠV ir
Ġmess ages
ĠhÃ¶ch sten
Ġsex ual
N or
Ġident ify
Ã¤um t
t d
gÃ¤n ge
Ġausges prochen
re ffen
Ġund erm
Ġc ab
ĠM Ã¶
ĠTag ung
ĠkÃ¼nft igen
ĠMy SQL
el er
ĠE p
gar n
Ġfe e
ĠUN O
is ierungs
Ġcomm un
itte es
Ġrenov ated
g ut
Ġrecommend ation
ĠÃľberein stimmung
Ġprec ise
ĠAir bus
ĠHostels club
. "
ĠR und
Ġvol unt
ff ect
Ġbre ite
Ġdecor ated
ĠGarant ie
ĠBrit ain
Ġdepend s
ĠP unkten
ĠÐ ²
Ġclass ic
ĠT schech
ĠSchw eden
Gen eral
m aterial
Ġd ark
Ġd ritte
ĠD auer
ĠHarmon isierung
8 6
ate ful
ĠKap az
Ġge ts
Ġ199 1
Ġverschieden er
ĠStabil itÃ¤ts
Ġgrat ulieren
B o
g Ã¤
ĠStruktur en
Ġum zusetzen
ĠTerm in
Ġtra ditions
Ġgew onnen
Ġries igen
ĠB urg
Ġerlaub en
Ġkur ze
ĠP ia
ĠVer fahrens
Ġgeb aut
Ġpat tern
Ġign or
ĠW Ã¤hl
A F
t able
ro hung
ĠT y
last ung
Ġaus geschlossen
id ay
gr enzen
Ġow ner
B C
Ġc atalog
Ġver an
Ġsow eit
ĠPolize i
in ational
loy ed
for schung
ze llen
k rit
t Ã¤us
Ġle gend
Ġinsp ir
ĠÃ¼bern immt
de b
ĠNahrungs mittel
C omm
F ollow
Ġb attle
ĠN on
fin ed
ĠBo x
ĠT im
Ġverurs acht
G ro
Ġart ist
Ġschn elle
Ġre ported
r ufen
Ġbek Ã¤mpfen
En tw
Ġinvol ve
Ġnied rig
b il
ĠFest legung
ĠWe iÃŁ
Ġaf tern
Ġperfe kt
Ġausge wogen
cent er
c i
ĠA ction
Ġapp oint
m acht
ĠT own
Ġs in
Ġsa una
v ant
Â ¤
Ġverl angt
Un der
Ġpropert ies
z ne
Ġle istungs
cl es
inu ier
ĠN G
Ġconflic ts
Ġregular ly
mÃ¤r kte
Ġw itness
Ã¤t igung
ĠProced ure
Ġz Ã¤hlt
Ġan gesehen
ĠM all
ĠRe fer
Ġgel Ã¶st
ĠG eschÃ¤ft
ac ion
Ġg one
co hol
ĠP uert
igh ten
ĠAus stattung
ĠEng ine
Ġb uchen
Ġreve al
Ġdraw ing
arm a
Ġlau tet
Ġyo uth
wachst um
ĠS ens
Ġbe zug
Ġhard ware
ĠÃĦnderungsan trÃ¤gen
ĠD ra
ĠmÃ¶ gliche
Ġvac ation
zip lin
Ġcondu cted
Ġune ingesch
ĠAn fragen
Ġsm o
ĠHo hen
Ġfacilit ate
ig u
Ġforder e
ĠDritt lÃ¤ndern
Ġan statt
te le
ul iert
ĠVorsch lÃ¤gen
az ier
ĠNah en
ĠZustÃ¤nd igkeit
Ġauf treten
Ġbes eit
ĠSe cret
w ater
Ġc able
Ġpar ents
Ġcustom s
Ġeinzig artige
ĠGesch mack
l iste
ĠGer Ã¤te
Ġaufge fordert
Ġan schlieÃŁen
Ġme at
mit ten
Ġan nehmen
Ġal arm
ĠKons ens
Ġsch afft
Ġcare er
ĠBulgar ia
ĠGest altung
onym ous
ĠS ov
4 4
Ġsch ne
Ġ Î
ĠAr me
Ġab gesch
ĠAr men
Ġlo ad
ĠMus lim
6 7
m odell
Ġg old
Ġhund reds
in y
de cken
ĠGe gend
Ġgen der
Ġperform ed
ĠTh ese
ĠUS D
yp ern
ĠMan gel
Ġaccomp an
Ġzug unsten
Ġse he
Ġcons c
ĠSh ow
c ol
Ġtop ic
C ommission
Ġer Ã¶r
ĠBes tellung
Ġir re
Ġwissenschaft lichen
Ġtransport ation
ĠIntern ets
Ġhervor heben
ĠC af
u ese
Ġinter ior
Ġintens iv
ar r
us ter
ĠAb schnitt
lÃ¤ ut
ĠKomm un
Ġparliament s
Ġphen omen
Ġw ettbewerbs
Ġe ast
as che
ber ge
Ġmet al
et a
p oint
ĠA th
ĠW are
lie b
Ġintens ive
ĠBe hinder
ĠAng st
all er
ĠMa astr
erecht igkeit
ud es
ĠStand ort
iz er
Ġrec ip
ĠFar be
Ġhold ing
Ġver stÃ¤nd
fÃ¼hr te
Ġzentr alen
Ġdurch fÃ¼hren
Ġsupp osed
ĠKr isen
ĠBalk an
Ġbek omm
ĠAkt ien
ĠV ater
Ġdef ine
la red
ĠKil ometer
Ġverein bar
ĠK urz
ess ions
and t
ĠPlan ung
Ġzuf olge
ĠCan ada
Ġbe absicht
is tern
Ġ iron
Ġvis a
Ġd ates
Ġein ig
Ġ9 00
ĠL ist
Ġsee ing
Ġfoll ows
or ca
ĠMEP s
Ġkur zen
Ġa vec
ĠAltern ative
Ġsome what
ĠbeglÃ¼ckwÃ¼n schen
Ġwor se
Ġzust Ã¤ndigen
ĠerwÃ¤ hn
6 5
Ġmit ten
Ġam az
ĠprÃ¤ z
Ġjoin ed
Ġdisplay ed
iv als
stand ards
w ald
ĠAus fÃ¼hrungen
ĠCroat ia
ĠBl ut
est r
Ġ9 5
Ġnorth ern
ĠRegierungs konferenz
ig sten
io x
Ġerheb lich
ĠAl p
ĠEx ecutive
F erner
Z us
Ġf ather
Ġun for
ĠRo bert
ĠSte uern
Ġverst anden
Ġterror ist
or gan
Ġno ted
ĠKrank heiten
Ġcolle ct
ĠM S
Ġpar lament
Ġupd ated
ĠMar ina
ĠzurÃ¼ck ge
Ġtown s
Ġab andon
ĠbestÃ¤t igen
ĠB SE
ĠRatsprÃ¤sident schaft
Ġfrequ ently
Ġschw ed
e f
schied et
Ġorgan ized
st anz
Ġverb ringen
CH T
Ġz ut
ĠB y
ĠMus ic
ĠAusgang spunkt
ĠfrÃ¼her en
Ġis lands
ĠPol ish
Ġconne ctions
Ġlab el
Ġverab schiedet
Ġo ught
Ġm other
ĠW ashington
Ġso dass
ĠAn wendungs
ĠGe orge
Ġcontin ent
Ġans wers
Ġreserv es
Ġun gefÃ¤hr
ĠL im
ĠH imm
os is
Ã¤hr ung
ĠAus fÃ¼hrung
ĠJapan ese
ĠI st
lÃ¤ss lich
ĠRe isen
ain e
be auftrag
Ġtechn iques
Ġkont inuier
Ġnachhalt igen
Ġsty lish
un ning
ring erung
Ġ6 5
sch Ã¤d
aus end
ĠFÃ¤h igkeiten
ier a
ĠEx port
we chs
Ġemer gency
ift ung
ĠG U
Ġde als
kre is
Ġdemand ing
Ġun ent
if ies
Ġregul atory
ĠT el
Ġtr ib
ĠSa una
ĠHal b
ĠGe heim
Ġminor ity
ĠE is
ĠUr spr
Ġd rop
ĠStra ÃŁ
ĠApart ment
ĠA ward
Ġehr geiz
ĠKon text
Ġnotwend ige
Ġb ud
ĠS at
Ġf aster
we ll
w ing
ies sen
ĠH ans
Ġre act
min uten
Ġsett ings
ĠChe ck
k ur
Ġultim ately
zeich nis
Ġcontr ast
Ġausgest atte
ĠGleich gewicht
b art
ĠT emp
ĠBe ispiele
ĠUm feld
Ã¤lt igen
Ã¶ ÃŁen
ĠÃľberein kommen
ĠHil fs
Ġwor ry
or ama
ĠArbeitspl Ã¤tzen
ĠauÃŁerord entlich
fu hr
st ud
p assen
ig end
min ute
Ġdr iver
ĠRe port
c are
Ġgr ateful
ĠRe gen
Ġbeh avi
Ġhe at
ĠK roat
Ġan spruchs
ot ive
Ġam t
ĠAutom obil
u ers
Ġdr ug
n or
Ġhos tel
ĠDus che
P al
Ġbezahl en
M en
ĠS ur
ĠLie be
Ġinteress ante
Ġcast le
ĠSon ne
Ã ½
ĠAus stellung
ĠAnt i
Ġqu arter
ĠCypr us
oun ter
Ġethn ic
Ġgew issen
ibliothe k
Ã¼ ler
Ġher itage
Ġinv ite
ĠL ife
Ġdivid ed
t ies
ce an
Ġder art
ĠReg ime
ac iÃ³n
ĠPlen um
ĠW ild
Ġvis ual
Ġtour ists
e te
ay a
rel ated
Ġprodu ziert
Ġse at
Ġdel ighted
us ted
Ġarr ive
zÃ¼ ge
Ġwind ows
Ġent rance
ĠEntwicklungs lÃ¤nder
ĠEin heit
Ġstat istics
Ġelectric ity
ĠAn bieter
Ġent schlossen
ĠRed ner
ĠEx pl
ĠÃ¶ sterreich
Ġprodu cing
Ġt ail
Ġm igration
Ġausge zeichnet
T wo
ĠN ap
Ġvor ange
tend lich
g Ã¼nst
ĠSch atten
ĠAus gabe
ĠDeut schen
Ġmagn ific
Ġs ter
ĠK MU
Ġcour age
So ftware
Ġ5 5
Ġver leihen
Ġsu ites
ĠBuch ung
Ġbesch rÃ¤nkt
ĠArbeitspl atz
Ġprot ocol
Ġge Ã¤
Ġrelax ation
Ġentde ck
ig a
ĠT ime
ĠVer d
Ġerm ut
Ġfrei will
Ġw ines
Ġj etz
ĠGew icht
Ġserv iert
ĠPrinzip ien
Ã ®
Ġl ibrary
Ġchann els
ĠgeprÃ¼ ft
ĠM ir
ĠWebs ites
d as
ĠW il
Ġval ley
Ġm Ã¼nd
ikan er
ĠN ice
ĠEin beziehung
R at
p g
Ġinhabit ants
g or
ar at
ĠPart nern
ĠPrÃ¼ f
B M
ĠL ate
ĠZentral bank
Ġaftern oon
Ġh Ã¤ngt
Ġre fr
Ġpro of
Ġgeb oten
Ġfl ights
Ġmult inational
Ġvis ible
Ġcontact s
D rittens
Ġver hindert
Ġinvol ves
ĠSpe icher
Ġauf nehmen
ĠMon etary
O F
b anken
Ġloc ations
ĠFrei heiten
Ġpie ces
ro vers
imed ia
er geb
ie ben
Ġent steht
ĠRumÃ¤n ien
Ġstar ts
Ġdecl aration
Ã¶r d
Ġkont akt
Ġun mÃ¶glich
ap y
Ġstr ing
sid iar
Ġwel chem
Ġwel fare
Ġb all
Ġindic ated
re tt
sch m
ner g
kont rolle
Ġaus gesetzt
Ġdire kten
Ġbott om
8 8
Ġt icket
ĠSchlaf zimmer
och ter
ĠVer ringerung
Ġnew sp
Ġder artige
ĠB lock
iz za
Ġ3 4
O C
ic er
Ġst ars
Ġor al
Ġsy mp
ĠE arth
ĠV iertel
Ġwoll ten
ĠPro p
Ġentwick elten
Ġvisit ing
Ġexc iting
Ġc ash
er kennen
Ġan tw
ĠM old
Ġinter v
ko hol
Ġdepart ment
Ġab gestimmt
Ġexpl ore
d ro
Ġpres ents
Ġwid ely
Ġpoll ution
ĠBe ziehung
ĠEr satz
R OM
ĠBr asil
ĠKohÃ¤s ion
on ien
hÃ¶r igen
Ã¤t igkeiten
We ll
Ġsupp lement
Ġgeb oren
U NG
ĠT rag
au x
Ġprot est
Ġerreich bar
Ġstor ed
L T
d iction
et r
ib ar
etz ten
Ġsign s
Ġmit ge
ĠInd ones
Ġpass iert
Ġmaintain ing
Ġcollabor ation
f Ã¤nger
Ġs ac
ĠG DP
Ġk Ã¤mpfen
Ġbest immen
con s
Ġacc ident
ĠVerb ot
Ġshow ing
Ġbeein druck
ĠUp date
Ġcorrespond ing
lich ung
Ġvis ited
ĠY ear
L ike
ĠVor be
ic ans
ĠCon gress
Ġdemonstr ate
Ġunder stood
under t
ĠVorschlag s
Ġversch w
Ġcare ful
iss es
Ġdr ivers
ĠGesetz es
Ġgarden s
ru h
Ġprov ed
ien ted
ag ers
ĠGo vern
ĠHaft ung
m aschine
Ġt ie
le vel
Ġv oc
Ġexp ansion
Ġgelten den
Ġcos y
Ġspok en
l ife
Ġsubsid ies
ĠFakt oren
ĠE dition
ĠJ er
Ġst opp
ĠPro blems
ĠPortug uese
ul f
Ġk ing
iet nam
Ġdemonstr ated
ĠIn f
up s
Ġdepend ing
B us
ra k
Ġger Ã¤um
O hne
T H
Ġr ub
ĠNe ben
Ġhervor ge
wer ks
Ġinvest ors
Ġa wa
Ġge zwungen
ĠAn ton
Ġc ommission
ĠGeschÃ¤ fte
ĠFÃ¼hr er
ĠF unds
Ġf erner
Ġfocus ed
ĠsorgfÃ¤lt ig
ĠH of
Ã© es
Ġstaat lichen
we ile
ĠFra mework
Ġausge fÃ¼hrt
ograph y
Ġplan et
aussch uÃŁ
Ġtats Ã¤ch
ĠvollstÃ¤nd ige
scheid et
ĠGent oo
Ġmost ly
Ġt rop
Ġle gt
ĠGer ichte
Ġbil ateral
ĠBemerk ungen
ĠÃĦ r
ĠDire kt
Ġv en
ĠA qu
Ġerleich tern
ĠWÃ¼n sche
ĠB ook
ĠGemein de
Ġkos tet
Ġfin ished
Ġf itness
ĠC ook
ĠPro jekten
h Ã¤user
Ġw ann
ĠV ideos
ach ing
ĠF Ã¶rder
mÃ¤ÃŁ igen
ĠbegrÃ¼ ÃŁt
n ational
ro wn
ver tre
Ġwork sh
Ġpre is
D u
Ġc ategories
Ġdefin iert
ĠL ager
wÃ¼rd igkeit
Ġdid n
ĠW olf
ĠP RO
ĠStr uct
Ġhinzuf Ã¼gen
ĠT ax
ĠVer mÃ¶gen
Ġkurz frist
Ġin put
ger Ã¤te
Ġperson nel
Ġaccompan ied
Ġvor legen
etz te
ĠPrag ue
ĠBalt ic
Ġfac ility
Ġord nungs
l iers
200 4
ar ische
Ġwest lichen
amm eln
Ġcut ting
Ġverehr te
l angen
Ġle bens
ĠFe uer
ul in
kl ass
N S
Ġthe me
Ġje gliche
ĠBud apest
Ġn ine
ul en
ĠN ic
ĠK rÃ¤fte
Ġdre am
ĠH D
ĠKre uz
Ġcop yright
if orn
ĠKompeten z
mÃ¤ÃŁ ige
ĠTai wan
ĠP act
ĠCop enhagen
6 6
Ġcon cluded
produ kte
Ġ3 3
schl uÃŁ
Ġsol ange
ĠBeit rÃ¤ge
Ġdist ingu
ĠEr holung
hol m
Ñ ĩ
re p
Ġerinn ert
Ġe chten
Wel come
Ġsett lement
P ort
ugh ter
ĠVereinbar ungen
Ġspectac ular
ĠGr Ã¼ndung
Ġcontrol led
Ġnahe zu
Ġspezif ischen
Ġs ad
pp ing
Ġpriv at
Ġf ab
St ud
ĠAud io
Ġgespe ichert
ĠZ entr
ĠSch uld
ĠGip f
Ġrest ruct
ĠBr enn
Ġpurs u
Ġindivid uelle
ĠF leisch
ĠL td
ĠFr Ã¼
P ol
r ent
ĠS emin
ĠZ ypern
S ow
ien ces
Ġcomm ittees
Be fore
Ġs ah
Ġangem essene
ĠbemÃ¼ hen
men s
teil ungen
hip s
Str ategie
M ark
ĠEin wohner
tr ans
ĠSp azier
ĠOr te
ID S
ĠÃ¼brigen s
Ġfert ig
te chn
ul pt
Ġterm in
Ġdocument ation
ĠhÃ¶her en
ĠM ode
uss e
Ġl ounge
Ġbre it
fra gt
Ã¡ s
Ġf lag
ĠZ iffer
ĠBalk on
Ġra w
Ġaward ed
Ġhe ating
ĠAnd re
Ġsmo oth
Ġcitiz en
Ġfil ms
cep ts
ar ters
if est
Ġeffect iveness
Ġbesch leun
Ġrepla ced
Ġdefinit ely
ame ters
Ġpl enty
Ġcon fer
Ġt ar
Ġn ights
Ġon going
ĠEurop ol
Ġnach zu
imm ungs
Ġheut ige
Ġoccas ions
ĠMex ico
Ġbehavi our
ĠK amera
ĠW ord
Ġprin ting
chn ung
Ġresist ance
ĠVerÃ¶ffentlich ung
ĠTh at
Ġexpl icit
ĠWerb ung
Ġaut onom
use hen
at iver
ĠI V
ĠVor gehen
ĠSchweiz er
ĠFr iday
Ġer a
Ġfound ation
ĠProf ession
ĠA gricult
Ġimm igrants
ĠMaastr icht
ĠW C
lie gt
Ġcar bon
ĠFre it
n itten
Ġt ickets
ifiz ieren
ĠK as
ĠBet r
Ġtraff icking
ĠRe c
Ġeduc ational
V is
we ge
ign et
Ġminor ities
Ġspeak er
ap ie
}} )
ble me
ĠIdent itÃ¤t
ĠProte ction
p ap
or ter
ur laub
ĠÃ¼ber ras
ger ufen
ĠKon zer
ĠVerb indungen
Ġrecord ed
Ġpassen ger
B A
d urch
Ġr ational
Ġfra me
ĠNet work
ĠSlo vak
ĠG esellschaften
ĠAuÃŁen politik
Ġverd ient
s ieht
Ġw oman
ir s
Ġbestehen de
ĠWebs eiten
ĠB Ã¶
Ġstr eng
Ġcr imes
h err
Ġpal Ã¤stinens
V erb
ĠA P
Ġeing ere
wirt schafts
ĠN az
Ġf em
19 99
8 5
D ER
ĠK at
dem ark
Ġsp iel
Ġcy cle
Ġtack le
Ġverring ern
ĠG ames
be ziehungen
Ġverb ind
klus ive
Ġne un
schaf fung
ĠMobil itÃ¤t
Ġass ume
Ġbil ater
Ġgrunds Ã¤tzlich
ĠE lect
Ġpro sper
ĠO ffen
Ġus ual
ĠFernse h
C OM
ĠCamp ing
Ġ ice
ĠGe pÃ¤ck
Ġgegeben en
ĠBo ot
ĠSub sidiar
7 7
k ter
Ġcon stitution
ĠUn garn
Ġbe halten
Ġvirt ual
em ble
ĠÐ ½
Ġcor ruption
ĠMil ch
Ġpr est
ĠForm at
Ġmanufactur er
ĠKommunik ations
Ġberecht igt
Ġcompet ent
Ġpl en
ĠZwe cke
h Ã¤ngen
ath ol
Ġverur teilt
Ġfir ms
ĠO R
ĠPr in
Ġcompat ible
Ġres pected
o den
D adurch
ag g
Th rough
ĠPart ners
komm unik
Ġarr ived
ĠB ord
ĠBar s
Ġadop ting
A mer
och e
In stead
ĠgewÃ¤hr t
Ä ±
Ġro utes
ĠWe i
Ġnun mehr
App lause
ĠProvin z
Ġdes ired
Ġweek end
Ġconfigur ation
ĠVer pack
Ġeinfach er
ĠPal Ã¤stinens
Ġobl ige
ĠTar if
ĠbeschÃ¤ft igen
Ġfor g
ĠL uf
ĠWe gen
Ġdec lared
Ġim posed
Ġprof ile
ĠBe am
x y
be kÃ¤mpfung
teil s
Ġover come
ĠBes onder
Ġd ein
as y
Ġp ed
Ġprov en
use ums
ra f
ver trag
Ġse as
Ġmin ister
Ġmitt ler
ĠOpt im
Ġth r
Ġvor zu
Ġverb inden
Ġorganis ieren
ard o
amm t
Ġeinheit lichen
ĠGespr Ã¤che
Ġsh ares
Ġtrans actions
ĠFran z
Ġrecht lichen
Ġdis cre
ĠAkt ual
T ake
it ra
ĠMarkt es
ĠSM Es
ult ural
Ġges pielt
Ġfact s
Ġsug ar
ne x
ĠPolitik en
Ġschem e
ĠZiel en
F ree
ĠL iter
Ġapp ointed
m ung
ĠVerb reitung
oc kt
Ġrep lace
Ġbelie bt
Ġcontain ing
Ġjud icial
ĠChanc en
te chnolog
Ġrapid ly
ĠhÃ¶ch st
Ġcent uries
ĠIsrael i
Ġsend ing
Ġlic ens
o ub
z ent
Ġvor stellen
Ġcorrect ly
Ġers etzt
ĠSy mbol
Ġmil k
B l
ĠAn schluss
ĠInvest itions
Ġchines ischen
Ġsubsidiar ity
Ġletz tlich
c omp
ĠW art
Ġenjoy ed
Ġtradition elle
Ġmar itime
Ġman ager
Ġruh ig
ĠR ent
Ġjen en
Ã¼hr t
aler ie
Ġin j
Ġerweit er
ĠS pecial
Ã´ tel
ĠU R
ĠAs ien
Tats Ã¤chlich
Ġg allery
ĠPre isen
Ġbek rÃ¤ft
E E
Ã¶r ter
ĠTra ining
Ġdestru ction
glich keit
Be ifall
fre ien
Ġ197 0
Ph one
ĠU s
ag ent
200 7
ĠMa x
Ġposs ibly
zne imit
b ro
Ġi P
Ġprofession als
Ġs ud
ĠTh omas
Ġcert ific
Ġfor um
Ġcondition ing
b ach
ĠRe zeption
Ġfunction ing
Jed es
ĠMik ro
ĠN os
Ġletz ter
Ġhund red
ĠS orgen
Ġal cohol
ain ed
ĠHos tel
Ġsatisf ied
S c
Ġs it
ĠSer ie
Ġluxur ious
Ġgest altet
Ġl abe
ik i
Ġvorhanden en
d auer
ĠZ ert
t own
ra in
Ġass ets
Ġinstall ieren
an w
Ġf uer
il a
Ġdiv ision
ĠGe fahren
Ġinfl ation
Ġchann el
ĠEnerg ien
ĠArg ument
ĠRes pekt
Ġr ul
ĠLeg al
Ġcred ibility
Ġer lÃ¤ut
Ġcour ts
Ġentscheiden de
Ġunver zÃ¼glich
ĠD enk
ĠJ a
Ġindivid uellen
urs day
ĠAut hor
Ġunc ertain
R uss
ul ich
Ġerfolg reiche
Ġl ots
ys ide
Ġthe oret
ĠE R
ern el
ĠMed ik
Ġglobal isation
Ġstehen den
Ġhor izont
ĠBes orgnis
Ġberu ht
I K
j an
te in
ĠKomp onenten
Ġcons ent
Ġdie d
Ġis rael
Ġver wirk
Ġs en
Ġthous and
D aten
I X
Ġad ults
ĠSh op
The ir
ĠAb kommens
Ġr ental
ĠBro wser
Commission er
g ess
wer tet
C ons
Ġd ign
Ġdisc ip
ĠFre unden
Ġtrans atlant
Ġflo od
ĠP age
Ġpart ly
Ġmagnific ent
T r
ĠWer ke
ĠVerl ust
Ġstr onger
Wh ether
unic ations
Ġrech tzeit
ĠRechnungs hof
l uss
Ã¼ ne
ĠL i
ĠGer icht
N och
ch o
ĠM em
ĠF ac
ĠR en
Ġm iles
ĠAn re
ĠBet rag
Ġaus sprechen
be handlung
Ġconsider ing
m ir
ĠF err
uch s
ack s
ĠWerk zeug
Ġk amen
Ġsupp liers
Ġkl aren
ĠRo ad
C P
Ġtax ation
Ġcon stitutional
imb abwe
le hnung
ĠA D
Ã¼nde te
gel Ã¶st
Ġaddress es
j u
eth eless
ĠursprÃ¼n glich
ĠT O
ub en
mar quis
Ġpop ul
Ġsus pend
Ġslight ly
Ġsch lÃ¤gt
ĠdÃ¼r fte
est ra
D ire
ges ted
ĠBed ien
Ġdistrib uted
9 4
ograph ic
Ġprepar ing
Ġfehl t
Ġunf air
Ġdi agn
ĠStÃ¤d ten
Ġjen er
E X
ĠP R
ĠMitarbeit ern
ĠZ Ã¼r
ĠSk i
wh ile
tel n
Ġat tract
Ġsur f
Ġeas tern
ĠVer lauf
Ġbestimm ter
er ts
or ie
ival ent
Ġwiederhol en
N A
Ġpropos es
Ġange wand
ĠDon ner
v ille
ĠErzeug nisse
Ġangegeben en
Ġident ified
ĠSozial dem
z ut
ĠRechts staat
Ġzusammen arbeiten
Ġform ed
Ġextraordin ary
ild ren
Ġredu zieren
ĠNorth ern
d ienste
Ġco al
ĠUntersuch ungen
C ar
al ing
Ġluxur i
ĠP ay
zie le
ĠKap itel
Ġencour aging
ĠverstÃ¤r ken
ĠSekt oren
v i
Ġex it
r ates
stell ungs
ot ic
Ġpl ays
ĠSpa ÃŁ
Ġeingere icht
ĠV ict
ĠInd ian
Ġbetreff end
Ġsu it
ĠS ar
Ġsub stance
ath em
ĠBr and
wir kt
w Ã¤hlen
Ġvar i
Ðµ Ð½
Ġ20 12
Ġverkauf en
ĠVor stellung
ĠBalk ans
bet rieb
Ġappe ared
Ġbrit ische
Ġplen ary
ĠBet racht
Ġbr ight
ĠN iger
ip t
ĠUr heber
ĠA uge
ĠT ochter
Ġbr ut
r ical
Ġroad s
Ä ĩ
ĠKrieg s
in formationen
re geln
ĠUS S
Ġprovider s
ĠgroÃŁ zÃ¼g
ĠMÃ¤n nern
ĠOpt ionen
Ġarm y
ĠSalz burg
ĠOpp osition
D on
Ġ7 00
ĠV ietnam
ĠÃ¤uÃŁ ern
w affen
Ġincl usion
ĠBelg ium
ĠHung ary
Ġerh ielt
ie ller
ĠSch e
T M
ĠBe k
ĠKont rollen
ĠKr iminal
Ġresol ved
ĠF air
ĠVers and
ĠAb hÃ¤ng
am o
ĠIn fl
zentr en
ank e
Ġde posit
pr ene
gen er
id et
ĠMich el
ĠKaffe e
b i
ĠCh arta
stra fe
ĠT sch
wer ken
ĠProgram men
ĠKop enhagen
Ġvor bereitet
ĠCh air
Ġa men
kehr t
ĠDet ail
Ġeur os
Ġhon est
adem y
ĠBemerk ung
ĠQu ark
ĠD ipl
ĠSchluss folgerungen
Per haps
Ġverb esser
Ġempf angen
Ġruss ischen
ĠE Z
ĠL uc
ĠKons ult
b ung
z onen
ĠS atz
K ann
ÃŃ n
Ġdut ies
d orf
Ġevery day
Ġens ures
Ġerfolg reichen
er in
ĠAus maÃŁ
Ġnah m
s ite
Ġun w
ĠM alta
Ġst il
ĠMo z
Pr ess
Ġviel es
Ġart istic
ĠD al
Ġcomp os
Ġsens ible
gÃ¤n ger
ĠValle y
lich ten
ĠPl ug
Ð ·
Ġmus ical
ĠGaz a
B est
ĠHin weis
Ġfunction al
Ġdom ain
Ġcon cepts
ĠVer n
ĠAl pen
Ġer Ã¶ff
ĠMr d
Ġs or
ian z
ĠSov iet
ĠDe fiz
ĠBereit stellung
spart ner
Ġn utz
Ġver mitteln
Ġdirect or
Ġpart ial
Ġw estern
ung er
Ġaus einander
Che ck
ĠW esent
id ad
Ġto ba
Ġactiv ely
ĠK u
ber eiten
pro gramme
Ġfour th
Ä Ľ
en ted
Ġm ac
ro ck
Ġsubject s
ĠAss embly
Ġte a
Ġinde x
Ġthe ory
ĠD ynam
Ġass ure
ĠRechts grundlage
ĠDes k
ĠVerbraucher schutz
Ġsole ly
ĠAK P
Ġp oten
ĠzurÃ¼ck zu
Third ly
ud i
Ġsp oke
ist ent
Ġeinge halten
W F
he in
sche fs
zie llen
am i
ĠF a
ĠKon gress
a ue
Ġdecis ive
Ġpropos ing
Ġnever theless
ĠLeg isl
Ġerheb liche
Ġdr inks
ĠK ais
Ġde leg
Ġ6 4
Ġcompon ent
ĠI b
Ġcarry ing
ob el
Ġevent ually
Ġupd ates
Ġanwes end
as ion
Ġenh ance
ĠSund ay
ĠG Ã¼ter
Ġbeige tragen
ĠD E
ĠgroÃŁ em
ommer ce
s a
or se
ĠK a
ĠSchul en
ed y
ĠRed uz
Ġapply ing
ĠStruct ural
Ġde lla
ĠAutob ahn
Ã¤ss ig
Ġauthent ic
ĠA V
ĠWohl stand
7 1
Ġbeteil igen
Ġelektron ischen
Ġo u
ing ly
Ġwar n
par te
l ings
ĠV ice
Ġverantwort ungs
ugg age
Ġde cre
Ġunivers ity
men ade
ĠwunderschÃ¶ nen
Ġro ll
iegel t
3 00
Ġ č
Ġv ary
ĠAn mer
ĠS atur
ste igen
Ġintell igent
Ġcountr yside
athed ral
it im
Ġw rote
ĠDe v
ĠMc C
Ġst olz
ĠBel ast
ch st
Ġverb oten
Ġem otion
ic ing
ĠW etter
olid ay
Ġc atch
Ġsh ips
Ġ4 2
ĠKl ar
ĠWh at
end ar
ĠSchl uÃŁ
Ġbeob achten
u i
ĠPl ane
ĠPh ilosoph
Ġabs ence
aussch au
Ġs emin
Ġde ter
Ġbed auer
9 2
end o
ĠNach richt
ĠKrank heit
on ic
Ġsupp lies
ĠNews letter
ll o
Ġhand le
Ġkomm e
Ġinterpret ation
Ġwe chsel
Ġen erg
Ġsus p
Ġlegit imate
Ġa fr
de ckt
Ġstr en
ĠEx change
b sp
ĠBe weg
Ġbis lang
lÃ¤ uft
Ġunver gess
lÃ¶s ungen
Ġeinzig artigen
Ġtoba cco
ĠZus ch
Ġsuggest ions
Ġlok ale
Ġin g
ĠB ere
ĠN at
Ġvor rang
Ġto ile
ĠB IP
ĠSt immen
Ġab ziel
Ġstrateg ischen
Ġvill ages
Ġs ong
ĠV AT
Ġgen annte
Ġelse where
Ġausger ichtet
Ã¤ g
Ġge arbeitet
Ġpack aging
Ġgek enn
ĠE mail
ĠKon stru
Ġconne ct
Ã¤us ern
Ġemer ging
Ã¶ konom
Ġsh ipping
ĠGegen stand
le iter
ĠR em
Ġvulner able
d h
Ġan bel
Ġl it
ge hens
ĠJ ames
ĠSo hn
ÑĢ Ð°
Ġvolunt ary
un ction
Ġab use
Ġintegr iert
geb iete
ĠSud an
rÃ¤ umen
Ġless ons
Ġun iform
Ġsol ches
Ġh yp
ĠTh ursday
Ġverw and
Ġdef ect
Ġaktiv ieren
Ġlang sam
Ġamer ikanische
ĠGewÃ¤hr leistung
p ft
Ġentscheiden der
Ġgener ated
Ġunfor get
ĠS icherung
ĠLiefer ung
Besch reibung
M ay
ĠF A
ĠBed rohung
Ġkle ines
Ġtop ics
Ġlik ed
Ġimp ose
bereich en
Ġacknow ledge
ur teilung
Ġer z
Ġdes cription
Ġfin ish
ĠS ony
ĠP ot
âĢĻ .
Ġgain ed
Ġverkauf t
ĠS ad
ĠB ang
ĠCl ient
Ġzust Ã¤ndig
ĠHT ML
Ġanbel angt
Ġ Ñģ
te ch
Ġgreat ly
Ġverb indet
ĠSta ates
G es
ĠPark platz
Ġphilosoph y
o om
Entw ick
Ġa rab
c ision
e conomic
on st
ĠAd obe
O K
ĠI ll
ĠG B
ĠK ab
ĠEr stellung
9 3
itu ated
ĠfranzÃ¶s ische
ig ert
Ġpre ced
ĠKonsequ enzen
ie den
Ġl ists
Ġbereit gestellt
ches ter
g art
as bourg
Ġdes k
ĠK er
Ġver we
Ġsch icken
Ġlie fert
Ġcol ours
ĠKon kurr
Ġadv oc
ize prÃ¤sident
ĠS AP
Bes onders
Ġcompar ison
Ġexcess ive
ip fel
4 1
Ġer zeugt
Ġrece iving
ĠOb jekt
US S
Ġdepart ure
ĠCast le
ĠAns ichten
ĠPuert o
Ġin klusive
ĠA fter
Ġteam s
ut ation
att ung
ĠGlaub wÃ¼rdigkeit
Des wegen
ĠBud gets
ĠR ule
hÃ¤lt nisse
L adies
en bezogen
wer ben
ĠÃľber legungen
s eite
ie ts
Ġdef icit
or er
Ġwe ist
G iven
ĠÃľber setz
ĠTra um
ĠGer Ã¤t
Ġsatisf action
ĠG ang
pro zess
ĠAm t
Ġbeant worten
ĠVerletz ung
ĠÃ¼ber sch
W eiter
Ġsug gested
Ġle ichter
Ġbo ost
Ġletz tendlich
ĠF ood
Ġsupp lier
Ġnar row
or ation
Ġinv ited
ĠÃ¶ konom
et ic
Ġst ammen
fol gung
Ġdifficult y
Ġperiod s
ĠEmp fang
Ġverteid igen
H igh
U se
Ġins ist
ach ts
Ġdo ors
Ġtra demark
ĠFreit ag
ĠA M
Ġregard ed
hÃ¶r t
Ġsozial er
ĠHung arian
ĠEigent um
Ġdelic ious
Ġsh ock
ult ane
ĠSt utt
Ġ20 13
Ġspec ified
ord s
ĠAlex ander
c u
Ġge ziel
ru ppe
ix el
bed arf
ĠFlug zeug
ĠHam as
ord nungen
Ġwiederhol t
h ilfen
ĠS terne
ĠH en
ĠZu ge
Ġreserv ations
v an
re cher
Ġso unds
lie hen
Ġkon front
Ġgra v
Ġpain t
Ġpan oram
Ġattemp ts
figur ation
Selbst verstÃ¤ndlich
m pt
is co
Ġvor anz
Ġmach te
wahl en
Ġsc ene
Ġmittl eren
Ã¤r kt
ĠC up
o ul
Ġex ports
ĠFuÃŁ ball
Ġoffiz iellen
ol es
ĠKolleg in
ĠM as
ĠGet rÃ¤n
ĠgenÃ¼ gend
Ġl ift
ĠR oll
ĠV on
ag a
ĠEr fÃ¼llung
Ġro of
ĠMond ay
Ġmur der
ĠSchÃ¶n heit
Ġwar rant
lin ed
Ġre lie
Ġfor ests
Mr s
ien sten
Ã¤ÃŁ t
ĠÃľbergang s
Ser ver
Ġs cre
ĠV ene
Ġrepresent ation
weil en
sparte i
la ut
kt ors
gesch ichte
ĠÃ¼berprÃ¼ ft
M us
ann ing
ĠKir k
ĠFund amental
ĠAC P
Ġmus sten
ĠPosition en
Ġherr scht
Ġpurs ue
Ġed ge
ĠR am
Ġin mitten
ĠB ug
ĠBM W
Z usammen
ĠR ena
Ġdis abled
s ie
ĠGesch windigkeit
T rans
n ummer
Ġper mitted
Ġstand ing
le m
ĠV el
Ġweit gehend
Ġhin weg
ĠZivil gesellschaft
pl atte
Ġh art
Ġwo hnen
Ġmod ule
ĠAugen blick
B el
Ġge he
Ġexam ine
Ġrev ision
Ġdestroy ed
t lichen
ĠVer arbeitung
Ġact ing
usst sein
Ġin fr
Ġn Ã¶rd
ĠAn stieg
Ġvor zulegen
urn ing
Ġro ot
rech ter
Ġhous ing
Ins besondere
ĠR iv
ĠT reib
iz a
Ġt ast
os p
age ments
Ġgl Ã¼ck
Ġre action
ĠGr Ã¼nen
Ġdeut sch
H aus
L O
Ġcomple ment
Ġer lebt
ĠLe on
Ġbr idge
ĠP fer
Ġpass ion
Ġerst mals
c as
an ne
Ġfest ival
Ġbre iten
ĠSing le
Y es
rÃ¤n kung
4 6
Ġb atter
ĠAn lass
ĠIs lands
Ġp orts
ĠK abel
ieren der
ĠEnt lastung
Soll ten
Ġm unicip
ĠA llt
os a
Ġpat ient
n ight
Ġsh ap
Ġarg uments
ĠFed eration
Ð¾Ð ²
Ġsav ings
n iveau
Ġeinzig art
Ġfoot ball
Ġcon stitute
Ġj u
Ġall zu
ĠBe gr
wie gend
Ġb la
Ġf an
Ġaus geb
Ġen abling
Ġwel coming
sk i
ĠKultur en
afr ika
) )
Wir d
Ġref ers
Ġentwick elte
7 8
icht ung
Ġreal istic
ĠBeschl Ã¼sse
it ale
ĠBesch wer
ss en
ĠEin stellungen
ĠDol om
Ch ina
ĠVor haben
sb uffet
ĠL obby
ĠSt offe
ĠStr asbourg
Ġrelig ion
ĠBulgar ien
Ġkil omet
Ġbekomm t
' m
ĠMe ister
Ġconfirm ation
Ġstell te
Ġfed eral
ĠDonner stag
Ġhor se
Mitglied staaten
n i
oun ted
Ġkil led
qu er
Follow ing
ĠW LAN
wer ts
gram men
ES CO
Ġakt ive
ĠSch Ã¼ler
ES S
z usammen
ĠQ uellen
Ġfreedom s
Ġfarm ing
ĠReduz ierung
ĠW issens
Ġbet reiben
Ġpol y
ĠMiss ion
Ġt ritt
Ġhier bei
Ġcooper ate
ĠOr ient
ĠÃ¤hn lich
Ġoblige d
op en
ĠW Ã¤l
Ġle aves
ĠMitglied schaft
Ġpublic ation
ĠHer bst
Ġinvest ieren
duc ation
ĠGeh minuten
ĠM ur
ug ang
Ġgel ingt
Ã¼g igkeit
zep te
Ð ¡
Ġman ual
ĠDies er
Ġtw enty
z esse
Ã¼ st
ĠW al
Ġunforget table
weis ungen
D I
Ġso ught
ĠRe is
Ġcontinu ous
B ed
fr iendly
Ġresour ce
j pg
Ġc ul
Ġsch we
ĠAtlant ic
ĠPrakt iken
z ung
Ġt end
re in
Ġp as
ĠP otenzial
ĠBe ge
Ġredu ziert
Ġdies el
ĠWor ks
ĠB itte
ĠG i
Ġk reat
ĠAr zneimit
Ġsignific ance
ĠerwÃ¤ hnen
Ġt ennis
Ġin fo
ĠP il
ies e
aus piel
ĠHard ware
ran che
ail and
4 3
Jed e
Ġinstru ctions
Ġh ill
ĠMinister prÃ¤sident
O ut
Ã¼ bt
ĠLe iden
Ġfil ter
halt igkeit
Ġu pper
Ġempf ohlen
ric ted
Ġwelcom ed
Ġover view
mb uds
por ation
Date i
ĠR h
Ġgr Ã¼nd
ĠVerz Ã¶ger
m ade
Ġw ireless
iz iert
hl ung
sc ale
Ġ Ä
Ġmiss ing
Ġunter scheiden
Ġangep asst
ent h
Ġpay ing
Ġilleg alen
ĠEing ang
ĠSonn tag
D ort
em ark
ad vant
Ġcharac ters
Ġappear ance
ro g
ĠCan on
ĠzukÃ¼nft igen
ĠP SE
ĠPro ject
Ġvers ichern
Ġi Phone
Ġoptim ale
ĠBl ue
ĠKatastrop he
ĠG erechtigkeit
Ġtr ips
Ġren owned
Ġvorgesehen en
Ġfreund lich
ĠfÃ¼hren de
ie ÃŁ
Ġein bezogen
Ġtran qu
Ġbre ach
Ġdes wegen
rom e
ĠInvest ment
Ġharmon isation
Ġeinzus etzen
Ġgef allen
Ġmov ie
ĠSa ison
ĠP fe
em en
ul se
ĠKont akte
Ġinstitution ellen
Ġexc urs
Ġf ans
ĠE M
Ġob ser
Ġele ctor
Ġers etzen
Ġgest attet
tt y
Ġbl ind
ĠText il
Soll te
g ner
u tet
Ġindire ct
st al
irt y
Ġjust ified
Ġbank ing
F ol
l ers
ĠkÃ¶nn t
With in
Ġproceed ings
ĠÃľbern achtung
ĠP en
Ġconf ig
t ung
Ġleg ally
Ġsuffer ed
ĠGott es
in strument
ian ischen
Ġunterst reichen
P re
ro t
ĠT Ã¤tigkeiten
Ġen de
Ġski ing
Ġge tragen
Ġrad ical
LA F
a ders
ĠMark e
Ġremain ed
Ġclean ing
D eut
ĠR ab
Ġbe endet
Ġr ank
ul ous
aus chen
ĠGleich stellung
ĠAn kunft
ĠSp ace
Ġun n
em it
Ġpolitical ly
Ġhom es
ĠChar les
Ġl unch
Ã¶ tz
M a
Ġn one
sp rachen
Ġspecial ist
Ġan schlieÃŁend
Ġde pendent
pf ung
Ġbehaup ten
Ġkontakt ieren
Ġf as
Ġwirtschaft licher
Ġnegot iating
Ġkonkre t
ĠApp le
ĠUnter nehmer
ĠverfÃ¼g baren
ĠSchif fe
ĠLate Rooms
der ung
Ġimport s
ĠPers Ã¶n
oub tedly
Ġsoc ieties
Ġumfass end
Ã¶ ch
Ġlook ed
ĠergÃ¤n zen
ĠS achen
Ġv ideos
ĠP utin
Ġmit teilen
ĠEx istenz
ĠWohn ung
4 2
Ġm i
Ġprosper ity
il led
ann ter
Ġhas t
Ġvo llen
T C
n immt
Ġneigh b
Ġexpla ined
v ar
g yp
Ġan sprechen
Ġsur ve
Ġrefer endum
Ġsuperv ision
Ġj apan
ĠProz esse
Ġbege g
Ã¤ ne
gar ten
ĠAl ger
Ġher um
staat lichen
ĠAud itors
l an
ĠL ounge
Ġdire cted
Ġcomplic ated
Ġevery body
Se e
ĠkÃ¼nft ige
e ten
Er st
ĠL ok
All es
Ġall ocated
Ġat trib
Ġdis advant
Ġcar r
crib e
Ġspezif ische
ĠE L
Ã¶ff nung
ĠSituation en
Ġas p
ial e
ĠSchw imm
ĠIm age
M ir
fer nen
Ġdurch schnitt
N et
w all
ĠA ben
ĠM obile
ĠF rie
we ich
ip her
Pro jekt
Ġf u
ure ich
Ġ8 5
Ġbeein trÃ¤cht
Ġbe ings
ĠVor gehens
Ġdirect ory
Ġsure ly
Ġwissenschaft liche
Ġhil f
Ġbedeut ende
ĠKor ruption
Ġvor an
amm elt
Ġret ail
Ġentre prene
Ġver teilt
ĠUms atz
Ġbisher igen
ĠLux us
Ġabst immen
verw altung
ĠPl attform
ĠEnt fern
rif ft
zusch lieÃŁen
O pen
rie be
Ġhervorge hoben
Ġman che
burg h
Ġkonzentr iert
ĠgrÃ¶ÃŁer es
ĠWeit eren
Z iel
at ischen
ĠE benen
Ã¤tz t
Ġprevent ing
Ġclub s
Ġwelcom es
Ġforth coming
te chnologie
ĠBet ten
ĠKl asse
Ġte ile
I CH
ub s
Ġexper im
Ġcontrib uted
Ġhospit ality
P erson
m ot
at in
ĠW o
Ġr ising
Ġ0 1
ĠSocial ist
ĠStock holm
Ġamen ities
ĠM ore
ĠEr lebnis
Ġunter zeichnet
Ġwell ness
C o
Ġsh aring
imm ers
Ġpar ameters
k ultur
ĠR io
Ġman ip
Ge gen
H and
p et
b aus
Ġe at
Ġreal ise
Ġoffen e
v iertel
Ġjud ge
ĠVerÃ¤nder ung
ĠGef Ã¤ng
Ġkonfront iert
D ue
ĠF Ã¼
dr ich
ĠMin i
ĠAb lehnung
Des cription
d y
g ain
ĠD ue
Ġcheck s
Ġlie ber
Ġorigin ally
at on
ĠSch le
Ġrel ative
ĠAN D
ĠSecret ary
ab s
Ã¤r ten
ĠEin kommen
Ġger aten
Ġhard ly
Ġfirm ly
ĠAgricult ure
ĠS ow
Ġerst re
ĠFreiz Ã¼gigkeit
S u
ĠY our
org ungs
ĠWider spruch
ĠS av
ĠD enn
S M
Ġm useums
op olit
mit glieder
ĠMit tag
p ay
Ġde fe
Ġvorgeschlagen e
ĠJ ung
Ġgen ere
ĠPlane ten
out s
Ġgeb rauch
Ġstud io
ĠMet ro
ĠKroat ien
Ġt ables
ll ers
ĠT urn
os ing
ug t
Ġph arm
Des ign
Ġenter prise
Ġromant ic
A ir
Ġcan cell
Ġindic ate
Ġenable d
ivers ary
AT ION
Ġprogramm ing
ĠProf essor
ĠUrlaub s
p fen
gr enze
eschÃ¤ d
ĠPerspekt ive
pl ans
C E
Ġmov ements
kap az
Ġjur is
Ġs ongs
o ured
ĠVor der
Ġhe aring
Ġunter liegen
dr Ã¼ckt
hy th
ĠH ost
ĠFahr zeuge
Ġperson enbezogen
ĠHaushalts plan
Ġbegrenz t
Ġan g
ob ody
Ġinvest igation
ij k
ĠG olden
ĠR uf
oun try
con f
Ġintrodu cing
ĠMount ain
ugos law
Ġshow ed
ĠPass wort
ab et
Ġr Ã¼ck
ist ischer
Ġherunter laden
Ġcut s
Ġschrif tlich
Ġacknow led
ro c
ĠAmend ments
ĠF unktions
Ġcom pe
uÃŁ t
O ff
ĠC atal
Ġlangfrist ige
ĠWÃ¤hl er
S w
yp en
n bsp
Ġt ree
ĠV ide
if ferenz
Ġcell s
ĠB ett
op es
Ġer gibt
best immungen
ĠT reat
u um
ĠK laus
ĠAb schaffung
ĠMill enn
Intern ational
Ġh es
ĠArt ik
Ġord inary
Ġrecogn ized
c s
Ġvess els
u age
Ġinter nen
ĠRÃ¼ck kehr
Ġsim ultane
Ġcal m
ĠZÃ¼r ich
Ġ ere
ĠS ammlung
Ġdes erv
be f
ĠArme e
P A
a ustausch
Ġeinge gangen
Ġabs or
ĠVolk es
hers tellung
Ġangene hm
un ruh
Ã¤sent ation
Ġfe es
Ġcolle cted
ĠFahr t
ss on
Ġunz ureich
Ġbarr iers
Ġerr ors
Ġhochwert ige
ĠAuf sichts
zahl en
ĠAll ianz
Ġfinanz iert
ĠBelg ien
H aving
Ġgepr Ã¤gt
Ġremark s
Ġan gest
out ique
ĠFr ist
ĠUN ESCO
Ġobstac les
Ġauf gebaut
Ġse ctions
Ġsch lagen
ĠVerein fach
ĠAusfl Ã¼ge
eit igung
ze ll
ĠAb fall
Ġtrans mission
gre g
bild ungs
sm oking
M o
Ġbe hoben
Ġcover ing
oph istic
Ġenthalten en
ĠWider stand
ĠSt off
Ġausge hen
Ġverein bart
Ġsogen annten
Ġcomb ine
bet ten
Ġamaz ing
ent liche
With out
Ġexclus ion
ĠV ort
Ġsp ons
cess ion
Ġmod ules
Ġanzu zeigen
Ġsuper ior
ĠVolks gesundheit
Ġre chten
Ġger ichtet
ĠLat ein
Ġpen alty
Ġumfang reiche
ĠM iÃŁ
sp olit
Ġwhere as
ĠKre is
Ġmensch liche
z enten
ĠD res
ivers ity
Ġend orse
Ġfunction ality
ĠprÃ¤sent ieren
e ffizienz
Ġl Ã¤ÃŁt
Ġauf s
Ġconc ert
ĠGeb urt
Ġfest zulegen
Ġimag ine
ĠBÃ¶r se
Sta aten
Ġfem ale
ĠL y
Ġsav ed
b ul
Ġan hand
ĠF ein
fÃ¼hr ungs
Ġspl end
j i
Ġbesonder er
ĠSu iten
Ġport ug
es is
ĠJ ob
Ġsustain ability
ĠPlay a
Ġgebe ten
p at
la c
ĠPort o
Ġclass es
Ġange kÃ¼nd
ĠCont ent
re che
ode x
Ġstock s
P R
p ot
Bes ides
Ġfasc in
S D
ĠE dit
ĠZeit ung
Ġturn ing
ess es
ĠN am
usal em
le ments
Ġr ide
ĠO ste
Ġrec y
o ot
Ã ²
c ul
ĠBerlin er
Am ong
ĠzukÃ¼nft ige
Ġfle et
gr unde
Ġenc ounter
Ġdank bar
Ġaccur ate
Ġprakt ische
besch reibung
ĠVen ice
Ġcomp act
Ġl iquid
Î ±
Ñ ħ
Ġn ord
polit ische
ĠErinner ung
ĠM B
ĠD ritten
Ġunivers ities
Zus Ã¤tzlich
is a
ĠV iew
Ġse qu
ĠmilitÃ¤r ischen
Ġincre d
Ġlangfrist ig
ĠM A
ver l
Ġhin gegen
Ġz ivil
Ġsich ere
Ġdis asters
Ġhervorra genden
K l
ES T
Ġbedeut end
ĠFin land
ĠLeit ung
Ġcon ce
Ġflex ib
Ġvorlie gende
Ġtrave lling
ĠE uch
Ġjetz igen
Ġinternational ly
M on
ro v
ĠRegierung schefs
Ġverd ienen
us ch
ĠVor ausschau
D ass
ĠVer handlungs
Ġconsider ably
ĠGene va
Ġgepl ant
Ġing red
Ġan zub
Ġnot es
Ġsch Ã¤d
ĠBef ugnisse
Ġdign ity
h ar
ber n
ĠD istr
Ġar ran
ĠSatur day
ier ra
ĠSt ability
Ġbo ot
Ġdemoc rat
Ġun ited
Ġdel iber
Ġenhan ced
c ard
Ġpr ime
Ġgross e
ĠStutt gart
M in
Ġdar gestellt
ho le
Ġbelie ves
ĠDom in
ut ral
Ġregard less
Ġzie ht
ĠFinanz ierungs
Ġstud ent
Ġmet ro
orre ktur
ĠNachbar n
Ġgemeinschaft lichen
Ġsh ar
Ġrefle cted
Ġz it
ĠD ikt
Ġhab it
Ġviol ations
ĠGespr Ã¤ch
ĠKom ple
ĠBevÃ¶lk erungs
ĠBrasil ien
p her
ĠVers ionen
il m
iz ieren
Ġgew Ã¤hren
ĠAbhÃ¤ng igkeit
K Ã¶n
Ġbe we
th and
Ġum ge
ĠDokument en
ĠHow ever
ĠF els
ĠC F
ĠV alen
Ġmin isters
be ing
Ġnach drÃ¼cklich
ĠP lÃ¤ne
ĠMet all
it ate
Ġernst haft
Ġperfe kte
om a
Ġkn app
Ġproduct ivity
Ġimpl ic
n ische
ĠAt tra
Ġgener ate
Ġlabe lling
C A
Ġzu grunde
Ġvor bei
ĠE xt
ĠKommission sprÃ¤sident
ĠRes olution
En g
Ġgener ations
ĠGene hmigung
Ġadap ted
ĠC AP
ĠAustr alia
Ġende av
Ġl ayer
ach ter
ĠSlo ven
ugos lav
uÃŁ ert
ĠDe part
ĠSp ann
Ġpre tty
arbeit er
gef unden
ĠEZ B
Ġin qu
us ive
ĠI l
ĠunabhÃ¤ng igen
ĠMont ag
-- --
Ġsyn th
ĠNG Os
Ġcomp uters
ĠÃ ¨
ĠHaupt bahnhof
rat ing
Hotel s
quis ite
ĠMor oc
Ġe dition
ĠAut omat
Ġbe ur
ĠKont o
ĠFrÃ¼hstÃ¼ck sbuffet
ĠKatastrop hen
Ġerfre ut
Ġund oubtedly
Ġl Ã¶
Ġexplo itation
Ġreach ing
Ġtim et
ĠBinnenmarkt es
ĠW ed
ib an
ĠBeteil igten
Ġkontroll ieren
o ben
Ġex cluded
ĠKont inent
er er
Ð ¿
ĠF rom
iss ance
ak a
Ġfil led
ĠgewÃ¼nsch ten
Ã ¸
ĠChrist mas
Ġbe z
mitt lung
Ġe ignet
Ġges te
ĠMÃ¤r kten
Ġine v
Vert rag
i i
ĠT en
Ġer hoben
us ing
ĠEntscheid ungs
ĠWirtschafts wachstum
Ġt ested
am ed
Ġorgan ic
Ġconsult ing
ĠAnw ender
ut age
Ġag gress
Ġtr ends
eld orf
Ġaccept ance
Ð ¹
ie val
Ġtransfer red
wesen heit
ĠmilitÃ¤r ische
jahr es
Ġcan cer
ĠEntsp annung
Ġr Ã©
Ġhoh em
k ampf
Ġs ight
t ch
ĠTh ailand
ĠCommission ers
ĠKir chen
Ġman aging
utz utage
B re
ill er
Ġen ger
mit glied
Ġbe hinder
icht igkeit
ĠÐ ¸
e per
S K
Ġg ap
Ñ ĸ
ĠN ummer
ĠGe werk
ĠNach haltigkeit
ĠzurÃ¼ck zufÃ¼hren
ĠOl iven
w as
ĠPol y
Ġbesch rÃ¤nken
ĠÃ¤hn liche
n ik
Ġis lam
Ġunters ucht
ĠPhil ipp
B ased
ĠW ater
ĠÃĦ gyp
Ġwor st
ĠMed izin
Ġsatisf y
Ġs ophistic
ichterst atter
st Ã¤r
Ġwirtschaft lich
ĠP ac
Ġrest ored
ĠAbend essen
bit r
ĠF ass
Ġhe im
ĠFahr rad
ĠAufent halts
Ġkorre kt
op f
Ġges p
c ue
r est
t im
Ġk Ã¼nstler
Ġbed anken
ĠGrund lagen
Ġstaat liche
Ġfre ely
Ġstrateg ische
ĠGo od
m ess
Ġt ill
od ge
Ġrepr Ã¤sent
Ġrep air
ĠnatÃ¼r liche
Ġfestge legten
Ġrec over
Ġbelie f
opp elt
ĠMod elle
Ġsupp lied
ĠLuxem burg
r ik
Ġexist iert
ĠWirtschafts politik
ĠInnen stadt
f leisch
Ġb ike
ĠComm on
ĠTour ism
K ont
ep ing
Ġet abl
wÃ¤r ts
ĠOrgan e
um ber
ord an
arbeit ungs
Ġcre w
ĠAmer icans
mbuds man
Ġs ichtbar
Ġv ig
Ġpl astic
Ġconcentr ate
Ġver Ã¤nder
ĠAc ademy
ĠUrs achen
p aket
al us
Ġl ived
ĠR od
Ġex ternen
Ã¼rz t
ĠFlÃ¼cht linge
un es
ĠB all
ap el
ĠR et
Ġst ages
Ġaus ser
ĠMa de
8 9
n isses
Ġc am
ber gen
ĠÃ¼ber aus
ĠWochen ende
Lin ux
ĠC ub
con ds
ĠBet reiber
oz i
Ġeinheit liche
Ġkomfort able
ĠVer teilung
Ġsub sequent
ĠTab ak
Ġloss es
at um
ĠC R
Ã¤d chen
ĠG ame
Ġspe ichern
ll i
fun ktion
ĠS n
em m
hal le
fahr er
ĠPia zza
w ig
ĠMall orca
Ã¤ be
Ġse lling
s ene
or i
ach sen
ĠJ os
Ġrel iability
Ġdam ages
Å Ļ
ĠA B
Ġpro min
fl ow
Ġreflect s
ĠKriminal itÃ¤t
ĠRe chten
ĠSie d
ĠAl bum
k omp
ink el
Ġundert aken
Ã¼ mer
ĠG ard
Ã¤nder ungen
ĠJose ph
Ġkor rig
Ġf Ã¶rdert
Ġvar ied
Ġlearn ed
ĠIslam ic
Ġunter sch
Ġ4 4
Ġkomple tte
e ben
oh a
ĠProt ocol
Ġwirks ame
Ġa er
Ġerst klass
Ġerweit ern
ĠM ak
Ġdesign s
Ġschein en
iov is
Ġsovereign ty
G anz
S ituated
Ġsh adow
ĠAktion splan
ĠBe arbeitung
Ġc rop
Ġany where
Ġflo ors
Ġfisher men
Ġrecon struction
ĠAl ters
Ġcult ures
U r
w id
Ġst uff
Ġ( *
Ġstrengthen ed
ĠCons ult
ĠH els
glich er
ĠAs ian
wh ich
G ood
Ã¤r me
Ġant icip
ph a
Ġhoff entlich
s hip
Ġver he
ksam keit
ĠSerb ia
as is
Ġv it
Ġch a
Ġ3 9
rieden heit
Ġcla use
ist iken
Ġ19 60
ĠSe ele
Ġsymp ath
Ġen em
Ġinfr inge
Ġportug ies
ĠSp itzen
ows ki
Ġwon ach
ĠT ennis
ĠH om
Ġger inger
ĠSatell iten
ern t
mm ern
Ġpictures que
j unkt
ĠA ccess
Ġver tre
ĠBer ichten
iet ung
Ġ0 7
Ġlauf enden
. âĢľ
m achen
Ġnieder lÃ¤nd
Ġhuman itÃ¤re
verb rauch
dienst leistungen
Trotz dem
Ġge fragt
ĠGen er
sprozess es
c ow
Ġk lim
ne cess
Ġar ise
ak zept
Ġeinz ufÃ¼hren
Ġmass age
Ġmultil ateral
er ted
st ock
Ġum setzen
Ger ade
k et
ĠEuro zone
ĠGroÃŁ teil
ĠÃĸff nung
Ġover looking
Ã¤ch er
Ġbeg leitet
Ġgene hm
Ġaus drÃ¼ck
ĠKonfl ikte
ĠKan ada
ĠL ohn
Ġbed ro
Ġcoordin ated
Ġc af
reich er
ĠnÃ¼tz lich
d ict
ge fÃ¼gt
Ġch amp
ĠQu ad
ĠGeneration en
le ute
ĠTele f
Ġf ax
ĠBef Ã¼r
Ġstattf indet
k ir
Ġ Ã¤lt
Ġantw orten
Ġrestruct uring
v ia
ĠV ista
Ġzu gelassen
Ġhier fÃ¼r
alen der
Ġneighbour ing
ĠMuse en
" ...
Ġange wendet
U P
Ġequ ivalent
Z w
Ġse vere
Ã¤ le
ĠY ugoslav
Ġevent uell
freund liche
ĠwÃ¼n sche
ĠHimm el
ĠWei hn
kt ure
ĠPro fil
Ġorder ed
vor schlÃ¤ge
Ġmon opol
V O
Ġth umb
Ġlie ÃŁ
ĠTerr itor
ĠRechtsstaat lichkeit
Ġevery where
Ġnormal erweise
Ġf la
iz en
h Ã¤ngt
ĠAus einander
Ġappro ve
Ġin ade
Ġm ith
Ġvor nehmen
val u
geb Ã¤
Ġrest ore
itra vel
7 2
ĠSpe kt
y an
Ġr ufen
Ġgross en
ĠHand lungs
ĠKredit karte
iv ation
Ġpanoram ic
k Ã¼
ĠSch warz
Ġwahr en
Ġunderg round
metho den
ĠL ith
ĠPh Ã¤n
ĠZahl ung
Ġtreat ments
in itiative
it Ã©
Ġv illa
Ġkein em
Ġscrip t
ĠHeiz ung
Ġst unning
pro blem
ĠunabhÃ¤ng ige
ĠM ah
Ġhe iÃŁen
Ġbrief ly
Ġtherm al
ĠE ch
ĠE vent
ag on
ĠBÃ¼rger beauftrag
Ġprom pt
ĠK en
wer fen
Ġnormal en
ĠF isher
Ġges undheit
Ġc in
ĠAus blick
Ex per
ouver Ã¤n
ĠgeÃ¤ uÃŁert
Ġg olden
our se
Ġmehr fach
ĠGef angen
g i
Ġk g
ĠC ivil
Ġsol ar
Ġform ats
ĠPass ag
y ll
ut or
Ġer fordern
Ġra c
ĠDar stellung
Ġent tÃ¤us
Vers ion
7 3
it arian
Ġprov ince
ver anst
Ġsich eren
pr int
Ġentde ckt
ĠCH F
Ġprocess ed
Ġann iversary
Pe ople
Ġsel ben
Ġangeb racht
Ġexec utive
ĠAut os
Ġnecess arily
Ġschne llen
Ġass embly
ĠKÃ¼ hl
Ġdis ag
Ġad ds
ic ts
Ġge pf
Ġlist ings
ĠCons umer
Ġqualit ativ
ĠRegistr ierung
Ġindivid ually
fÃ¤h igen
zeich nungen
ĠX P
onom ie
Ġmittler weile
ĠS old
Ġbeste llen
Ġgest Ã¤rkt
Ġem pt
ĠDeb atten
Ġminim al
oc op
ap ital
Ġbew Ã¤ltigen
ĠFlor enz
Ġtra cks
Ġins pect
Ġfas zin
ĠR out
ĠDies es
ĠStÃ¤r ke
Ġgesetz lichen
st ark
Ġr id
Ġtra um
ĠWar craft
Ġhold s
Ġan halten
ĠM ov
ĠG ay
Ġteach ing
an ter
ĠZ unÃ¤chst
ron ik
ĠfrÃ¼ hen
PE G
Intern et
S ein
e bene
r un
ĠOper a
Ġeinges tellt
Ġdeep ly
ĠE X
ĠP S
ĠC ulture
7 6
g s
ink i
ĠÃľber blick
Ġsel ber
Ġschw eren
Ġfair ly
un te
Ġh iking
Ġcol umn
ĠColle ge
ĠNiederl anden
in de
Ġim pos
ĠFinanz krise
Ġv ic
ĠPl us
Ã¼nde ten
V IS
ed ing
ss ysteme
Ġamb ition
des ign
Ġelekt r
ĠWik itravel
Ġklass ischen
ĠVereinfach ung
W Ã¤hlen
c ountry
Ġzerst Ã¶rt
ĠSch auspiel
Ġmag azine
gen z
ĠRe ferenz
Ġgu ard
Ġsicher gestellt
AR E
p o
s orge
Ġde i
Re c
Ġrep utation
Ġbathroom s
G A
Ġb auen
od a
Ġcont rovers
Ġpresent ing
ĠChin as
Ġunent gel
ig are
ĠEr haltung
n ame
ĠT anz
Ġeng aged
Ġar ising
Ġcl in
Ġaccom pl
k ul
it als
ĠE mb
ĠTra in
Ġappropr iations
or ous
ger Ã¤t
ling en
Ġsup erb
Ġtarge ted
ĠSteuer ung
ĠtÃ¼rk ischen
ĠStraÃŁ burg
ir n
Ġbes orgt
ĠBest immung
Ġol ive
Ã¤ chte
ĠÃ¼ber lassen
ĠBerichterstat ters
ag d
ĠP ension
Ġra in
Ã© t
U B
Z wei
Ġp rag
qu enz
Ġfe et
Ġdetermin ation
Ġep is
ĠUn ions
ĠCh ile
Ġfact ory
ĠD ritte
Ġch amb
ĠInd ivid
ĠD Ã¤n
ĠMin ute
Ġfra ge
ĠerklÃ¤r te
stre am
ĠÃ¼berw inden
ĠC ond
Ġgew Ã¶hn
ĠBran che
ĠBon us
p es
ĠFakt or
Ġrechtzeit ig
ĠE ducation
ĠK Ã¶l
ĠEr gÃ¤n
Ġpan el
F un
Ġsh uttle
Ġme al
ĠEr schein
Ġprof its
ĠFamil y
Ġport folio
teuer ung
w ish
wirt schaften
Ġm Ã¤cht
ĠBereit schaft
ĠJoh annes
u led
Ġenter ing
ĠGeorg ia
r iere
ĠDe ck
m n
Ġv ine
hand eln
ĠEmiss ions
ĠZahl ungen
Ġb ul
Ġs aving
Ġun necess
ed ig
ra ums
ĠK ategorien
anz ig
ĠSk y
Ġpost p
ifik ation
r asch
ĠL it
ĠAl kohol
Ġhighl ights
Ġinten ds
ĠWel thand
em e
ĠD oha
ĠergÃ¤n zt
ĠC OM
zahl ungen
Ġreserv ed
S piel
Ġzu ges
al te
Ġc le
Ġg ift
ĠV ul
ĠSe cond
Ġac adem
wissen schaft
B ereich
Ġrefer ring
Mein es
O der
oin ts
ĠArbeit geber
F I
R el
re me
Ġp f
ĠC oll
Ġus age
Ġtra ged
Ġbes ucht
ĠEC B
Ġunmittel barer
Ġnorm ally
F ast
ĠK h
str asse
ĠKom plex
fÃ¤h ige
Ġmar g
Ġdigital en
Ġmanufact ure
Ġphenomen on
4 00
le ts
Ġ4 3
f ox
Ġh et
ĠVers orgung
ĠNot es
ĠRei hen
ĠCor porate
ĠBelg ian
Ġgeeig nete
ar ently
Ġbeg ins
Ġdiesbe zÃ¼glich
c at
Ġeng ines
Ġherr lichen
Ġtw ice
ĠC ON
Ġthreat s
C as
ĠParl amente
Ġcas ino
Ġstrugg le
Ġbon us
ĠWesent lichen
ĠF Ã¶der
Ġprin ted
ĠWirtschafts krise
Ġend ed
Ġun gar
ĠMÃ¤n gel
ĠGel der
au te
at ische
Ã¤ nen
ĠP akete
ĠT R
ĠT ok
k Ã¶
ĠD ingen
ite te
ĠArbeit er
ĠSam stag
Ġbek annte
Ġw ides
el and
Ġrec ording
ĠMehr werts
ĠWÃ¤hrungs union
Ġe gal
Ġc at
Ġanzub ieten
K urz
Ġgriech ischen
Ġt ort
st able
Ġl iable
ĠZ one
f rom
ann ed
Ġme ets
Ġspezial isiert
qu et
ĠVertrie b
S et
l ist
mer k
on ie
Ġexec ution
Ġprom ised
ri age
ĠJugend lichen
Ġurg ently
Ġbud gets
Ġer zeugen
ĠZ erst
Ġcomp lim
pl atten
ĠFil ter
ĠPet itions
Ġung laub
h Ã¼t
ĠLe ip
spro gramme
ĠSpe isen
spe zif
Ġcandid ates
Ġt on
ĠIn struments
Ġserv ers
Sh ould
ĠSie g
Ġsp reche
Ġdec ade
St unden
trie b
Christ ian
Ġf roh
Ġver weisen
Ġgleich ermaÃŁen
hab t
Ġefficient ly
Ġbeen den
Ġprodu ces
Ġrel ates
ĠgÃ¼nst ig
Ġkilomet res
it is
ĠG a
ĠH is
Ġlast ing
Ġrecord s
ĠgegenwÃ¤rt ige
ĠIndustr y
f isch
st yle
iv itÃ¤t
ĠH Ã¤user
Ġauf fordern
Ġprom ise
Ġcomb ines
ĠTele kommunik
Ġm aler
ĠS z
Ġkon sequent
Ġintegr ierten
Ġoccur red
ob ald
ĠBes eitigung
Ġrecht liche
Ġdecl ine
ĠlÃ¤nd liche
ra ce
ĠT ests
haf ter
I de
Ġwir ken
con ne
ĠFran zÃ¶s
H O
ĠB ab
ĠH IV
Ġsur prise
wirk lichung
ĠCustom er
i ates
ĠM aschine
Ġass ign
Ġzul assen
p ie
Ġold est
ĠRis ik
ĠO mbudsman
Ġop ens
Ġunters uchen
Ġgeograph ical
Ġzweit ens
ar kt
ĠWiederauf bau
b orn
Ġstrict ly
ĠJahrzehn ten
iel ten
Ġsch war
ĠVor lage
nehm lichkeiten
Ġfant ast
ĠDen mark
ĠT icket
Do es
Ġscient ists
Ġst ammt
lic ation
ĠZusammen halt
ĠWand el
Ġenor me
Ġse ats
ĠElekt ro
ĠP ir
Ġle bt
ĠEur os
7 4
r ight
Ġh ills
Ġmist ake
ĠLou is
ĠSt amm
ake i
Ġdep th
Q ual
Ã¼r ze
ĠD or
str Ã¶m
Ġprospect s
ĠÃĦ uÃŁer
ig ger
ĠQu elle
z um
Ġres ulted
je ktiv
Ġsk y
ĠWer be
Ġberu hen
ir men
ĠB ucht
ĠH ot
ĠSch lag
ĠSicherheit spolitik
Ġerr ichtet
ĠAll ah
Ġec ological
ĠLab our
f ield
ĠB ru
ĠW hen
ĠEnergie effizienz
verlÃ¤ss igkeit
ĠTodes strafe
ir ma
ĠR enten
Ġse conds
Ġ0 8
Ġconsequ ence
Ġsucceed ed
ies s
bo den
ĠTa uch
ĠH oliday
pre t
ĠZugang s
Ġprag mat
ĠB our
ĠL Ã¤nge
Ġincorpor ated
9 1
ze g
" -
E B
Ġcon vert
mp h
ĠMe eting
ĠEigent ums
ĠGre ens
ĠPar ameter
Ġacqu ired
geb ieten
ĠWelt krieg
ĠStre cke
abr ik
Ġs qu
Ġbe er
Ġden jenigen
mer z
Ġoper ator
Ġhighl ighted
Ġvor gestellt
Ġ4 6
Ġaud iovis
ĠDi am
eit ern
Ġer sta
res erv
ĠCap tain
ĠVertra ges
W elt
K T
Ġm ouse
as i
men te
vÃ¶lk erung
ĠKonz ern
p m
ver handlungen
Ġconsider s
ĠBenutz ung
ograf ie
ĠstÃ¤rk ere
ĠUR L
Ġgekenn zeichnet
Ġrec re
ĠBedÃ¼rf nissen
Ġmedic ine
ĠVer gn
ĠP rom
ĠB rief
Ġspecial ists
ĠUmwelt fragen
ru ckt
âĢĻ ,
ĠKon zentr
Sch on
Ġessential ly
Ġn ative
il ation
Ġver letzt
Ġcomp uls
Ġstre am
Ġhead ing
Ġassoc iations
ĠGemeins ame
Ġged acht
Ġme als
Ġtax i
Art ikel
ah me
ĠAn k
Ġair ports
Last ly
T ip
ĠAl b
ĠHoch schul
Ġful f
ĠK Ã¤ufer
Ġsch Ã¤tzen
Ġd up
Ġfl u
Ġbein halten
Ġpr ize
Ġev ident
gem Ã¤
En terprise
Ġderzeit ige
Ġunentgel tlich
ĠS omm
ĠP or
Ã¶ ten
ĠDialog s
Ġaffect s
ĠSing ap
Ġsophistic ated
Ġer wor
ok ia
Ġsp here
v y
ĠH it
ĠAus gleich
ĠAb lauf
Ġtro ops
Ġhier zu
ĠBer ge
Ġbetr ieben
an dern
Ġun us
ĠE V
sch te
Ã¤hr ungs
Ġ {
fl anz
eld et
ĠPark plÃ¤tze
ĠAuftrag s
Ġein s
Ġpro xim
Ġend s
Ġneg ativen
iff s
ĠBl u
AL E
ĠFrÃ¼h jahr
ĠHels inki
k ing
p read
ĠS zen
Ã¶ hnen
ĠT onnen
ĠE qu
iner y
Ġdisapp ear
Ġapp ell
ĠRes erve
verletz ungen
ĠR oth
Dar um
erm ann
gesch rieben
Ġconf idential
Ġcaus ing
ĠAcc ount
Ġattach ed
L ie
ĠSw imming
W ho
Ġent f
Ġste uer
ĠmÃ¶ gen
Ġd im
Ġfor ts
inn ers
or der
ĠAn hÃ¶r
ov en
a ÃŁt
ĠF al
ĠUn der
Ġag ents
unic ation
Ġbedeut enden
ĠRich ard
Ġsud den
Ġan zunehmen
ĠV ie
Ġbest and
ĠÂ §
Ġvirt ually
ĠRepr esent
an spruch
Ġre isen
ĠG h
Ġgradu ally
Ġk ernel
ĠW a
ĠRat ifizierung
Ġfest zustellen
ĠSoc iety
ĠmÃ¼ ÃŁ
ĠJer usalem
C ard
ag og
ĠSch icks
ĠVeranst altungs
ĠMechan ismen
d ates
Ġex ch
Ġar bitr
Ġkontroll iert
Ġin her
ĠS E
ĠLin ien
Ġbevor zug
Ġprison ers
ĠmÃ¼s ste
Ġd ance
Ġh ence
Ġ" .
Ġex pos
ist ory
br id
Ġblock s
Ġunn Ã¶t
ĠPf lege
Ġbra chte
Ġin com
ol en
ĠR ail
ĠComm un
i op
ĠVer kaufs
ist ical
Ġav iation
ĠkÃ¼ mmern
o e
sta ats
ĠK atalog
ĠBe achtung
Ġprodu cer
ĠKonz ert
v ents
an forderungen
Ġpro sec
Ġwar ning
Ġup grade
ĠHe ad
Ġenvironment ally
u hl
ĠEr m
Ã¶ff entlichen
Ġdiplomat ic
Ġin folge
ĠF le
Ġst ick
Ġy es
Ġeigen er
Ġcho ices
ĠZ auber
Ġbef asst
ĠSc ience
uzz i
ĠA st
ĠInvest oren
Ġentscheiden den
Ġencour aged
ĠVertre tern
ĠFrie drich
N ein
ro b
Ġacc idents
N E
U L
st abilitÃ¤t
ĠF uss
ater ing
Ġgew id
Ġexplan ation
Ġan sch
ĠG anz
Ġprodu zieren
Ġoffiz ielle
ĠVerteid igungs
Ġsurpr ised
pl ays
Ġno vel
ari at
ĠBran chen
ĠA tt
Ã¶ d
ĠDepart ment
Ġwides pread
n g
ĠVer wirklichung
ĠEin fl
Ġparticip ating
Ġangemessen en
ĠExpl orer
Ġd oppel
al on
ĠEn ter
Ġrest ricted
Ġprakt ischen
Ġteach ers
ĠÃľ brigen
ĠDres den
Ġenthus ias
Ġs enken
ĠS ystemen
Ġalong side
ĠHindern isse
ĠS ouverÃ¤n
ic i
ĠSt or
schl Ã¼ssel
Ġtyp ischen
r t
ĠS ierra
Ġdr ast
Ġf ly
et ch
Ġsp ite
vers ammlung
Ġinc omp
D afÃ¼r
Ġc ott
Ġreal er
Ġadd ing
Ġsyn chron
Ander erseits
Ġreich halt
Ġclar ify
Ġausgew Ã¤hlt
t p
Ġsee ks
ĠG PS
Ġso il
Ġoffen bar
ĠHers tell
Ġbezahl t
ĠTreat ies
an trÃ¤ge
de p
Ġmark s
Ġanz up
f akt
in burgh
Ġs telle
ĠVer g
ann a
Ġad mit
ator ium
Ġput s
Ġto urn
Ġup gra
ĠDan ish
ĠFlÃ¤ che
Ġut most
ĠLehr er
ĠWass ers
il ateral
gehen de
ĠVermitt lungs
ĠModern isierung
u an
Ġr ichtet
ĠErgeb nissen
ĠFahr er
ĠTrans fer
Ġobserv ed
regel ung
ĠA u
hol t
ĠiP od
ĠS amm
S erv
o ter
Ġangewand t
k ons
s Ã¤tzen
Ġh idden
Ġso eben
ĠSch nell
Ġeinz ur
Pro zess
Ġrenov iert
H U
re ff
ut ors
ron ics
room s
ĠAir lines
Con sequently
ĠFern sehen
Ġgraph ics
Ġbere chnet
F OR
ge fÃ¼hl
Ġbe unruh
ĠO bst
kl asse
Ġprofession elle
Ġbeein fluss
âĢ ĺ
Ġversch Ã¤r
ĠFÃ¼hr ungs
Ã¤r er
ĠTool s
un s
ĠZ y
Ġfre m
Ġre iter
Ġachie vement
Ġeng age
Ġcol ors
ĠJournal isten
Ġm ort
Ġir ischen
Ġpill ar
Ġd ial
ol is
ĠAuthor ity
S up
Ġper mission
Un s
ĠmÃ¼s sten
y o
on ing
ĠWir ksamkeit
ĠSen kung
aktiv itÃ¤ten
Ġharm ful
ĠKohÃ¤sion spolitik
ĠM aus
ĠP lace
ĠT ausende
ad ays
Ġwo oden
ĠÃľber tragung
Ġstay ed
ĠBesch reibung
ĠHÃ¶ chst
ĠRev ision
Ġeinst imm
Ġb omb
ĠD am
os c
Ġdisp ute
ĠÃ¤lter en
f amil
ĠCon stitutional
ĠSu ites
ĠAuss age
Ã¼b ung
Ġqu ote
Ġto ward
ĠN ow
ĠMit entscheid
Ġar med
Ġserv ing
ĠRes ult
ĠS L
ous es
app ro
Ġcontext ual
bu ilding
ig ious
ad r
ze ige
Ġpres erve
Ġend ors
ĠÐ ¾
F A
T our
Ġbroad cast
L Ã¶s
ss e
Ġf ach
ĠP L
Ġre venue
Ġgro wn
gest altung
verein bar
Ġaus Ã¼ben
Ġanzu wenden
AR T
Ġjeden falls
Ġpure ly
N on
i ang
om ents
ĠEr richtung
Ġfund ament
erb ild
v re
Ġ3 50
ĠQual ity
ĠBas el
ig l
Ġwesent licher
Ġgere gelt
deck ung
Ġver ank
Ġ1 30
Ġausge geben
ĠUr teil
ĠRelig ion
Ġpolit isches
Ġreport ing
F S
st ab
ten eg
ĠIn stitut
in ians
ĠBet reuung
in ity
St art
Ġspecial ized
Ġakt iven
Ġilleg ale
Ġstor ies
Ġwider sp
ĠMex iko
ĠPrÃ¤s enz
o is
ĠZu verlÃ¤ssigkeit
Ġquot as
Ġpass ing
Ad dition
m ach
ĠS et
ĠAn alys
Ġbeh err
Ġind oor
M O
ung al
ĠProzess es
ĠV IP
ider s
ĠT ruppen
Ġcap abilities
ut ical
Ġconver gence
l if
ĠMand at
Ġconfer ences
oc a
Ġcommunic ate
ĠPro cess
ĠSad dam
R C
bar es
stand ard
ĠVers ammlung
Ġda uert
Ġintegr ierte
ĠSpezial itÃ¤ten
k el
ut ung
Ġwir kt
Ġhin ein
Ġwhe el
D isc
ĠB org
ĠAuf zug
a ire
Ġp ilot
Ġsecond ly
ĠgefÃ¤hr det
f indung
Ġe en
ĠL eiter
gra ben
ĠOber flÃ¤che
Ġthumb n
B u
p hen
Ġdist ort
ĠSil ver
ĠVen edig
ĠZu cker
Pro f
6 9
Ä Ļ
Ġvor liegen
Ġhumanit Ã¤ren
M Ã¶
ĠBÃ¼ cher
S ind
ĠS ter
ile o
in stitutional
ĠB A
Ġcomp osition
Ġeffe ktive
Ġinsp ired
ĠV izeprÃ¤sident
ĠD Ã¶r
ish ment
Ġfest legen
ĠDrit tel
ĠVor stellungen
wor ld
Ġair lines
Ġabge geben
Ġeffiz iente
ĠL ine
ĠRe z
Ġsh ift
Ġvor zunehmen
Ġgest r
Ġwirk liche
Ġverl Ã¤ng
Ġbel g
Ġwachs enden
Ġcoher ent
gÃ¤ ste
en ne
Ġ6 8
IN E
t okoll
ap se
ert o
5 8
Ġn om
Ġwe isen
ĠReg ul
ĠAl m
Ġfre ut
bet racht
Â ¼
id as
ĠNach mittag
spe ed
S k
ĠD Ã¼ss
Ġver knÃ¼
lÃ¤uf ig
stÃ¤t ten
ĠKais er
R icht
Ġre ly
Ġdisc ount
sch ritt
ĠBes te
nes day
ĠA rea
ĠM igration
ĠT us
Ġj un
Ġbed au
pro of
ĠÃ¶ st
Ġa st
ux e
Ġschwier ige
Ġhervorra gend
Ġconvention al
Ġan sehen
ĠAn sprÃ¼che
ĠReg ulierung
G reat
Ġrecogn ize
Ġhop es
ĠAus arbeitung
Pr Ã¤sident
Ġtele comm
Ben utzer
Ġbran ch
ite ten
ĠAmer ikaner
Ġinitial ly
ĠZ um
Ã¶l f
ĠIm per
Ġ q
Ġn u
ĠL ernen
Ã¶r ungen
ĠMinder heit
ĠS QL
ĠW omen
Ġvict ory
ĠT w
ĠN orm
ĠStr Ã¤nde
Ġwechsel n
P ark
ad os
ĠVer handlung
ĠEr fordern
Ġintegr ate
z io
ĠApparte ments
de fiz
Ġoft mals
enn ess
Ġextend ing
Ġt rat
Ġk ennt
ĠH on
Ġbeeinfluss en
c z
ĠH under
Ġass igned
par atur
Ġstor es
ĠÅ ł
ĠDÃ¤n emark
Ġin akzept
ess ed
Ġmed ieval
Ġfl ows
ll s
L ook
Ġso ul
Ġgew inn
ĠHa ar
W ould
um es
ĠF ang
mÃ¶ gliche
Ġzeich net
G erman
Ġcl im
ple te
ĠeuropÃ¤ isches
Ġbus y
ĠHand y
ĠApparte ment
ĠH uss
Ġrec all
rim inal
Ġlangfrist igen
Ġitalien ische
Ġro ugh
wÃ¼rd ig
Ġaud ience
Ġsufficient ly
ĠS A
ic ian
Ã¼r zen
Ġdevelop ers
ĠWeiter entwicklung
ĠPremier minister
g Ã¤ng
ce llen
ĠerhÃ¶ h
ĠDat um
Ġbemer k
Ã¤ der
igh ter
ĠHin weise
clud es
Ġen jo
Ġmaxim al
Ġent fernen
Ġkon zip
amer ikanischen
icht igen
ĠBild schirm
Ġk op
ĠTradition en
Ġpercent age
ĠV ar
ĠL ic
ĠAus bau
Ðĵ Ñ
Ġshort ly
ĠEntfern ung
W ind
Ġs ammeln
I ER
Ġt schech
ac io
Ġoper ates
ĠEd inburgh
ĠFlor ence
Ġestim ated
ĠSch rift
Ġste igern
ĠBeschl uÃŁ
halt ungs
Fin de
Ġempt y
Ġn omin
ĠR Ã¤ume
Ġexp ense
amb od
ĠSol ar
Ġangene hmen
Ġschem es
Ġbeiz ut
ĠArbeit nehmern
reg ierung
Ġtourn ament
k os
Ġt ab
Ġin se
ĠT ieren
Te am
m ale
ific ial
ĠB ibliothek
em ed
ĠN a
Ġbelie ved
Ġmac ro
K A
p ower
ĠWohn zimmer
ĠPer formance
angeb ote
Ġbe hÃ¤lt
Ġsur vey
ĠGemein schaften
ĠBetrie be
ĠChamp ions
Ġa qu
ĠM Ã¤dchen
Ġra ising
ĠOr ten
ĠCon f
ĠQu art
ĠVis a
Ġsm art
5 1
or iented
Ã¼ hen
ĠK och
ĠAn meldung
ot al
Ġstud ied
Ġexpl os
ĠLeip zig
Ã¼ ro
Ġgew Ã¤hlten
ĠGeb Ã¼hren
N C
ĠH ann
ĠV ari
Ġprom ises
Ġhouse hold
ams ung
gl Ã¼ck
Ġerk annt
Ġder er
Ġl iv
Ġr ender
ad el
Ġviol ation
Ġverste ht
Gen ieÃŁen
ĠJes us
ĠR oss
ĠC uba
aut hor
le ger
Ġ1 10
ace utical
M ich
Ġp od
Ġer teilt
ĠTra vel
Ġabs urd
ĠRes idence
Ġrelationship s
ĠWissenschaft ler
P M
Ġbeein fl
Date ien
st one
ĠF ull
Ġgu ided
Ġnegot iation
Ġenjo ys
Ġw ed
Ġbe ibe
Ġamend ed
ĠFlugh Ã¤fen
ĠmaÃŁ geb
he iz
Ġseem ed
ĠCh ic
Ġstay ing
Ġprincip al
Ġingred ients
ĠD ring
Ġcl imb
ĠAuÃŁen minister
Ġbeabsicht igt
ĠSt iftung
ĠtÃ¤ glichen
Ġaccomp any
Ġimplic ations
Ġpl Ã¶tz
Ġhal b
Ġstru kture
ĠTe ams
I O
Ġgen ie
Ġedit ed
f al
r ix
ĠD abei
ĠMon itor
ĠBenutz ern
ĠvollstÃ¤nd igen
Ġelimin ate
ĠG AP
etz ugang
Ġinter f
Ġdescrib e
Ġwach sen
Ã¼ m
Ġbook ed
ĠL abor
Å Ħ
ĠV arian
Ġ" ,
ĠSo f
Ġapproach es
ĠTer ms
St att
Ġvorge legten
ĠKonkurr enz
re dit
Ġhe ct
ĠIntern al
Ġbo ught
ĠK DE
ĠInternational e
stre ben
ĠKe y
Ġneighb ours
Ġan wenden
Ġc lo
Ġbe werten
ĠW ol
aus gaben
ac o
ĠGem Ã¼
Ġadv enture
Ġbro ken
verb ind
I mp
ot a
Ġwe ar
Ġch rist
ac kt
Ġbereit et
ĠVolk spartei
Ã «
Ġmoment an
ĠVerfass ungs
ĠM essen
ber ger
ass o
Ġch apter
gor ith
o ft
Ġer wiesen
pl ate
Ġmeaning fully
Ġconstit utes
Ġcr ises
ĠVorder grund
b lock
Ġum gehen
ĠC lin
Ġh undert
ĠA str
ĠSp itze
Ġwhere by
L og
sp ace
Ġaccount ing
Ġconcentr ation
dra ul
Ġcampaign s
ĠPhilosoph ie
ĠC la
tw och
Ġoffiz iell
ĠBil dern
Ġen vis
ĠVor rang
Ġ0 9
ell ow
Ġdoll ar
ĠS pl
ens ionen
Ġent stand
Ġgen aue
ĠLe ague
ĠTr ib
ape ut
ĠAdr i
in strumente
gen ie
ĠAn der
Ġgen iessen
Ġleb end
Ġsplend id
M et
Ġins pe
Ġsatisf actory
Ġehemal ige
ĠsÃ¼d lichen
Ġchar akter
n amen
antwort ung
Ġclass ical
ĠgefÃ¤hr lich
ĠLiefer anten
Ġmedic ines
D VD
ĠB aby
Ġacc eler
ĠX ML
ĠBÃ¼ro krat
und ry
druck s
Ġ19 50
Ġeingeb racht
ĠPublik um
ĠLe vel
ĠSe x
Ġown ed
Ġsched uled
b urger
Ġein seit
ĠRe chen
Ġent halt
ond a
Ġorgan ise
uk lear
Ġenfor cement
ĠInde x
Ġbeseit igen
j ud
Ġv ibr
st il
ot ions
Ġmay be
Ġinc ident
a uch
sch if
ĠKon vent
ĠJ azz
weit ung
Ġgovern ing
okrat ischen
ĠEmiss ionen
ig o
ant es
ĠÃ¼berw achen
20 13
Ġbeh av
Ġbew Ã¤hr
Ġpain ting
ĠFinn land
Ġgirl s
ĠF an
ĠDre h
u ous
ĠM ED
ĠList ings
ĠD ifferenz
Ġsc r
Ġlink en
nehm bar
schlossen heit
Ġw ife
ĠAn betracht
Ġtechn ique
Ġjoin ing
Ġth row
ĠApp lik
irl pool
Ġeinge leitet
Ġentdeck st
h ai
ĠK ampagne
ach ed
Ġsam ple
ĠschlieÃŁ t
ĠEngine ering
ir able
ĠC ru
ĠSe kunden
Ġkontext uellen
. ).
ĠP ier
Ġver anst
ĠAn nehmlichkeiten
Ġvor n
AN D
, /
im um
ĠT enden
al i
ul der
kl ar
Ġref used
Ġverwende ten
ĠS ports
wohn ern
it ative
Ġkontext uell
Ġverb reitet
Ġcheck ed
Ġbenach teil
ik ten
** **
ĠâĢ¦ ..
Ġp ump
ĠS om
Ġemploy ed
Ġenjoy ing
Ġchair man
Ġgewid met
chn er
Ġaddress ing
ĠInnov ationen
ĠArg umente
Ġverring ert
m ing
Ġb aby
ĠL ud
Ġhead s
Ġgramm atically
ed ded
ĠPal ma
in cluding
Ġcontext ually
ĠDokument ation
Zw ischen
il f
ĠSpiel en
Ġweltweit e
ĠVorsitz enden
Ġhinzuf ugen
ĠFisher ies
in ely
Ġgemeins ames
Ġur gency
Ġfinanz ieren
Ġ4 7
Ġschl imm
Ġgramm atisch
ĠRiv iera
ĠÃĦgyp ten
Ġcompuls ory
ĠS W
ĠD A
Ġle ct
ank a
Ġar gu
Ġverste he
Ġrat ification
Ġappoint ment
k ammer
Ġg astronom
ĠB ier
ĠG ot
ht on
ĠÃľber nahme
ĠSteuer zahl
Ġremark able
ĠSpazier gang
Ġm oments
Ġfor e
Ġbo ats
Ġkosten lose
ĠEntwicklungs hilfe
Ġmultil ater
W ork
ĠS afe
ĠS ource
ĠBur ma
ĠSekt ors
ĠK m
gr ession
Ġcomple tion
ĠE hre
ĠB ah
ĠInter governmental
Ġpoor est
em ost
ĠN ero
ĠSch reiben
Ġbo asts
Ġmar ine
ĠMos k
Ġirgend wel
Ġgegebenen falls
qu arters
Ġbeant wortet
ĠMechan ismus
Ġcancell ation
5 9
Ġver Ã¶ffentlichen
Ġsch reck
Ġelect rical
Ġtransl ated
ĠSchlussel wort
Rat schlag
A ss
k atastrop
y ers
Ġman chen
Ġmore over
ĠTr end
ĠKl ass
ĠWohn ungen
ĠSchlussel phrase
âĢ¦ "...
( {{
Ġ5 2
Ġaufge zahlt
ĠI ron
Ġsch ritt
ĠnÃ¤ch ster
verb indung
Ġbege ister
ĠSchn itts
Ġkeines wegs
ĠVermÃ¶gen s
Ġb ug
ĠPr im
Ġrefer ences
b ut
Ġl uck
Ġcon front
Be ide
Ġrub ber
Ġe ase
alt es
ĠReserv ierung
I l
ĠÐ º
Ġinnov ativen
H aben
im p
ĠP os
ĠL ight
Ġad ult
pl us
vious ly
ĠUnterk Ã¼nfte
Ġult imate
II I
Ġun ab
Ġschw ere
ĠMus ter
Ġc lock
ĠUn sere
ĠAn h
gesch windigkeit
tember aub
r Ã¼ck
ĠN izza
Ġsurpr ising
Ġm ere
ĠS S
ĠMin istry
ĠVer he
ĠDem okraten
wÃ¤rt ige
Ġlandwirtschaft lichen
F amil
L o
w rit
ie geln
Ġweak en
Ġfascin ating
Ġauf zubauen
Ġab ges
be griffen
Ġover look
Ġhinzu gefÃ¼gt
Ġas ide
Ġab schlieÃŁen
Ġreag iert
Ġhochwert igen
Ġobser ve
b ranche
ĠP as
ang o
Ġhe ight
Ġher z
Ġpool s
sie he
C ode
ĠA U
ĠR A
ĠN ation
Ġch ief
p ra
ĠF assung
EC D
ĠP lease
Ġl ingu
wick lung
Ġstatt gefunden
Ġnav igation
Ġhilf reich
6 2
and in
stell er
ĠPh ot
ĠDes ktop
ĠCar l
Ġimper ial
Ġdeserv es
ĠT s
Ġaus s
ard in
Ð ³
Ġp oker
form ular
Ġfound ations
ĠOper ation
ĠEv ents
ie fen
ur er
ĠVer ab
kont roll
Ġauth ors
5 4
Ġth ick
ĠT imes
ess el
ĠJ oint
ĠPe ters
hab ilit
Ġprefer red
Ġtimet able
t schafts
ĠAgent uren
Ġconsc ious
Ġw inning
ĠF OR
Ġcon j
ĠSc ott
L and
Ġl Ã¤dt
Ġconsider ations
Ġdefin ieren
ĠIM F
ch ant
Ġauf bauen
ĠBe zeichnung
Ġber ichtet
un dern
Ġpro pr
Ġda uern
ĠAus weitung
g ments
ĠWeit erbild
ĠAkte ure
as ien
ĠP ad
Ġge lesen
ĠSouverÃ¤n itÃ¤t
ĠIn ner
ĠPro zeÃŁ
ine a
ai ro
Ġincent ives
Ġv ir
ĠP ed
Ġr Ã¶m
sp ielen
Ġres idential
Ġopp on
Ã °
Ġfe wer
Ġvar iable
Ġv ent
ĠO f
ĠBr un
Ġbesonder es
Ġfavour able
ĠFremden verkehr
ĠProfession al
Ġbe aring
Ġst Ã¤ndigen
Ġcon ciliation
ĠVer m
ĠPrem ium
K OM
Ġth res
Ġin nen
ĠT amp
ad ic
ag ra
Ġele v
Im mer
ĠBest Ã¤tigung
teneg ro
k ar
Î ¿
Ġb Ã¼rger
Ġmix ed
ĠC ross
ant o
ĠAn onymous
Ġdeb ating
ĠSa al
g eschÃ¤ft
Ġthe atre
st anzen
ĠR ett
ĠL CD
Ġst ip
auf nahme
F ac
Ġd rag
Ġaut umn
loss ene
Ġneighbour hood
f unk
Ð ±
Ġjournal ists
ĠChair man
Ġgen auer
ĠProjekt s
Ar ch
Ġcoast al
ĠJe wish
Ġdig itale
Ġ Ã¤r
Ġqu i
Ġpers u
kauf t
Ġport al
c ific
ĠEr st
Ġher zustellen
ĠUm struktur
fert igen
Ġguarantee ing
Ġzust ande
Ġcode cision
Ġf esten
ed ia
den s
sch iff
ĠT rÃ¤
Ġer heben
ake ten
ĠHaup ts
ĠKomple tt
Ġf assen
Ġhe il
ĠGe gner
Ġruh ige
Ġgenu inely
Ġgenere ll
z i
Ã© l
ĠDoppel zimmer
Ġc u
Ġso u
ĠEr reichung
Ġ% .
ĠFire fox
Ġerk unden
Ġtrave llers
8 2
ĠC anc
olog isch
Ġbr ill
Ġdict ators
es a
Ġbeg un
ĠAspe kten
Ġqu er
Ġfac es
Ã¼h le
Ġsor ry
sicht ig
ĠEt ik
ĠpalÃ¤stinens ischen
D av
G erm
Ġen ge
Ġsub sequently
ge laden
ann el
Ġlog ic
ĠNI CHT
Ġan geschlossen
Ġver ble
be g
fÃ¼ llt
ffe kt
Pl ay
Ġlay out
ĠG esell
ĠW Ã¤rme
se kret
Ã± a
S obald
Ġb read
Ġfor emost
be cken
Ġdo ctor
ĠVerbrauch ern
Ġjuris diction
E mp
g te
Ġbe arbeiten
op ard
Ġmag net
ĠNiger ia
Ġd ual
ĠE S
Ġre ass
ĠR ichter
Ġaktiv iert
ĠF ont
ĠAr ena
Ġdis cl
ĠDÃ¼ss eldorf
p an
Ġaff il
ĠMont age
het or
Ġex posed
ĠEmp ire
Ð½ Ð¸
Ã´ te
Ġrepeated ly
Ġf at
Ġc art
am an
Ġha z
Ġcharacter istic
Ġinade quate
ĠS ir
ir ts
Ġfor tz
Ġprofession ellen
ĠErwach sene
Ġthumbn ail
in tens
Ġf oss
ĠWed nesday
Ġs izes
AN T
ĠMos cow
Ġlegitim acy
Ġa temberaub
Ġev ol
ander s
ĠWer ten
ÑĢ Ðµ
ĠLuft fahrt
Ã¼ste t
ĠM illion
ĠD ir
reg ionen
Ġunnecess ary
f ile
ĠS C
Ã¼r t
Ġinv ent
ĠChe f
Ġult ra
ĠMass age
Ġelegan te
er ungen
elt a
Ġnews letter
ĠHo he
J ahr
Ġimportant ly
Ġtext ile
ĠK Ã¼rz
Ġfor ec
Ġgest atten
bÃ¼ ro
Ġexpens es
ĠKompeten zen
Ġim pr
Ġind igen
Ġact ors
ĠKon junkt
ĠHe ads
ograph ie
ĠÃ¶k ologischen
ĠB av
Ġdest o
ĠSm ith
Ġunz Ã¤hl
Ġthres hold
st Ã¤d
ĠEnt schlossenheit
Ġlang er
schn itts
Ġspee ches
ĠDring lichkeit
z te
ĠR enn
ĠLeg itim
Ġlisten ing
Ġman agers
N ET
ĠS eit
ĠP y
ill on
ĠAuf lÃ¶sung
Ġsecond ary
ĠGlaub en
Sub ject
andin av
Ġn utzt
ock et
Ġdramat ic
ĠSold aten
ĠP atten
Ġsuch t
Ġtrans action
Ġoper ated
cur ities
Ġshe et
ĠNik on
S om
ĠG rem
Ġge liefert
fort able
Ġfrequ ent
sph Ã¤re
5 6
Ġe uropa
ĠM O
Ġinter view
Ander e
igkeit s
Ġrespect s
Pr ivate
ĠImp lement
ĠW asch
olog ne
ĠHe kt
Ġexam ination
in et
Ġl ively
ĠVer zeichnis
ose v
Ġarran ged
ĠT ickets
ar on
Ġer werben
ĠNutz ungs
ĠSer ies
ĠErzeug er
ĠSerb ien
ĠR ing
ĠV ier
Ġsl opes
ĠValen cia
f an
Ï Ħ
Ġint entions
Ġfeat uring
ĠOb jekte
Ġcompe te
s amen
Ġinv o
ĠMult i
ĠbefÃ¼r worten
ĠFerienwohn ung
ĠR hein
ĠH u
Ġsch auen
Ber eits
Ġdisapp oint
ĠgrenzÃ¼berschreit enden
Ġcomplim ent
l ation
ĠA S
Ġcon vers
Ġher be
Ġtro uble
ĠD C
amp s
Ġterr ible
ing ung
qu elle
sp f
Ġrepresent ing
ĠUnivers itÃ¤ten
ĠH an
Ġge gangen
Ġgesellschaft lichen
al ts
ĠRe paratur
ĠAl ps
ĠInvest ition
ÑĤ Ðµ
ĠAus richtung
ĠGro ss
Ġ18 0
ĠEreign is
Ġan erkennen
reib ungen
zieh ungs
Ġbig ger
Ġuneingesch rÃ¤nkt
ĠSlovak ia
ar ians
for ce
ĠCor poration
Ġt enden
ger ichts
Ġunder lying
Ġzwe if
Ġlet ters
Ġpurch ased
Ġcompla ints
ĠEr folge
Ġerst es
s inn
u he
ĠP olit
sch uss
Ġinst antly
ĠberÃ¼hm te
ffect ive
Ġw il
Ġb ay
Ġcom pr
ht ml
ĠProdu ct
ĠEmp loyment
ĠSc ot
Ġexpand ed
Ġin halt
Ã¼ re
ti rol
sch Ã¶n
ĠBe ll
ĠRein igung
ĠEffe kt
Ġbeibe halten
v illa
ill ance
ĠN ote
Ġbew ahren
pid em
ĠNiederl ande
P olitik
Ã¶ tet
Ġpl ate
Ġprop ag
Ġschwed ischen
ĠJ on
Ġaus wÃ¤hlen
Ġvor Ã¼ber
Ġumfassen der
Ġwid men
Ġverur teilen
Wor ld
N atur
Ġer g
Ġeconom ically
ĠTun is
ĠSch alt
ĠâĢĵ ,
Res erv
mÃ¤r kten
ĠSlow akei
Ġvoc ational
Z ahl
ĠS ort
Ġim men
Ġgr Ã¼nen
ven ted
Ġinform al
d ring
be vÃ¶lkerung
ĠGetrÃ¤n ke
ar c
Ġdev oted
Ġer b
Ġtrag ic
sch au
be ll
so ever
wach sen
Ġmotor way
, -
Ġd iving
Ġbe le
Ġes cape
voll er
fel der
Ġjoint ly
f eind
ĠAus be
ĠAs hton
Ġweak ness
Ġmittel alter
Ġrob ust
g iene
leich heit
ĠFranc isco
at om
ĠG elt
ĠÃľber sicht
sph ase
Ġbereit en
Ġop enness
ĠSm art
ĠGarant ien
Ġk an
ĠLe ban
ĠgemÃ¼t liche
ĠauslÃ¤nd ischen
ĠBeam ten
Ġer led
Ġkosten losen
Ġdah in
Ġexcurs ions
] .
Ġbe zeichnen
ĠBla ir
Us ing
S omit
ra chte
Ġk ost
ĠBe fehl
ĠDurch setzung
ĠErwach sen
ver halten
G ruppe
Mit tel
fil m
Ġw age
ĠE conom
Ġein laden
ĠK ohl
Ġk olle
Ġer lassen
ĠSt imm
Ġamend ing
fÃ¤ llig
ĠAnmer kungen
Î ¹
Ġsuggest s
ampag nen
oc o
Ġaccess ories
Ġfol der
Ġexist ieren
zwe if
umm ern
ĠHerkun fts
os es
Ġzw eiter
Ġ4 9
ĠZeit plan
Ġzusammen ge
Ġ198 8
iforn ia
Ġbedro ht
+ +
ion es
Ġsp ir
ĠCas a
ĠCaf Ã©
ĠDynam ik
Ġsol ch
ĠGew Ã¤ss
ĠAl uminium
Ġhoh es
sp ir
Ġsp anische
uropÃ¤ ische
ĠMe g
Ġdest inations
oper ations
Ġwilling ness
ĠPac ific
5 2
H z
ĠA ch
Ġer teilen
ah ara
lie genden
ĠVers icherungs
ĠWÃ¼r de
ĠE he
ĠE ure
ste chnik
Ġoccup ation
S pecial
Ġclick ing
Ġschrif tliche
t age
ran kungen
ĠDesign er
ĠJ ur
Ġ9 9
voll stÃ¤nd
Ġkurz er
Ã¤nger ung
Ġaccording ly
best and
Ġumfang reich
ĠKlar heit
g eschÃ¤
Ġne utral
ĠZ weiten
ke pt
ĠPh otos
Ã§ a
cellen ce
8 7
un en
ĠS O
Ġowners hip
Ġenor men
Ġpred ict
ĠIn t
Ġins ufficient
D EN
ar l
Ġgeb lieben
ĠMil an
Ġklein ere
Ġaktual isiert
P G
Ġto ugh
ĠF ord
Ġcl arity
ĠVerein igte
Ġm ine
ĠR unde
ĠV ER
wander ung
6 00
ĠK Ã¼nst
ĠC EO
Ġver tritt
Ġer arbeitet
Ġcomp osed
Ġsun ny
ĠN u
Ġapp arent
Ġstr ike
H T
ĠL ED
ak ul
ĠPar ad
Ġfif th
ĠS em
ĠUn sicherheit
ĠBer gen
imm te
Ġ4 1
schie ben
ĠGemein den
Jed och
Ġanal og
G E
Ġre ward
ong o
Ġar ray
fra id
Ġaltern atives
ĠNichtraucher zimmer
Ġinspe ction
F our
m end
Ġd Ã¤n
al in
ĠZ un
Ġor ch
ĠKon ver
Ġman ifest
ĠAuss agen
ĠwÃ¼r d
Ġconven ience
ĠBosn ia
Ġf ur
Ġver mittelt
ĠDi agn
Ġcert ified
condition ing
K omm
Ġm essen
ĠO LAF
ĠBe hÃ¶rde
Ġunterschied licher
ĠWahr ung
Ġtraged y
= "
S icherheit
ĠEur ost
ĠR SS
ĠW urz
Ġum gehend
Ġcal endar
ĠÃ¼ br
gebÃ¤ ude
d t
Ã¶ gern
Ġar ts
ler nen
Ġbehaup tet
rep ublik
ĠE F
ĠZ ut
Ġman geln
oll y
Ġmod ify
Ġsimultane ously
Ġ icon
Ġcon vey
af ter
kon stru
ĠPort al
Ġup load
ipel ine
Ġmeasure ment
ĠAus rÃ¼stung
Ġerst ens
ĠRes iden
Ġerk ennt
Ġinn ere
L Ã¤nder
k u
r ise
Ġa fraid
ĠUnter richt
hÃ¶r ige
Ġbus es
Ġfamil i
T ag
Ġwhat soever
Ã¤lt igung
Ġide ally
fre cht
Ġpost al
OT EL
Ġid yll
F ort
ĠR uÃŁ
gen Ã¶ss
Ġelektron ische
5 7
ĠW ichtigkeit
Ġpost s
ĠLiber alen
ĠKrie ges
st oÃŁ
Ġart ificial
Ġto x
ĠH Ã¤fen
og a
ĠAr ts
Ġreg rett
Ġfind s
Ġexpress ly
ube hÃ¶r
P P
ĠS tern
Ġbe weisen
ĠH istor
ĠSie mens
ĠNach druck
gehen den
ĠGrÃ¼n buch
adem ie
nor men
K inder
ĠA IDS
ĠLe ft
Ġcert ification
Ġanzup assen
z Ã¤hl
or o
Ġk new
ĠMar c
C lear
ĠI BM
ĠW eine
ĠTre ff
ĠRechn er
ĠMiss brauch
ĠP sych
ĠH Ã¤nde
Ġass et
Ġtrans fers
Ġadv is
Ġfa ult
z o
Ġcomm od
Ġcontinu ously
ĠSol ana
ĠBÃ¼rokrat ie
ch mark
Ġh ers
ĠI WF
Ġspect rum
Ġwirk lichen
rÃ¤n kte
Ġstopp ed
a ug
ĠD amit
th aus
ĠFr iendly
Ġrev ised
Ġl ens
ĠEntwick ler
Ġcar te
itiz ens
Ġel der
fert igung
C urr
is st
ĠT i
Ġar men
ĠSchl acht
ĠÃ¼berein st
ĠÃ¼berras cht
ĠP od
We il
ĠBes atz
ĠDeutsch lands
Ġpark s
ĠSchicks al
Ġinter ne
ĠFil me
ĠLebensmittel sicherheit
ĠMensch heit
ĠMoroc co
ĠS now
Ġto wer
st Ã¤tigkeit
sch Ã¤tzung
ĠL asten
Ġspecial ly
B R
Ġsp aren
kun de
bet riebe
Pl an
ĠStor age
Ġ `
Ġun ber
Ġdel ight
Ġprom oted
Ġeinge tragen
ĠMod ul
Ġw ave
Ġein her
ĠAL DE
ĠEin kauf
Ġev olution
Ġdoub ts
ĠAdministr ation
ch ern
ĠIn kraft
We b
Ġvers ehen
Ġopp ose
Ġvorlie gt
M ag
ĠH Ã¼
Ġgr ass
Ġeffizient er
e iden
Ġaus wirken
are l
Ġbas ically
Ġfreund liche
Ġaffect ing
ĠGal ileo
Ġrespekt ieren
oler anz
Ġforg otten
ĠKÃ¶l n
ĠB ig
qu ote
sp rech
X I
ĠK art
Ġdes ktop
Ge b
Ġumfang reichen
liefer ung
Ġgetr ennt
ĠC S
ĠSt ill
Ġmanufact ured
onn es
ĠkÃ¶n ne
ĠEx ternal
lim ited
Ġkombin iert
S tre
an bul
ĠK Ã¼rze
NG L
zie ll
Ar beit
cure ment
Ġunterb rochen
ens ive
Ġres idents
eng leichheit
Te ch
Ġdead line
Ġgeehr te
Ã¤ ll
Ġr iding
Ġste am
Ġpla in
ĠIndustr ial
ĠVorgehens weise
Ġs itzen
Ġn obody
ver arbeitung
Ġremov al
ĠO x
ĠMit twoch
ĠAuf hebung
Ġbel ongs
Ġchines ische
ĠRe icht
ose x
ĠAb bau
Ġexam ined
Ġgel ang
zug s
Ġlog o
ĠCD s
ie hlt
ĠN okia
Ġsch m
ĠFischere ip
ĠendgÃ¼lt ige
Z war
Ġmon uments
Ġable hnen
d el
Ġm ont
ĠA y
Ġein heim
ĠVor red
Ġdr iven
Ġinstall ations
ĠVertra uens
Ġpath s
ĠBew usstsein
finanz ierung
8 1
r ale
Ġun ity
ĠW Ã¤
str Ã¤ger
oy ager
Sm oking
Ġbehav ior
f ted
ĠKons erv
Ġfal sche
Ġfrequ ency
Ġdim ensions
Ġl enken
ul ates
" ).
ĠMa xim
Ġverurs achen
n icht
Ġbe ef
Ġger ingen
Ġhealth care
ĠAn zeige
ikan ischer
ĠSchul z
ĠgÃ¼nst igen
Ġlands cap
Ġarrange ment
ĠangekÃ¼nd igt
N ational
Ġk Ã¶rper
old ing
ĠMar ok
Ġfl ash
Ġstru ktur
ĠDire ct
oph ob
Ġrelax ed
B O
Ġ Ã¤rm
Ġv acc
Ġlos ing
Ġarchitect ural
ĠLog istik
Ġfal se
azz o
1 60
Ġb icy
Ġp ull
Ġder selben
he il
Ġda vor
ett ing
Ġref use
Ġtyp isch
ĠArch iv
re form
te x
ul ator
In formation
ĠLand wirtschafts
Ġdel ays
p in
em iss
ĠW ars
ĠMe ilen
Ġinstitution elle
d ies
in vest
Ġt ip
stehen de
Ġstress ed
ĠEd el
ĠA uÃŁerdem
sch rank
ed a
Ġintegr ity
Ġbewe gt
Ġcon stra
ĠÃ¼ber mitteln
Ġfocus es
Ġfall ing
ĠSpr ing
t op
tr as
Ġausgestatte te
ar o
Ġg al
ĠI G
Ġvor sieht
ĠPl Ã¤tze
ĠZiel setzungen
ĠF our
ĠF oot
Ġdec lare
ĠPalest inians
str and
Ġangenommen en
ĠberÃ¼hm t
Ġsold iers
person en
s he
Ġzw Ã¶lf
rei ze
Ġlo ans
Ġquant ity
ĠgemÃ¼t lichen
oz y
Ġverab schieden
ĠÃ¶ffentlich er
ĠGefÃ¤ng nis
Ġmed iterran
Ġtransition al
Ġl akes
Ġerforder liche
Ġplan en
Ġliter ature
Ġgrant ing
Ġelector al
' d
ĠG R
ĠH ill
Ġvis its
Ġnewsp aper
Â ¶
ĠR ass
ĠNet ze
Ġbegeg nen
Ġbu ying
ĠtatsÃ¤ch lichen
w Ã¤nde
Ġs ake
ĠH Ã¤nden
ĠAus bildungs
Ġturn s
Ġaccur acy
ĠFinn ish
Ã ¯
Ġm outh
th otel
Ġen gen
n ism
ason ic
Ġerleich tert
ĠZur ich
ĠGU E
i Ã¨re
Ġf ru
ĠUnter haltung
ĠEnt schÃ¤d
Gen au
Ġcoll apse
ĠCh ief
Mill ionen
ĠO ECD
Ġtechn isch
uer ung
ĠDem onstr
Ġce iling
ĠUrs ache
Zimmer beschreibung
or ters
ĠP ie
Ġle ichte
Ġpl ural
Ġrenew ed
Ġbehinder ten
Ġein fÃ¼hren
Ġinnov ations
h our
Ñ Ĩ
ĠR amb
ĠIn tell
gel ung
Ġadv ise
En ts
Ġeth ical
Ġs ailing
land schaft
Ġproduct ive
Ġpharm aceutical
Ġt or
Ġp ensions
ĠT aten
Ġflex ibel
Ġtw in
Ġdistin ction
Ġm ental
ĠFest platte
AS S
he bt
ĠFrei handels
z immern
ak ed
ha ust
ĠOlymp ic
zust immen
Sim ilar
8 3
isch t
schlieÃŁ t
ĠKre bs
ĠerwÃ¤hn ten
Ġparlament arischen
Ġprof ound
stÃ¼ck e
Ġverpflich ten
J an
al ian
et tet
ĠZ ahn
Ġsu ited
Ġreal isiert
ĠVill age
Ġforts etzen
H ave
k Ã¼ste
Ġzu kommen
if ts
Ġresearch ers
roll er
Ġverz ichten
Ġch ose
Ġvers p
Ġw al
Ġc row
Ġgest artet
Ġterritor ies
Ġafford able
8 00
Ã¤ uÃŁer
ĠZ ins
ib ungs
ĠAn im
be wegung
Ġexhib itions
S ever
Z ug
Ġver schl
In stall
Ġber uh
ĠwunderschÃ¶ ne
Ã¶ ne
ĠEr arbeitung
wor te
Ġherr schen
Ġobserv ation
ĠChanc engleichheit
ĠFel der
ĠArzneimit tel
Ġc ommen
ĠB ureau
ĠHa iti
Ġoblig ator
Ġther apy
Ġelegan ten
H S
Ġ ....
ro ph
ic ars
Ġdes erve
Ġte uer
Ġbew uÃŁt
ĠFisch ler
ĠAustr alien
Ġdiesbe zÃ¼
Ġprest igious
ĠK orrektur
ĠN obel
ene ver
K W
n s
pro gramms
Ġc ameras
ĠM ischung
all ing
form at
Ġber ichten
Ġbro ader
mut lich
ĠHerkun ft
ĠVene zu
Ġvine y
le in
Ġhe ll
Ġan f
ĠD im
Ġzu gestimmt
ac ter
Ġdam al
ĠPal ette
Ġp ace
ĠL ibrary
our met
Ġspe kt
ĠSp iegel
ĠGesch lechter
Ġprogress ive
verb indungen
in stall
ĠV in
Ġle iten
Ã¤nder ung
Ġbr ands
Unter nehmen
ĠRepresent ative
e eing
Ġr ing
gel s
Ġempf Ã¤ngt
Ġautom otive
fun ktionen
ĠAltern ativen
un ting
Ġg ym
schaf ter
Ġcancel led
ĠK enntnisse
Ġch at
ĠAut onomie
zuf Ã¼gen
ĠB onn
ad ed
ĠEin nahmen
Ġke ys
ĠMon tenegro
Ġlog ical
park s
ĠWik icars
ĠZerst Ã¶rung
Ġtra ins
ĠMal ays
Ġprepar ations
Ġcontra dict
Ġcook ies
Ġwh enever
Ġoption al
ĠTamp ere
k es
ĠP ilot
klÃ¤r t
sk a
Ġpublish ing
Ġdur ation
Ġp il
Ġadv ent
ĠPan orama
pay ers
ĠR ennen
Ġconc erts
Ã¤tz ungen
Ġdeut liche
Ġschwer wie
ĠerÃ¶ff nen
ĠVerhe ugen
le hr
ĠV ent
Ġcon version
aut en
St ation
ĠCo operation
Ġerstre ckt
6 1
Ġk ill
ĠDe fence
Ġunus ual
D ownload
ro us
ĠF utter
Ġge habt
geb Ã¼hren
acht ungs
Ġel ig
ĠBuch st
ĠSouth ern
ĠCook ies
z ing
oss ier
Ġregul ated
Ġcatalog ue
T ran
m useum
p ert
oth ing
ĠGu ide
ĠÃ¼b lichen
at em
ĠC ab
we hr
ĠPr ize
Ã¤l te
Ġsub t
Ġachie vements
ĠGesch enk
Ġmechan ical
Ġerheb lichen
Ġeinzus ch
ĠB ou
um ed
ĠL or
Ġer baut
Ġundert ake
Ġb ist
ra gt
ĠU fer
Ġ198 6
Ð¾Ð ¼
ĠF ans
ĠGr Ã¶ÃŁen
sta ates
produ kten
bas is
ĠausfÃ¼hr lich
M al
ĠF lag
ĠC E
ĠMar co
ĠPh ys
Ġsogen annte
ĠM erc
ill igt
Ġgeb unden
Ġconstru cted
Ġbeteil igten
ĠIn halten
ĠIn genie
Ġab gesehen
Ġbenef icial
orre ct
ĠImm un
ĠLatein amerika
D C
ĠOr ts
sch lÃ¤gen
ĠSt aff
lo v
Ġsol o
ĠBr Ã¼
ĠBesch rÃ¤nkungen
Ġident ification
ĠursprÃ¼n gliche
Qu estion
ĠC at
Ġinteress anten
Ġlange m
ĠDan iel
ĠVertrie bs
Ġsched ule
ver schm
Ġpress ing
Ġreveal ed
Ġin tr
per iode
Ġarr est
Ġofficial ly
Ġhosp ital
Ġspl it
ĠRena issance
en cies
Ġh alt
ĠD ur
ĠSte igerung
ĠEinzel heiten
Ġeindeut ige
ĠKenn zeichnung
ĠE IB
ĠH Ã¼gel
ill o
Ġkon figur
Ġ7 2
br idge
Ġexplicit ly
ĠWelthand els
L ear
Ġfre ige
p akt
ĠL aser
Ġab stra
ĠInter ess
Ġnachhalt ig
ĠBosn ien
zeich nete
ĠgrÃ¶ÃŁ ter
Ġmach inery
ĠSchwe llen
Bet rifft
i ago
ĠK ore
Ġ5 1
rÃ¤ gen
l or
ar z
Ġst ops
ĠAus grenzung
Ġschle chte
ĠstÃ¤rk sten
s ystemen
Ġnecess ity
ĠForm ulierung
ĠDom ain
Ġcertific ate
Ġsurve illance
ĠSow jet
Ġe ure
Ġun ions
ig i
ĠMen gen
ĠClub s
Ġeigent liche
Ġgenie ÃŁt
ĠC P
Ġer arbeiten
ĠEr halt
Ġsc ulpt
Ġ198 7
Ġverein t
mechan ismen
ĠE valu
Ġgemeins amer
Ġchem ische
Ġkomfort ablen
g ien
verstÃ¤nd nis
Hin weis
ĠOffen heit
te enth
ac ted
Ġexper iment
st ate
Ġle istet
pr Ã¤
Ġpre vented
Ġpers ec
Ġproblem los
Ġeinge laden
ĠMo der
5 3
ĠB Ã¼nd
ver teilung
ru pp
lÃ¤ ufe
Ġ0 6
Ġprec ious
ĠAllt ag
Ġb iod
For mat
ĠProblem atik
Ġsuspend ed
Ġdiesel ben
ĠR ap
ak i
Ġper ce
ĠPrivat sphÃ¤re
ĠAusbe utung
ann i
Ġfocus ing
Ge w
ĠUmst Ã¤nde
P at
Ġde pr
Ġdies elbe
Ġje glicher
Ġpop ulations
Ġt ang
Ġp ays
ic ted
ĠSch war
Ġemploy ers
Ġgreen house
ĠS ternen
ĠD J
Ġver liehen
Ġgesch mack
Ġsand y
R ed
ĠC ra
ĠInd ik
Ġstre tch
ĠChar me
Ġverm ieden
l ow
u v
Ġan passen
ĠRÃ¼ck gang
ĠEmp fÃ¤nger
Ġdeter ior
k as
k la
ĠR E
ĠT ief
Ġent s
pect ives
Ġaut or
Ġfre ight
Ġverw iesen
Ġrech nen
Ġein iges
reg ular
Ġzug ute
Ġzu gesch
est yle
ĠL ot
Ġste igt
Ġniedr igen
ĠÃ¶sterreich ischen
Ġproxim ity
er es
Ġum so
Ġzur zeit
Ġdeb ated
Ġpres idential
ĠMac ed
C op
ĠC ologne
Stand ard
Ġform uliert
Ġfavour ite
ĠLie b
ij a
Ġred und
Ġgegenseit igen
Z E
c ase
ungs bereich
Ġmus ikal
schied ung
Ġpreserv ed
ĠBegr Ã¼ndung
Ġw Ã¤chst
Ġb urn
ĠM und
Ġer weisen
ĠSt raft
ne ider
Ġall m
Ġinter active
Ġ198 5
ĠBro k
ĠStat istiken
ĠDis c
Ġrelie f
U C
us hing
Ġro ots
kun st
Ġenc ry
ĠWerk zeuge
o ung
Ġge plan
Ġat tended
ĠKern el
ĠbefÃ¼r wortet
T ime
ĠD arf
ger icht
Ġmov ies
ĠGovern ance
Ġg eschÃ¤ft
Ġse gment
ĠBe wohner
Ġcent ers
ĠEx tra
ĠVolks wirtschaften
ĠTal iban
A bst
Ġein treten
Ġtra ined
Ġsm oking
Ġgel angt
Ã¤mp ft
Ġren omm
Ġafr ikanischen
ĠK ra
Ġ5 4
mechan ismus
ĠGipf elt
Ġm athem
ĠA T
ĠL ay
Ġver geben
Ġtrans national
Ġdr ives
ĠBestell ungen
V ier
W est
p ine
ĠReg ister
Ein er
Ġneigh bor
ĠgÃ¼nst ige
Ġzentral er
Ġphotograph s
ĠVerst Ã¤r
Ġt ruck
Ġle ts
Ġsign als
Ġordnungs gemÃ¤ÃŁ
ĠVerab schiedung
Ġma x
Ġtr igger
hÃ¤lt nism
wh el
ĠTher mal
Ġkomplex en
S tra
ĠS el
Ġen viron
Ġcivil ian
Ġconserv ation
m Ã¶glichen
Ġg ate
ĠD istribution
ĠN RO
ard ing
our en
ĠCoun try
ĠHand lungen
ĠKar riere
Ġentreprene urs
e b
Ġa w
Ġal uminium
ĠY outh
AR D
ĠPf lichten
Ã¤ use
ĠT ower
kt oren
ĠUnter drÃ¼ck
ĠLog ik
igran ten
ĠgewÃ¼nsch te
ĠGraf ik
Ġthreaten ed
ĠKonver genz
ĠB aden
Ġle it
Ã¶r m
abe llen
Ġtre as
ĠAnd alus
I ES
ĠS ark
Ġver gangen
Ġver schaffen
Ġign ore
Ġtelecomm unications
Ġun known
ct ic
ĠPl atten
Ġtrans it
Ġsonst ige
struktur en
bring ung
O pt
ĠE co
ot on
ĠWieder herstellung
Ġhar bour
Ġgeeig neten
ĠNichtraucher zonen
Ġcer em
an er
Ġbe her
Ġre pl
Ġreal ize
Ġregion aler
Ġnegot iated
ĠMillenn ium
ĠThe orie
Ne xt
ĠPartners hip
Ġrul ing
Ġver mutlich
ac a
ĠKomment are
Ġermut igen
Ġb oy
Ġm ater
ere ien
Ġst Ã¤dt
Ġcom prises
ĠEin kommens
Ġrefle ction
ter ung
ĠSe ction
ĠInter vention
Ġw inner
ub ringen
Ġdass elbe
Ġaus sehen
Ġarab ischen
Å Ł
Ġt ap
an as
Ġo k
Ġcon form
all o
ĠVers prechen
ell es
Ġlog istics
Ġindic ators
Ġrat ified
Ġrele ases
ĠPrÃ¤s id
ĠH Ã¤ndler
Ġco ckt
Ġab geben
Ġbis schen
ĠDes halb
Ġorgan ize
ĠMod ule
ĠTerror isten
ĠWÃ¼n schen
Ġfab ric
Ġp ubl
ĠA ra
ĠE hr
Ġcertain ty
ĠMehr wert
Ġvertra ut
ĠPhÃ¤n omen
K ein
fe hle
zus agen
ĠKl ang
ĠMenschenrechts verletzungen
8 4
l ong
ĠF akten
Ġauf gestellt
Ġtra ce
ĠMin ibar
Ġthank ing
spro zeÃŁ
Ġbedauer lich
- )
Z eit
k ind
ĠC ala
akt ions
Ġref urb
haus en
ĠIm port
Te chnologie
Ġprem ium
ĠM are
ĠW esen
ome ters
Ġno on
Ġ20 15
ĠspÃ¤ter en
ĠverstÃ¤r kte
Ġster ben
k ette
st ers
el led
Ġpart ition
Ġintegr ieren
ipp s
lass ungen
ĠGeorg ien
Ã¼ro krat
O U
g io
is ons
and em
ĠBe z
Ġtax payers
schreit en
z ia
Ġs ach
ĠBÃ¼rgerbeauftrag ten
Ġk oh
ĠVer ordnungen
oc ratic
Ġhe utzutage
ĠAr c
bo ot
ĠKommissions vorschlag
ĠprÃ¤z ise
ĠD est
ĠN ur
ĠVer folgung
Ġdurch zusetzen
Ġson n
ĠProt est
er ver
Ġf ails
ĠCons erv
Ġadjust ment
Ġf ro
Ġ16 0
ĠFunktion ieren
Ġhes itate
Ġbe zogen
Ġas iat
Be vor
Ein en
Ġir ak
ĠMont i
w en
Ġkomp et
ĠendgÃ¼lt igen
Ġte ilt
Ġsp are
Ġwar s
Ein es
Ġmedizin ische
Ġsupplement ary
ĠInfl ation
Ġin fe
Ġz un
Ġ5 3
Ġ5 6
Ġnational s
ĠOb ject
ĠHil f
ĠlÃ¶ schen
ĠZun ahme
am ar
miss ionen
Ġacquis ition
) ).
O G
Ġd okument
Ġb ot
Ġein stellen
im o
ĠR i
ĠO K
auber n
Ġdele te
ĠSe en
zeich neten
Ġpublic ations
ĠKunst stoff
lass ung
Ġklein eren
Ġacadem ic
Sever al
B as
te hung
Ġh af
Ġbe wertet
ĠMa ur
ĠOr ch
Ġfr ustr
Ġ14 0
Ġcla imed
kÃ¶ mm
re bt
ĠS tell
ĠB ach
ĠJ ugoslaw
Ġav o
Ġcloth ing
hÃ¤ltnism Ã¤ÃŁ
h ause
Ġ19 30
ĠHuss ein
Ġl ib
Ġnegot iate
ĠAbgeord neter
Ġspirit ual
ĠDritt staaten
Ġfeed back
Sow ohl
zusammen arbeit
Ġrepla cement
Ġwert volle
leit ungen
bereit ung
G ibt
Ġ19 45
uer te
ĠBr Ã¼cke
Ġver arbeitet
Ġover whel
ĠFinanz en
Ġfar ms
ĠÐ ´
ĠMet rop
p unkten
Ġdesign er
D is
us ste
oc ument
ĠAl so
Ġmon ument
Ġcitizens hip
hÃ¶ he
Ġattra ktiv
ĠjÃ¼ng ste
Ġgerecht fertigt
Ġuncertain ty
ĠArbeits zeit
gre es
ill es
ĠIn stit
To gether
Ġcamp s
ĠSum me
Ġb lieb
ĠW under
Ġorganis ierten
ound ed
Ġmist akes
agent ur
ĠFischereip olitik
Ã¶ die
end em
Ġbas ieren
ĠGesch le
ĠSo ft
Ġspiel te
Ġz er
ĠAus nahmen
Ġdeath s
Ġsen ior
Ġr anging
Ġcoun cil
Ġph ones
ĠDienst leistung
metho de
ar ier
ab a
men ge
Ġfe hlen
Ġjust ify
Ġmodern er
ocol ate
ĠMÃ¶ bel
V C
Ġun gewÃ¶hn
ĠP ast
ĠW ett
ĠIn tens
Ġad m
ĠDe posit
ism o
ĠQu oten
Ġpurch asing
ĠJos Ã©
C ho
Ġa rom
Ġdownload ed
F rank
in th
Ġs enten
ĠF Ã¼nf
Ġorganis ierte
Ġangeboten en
s ub
Ġw ahre
ie fe
Ġn utr
Ġst range
ve z
sp rechend
Ġcom o
Ġem bar
Ġill ness
T ool
as p
ĠS ich
Ġger inge
Ġocc urs
ĠErd be
l ink
ĠK uba
pro jekt
ĠBr idge
ĠJugend liche
Ġannoun ce
ĠCal ifornia
ĠHeil igen
Ġmittl ere
ĠÄ Į
e qu
an gel
Ġsign ing
Ġbesch reibt
ĠTÃ¼r en
ĠGebÃ¤ uden
Ġpattern s
S eite
m akers
w th
Ä ħ
Ġf anden
ol as
wer ber
vers icherung
Ġdemonstr ates
ck ing
ĠTe e
Ġins ert
lim inary
ĠFort setzung
ĠUrspr ungs
S an
ĠGen uss
Ġprivile ged
u ania
ĠB uen
id ance
ers tellung
pl Ã¤tzen
ĠKl assen
ĠBÃ¼ hne
Ġ900 1
Bre akfast
Ġ Ã¶rt
ĠL ob
Ġauf einander
ĠAd v
Ġmov es
apt op
ĠMobil tele
er zeug
ub b
ues day
kap ital
Ġworry ing
ĠAben teuer
F C
ĠS MS
ĠAus Ã¼bung
ĠhÃ¶ch ster
Ġeinstimm ig
v ens
Ġim ported
ĠâĢ ¢
Ġunter scheidet
Ġpass ieren
Bes uchen
ĠLiter atur
ĠW ille
ĠAn gabe
haus halt
Ġempf iehlt
Ġorient ation
ĠÐ½ Ð°
ĠErfolg s
Ins gesamt
ĠAngel es
d isk
Ġdar gelegt
alt ies
ĠMenschen rechten
ĠMein ungen
ĠBil anz
Ġf lying
ĠA SE
Ġal ike
Ġmy th
Ġapplic ant
ĠVerl Ã¤ngerung
ĠGemÃ¼ se
K e
Ġnot ified
Ġaus fÃ¼hren
trag s
ĠSÃ¼d afrika
Ġschle chter
Ġmand atory
ĠSh ang
Ġgener ous
Ġjud gment
ĠKlimawand els
ĠSan ter
ĠFest stellung
Ġaufge fÃ¼hrt
bl att
Ġchemical s
Ġinterv ene
Q U
ain er
Ġpre de
OR T
Ġsag ten
E bene
le ucht
Ã¤ llig
ug nis
pro bleme
Ġapp arently
Ġform ation
Ġdown town
Ġemer ged
Ġbureauc racy
R aum
ĠAn wesenheit
Ð¾ ÑĢ
plan ung
ĠWÃ¤l der
Ġk Ã¼nst
ne iden
Ġair line
Ġfavor ite
Ġreligi Ã¶sen
ĠBe urteilung
ĠfÃ¼ llen
an ien
Ġz ero
ĠP oint
Ġges ichert
Ġbesch lieÃŁen
Ġclos ing
Ġheraus ra
ĠauslÃ¤nd ische
ĠL E
ĠNord ic
ĠAdri atic
ig s
ĠK ost
Ġpat ents
ĠwÃ¼n sch
ĠErzeug ung
ĠEinwander er
K om
ĠS or
ĠD ER
Ġen rich
Ġacc um
isten cy
Ġspec ify
Ġret ten
Ġkomplex e
p la
Ġe gg
iz ar
ĠBe ij
t est
Ġge ograf
men Ã¼
miss ions
ĠKern kraft
Ġcoordin ate
Ġchurch es
Ġwithdraw al
ĠBelast ung
Ġnot ably
ub lish
Re zeption
ĠRuss lands
kon zept
Ġgrunds Ã¤tz
Ġcon ventions
Ġgel assen
Ġcreat ure
ĠZus tell
Ġconsist ently
fÃ¤ ll
sch icht
ĠGro ÃŁen
Ġindic ates
zub ringen
ĠSlow en
sekret Ã¤r
st ern
ĠSchutz es
Ġheav ily
Ġsem i
Ġunanim ously
ĠBetr ug
N etz
k orea
Ġd ating
Ġaus z
Ġevalu ate
Ġunbe k
Ġgeplan ten
N ie
ic ers
ab ile
uff s
ĠSpekt rum
m ont
ĠK Ã¤
ĠH yp
kom peten
Ġbeschleun igen
Ġtoile t
Ã ¦
est het
ĠÃ¼ber geben
Ġch ron
ack en
Ġmaxim ale
Ġeigent lichen
Ġvereinbar ten
T est
l t
Ġadvert is
B ER
d est
ĠE sp
Ġ( âĢŀ
ĠTechnolog ies
uell er
ĠR ural
sp iele
fahr ten
ĠKont in
Ġcontrib uting
ĠLang uage
u gend
sch we
ĠAn trÃ¤ge
Ġwhere ver
En d
ĠKÃ¼ chen
Ġqual ifications
Ġcompeten ces
gen eration
ĠIn tel
Ã¼n der
ĠProdu ktivitÃ¤t
part y
mel den
Ġelder ly
ing ual
ĠF R
ĠR ic
ĠAn aly
Ġdis plays
ĠBet roffen
ĠErwÃ¤ gung
ĠC athedral
anz ar
fahr ts
ĠErn st
ĠErgÃ¤n zung
Ġspekt akul
Ġne hme
Ġtechn ischer
tain ment
Ġca ught
lad ung
Ġengl ischen
ĠDiv ision
ĠKapaz itÃ¤t
W E
ĠB ow
irt ual
Ġbed e
EC T
Wer den
sprÃ¼ chen
Ġdrink ing
ĠZ imbabwe
ĠCh a
hol fen
produ kt
ĠOste uropa
ar ious
Ġeigen stÃ¤nd
Ġref und
ĠWill iam
M E
Ġb at
Ġweiter entwick
Ġtyp ically
Ġrat io
Ġhorizont al
Ġre ibungs
az in
Ġprec ision
ĠÃ¼berw acht
Ġsil ver
reisen de
S a
z ert
in ischen
ĠSt ufe
Ġpla cing
ĠSup erm
ĠIst anbul
vertre ter
E uro
k Ã¶rper
el ter
ĠF igur
ok ol
oun der
Ġviel seit
T EN
y ssen
Ġle ather
ĠLa den
Ġcop ies
Ġwachs ende
ĠD afÃ¼r
ĠD ampf
tr itts
Ġsystem atic
bre ite
ĠGast freund
ĠM ahl
zu arbeiten
Ġlie genden
ĠWert pap
Ġsent ence
Ġausreich ende
Ġdoll ars
A K
Ġ Ã¤ndert
ĠJ ud
Dies en
ĠKon vention
Ġconver ted
ĠHaup tz
Ġt onnes
Ġco oking
tegr ation
ĠAut oren
ĠSocial ists
ĠFranzÃ¶s isch
L aut
Ġp asst
ĠS ri
Ġr ating
ina he
ĠBerat ungen
Ġehr lich
Ġgewinn t
o ge
un ta
Ġis n
Ġall ocation
Ġke en
Ġanswer ed
ic its
ĠK atal
Ġge leitet
Ġde grees
Ġdirect ions
Ġviol ent
ĠBeij ing
D anach
f i
ĠVer ts
ĠMa jor
Ġausge de
k ov
le bens
Ġv irus
Ġbe inahe
Ġz iel
am per
Ġchar ter
ĠEnergie quellen
Ġarg ue
Ġprem ises
ĠJ ordan
ĠOr der
Ġgel ingen
mark et
ĠRefer endum
H R
Ġb Ã¼rokrat
Ġre geln
Ġintell igence
ĠPalÃ¤stinens er
sch land
ĠIn haber
ĠÃ¼ber legen
ĠStr asse
Ġfinan ced
ĠSa udi
Ġvict im
ĠUp dates
roh ungen
A gain
Ġer hol
od ox
me ll
Ġsonst igen
Ġvorbe halten
ĠSteuerzahl er
Ġj oy
ĠAb schluÃŁ
Ġpl atz
Ġange legt
ĠGeb Ã¼hr
Ġeing ereich
Ġgelegen en
ĠVerletz ungen
Ġein nehmen
et schen
Ġdemokrat isch
Ġexperien cing
o fern
Ġmeas uring
T ur
Ġc ir
Ġunter wegs
Ġinter med
Ġarch ive
Ãº n
ĠFerienwohn ungen
b rechen
Ġs essions
ĠL uk
Ġtim ely
Ġre ven
ĠD ort
Ġver zeichnen
ĠPan oram
u ary
ver ter
Ġab sch
enn bar
rat t
ĠVerb ind
ĠAss ist
ĠSol utions
Ġmunicip al
ĠKonjunkt ur
ĠScot land
ĠAn reize
hl er
Ġb id
Ġder jenigen
ant as
Der zeit
Ġreturn s
Ġcred ible
str Ã¶
voll es
Ġiniti ated
Ġsil ence
Ġverwirk lichen
H el
M P
un n
ĠK lin
ĠLe id
onen te
Ġeinger Ã¤umt
ĠVis um
Ġpursu ant
Ġp m
ĠS amsung
Ġpro curement
Ġteil zunehmen
ĠBerat ungs
Ġkomfort abel
Ġinten se
Ġimpos ing
W ichtig
k Ã¼nfte
fahr zeuge
fol genden
Ġrest aur
Ġsum m
Ġaccommod ate
Ġtrop ical
i ÃŁe
ĠK Ã¶r
Ġim bal
ĠPresident s
Ġvis itor
hol z
ĠRahmen bedingungen
red ite
Ġdecl ar
Ġgrat is
ĠHeimat land
ĠYugoslav ia
ĠMarok ko
Ġgar age
ĠX V
Ġkeep s
Ġlight ing
Ġhead quarters
ĠspÃ¤t estens
Â ·
ĠE lev
icher ungen
Ġconf ident
ĠG Ã¶
ant a
ont o
ĠLe uten
ĠCon c
Ġslow ly
ĠFÃ¶der ation
al and
Ġha us
ok us
zu gehen
Ġeigen em
Ġintegr al
ĠM is
ier bar
Ġbed ienen
Ġbef re
ĠEnerg ies
Ġinn eren
R ad
la u
ĠGeschÃ¤ ften
ĠFrÃ¼hstÃ¼ck s
Ġedit or
Ġins ofern
Ġberuf lichen
kur se
ie v
ĠM ary
Ġsch uld
Ã¼l le
Ġmedizin ischen
ĠInkraft treten
Ġst Ã¤ndige
ĠZ in
Ġbeg Ã¼nst
Ġagre es
Ġass urance
ĠGrund sÃ¤tzen
Ġdef icits
Ġcontract ual
lager ung
ĠG ate
Ġsh ot
Ã¼tz ten
Ġpol nischen
ĠKo operations
Ġver grÃ¶ÃŁ
ht tp
ĠDe leg
schl iess
ĠBeschwer den
ĠDarf ur
M C
ĠJ ane
ĠEr be
fen ster
Ġmy ster
Ġ9 8
ĠSup erv
ĠKonstru ktion
ĠDistr ict
ĠG il
Ã¼r ft
Ġhuman ity
Ġzeit genÃ¶ss
ĠVerteidigung spolitik
c end
h Ã¤n
ed ge
ĠPr Ã¤sentation
Ġcreat ivity
ĠMuse ums
7 9
on ts
ie tet
Ġre cession
ber at
ab kommens
Ġdis m
Ġstatt dessen
Ġmag ic
P ass
s ituation
es k
Ġm ale
ge ld
Ġz ones
ĠC lean
ĠGe fÃ¼
ĠTarif a
M ake
Ġo verse
ĠInter pret
ĠKonzentr ation
c ut
Ġo s
gleich en
Ġschwier iger
ĠÃ¤hn lichen
Weiter hin
h att
h Ã¤ndler
m ax
Ġvor gehen
Ġsc ore
st het
Ġhe ated
Ġhand led
Ne ue
Ġpotential ly
ĠB und
ĠD IN
ht aking
rÃ¤ gt
Ġwarm ly
ĠVis ual
ĠVermitt lung
ic ular
ĠP ent
la ÃŁ
Ġch amber
ĠAb teilung
Ġapprec iated
ĠDat ens
f Ã¶rderung
Ñ İ
Ġpos ted
Ġfind ings
ĠjÃ¤hr lichen
Ġworksh ops
t licher
Ġst ays
Ġindustr iellen
Ġpurs ued
Ġgeist igen
6 3
ĠF ried
ĠG T
de fin
ĠAr zt
ced es
Ġpers pectives
wirtschaft ung
ĠEinsch Ã¤tzung
Ġfit ted
Ġbiod iversity
ĠG Ã¤rten
ĠC AN
ĠAn kÃ¼nd
Ġterm inal
Ġsy mpt
Ġdisp utes
Bus iness
Ġallm Ã¤h
d re
Ġj ung
Ġarbitr ary
Germ any
aut y
St at
ĠVertre tung
ĠPic ard
Ġinakzept abel
an alyse
Ġf ein
Ġrespect ively
bet rag
ĠSÃ¼d tirol
ĠCond itions
l us
ĠG allery
Ġent ries
Ð¾Ð »
Ġbelieb igen
ch ar
gr Ã¼nden
Ġober en
ĠHoll and
ĠS ong
ĠC irc
ĠGro wth
Ġeuro zone
Ġlok aler
Ġhy dro
ĠEinsch rÃ¤nkungen
ĠFlÃ¤ chen
Ġgesch ickt
Ġtele fon
Ġpassen de
dom in
Ġerf asst
ĠK im
ĠC L
ĠNe ue
ĠPat r
Ġrespekt iert
ĠAnhÃ¶r ung
sch es
Ġst ance
ĠBr ut
Ġruh iger
ĠgefÃ¤hr den
Ġoccup ied
ĠâĢ ļ
ĠBeschÃ¤ft igten
Ġwieder her
ĠIsrael is
l Ã¶sen
ĠC reat
all eng
Ġtra il
Ġlow est
Ġlas er
Ġtal ent
Ġm ak
Ġex haust
ĠDe f
Ġfol glich
recht lichen
Ġsuggest ion
Ġexpla ins
ĠFrem d
ĠWien er
Ġparad ise
Ġmarg inal
Ġbeeinfl usst
ab eth
ad d
og n
Ġcr ash
ĠTerm inal
ĠTab elle
ĠH P
Ġir regular
ĠSy mb
Ġexpos ure
Ġp apers
ol s
Ġlie ben
ĠArbeits losen
schl Ã¼sse
Ġpract ically
ĠRÃ¼ck en
ĠKonsult ation
ĠExt rem
ĠLic ense
Ġs tet
Ġkosten frei
hers teller
Ġpo et
ch i
Ġbes tens
Ġtreat ies
s ession
Ġconv ince
ĠC e
be lla
Ġass ured
itÃ¤ts prinzip
st rom
ĠEr Ã¶ffnung
ĠÃ¶ff net
ĠBl umen
ĠM eld
ĠAn bindung
ahr scheinlich
az ione
Ġspecific ations
Ġbew iesen
laus el
ĠRegional politik
Ġessen ce
ĠLith uania
G P
ĠS org
ten ds
Ġsol ved
ĠRaum s
Ġunterb reiten
Ġvolle m
Ġs q
ĠGew inne
Ġunemp loyed
Ġkomp at
Will kommen
b ahnen
ĠH at
Ġspecial ities
Ġtemper atures
Ġt ight
Ġw ake
ĠL ad
Ġfact o
Ġdet rim
Ġplatform s
Ġkontinuier lich
ĠSpann ungen
Ġ â
chnolog ien
Ġinde pend
ĠRass ismus
s ame
Ġf ot
ĠA re
Ġinvest iert
ĠTreib haus
Ġscr utin
m ap
y t
ot yp
Ġterror ists
Ġdescrib es
Ġbra in
ĠGew inner
Ġbl ame
Ġernst hafte
Other wise
D ollar
ion ed
ĠC ad
ib iot
ĠEin blick
re ben
Ġauf gerufen
Ġsch enken
enn a
Un til
ĠProdu zenten
Ġperform ances
Ġwind s
cript ions
ĠRub rik
ĠerÃ¶r tert
on ed
an es
ak ings
ahr ung
ges tellte
ĠGeb ir
Ġausgew Ã¤hlten
ĠK it
ĠO cean
Ġher kÃ¶mm
Ġvo ters
ĠUnivers al
ĠJu an
ĠD ich
Ġer w
ĠWachstum sp
Ġjem als
Ġerneuer baren
ĠMehrwerts teuer
Ġbedau ere
Ġ3 60
Ġbeizut ragen
ĠÃ¤rm sten
d os
o que
w els
y en
Î µ
ter y
ĠC orn
ĠPr Ã¤m
Ġalle ine
ĠBar on
ger Ã¤ten
ĠUnter lagen
gang s
Ġcover age
ĠDemoc ratic
est y
Ġ197 9
Ġerweiter ten
ĠSwimming pool
Ġein drucks
Ġre iz
gesch oss
Ġlov ers
ĠMade ira
Ġt ips
Ġk re
ĠR ang
spro du
Ġfort gesetzt
ver fahrens
Ġab schlieÃŁend
Ġtechnolog ische
et ition
and om
ue ber
ĠMar x
Ġersch ienen
Ġbreat htaking
Ġworksh op
ĠRez ession
o hne
el en
ĠK G
uss en
str ateg
Ġdisapp ointed
ĠplÃ¶tz lich
al ed
al itÃ¤ten
ĠK inn
ĠW W
ast ing
lin ess
Ġgest iegen
Ġche ese
z iger
Ġt ur
ĠR ind
ĠH alle
Ġdes irable
Ġweit aus
ĠVerhalten s
ĠAn hang
ĠFor ce
ĠGer ichten
AC K
Ġv iable
Ġge heim
Ġse es
Ġges tellten
igr ant
mus ik
ĠSloven ia
ĠÃ¼ber mittelt
gew alt
ĠSant iago
Ġpromin ent
te am
ver z
ik alen
Ġrece ives
telle kt
Ġparad ox
F P
un er
Ġk ids
ate ur
ĠPr est
Ġkrit ischen
CO D
ÐĵÑ ĺ
z el
ĠM ix
ĠK rÃ¤ften
ĠVers uche
Ġneg ativ
Ġdefin ing
Ġenlarge d
ĠSchne e
ĠVers orgungs
ĠSh opping
nehm ung
Ġangene hme
Ġcontrovers ial
an schluss
Ġex terne
ov ers
Ġtrans mit
ĠBud dh
Ġzwe ier
Ġcompar able
kapaz itÃ¤t
w ich
ĠL en
ad as
ĠAss ozi
Ġteach er
ĠArgent ina
C R
a ure
es ion
ach es
row ing
ĠDire ktor
Ġtalk ed
ĠCo ast
Ġthorough ly
or able
ĠL ind
ĠDa zu
Ġharm ony
Ġent worfen
Ã¤r enz
ett a
Ġcho osing
pporte ur
Ġchamb res
g ast
Ġin begriffen
Ġbe wirken
Ġpre liminary
Ġdec ent
Ġsett led
m ma
Ġf lav
ak is
olog ischer
ĠNe ph
Ġgraph ic
h armon
Ġwer fen
ĠBer ater
For m
Am end
Ð¾Ð ´
ĠSyr ia
V ER
ust ic
se h
Ġmod ular
Ġcrop s
M ain
Ġv ot
ĠV I
Ġscen ery
ĠMerk male
f ungen
Å Ľ
Ġl in
ĠK ne
ul us
ĠVer markt
Ã¡ r
Ġ4 50
Ġswe et
ar g
Ã¤l tere
ĠPrÃ¤ vention
Ġerwor ben
Ġavo ided
Ġre ct
ff icient
acht ungen
Ġtrans formation
Ġkosten gÃ¼nst
h uman
Ġt ank
Ġf ern
ĠSch lieÃŁ
ĠAussch Ã¼sse
Ġautomat ische
AS T
Ġfair en
Ġemphas ised
F il
b aum
p ost
Ġein ander
ers atz
ĠGet re
Ġexpand ing
Ġeingesch rÃ¤nkt
ĠR EA
ĠV it
Ġst roll
Ġcomm end
pl Ã¤ne
Ġview ed
ĠUN D
hib ition
Ġfa ire
Ġconsequ ently
Ġbi ological
Ã¤cht igen
ĠVerl uste
Ġincred ible
f acht
Ġf rank
Ġdevelop s
Ġmeant ime
ĠerwÃ¤hn te
ĠDe cl
ĠPal acio
ĠVergn Ã¼gen
Ġb are
ĠS H
ĠTun es
N utzen
Ġm ild
ĠG alerie
Ġvon einander
Ġgeb ildet
clus ive
Ġsw ift
ĠElekt ronik
Ġexch anges
Ġm aps
ig ter
ĠIn halts
Ġfund ed
ĠBeob achter
ĠgÃ¼lt ig
M er
h Ã¤usern
er re
Ġer adic
Ġacqu ire
ĠÃĦuÃŁer ungen
ĠElev ator
ic ious
ĠT uesday
ĠW alk
Ġphotograph y
ĠendgÃ¼lt ig
Ġf Ã¤hrt
as ste
Ġr ivers
ĠUn fall
Ġhe ft
Al tern
Ġform ula
Ġsens it
Ġt urb
Ġge handelt
Ġad mitted
fass ungs
Ġruss ische
ĠVo gel
Ġperform ing
Ġundert akings
Ġce ase
Ġmel den
ĠWart ung
Ġscre ens
Ġdist urb
Ġdev ast
krit erien
ĠRuÃŁ land
Ġi z
ĠVor feld
ĠMar g
ĠArbeits gruppe
Ġhair dr
ĠAn dr
atur en
verb and
ĠOrd ner
ĠVer t
ru he
Ġfin est
Ġmin eral
Ġbef ind
Ġverw alten
Ġnon etheless
ĠBedien ung
ber ichte
Ġgel ernt
Ġsubstantial ly
Ġsin cer
Ġisrael ischen
Ġg od
Ġl ohn
ill en
ĠBes itzer
Ġze igte
ĠTour en
Ġunterb reitet
Ġtrib ute
Richt linie
ĠS ien
me idung
Ġget Ã¶tet
ument en
Ġworth y
Ġbir ds
fu hren
ergeb nisse
Ġein be
ĠUn ser
Ġaus gesch
ĠBÃ¼ ros
I r
Ġnot ion
ag ger
Ġag ent
Ġper ipher
Re al
Ġbegr Ã¼ndet
ĠKons um
Ġunderm ine
ĠShang hai
is y
Ġbe arbeitet
est ag
ĠSch rif
Ġnach denken
ĠStud ios
Ġemer ge
Ġpartnership s
ĠWeiÃŁ buch
Ġange wiesen
Ġpaint ings
H our
un ken
Ġfor ese
if i
con i
ĠLe hren
ĠBew Ã¤ltigung
ĠZustÃ¤nd igkeiten
ĠAnton io
t urn
Ġp ine
ĠMot to
ĠEing abe
Ġcelebr ate
al teten
ĠT os
ĠWe llen
Ġsign ature
Ġret ire
ĠFunktion alitÃ¤t
unk el
Ġaktual isieren
d f
Â Ĵ
Ġfe as
Ġgesch afft
ĠA ust
ĠT orre
Ġinter institutional
ĠBes teuerung
Ġsens or
Ġpot ent
'' ,
ĠerÃ¶r tern
ĠHekt ar
ĠF ace
ĠG ulf
ĠSt ich
gesch ritten
vent h
ĠFert igung
ĠC ockt
Ġinc orrect
Ġped estr
f eit
ĠE ver
ĠM ol
ĠH ein
ĠL ern
ĠL AN
ĠHerr schaft
ĠAl bert
greif ende
Ġschritt weise
M B
ch tern
Ġb ag
Ġbe auf
pro jekte
Ġohne hin
Ð½ Ñĭ
spe cific
r ichtet
Ġun pre
ĠM ost
ĠB R
Ġexpress ing
ĠKonferenz en
Ġcontroll ing
ĠIb iza
emiss ionen
anzar ote
ĠF inger
best Ã¤nde
Ġdraft ing
ĠSchwimm bad
M ails
Ġl ob
ĠMa zed
ĠIs ol
ĠGegen wart
ĠGel Ã¤nde
person al
Ġkonstru ktive
Ġdeclar ations
f ix
Ġh ors
ĠS erien
ĠUnter zeichnung
Ġdisc rimin
Ġzwe ck
Ã¶ÃŁ t
Ġgrundlegen der
!! !
ĠZur Ã¼ck
Ġconf usion
Ġbelong ing
stat us
Ġdetaill ierte
ĠerlÃ¤ut ern
is ol
Ġj Ã¼d
ĠVor gaben
wo hnt
ilt on
ĠÐ ¼
ĠIran ian
Ġcentr ally
Ġlov ed
it udes
ĠM auer
Ġge ein
itz ung
ĠKon zepte
ĠAir es
Ġexec uted
alleng ing
s q
Ġin cur
ic op
den k
ĠL uz
Ġangeb lich
Ġlic ence
Ġniedr iger
B Ã¼rger
b is
Ġun best
ĠEin st
aut omat
anc ies
Ġrecht fertigen
L es
S ign
ĠR Ã¶
ĠÂ °
ĠSitz ungen
Ġsport ing
Ġcry stal
Men schen
ie ter
Ġun stable
ic as
op ing
Ne hmen
Ġdemokrat ischer
ĠvernÃ¼nft ig
Ġp act
Ġp iano
be an
Ġstat istical
ane ben
Ġemiss ion
Ġeinzu gehen
Ġprohib ited
Ġk Ã¶st
Ġgu itar
ĠComm er
ĠBar n
Ġeingeb unden
Ġab gest
Ġerinn ere
Ġtell s
ĠIraq i
ĠEigent Ã¼mer
ĠMedik amente
ĠBetroffen en
k in
Ġvor hin
Ġass ert
ĠJun ior
ĠEigen schaft
Ġein halten
Ġinter action
Un ivers
Ġdam aged
ĠFre il
Ġkommer ziellen
Serv ices
ĠÃ¶rt lichen
H y
ge fÃ¼hrt
Ġver deut
ste chn
ĠBe werber
Ã¤l sch
Ġsoc io
Ġregul ate
ĠFlug gesellschaften
R em
ĠD own
Ġra ises
ĠCap ital
ĠMÃ¼ ller
ĠKreat ivitÃ¤t
Ġkonzip iert
f le
ein heit
ĠN ight
ĠÃľber leben
Ġgelegen e
ĠMittelmeer raum
ĠConsult ing
f ried
Ġb ien
ick e
Ġsp ots
Ġfr ucht
Ġgute m
Ġkrit isiert
Ġbe gangen
if er
AL L
Ġbeit rÃ¤gt
schw ung
Ġautom ation
f ur
Ġw omit
Ġes te
Ġhin der
Ġbeg leiten
ĠArbeits bedingungen
Ġerfolg te
ĠHoch zeit
Ġwatch ing
ĠAp ache
Ġther apeut
ĠCommun ist
ĠWeiterbild ung
b em
ir ds
Ġfinan ces
Ġneg l
ĠAtlant ik
Ġgewiss er
osev ic
S ystems
m esse
de z
ĠH i
Ġcom press
ĠPal Ã¤st
Ġisol ated
k ord
st Ã¤nden
ĠSch eitern
erm ark
ĠHÃ¶ hen
R om
Ġer langen
oc ial
Ġreal isieren
Ġcapt ure
Ġacknowled ged
ĠC ro
ĠC ert
ĠN OT
ungs maÃŁnahmen
urch t
ĠRo ute
reg ungen
bie tet
Ġbilater alen
ĠTrain ings
ĠV eg
Ob viously
ĠEing rif
ĠgrenzÃ¼berschreit ende
ĠB atter
Ġcr imin
ins ula
ĠAttra ktionen
. '
es c
ĠP az
ess ing
ĠCol omb
Ġ Ã¤ltere
Ġsh ame
ĠFe ed
ĠEnergie politik
Ġhop ed
hen de
ĠCh ir
arbeit eten
Ġ% ,
ĠOrgan ization
Ġfear s
h ost
m ag
Ġch airs
ĠMar ine
lÃ¤ ub
Ġfo ught
Ġexklus iven
Ġbatter y
G est
l s
Th ree
ĠParliament ary
Ġthem es
Ġequ ip
Ġarbeit s
Ġregistr iert
Ġconvenient ly
m y
ass age
Ġsp an
ĠQ uell
Ġeinger ichtete
\ "
Ġsch reibt
ĠCh ines
ĠAktiv itÃ¤t
ĠvernÃ¼nft ige
Ġgebrauch t
P reis
y ou
ĠF uj
ĠC in
ĠL ido
end ungen
ĠPr int
Ġmodern es
date i
Ġcos met
Ġfulfil led
Ġpropr iet
ter a
Ġaus gebaut
Ġbed auern
com ings
Ġje opard
Ne ws
Ġthough ts
Ġign ored
L ocation
T F
Ġa ux
an on
sk y
ĠJack son
Ġklim atis
_ _
Ġz ielt
Ġse ch
Ġab und
ĠPar ks
Ġengine ers
Ġmith ilfe
n t
ag l
Ġless on
ĠOs lo
Ġbureauc ratic
k rÃ¤ften
Ġf ate
ĠL ong
Ġwir tschafts
ck et
Ã¤t igen
ĠEr ne
ĠMe tern
ĠMinister rat
ĠnÃ¶t igen
D ec
on sten
ober flÃ¤che
ĠPlen ars
Ġtort ure
P ublic
Ġs uff
ĠM ug
Ġkon kurr
Ġinteress ieren
ĠGeneral dire
Ġbeur teilen
D istribution
G lobal
Ġs hr
at ile
Ġre press
for mer
auf gaben
Ġsc andal
Ġinqu iry
verschm utzung
Ġw ages
ĠR og
ab end
Ġpr ere
ph p
Ġaut o
ĠVerantwort lichen
Ġrat ifiziert
ĠReal isierung
athed rale
es tet
Ã¼ ten
ut ze
Ġne ol
ĠJ av
Ġalle ged
Ġregrett able
ĠBe haupt
ĠMin eral
Ġange fangen
Ġmult imedia
ĠGu ant
ĠgewÃ¼n scht
a id
on z
Ġsch ol
Ġunver z
cont rol
ĠJac ques
, ...
Ġauf er
Ġfl owers
c m
un ately
th umb
ever kehr
Ġpublic ly
Ġdipl om
els on
Ġmeas ured
Ð½ Ð¾
Ġersta un
ĠVorred ner
C enter
ĠInnov ations
ĠBe zahlung
fl Ã¼ss
Ġshort comings
Ġcirc uit
Ġeinzu halten
Ġhaz ard
h ops
us a
Ã¼r fen
oll ah
Ġgr Ã¼n
Ġtyp ische
immers ervice
ĠGipfelt reffen
Ġauf richt
los er
Ġdownload ing
th al
Ġvol unte
freund lich
j amin
Ġst Ã¼tzen
geb Ã¼hr
als o
An geb
ĠSubsidiar itÃ¤t
c am
Ġs alt
me id
Ġ3 000
res ted
ron en
Ġbro ther
Ġtechnolog ischen
ibr aries
ĠAuftrag geber
C ap
b els
g ert
Ġco des
ste p
Ġall oc
ss icherheit
ĠGeb ur
ĠCr ist
ĠSchiff s
Ġcondemn ed
Ġbran ches
Ġverbesser te
Ġre jection
Ġ- >
av en
An frage
Ġsubsid iary
Ġmi xt
he ar
ĠL uggage
ĠSte uers
schutz es
Ġmonitor ed
ĠKomprom iÃŁ
ĠtÃ¤t igen
Ġerreich te
eto oth
Ġenviron ments
ĠL aur
Ġout set
Ġgu ilt
ĠPh oto
Ġshe ets
ĠH istory
Ġch allenging
ĠÃľber arbeitung
Ġbro ws
ĠInstrument en
ĠKoh le
Ġt esten
ĠL aut
ran e
erv ers
Ġherr liche
spar ungen
ĠHann over
Ġconj unction
ĠVenezu ela
D ienst
m esser
Ġe cht
le ister
Ġun fortun
ĠBe h
ĠLe hre
Ġreal en
CH O
OR E
ĠenttÃ¤us cht
F est
b ilder
ĠE D
Ġfood s
lei h
Ġschle chten
ĠTschech ischen
ĠerlÃ¤ut ert
a ppe
or al
ad ium
ĠRe lease
Ġgu idance
Ġmir ror
iste te
ĠZuf riedenheit
Ġ **
ĠG lo
sch ra
lin der
Ġfound ing
Ġerziel ten
ĠKapaz itÃ¤ten
ĠOptim ierung
Ġcomp are
ob s
Ġans onsten
ĠPe ace
Ġcomplex ity
ĠO t
be finden
Ġgr Ã¶s
Ġcharacter ized
ĠSemin ar
ĠBeweg ungen
m aster
t ax
w ass
Ã¼ cher
ĠS ho
ĠG n
ph an
ath on
Ġnam ens
Ġfehl er
ĠbekrÃ¤ft igt
av al
Ġges onder
Ġoff icer
Ġher o
Ġincl usive
ek ing
ĠSpezial isten
Ġuner lÃ¤sslich
ĠSchaden s
Ġnorm ale
Ġmitge teilt
us ten
ĠK ult
aus enden
Ġunter halten
Ġgovern ed
ĠChr isten
condition ed
ĠTechn iken
Amer ican
ĠP est
Ġdem onst
Ġbesch reiben
ĠDis ziplin
Ġcloth es
ĠArm y
ĠmÃ¼nd lichen
ĠLegisl ativ
ĠLeban on
Ġth read
Ġin ex
Ġges ammelt
Ġlack ing
Ð¾Ð ³
Ġtransl ations
Ġdepart ments
b ast
as tet
haf en
Ġaccep ts
ĠK od
ĠC all
Ġreal ized
Ġbevor stehenden
ĠStad ium
ĠArgent in
ĠGepÃ¤ck raum
ĠFA Q
A fr
M ult
ĠV i
ier er
ott i
Ġreturn ing
b ot
Ġh ielt
om aten
ĠB it
Ġdem ographic
lag ert
Ġteil genommen
s uite
ĠB aus
ĠD ist
ĠBesuch ern
ĠgrÃ¶ÃŁer er
ĠvielfÃ¤lt igen
c uss
Ġf inger
ĠA er
ĠW ales
Ġoff icers
ĠSu pp
Ġsty les
ĠSD L
Ġautonom y
b eln
ĠAn na
ĠAb u
ĠCh at
spro zesse
Ġwarm ing
Ġfal schen
dis ziplin
Ġdistin ct
Ġincent ive
Ġkurzfrist ig
ĠZ ubehÃ¶r
th ly
Ġent scheidet
az on
ĠLebens mitteln
ĠVerk Ã¤ufer
Ġbrut al
Z e
j er
el ing
Ġab zusch
Ġ9 6
Ã¼t ter
ĠKan al
ĠEas y
Ġincor porate
ĠUnterdrÃ¼ck ung
N ov
us er
ĠU V
Ġex cellence
ĠAuf forderung
Ġ198 4
Ġkrit isch
Ġzunehmen de
wechs lungs
in ental
ĠK am
ĠAb stand
Ġweiter zu
Ġverw altet
Ġcharacter ised
Ġemb ry
IV E
M icro
le hnen
Ġk ulin
ĠN ull
Ġaus reichen
Ġpar ameter
Ġequ ity
Ġhon or
ĠTemp o
ĠMaced onia
be y
fÃ¼ g
Ġcheck ing
ĠOber flÃ¤chen
Ġabandon ed
ĠVict oria
b ungen
in formation
ĠN ie
ner gy
Ġ5 8
Ġinv itation
Ġstruct ured
Ġfinanz iell
ĠNor way
Ġgenet ic
kir che
Similar ly
Ġan zeigen
Ġp ione
il ia
and elt
ĠIn fo
In formationen
iger weise
gesch neider
ĠProtokoll s
ĠStabilitÃ¤ts pakt
ĠErwachsen en
N CC
Ġsch licht
Ġro w
alle t
Ġsepar ately
ÃĦ nder
Ġveget ables
al tete
ĠS ab
st unden
og an
ĠZusammen setzung
ĠKinn ock
Ġunfortun ate
Ġverw Ã¶hnen
ĠBudget ary
ĠAktual isierung
ĠSark ozy
Ġb a
Ġder ived
ra ge
ĠV il
war ten
Ġir ische
Ġlo ud
Sh op
f assen
Ġo cean
Ġaus wÃ¤rtige
Ġmon at
ĠMon ats
Ġsurv ive
L Ã¤ndern
ĠB uffet
ĠR ande
Ġj ahre
ĠGr iff
ĠTr ink
ĠStud ium
ÑĤ Ð°
ĠvÃ¶ ll
Ġgran ts
Ġcelebr ated
Ġdelic ate
Gem eins
ĠHit ler
M I
o ir
Ġwor ding
Ġkeines falls
h st
st ritten
ĠVer trÃ¤gen
fr Ã¼
Sch l
Ġaccept ing
Ġinn oc
Ġexcept ions
ĠGerichtshof s
ĠDrit ter
Ġdefect s
Ġinfringe ment
ĠGesell schafts
E st
in sel
Ġden k
Ġ5 7
ĠHe ating
stÃ¤nd igkeit
Ġ/ /
ube ziehen
Ġsearch ing
ĠsÃ¼d lich
Ġtrademark s
P O
ĠS earch
Ġv end
Ġre verse
id ges
Ġst anden
Ġwe ib
ĠTh yssen
Ġbre ites
Ġgel Ã¶
Ġgel tend
Every thing
ĠProv ence
Ġsurv ival
K eine
er ium
Ġan x
Ġun like
Ġh erstellen
In ner
Ġhier mit
ĠGesetz geb
Ġgegenseit ige
Ġtransatlant ic
F F
ĠS eine
ĠG Ã¼lt
ver tra
pe z
Ġbef ried
Ġpen alties
Ã ¹
ra els
Ġde pos
ĠAl pha
lim ate
ĠPlan et
Ġsimpl ify
h ome
if ully
Ġauf rechter
Ġvor teil
Ġfe els
ĠSk rip
date ien
Ġregistr ieren
ĠEinsch rÃ¤nkung
ĠSchatten ber
C NS
d ays
Ġd ust
un i
Ġl ights
Ġden ied
ĠAn griffe
min der
ĠIntern etzugang
par thotel
Ġdisk rimin
ĠWh irlpool
Ġtail ored
Ġirgendwel che
Ġo v
le z
ac ing
ĠzurÃ¼ck kehren
ĠNachbar schafts
Ġdiscip line
Ġsemin ars
ĠGewerk schaften
P oint
Ġco inc
ite ktur
Ġverb re
Ġac id
Ġopt ical
ĠÂ ·
ĠFol ter
Ġverein fachen
Ġta ught
Ġstren ge
Ã¼ tern
Ġindic ation
Ġfreund lichen
Ġundert aking
Ġenthus i
ĠMedik ament
Ġunzureich end
ĠDecl aration
H A
ter r
Ġk enn
Ġk auf
Ġer schw
Ġex tern
dem okraten
Ġbeg ab
ĠHaus halte
acion es
ĠZert ifik
b org
Ġt at
Ġd iox
est one
Ġge ar
Ġsch rieb
ĠHotels afe
frei heiten
Ġtoler ance
Ġder artigen
op her
ĠZ er
ĠRe aktionen
ĠSp irit
Ġzw anzig
Ġsol ide
ĠÂ £
ĠDemokrat isierung
ĠJu den
will igen
stÃ¤t te
ĠUrspr ung
B ild
mer t
habilit ation
Ġt iss
Ġz Ã¼g
Ġso fa
iz enzen
Ġup coming
ĠEnts tehung
ĠPrÃ¤ z
ĠschlieÃŁ e
os h
Ġfr isch
ĠPalest ine
m ond
Ġb ow
ĠF ly
Ġsh ut
lie derung
Ġte lling
ĠTy rol
G esch
S ep
ĠT able
ĠD S
Ġglobal er
Ġshare holders
US A
Ġanalys ieren
ĠÃ¤uÃŁer ster
et us
ĠT ob
Ġexpl oring
Ġ196 7
Ġbegeister t
ĠFre edom
Ġmod es
Mo dern
ĠMalays ia
Ġf ut
ĠK ling
ĠH ere
Ġsp Ã¼ren
lieÃŁ t
Ġshar p
Ġrac ism
la im
ĠAn regungen
ke eping
Ġzw ing
Ġbed enken
Ġjeweil ige
ĠRel ations
le et
ĠAuf nahmen
Ġstr iking
Ġredu ces
Ġparticip ated
Ġ197 8
ĠEinzel nen
ĠErn Ã¤hrungs
ĠSubsidiar itÃ¤tsprinzip
P olit
z ern
Ġt act
ĠMan hatt
Ġtre mend
ĠLebens qualitÃ¤t
Ġrelev anten
sper iode
Ber ichterstatter
S yn
Ġt ub
ion i
ĠK alender
ges pr
Ġgu ides
ĠVerein igung
ĠRo llen
Ð» Ð¸
Ġimmen se
B ro
ĠFor est
Ġdra fted
ĠGu inea
Ġautom ated
Ġquot a
U l
Ġt ag
it Ã¤ren
Ġan geben
iel ds
Ġreg imes
Ġide alen
Ġlog in
Ġaus gelÃ¶st
ern et
ĠUm wel
Ġmiss ions
Ð½ Ð°
Sol che
prech ung
ĠHoll y
ĠAus nahm
Ġ6 6
crib ed
Ġstra frecht
Ġlandscap es
r unde
Ġz ert
Ġbei der
Ġimpr ison
Ġf ung
ge kommen
Ġsch Ã¼tzt
In vest
ath ers
Ġbad ly
ĠNat ural
Wind ows
ĠÃ¼br ig
ĠH Ã¶r
ĠKind es
Ġdiagn ost
p ed
men gen
ĠEr nen
ign ano
Ġbro ch
Ġbew aff
bring t
Ġrecy cling
katastrop hen
Ġwal ks
D isk
re formen
il i
pr es
Ġtra ils
ĠFin ance
Ġwenig stens
Ġcirc ulation
Ġassum ed
Ġn ennt
el ve
Ġper pet
ren nen
Ġensure d
ĠMil osevic
N ichts
st reit
ĠE leg
Ġpe ak
Ġrece ipt
Ġmind s
Ñ Ī
Ġm uy
ĠD ann
ĠD rag
ian ische
ĠEx cel
Ġcontin ually
Ġkl Ã¤ren
Ġignor iert
ĠEnter tainment
Ġm as
et ime
Ġda ughter
ĠAus legung
ĠWelt wirtschaft
B ucht
l isten
il ien
if iable
ater ie
wir r
ĠBet on
Ġdef ending
Ġedit ing
Ġreiter ate
Ġbe lo
Ġeinzel ner
ĠVorsitz ender
ĠOst see
Ġendeav our
9 00
Ġst ood
oth ic
Ġredu ctions
OM E
Ġreinfor ce
m t
as sten
ĠF ile
Ġcont est
Ġdr Ã¼cken
Ġdeut scher
ĠBuen os
Ġd einen
ĠH ub
Ġdo ctors
ĠEin wohnern
Ġtra m
Ch ar
ĠJugend her
Ġder og
Ã¤n n
fl Ã¼ge
zug reifen
Ġnewsp apers
ĠTrag Ã¶die
S ysteme
on ly
Ġs etzte
Ġro les
Ġpl ane
kre dit
stra ÃŁen
ĠCar ib
Ġquant ities
Ãĸ ff
f ire
ch nen
ĠA venue
ĠF C
Ġch ocolate
ĠDe ep
Ġcons istency
Ġverschieden sten
On line
ĠGu ests
ĠWohl befinden
Ġade qu
ĠlÃ¤ng st
ein kommen
tr ess
ĠEr ic
Ġwirk ungs
ĠOlymp us
Ġgenehm igt
u ay
Ġh ide
ĠSch ott
Ġrequ iring
Ġkomple tten
C ol
Ġg ingen
ĠSt ick
Ġinter im
Ġche aper
ĠQu estion
'' '
Ġcirc le
IL L
Ġhil fs
Part ner
ĠHol y
spolit ischen
C ertain
Ġp ul
Ġh Ã¼b
ĠR af
wer be
Ġges unden
Ġend et
cent ury
ĠgefÃ¤hr lichen
werb ung
Ġw Ã¶ch
Ġp in
Ġver halten
ious ly
Â® ,
Ġeinger ichteten
RE E
Ġprefer ences
ĠClass ic
Ġnutz bar
Ġa esthet
Ġh us
ĠW M
ĠL om
Ġde ll
ĠSch re
ĠEUR O
Ġoffen kund
Gu ests
k ok
r ific
Ä ģ
Ġt ension
et ra
Ġwar tet
Ġob jekt
Ġpre jud
Ġcomb ining
Ġabge halten
el ung
Ġsp iegelt
Ġarbeit ete
ĠGespr Ã¤chen
Ġries ige
Ġdiscre tion
Ġre ar
ĠR I
Ġinternational es
Ġnav ig
d amer
as ma
Ġh ire
el i
Ġrespons es
ĠKoh Ã¤renz
wes ens
Ġinvestig ate
Ġtransform ed
Ã¤uÃŁer ung
ĠVerstÃ¤r kung
it ual
ĠR im
ĠD och
ĠAus stellungen
Ġbenef ic
ĠCol umb
bin sel
Ġd os
an teil
an bieter
ĠG umm
este in
Ġsimpl ification
ĠAlban ia
ĠRegul ierungs
Ġand ern
ail able
ĠCon ne
tt a
Ġgef Ã¤llt
Ġerneuer bare
ĠAmts zeit
ĠE cke
gar ve
Ġmeisten s
Ġunge achtet
Ġvot re
Ġver letz
ik alien
ĠBe wertungen
Ġtr ennen
Ġbas es
zus prechen
ĠGer Ã¤ten
Ã³ w
Ġcamp ing
ĠChic ago
F ar
Ġma j
Ġunder line
Ġeinz iges
Ġrespect ing
bl ings
ĠRatsvorsitz es
Ġbio technolog
Ġaggress ive
Ġepis ode
h eld
Ġb ond
ĠE hren
ĠAn reise
Im age
e ken
f ind
f ull
k Ã¼rz
Ġb eschÃ¤d
Ġcon gress
ĠGen f
ĠDienst ag
Ġhost s
ĠzuverlÃ¤ss ig
ĠEch tzeit
C re
w inkel
ĠC urr
Ġbo ards
Ġwid th
Ġbox es
ĠErk enntnisse
Ġbenach richt
ĠD B
Ġar rested
ĠSc ient
Ġdurchge fÃ¼hrten
Ġvorher igen
Ġlisten ed
k ong
icht ungs
ĠBuch ungs
Ġconsist ing
Ġisol ation
Ġdele ted
igen en
Ġsp annen
fra u
Ã¤h ern
ĠÃ¶k ologische
Ġexklus ive
Ġd ish
Ġun p
ber s
ction al
Ġprof iles
ĠHer itage
ĠIs raels
gew inn
ĠÂ ĸ
tes te
Ġengag iert
Clear ly
is i
ĠF alls
sch alter
ib len
Ġab wechslungs
iz itÃ¤t
ark ed
Ġsu cc
Ġ6 3
ER S
Ġcross ing
ĠsÃ¤m tlichen
ĠMazed onien
re chnung
Ġb anned
Ġy ellow
Ġprov in
âĢľ )
ĠLÃ¶s ungs
ĠMarkt wirtschaft
ĠTr ends
ĠSchm id
ĠMosk au
Ġs ont
at ics
ĠL Ã¤rm
ad i
ĠKon figuration
laub nis
lev ard
ĠArchite kten
Ġcalc ulated
Ġverehr ten
D ep
Ġres orts
Ã¤t ter
Ġinter akt
Ġpen al
Ġvorher ige
nerg ie
Ġenem y
ĠWeihn achts
Cho ose
B ack
Ġth in
ĠD IE
ĠL ar
ĠNe uer
Ġbo om
Se lect
A kt
Ġa th
Ġauf weisen
tr ies
ok ed
Ġend less
ĠAd am
Ġpan els
Ġersch ien
Ġvic inity
C L
Ġz a
Ġvor zusch
Ġacc used
Ġev il
ĠHer berge
Ġweap on
ĠFlÃ¼cht lings
ĠTax i
u ing
Ġpresent ations
Ġaufge hoben
ĠEntwicklungs zusammenarbeit
ĠÃ¼b lich
b ra
ĠG itar
Ġall iance
we ight
lÃ¤ g
ari os
ĠSub ventionen
ĠIniti ativ
ĠFernse her
Ġsudden ly
ow der
Ġtra ur
Ġcol onial
ĠNor mal
ĠSozialdem okraten
Ġfu els
p ted
Ġdie t
ĠSe gel
tem peratur
Ġset up
Ġident ical
Ġsustain ed
Ġanalys es
Ġethn ischen
ĠQue en
Ġlohn t
ra cies
ĠO ther
ĠGeb iets
Ġmod est
Ġern ste
ĠgefÃ¤hr liche
Every one
Ġconcentr ated
ĠWolf gang
ĠBetr ugs
Sup er
H ence
h ot
st ill
ĠVer lag
Ġste m
hÃ¶r igkeit
ĠFinanz mittel
Ġzunehmen den
st uffs
Ġglaub t
Ġverst oÃŁen
Ġdomin ant
Ġgegenseit ig
Â ©
Ġt ape
err or
ĠAuf wand
Ġdisc overy
wÃ¤r mung
Ġperman ently
ĠErn Ã¤hrung
Ġcul inary
gemÃ¤ ÃŁe
Ġun limited
ett es
ho ff
Ġmoder ate
Ġ= =
Ġkrit ische
Ġsights eeing
ĠF at
ĠC athol
Ġden selben
Ġex zell
Ġad her
ob yl
ett i
ĠNe ues
bet reuung
EL L
ĠBetrieb ssystem
ĠKohÃ¤s ions
est ro
Ġver handeln
ant on
teil ten
Al ong
Ġhome page
wach s
Ġfurn ish
ĠbetrÃ¤cht liche
ĠAlp ine
Ġlingu istic
ab teilung
art ikel
Ġzw ingen
str ichen
Ġcar go
Ġknow ing
St aff
Ġ197 5
ĠDan ube
ĠRand lage
ĠLit auen
sp ot
ĠAbst immungs
Is rael
isp ens
ĠSm all
ĠCre dit
ĠIndones ia
Ġc ens
Ġn os
ĠAl c
Ġrest oration
iar ies
Ġexplo it
Produ kte
7 00
Ġo ste
Ġre fined
ĠÃ¼ber setzt
Ġspecial ised
ĠgrÃ¶ÃŁ t
ĠIN TER
Ġko oper
ĠniederlÃ¤nd ischen
Ġenthusias m
ĠF la
ĠL odge
art ment
Ġend ing
ĠWelt bank
Ġbekannt esten
ĠAbs ichten
Ġwirks amen
gerichts hof
ach lÃ¤ss
Ġpass es
Ġweek ly
B ay
Ġab end
Ġzw angs
Ab kommen
k olle
ĠS in
ĠVor bild
lic kt
amp en
Wh ich
ĠÂ ©
Ġadapt ation
/ -
am ination
ĠK lick
per or
Ġzahl reicher
ĠComp uters
ĠCas tell
minister ium
Ġ9 2
arf leet
ĠTrans aktionen
Ġearth qu
Ġpursu ing
Ġportugies ischen
f Ã¶rm
k ern
k rÃ¤ft
Ġs at
Ġin wie
um a
ann ual
igen de
Ġeinz ubeziehen
Ġabol ition
b ur
ĠB C
ĠF as
ĠArbeits krÃ¤fte
Ġdistr icts
ĠClin ton
) |
N ord
if ahr
olid ierung
heim er
ĠStat istik
ĠMer cedes
Ġverab schiede
izz ard
ĠFac ilities
Ġwarrant y
ĠÃľber setzungen
ĠText es
Ġconstru ct
Ġdemand ed
Ġobserv ers
Ġtack ling
ĠBan anen
ĠverstÃ¤nd lich
K S
M T
s l
ĠN O
ĠVer hÃ¤ltnisse
fahr ung
Ġ14 9
Ã¤cht nis
Ġeingereich ten
D el
x x
Ġm ent
ot ype
Ġdes per
ip f
her z
au igkeit
Ġsp Ã¼r
Ġsp ont
Ġange hen
Ġcommon ly
Ġklass ische
Ġfif teen
Ġeinzur ichten
w unsch
Ġre bu
Ġr andom
Ġcontin ental
Ġstark es
Ġdemonstr ation
ĠManhatt an
Ġm igrants
ic ion
ĠT ank
Ġmin ing
ĠSpe ed
ĠSpan isch
Ġtw elve
ĠLib anon
Ġcin ema
Ġcompliment ary
ĠZin ss
ĠG all
Ġman gel
ĠEin fuhr
Ġzeich nen
ĠS ome
ĠO ze
ans a
ĠTh ai
Ġbin den
Ġgef angen
ĠFlug zeuge
ĠglÃ¼ck lich
ĠÃ¤lt esten
Inner halb
ĠR oc
end igung
In nov
Ġunter en
ipp e
Ġoptim um
ĠbeeintrÃ¤cht igt
Ġpersonenbezogen en
on ischen
ph ones
Ġconne cting
Ġbew undern
Ġleben den
Ġemb edded
Ġhum ans
ĠVerzÃ¶ger ung
T yp
ite kt
Ġ19 20
Ġsepar ated
d ar
w Ã¤l
in as
Ġf ires
Ġan nex
Ġsch warz
Ġobtain ing
bas ierten
ĠLeiden schaft
Ġs ail
ass es
ungs antrag
trÃ¤ glich
ĠGeschÃ¤fts bedingungen
Ġamb ience
ra cle
ĠL anzarote
Ġal ive
ĠRahmen programm
lei ht
ĠSyr ien
ab schluss
Ġnot iced
Ġro se
Ġgem essen
Ġausge legt
Ġir res
ĠHaushalts plans
ĠBerichterstat tern
N ear
s creen
ĠRechts rahmen
ĠDire ctors
Addition ally
H ome
Ġo vers
al og
Ġm Ã¡s
Ġdes ert
De b
Ġrail ways
ĠHar bour
Ġinvestig ations
Ã¶ hnt
Ġex tract
ern obyl
Ġclear er
Ġfurther more
aster y
Ġasp ir
ĠSchrif ts
Ä ĥ
Ġn ic
Ġse curities
ian ces
Ġwo fÃ¼r
Ġbo oth
Ġeinzel staatlichen
Ġerr ichten
Ġirgende iner
it ably
ĠI A
ĠL oc
ĠKl oster
Ġakzept abel
ĠEreign issen
Ġauszu Ã¼ben
Ġvergleich en
Ġleistungs stark
ĠAnh Ã¤nger
Ġt iny
Ġf illing
ĠR ou
gr Ã¶ÃŁe
ĠKr ist
ĠGran de
ĠBru der
ĠB E
Ġr hyth
ann ers
ĠComm unication
ĠRo und
ĠbefÃ¼r worte
Ġcompetit ors
Gem Ã¤ÃŁ
ĠDev isen
Fun ktion
est a
ĠL ande
ik on
Ġj ump
ste il
Be g
Ġappro x
hor n
Ġideal er
Ġgre w
ĠPerspekt iven
ungal ows
S icher
t ons
Ġl uggage
ĠZu kunfts
Ġgre ifen
Ġenfor ce
ĠlÃ¤ng ere
Ġemotion al
Ġtang ible
ant ic
ĠEinfl uÃŁ
Ġverank ert
" >
i hen
v et
er ne
re z
ĠS ul
ĠC i
ĠH art
ud a
beit rag
Ġro y
hol der
Ġfail ing
Ġannoun cement
Ġconsolid ation
Ġgather ed
ĠAndre as
ĠS i
ĠM ap
ĠF uerte
ĠK athedrale
Ġr hetor
ob a
Ġbeit reten
Ġberuf liche
T NG
om er
ĠM ID
ĠG ol
ĠD aher
ĠN ein
ium ph
ĠStadt teil
Ġauthor isation
ĠBro ad
best immung
Ġ196 8
ĠSien a
S I
Î ²
Ġto ll
ĠF L
Ġnot ification
be teil
ĠAuf sicht
Ġel abor
ĠGefangen en
Ġse cre
Ġact or
ar ly
as ant
ĠN H
Ġstr ive
ĠFe atures
Ġcongrat ulations
Ġvern achlÃ¤ss
greif enden
sprach igen
ĠImplement ierung
Ġre de
ĠHos p
Ġfried lichen
ag na
Ġsch lage
mer kt
Ġdurch setzen
ator ies
Ġversch le
Ġbeseit igt
dep th
Ġindepend ently
Ġun ex
Ġinfluen ced
tran sp
ĠBesonder heiten
ik ale
Pro tokoll
ĠPer u
appro pr
A ct
ic ity
ĠFre ib
Ġsk ill
Ġcontrib utes
Ġ198 2
ĠOp fern
Ġpermit s
Ġexem pt
ĠPr ix
ĠBe frei
Ġunter liegt
Ġbesch eiden
orient ierte
Ġeinzigart ig
Non etheless
ĠTi rol
ĠCarib bean
a ber
b rech
Ġ( {{
Ã¤uf e
Kl asse
ĠJ ak
ĠAn weisungen
enn y
Ã¼tz te
Ġint oler
Pl ayer
ĠAnwendungs bereich
Ġdistingu ished
Ġcarr ier
Natur ally
Ġunpre ced
E missionen
Ġp orn
our ismus
ĠTats achen
ĠTemperatur en
Ġrefurb ished
d on
ĠF ab
ĠW Ã¶rter
ats on
ĠKo ordination
Ġadj usted
part nern
Ġback ing
Ġmiss ed
ĠGB P
ĠJugoslaw ien
b Ã¶
att formen
Ġstehen de
Ġsum mar
ĠSil ber
ĠFels en
ĠAuseinander setzung
ĠEurost at
Ġg Ã¤be
ĠP akt
ĠO ver
cc a
ĠArbeits weise
ĠStre cken
Ġschl immer
Ġestim ates
Ġenerg ies
ĠKomplett preise
g ab
ĠW ood
fÃ¼ llen
Ġind ispens
reg ierungs
ĠM ind
ul i
Ġinter ven
ĠBed ingung
ĠGu ard
ĠSal v
ĠEV P
ĠUmstruktur ierung
Ġden y
Ġdeb att
Re chts
amb ling
Ġamb itions
Ġhy draul
Ġkons erv
Ġabziel en
Ġf ing
Ġun ilateral
Ġge kauft
ad ian
Ġent r
se ktors
ulation en
ĠKommiss are
Ġmaler ischen
L IN
M ax
V illa
ĠSp uren
ĠPal m
ĠIde al
schuld igen
ĠREA CH
ĠS ou
Ġv enture
iz on
rit ical
ĠAuf ruf
Ġtrans mitted
Ġmot ions
igr ations
Ġqualifiz ierte
V ol
W C
er te
in frastruktur
Ġg ains
Ġzum al
pro b
Ġven ue
ĠSowjet union
1 50
l u
s u
Ġe ating
Ġbe legt
ĠE ta
Ġres cue
Ġgew achsen
isk o
schein lichkeit
ĠComp ut
Ġsup ermark
ĠB om
ĠC old
ĠN ature
Ġdies mal
Ġzusammen zuarbeiten
sb ruck
" ),
Ġvor sichtig
Ġinter institution
ph y
Ġmusic ians
Ġlabor atory
Ġver leiht
Ġro ut
Ġpre gn
Ġ6 2
weit erung
Ġmonth ly
ĠDar le
Ġpal ace
Russ ia
g erecht
in fo
ĠRe ader
ĠThe atre
ĠPan asonic
ĠTsch etschen
ĠInner es
H och
Ġhier arch
Ġcor por
ty ard
ĠLie blings
Ġc ope
ĠS CH
ĠR Ã¼st
Ġge laden
Ġde ck
Ġde emed
od ing
ĠGe legenheiten
ins on
Ġfeel ings
Ġemploye e
Ġimpl ies
ĠNav igation
lac ier
G ipfel
K E
os ion
Ã¤ss igen
ĠAnn Ã¤her
lik ely
Ġkompliz iert
Ġexem pl
us sten
ĠL Ã¼
ass ador
ĠFl Ã¼ge
Ġgleich er
ĠschÃ¶n es
Ġlif estyle
ĠÃľbersetz ungs
ĠAnalys en
ĠM i
art ig
ĠAn sprech
Ġcap ability
Ġinst ant
Ġsicher er
verb ot
ĠNor wegen
Ġdatab ases
Mar kt
Ġausgewogen en
Ġwas h
Ġdis par
Ġauthor ised
ĠEntschlieÃŁ ungen
ĠLib ya
ĠInternets eite
Ġunpreced ented
Ġd il
al ition
ne ys
Ġbereit zustellen
ĠWelt markt
Ġspeak s
Ser ie
j ack
ar ant
Ġan bietet
ĠS ales
ĠE B
Ġklar er
e h
so fern
Ġbl ow
Ġlab els
Ġvill as
ĠVorsitz ende
ĠstÃ¤rk eren
hel m
ĠvielfÃ¤lt ige
ĠPot ential
Ġaufrechter halten
m und
Ġw inners
alt ar
Ġatt ent
Ġben chmark
Ġcomfort s
Ġmar gin
Ge ben
Ber lin
Ġfor b
ab out
ab stimmung
os o
Ġbes etzt
Ġdiffer ently
Ġmar ried
ĠFehl en
E ben
ĠF eind
ĠL isten
ĠHer ange
jÃ¤hr iger
Ġobserv ations
Ġunderg o
ĠTenden z
Ġm ailing
Ġun real
ot or
Ġer re
Ġgrundlegen d
ĠnÃ¶rd lichen
Ġhect ares
c in
Ġt one
Ġm Ã¼sse
Ġpr on
ĠBe endigung
ĠBl an
IT E
ĠZwe cken
ĠKranken haus
Fac ilities
P ra
W ieder
est ablish
Ġr asche
ĠÃ¼ber wiegend
ĠGr ill
teil te
ĠKon figur
Ġstar tet
Ġdang ers
viel falt
Ġstake holders
Ġchamp ions
ratt ini
ĠH orn
ĠAus ge
ĠVor stand
Ġnow adays
Ġgeb illigt
Ġpat ch
Ġassess ments
Ġwunder bare
gere chte
ĠEtik ett
Ġeconom ics
Ġrev ol
EW G
P ower
Ġg ig
for me
ĠTag ungs
Ġmak ro
ĠSorg falt
S il
z ute
em pf
Ġver schieben
che ck
Ġgef asst
Ġprevent ive
Ġkil ometers
ĠDo uble
Ġsuperv isory
kle idung
Ġfru its
Ġa cted
Ġa wards
ĠT hre
ĠSt orn
aten te
Ġdesign ers
ĠPal azzo
tag on
ĠHal binsel
ĠBlu etooth
leucht ung
m ietung
Ġab geb
ĠVor wand
Ġinter governmental
ĠPrÃ¤sident schafts
bil anz
Ġ Ø
Ġs ink
ĠE le
ir ies
ĠVor sorge
ĠÃľberwach ungs
P ay
S al
ĠE very
Ġr um
we ichen
uss y
Ġhab t
Ġbest icht
Ġ197 6
Ġcapac ities
ĠNam ens
Ġ ueber
Ġs ick
ĠB ib
ĠD enken
Ġco d
Ġint im
Ġremov ing
iox id
Ġstring ent
ĠwÃ¼nsch enswert
Ġa gr
Ã¼ te
am ine
Ġge holfen
ĠEr r
Ġange hÃ¶ren
Curr ently
ĠAnkÃ¼nd igung
ap h
zeit raum
ĠAK VIS
Ġeinsch lÃ¤g
c ultural
m ind
ĠM eine
ĠK ok
ĠL ove
if fen
ib ung
che cken
co very
ĠPriv acy
Ġanalys iert
Ġp ose
ĠBe griffe
ĠFre ien
bo ards
Ġyoung er
Ġneues te
Ġvertra uen
ĠLam an
ĠRelig ions
ĠSingap ore
er ie
le te
om ed
mer zen
Ġwor auf
ĠAmer ikas
Ġtransl ate
ĠStraÃŁen verkehr
Ġbound aries
Ġcount less
Ġpartial ly
ĠPalÃ¤st ina
B ox
Ġden s
Ġmehr erer
Ġstr engen
ĠSe everkehr
iste ten
wÃ¼rd ige
ifik ationen
Ġzerst Ã¶ren
r in
v as
Ġn ament
ĠW Ã¤hrend
ein heiten
Ġwer te
ĠAb sch
tre ffen
ĠGrund freiheiten
Ġeinmal ige
Ex cellent
ĠKredit karten
Ġdomin ated
Ġunanim ous
Sow eit
s pekt
is ierungen
Ġex quisite
Ġvor ne
err t
Ġcons ulted
AT A
Ġverl iert
ĠBal i
ĠVorbereit ungen
ĠRepr Ã¤sent
ĠVerzÃ¶ger ungen
ĠSlowen ien
ro tt
Ã¼ ÃŁ
pe zif
ĠÃľber rasch
Ã¤ng st
Ġhy per
Ġwettbewerbs fÃ¤hig
Disc over
Ġbelg ischen
on ies
st art
ĠB O
Ġre ine
ĠD SL
Ġpr ide
Ġafter wards
trÃ¤ ger
Ã¶l le
Ġcolle ctions
Te il
ĠDel uxe
ĠReihen folge
Som etimes
A c
k rie
ll or
und et
ob oda
ange m
icher ten
Ġbeg reifen
ĠFr on
Ġschnell es
Ġmar kt
[...]
