{"<|startoftext|>":0,"<|endoftext|>":1,"!":2,"\"":3,"#":4,"$":5,"%":6,"&":7,"'":8,"(":9,")":10,"*":11,"+":12,",":13,"-":14,".":15,"/":16,"0":17,"1":18,"2":19,"3":20,"4":21,"5":22,"6":23,"7":24,"8":25,"9":26,":":27,";":28,"<":29,"=":30,">":31,"?":32,"@":33,"A":34,"B":35,"C":36,"D":37,"E":38,"F":39,"G":40,"H":41,"I":42,"J":43,"K":44,"L":45,"M":46,"N":47,"O":48,"P":49,"Q":50,"R":51,"S":52,"T":53,"U":54,"V":55,"W":56,"X":57,"Y":58,"Z":59,"[":60,"\\":61,"]":62,"^":63,"_":64,"`":65,"a":66,"b":67,"c":68,"d":69,"e":70,"f":71,"g":72,"h":73,"i":74,"j":75,"k":76,"l":77,"m":78,"n":79,"o":80,"p":81,"q":82,"r":83,"s":84,"t":85,"u":86,"v":87,"w":88,"x":89,"y":90,"z":91,"{":92,"|":93,"}":94,"~":95,"¡":96,"¢":97,"£":98,"¤":99,"¥":100,"¦":101,"§":102,"¨":103,"©":104,"ª":105,"«":106,"¬":107,"®":108,"¯":109,"°":110,"±":111,"²":112,"³":113,"´":114,"µ":115,"¶":116,"·":117,"¸":118,"¹":119,"º":120,"»":121,"¼":122,"½":123,"¾":124,"¿":125,"À":126,"Á":127,"Â":128,"Ã":129,"Ä":130,"Å":131,"Æ":132,"Ç":133,"È":134,"É":135,"Ê":136,"Ë":137,"Ì":138,"Í":139,"Î":140,"Ï":141,"Ð":142,"Ñ":143,"Ò":144,"Ó":145,"Ô":146,"Õ":147,"Ö":148,"×":149,"Ø":150,"Ù":151,"Ú":152,"Û":153,"Ü":154,"Ý":155,"Þ":156,"ß":157,"à":158,"á":159,"â":160,"ã":161,"ä":162,"å":163,"æ":164,"ç":165,"è":166,"é":167,"ê":168,"ë":169,"ì":170,"í":171,"î":172,"ï":173,"ð":174,"ñ":175,"ò":176,"ó":177,"ô":178,"õ":179,"ö":180,"÷":181,"ø":182,"ù":183,"ú":184,"û":185,"ü":186,"ý":187,"þ":188,"ÿ":189,"Ā":190,"ā":191,"Ă":192,"ă":193,"Ą":194,"ą":195,"Ć":196,"ć":197,"Ĉ":198,"ĉ":199,"Ċ":200,"ċ":201,"Č":202,"č":203,"Ď":204,"ď":205,"Đ":206,"đ":207,"Ē":208,"ē":209,"Ĕ":210,"ĕ":211,"Ė":212,"ė":213,"Ę":214,"ę":215,"Ě":216,"ě":217,"Ĝ":218,"ĝ":219,"Ğ":220,"ğ":221,"Ġ":222,"ġ":223,"Ģ":224,"ģ":225,"Ĥ":226,"ĥ":227,"Ħ":228,"ħ":229,"Ĩ":230,"ĩ":231,"Ī":232,"ī":233,"Ĭ":234,"ĭ":235,"Į":236,"į":237,"İ":238,"ı":239,"Ĳ":240,"ĳ":241,"Ĵ":242,"ĵ":243,"Ķ":244,"ķ":245,"ĸ":246,"Ĺ":247,"ĺ":248,"Ļ":249,"ļ":250,"Ľ":251,"ľ":252,"Ŀ":253,"ŀ":254,"Ł":255,"ł":256,"Ń":257,"en":258,"er":259,"in":260,"Ġa":261,"Ġt":262,"Ġd":263,"ch":264,"es":265,"on":266,"Ġth":267,"un":268,"it":269,"is":270,"Ġs":271,"Ġw":272,"at":273,"ie":274,"or":275,"an":276,"Ġthe":277,"re":278,"Ġb":279,"Ġo":280,"al":281,"ar":282,"Ġin":283,"Ġf":284,"ich":285,"Ġm":286,"te":287,"ion":288,"Ġe":289,"Ġan":290,"ur":291,"as":292,"le":293,"Ġp":294,"Ġc":295,"Ġun":296,"Ġh":297,"us":298,"ge":299,"ent":300,"Ġof":301,"ro":302,"Ã¼":303,"Ġn":304,"ĠS":305,"Ġv":306,"ing":307,"ung":308,"Ġand":309,"Ġto":310,"Ã¤":311,"ll":312,"ed":313,"Ġdie":314,"om":315,"Ġder":316,"Ġund":317,"ig":318,"st":319,"ic":320,"Ġbe":321,"ĠA":322,"Ġis":323,"ĠE":324,"Ġein":325,"ir":326,"Ġz":327,"im":328,"Ġg":329,"el":330,"ĠM":331,"ĠP":332,"ut":333,"ra":334,"ĠB":335,"ter":336,"em":337,"il":338,"ten":339,"ol":340,"ation":341,"der":342,"eit":343,"et":344,"Ġl":345,"am":346,"den":347,"Ġre":348,"ĠI":349,"hr":350,"ies":351,"um":352,"ĠF":353,"op":354,"ĠG":355,"ct":356,"sch":357,"ĠK":358,"ul":359,"Ġk":360,"uf":361,"Ã¶":362,"ber":363,"iv":364,"de":365,"lich":366,"ĠR":367,"ĠC":368,"Ġfor":369,"ab":370,"ot":371,"ĠT":372,"Ã¼r":373,"isch":374,"ĠH":375,"ĠV":376,"icht":377,"ier":378,"gen":379,"ĠD":380,"Ġdas":381,"Ġon":382,"Ġzu":383,"ĠW":384,"ere":385,"Ġden":386,"ly":387,"est":388,"ess":389,"Ġthat":390,"os":391,"he":392,"and":393,"id":394,"ĠL":395,"ce":396,"omm":397,"ers":398,"ein":399,"Ġal":400,"Ġpro":401,"ow":402,"Ġwh":403,"ach":404,"Ġvon":405,"Ġr":406,"ort":407,"Ġge":408,"uch":409,"ÃŁ":410,"Ġim":411,"Ġst":412,"Ġy":413,"ith":414,"ĠU":415,"Ġwir":416,"kt":417,"if":418,"Ġcon":419,"Ġist":420,"Ġver":421,"Ġer":422,"Ġwith":423,"ver":424,"Ġauf":425,"Ġwe":426,"ĠfÃ¼r":427,"urop":428,"ay":429,"ill":430,"Ġdes":431,"Ġit":432,"ve":433,"Ġmit":434,"ad":435,"Ġare":436,"ts":437,"ind":438,"Ġas":439,"ck":440,"Ġso":441,"âĢ":442,"Ġde":443,"Ġne":444,"iss":445,"Ġyo":446,"Ġ1":447,"ĠN":448,"Ġdies":449,"tr":450,"end":451,"af":452,"pp":453,"ĠEurop":454,"ate":455,"ment":456,"ik":457,"ĠZ":458,"Ġ(":459,"Ġse":460,"qu":461,"The":462,"th":463,"ungen":464,"la":465,"00":466,"ischen":467,"Ġ2":468,"nen":469,"men":470,"ib":471,"Ġals":472,"ĠSt":473,"Ġeine":474,"ak":475,"Ġex":476,"ne":477,"ĠVer":478,"for":479,"Ġdem":480,"Ġthis":481,"ity":482,"ĠIn":483,"Ġha":484,"ant":485,"ien":486,"ive":487,"ial":488,"ah":489,"ist":490,"Ġor":491,"Ġj":492,"art":493,"Ġnicht":494,"pe":495,"und":496,"Ġwer":497,"ug":498,"Ġco":499,"Ġnot":500,"ann":501,"Ã¼ber":502,"ste":503,"ĠUn":504,"Ġsich":505,"Ġall":506,"Ġle":507,"Ã¤n":508,"ub":509,"ff":510,"Ġwerden":511,"Ġ-":512,"tel":513,"ĠJ":514,"we":515,"Ġby":516,"Ġhave":517,"ag":518,"Ġdass":519,"rom":520,"ĠRe":521,"ĠSie":522,"igen":523,"Ġat":524,"igh":525,"ĠAn":526,"ust":527,"Ġes":528,"ass":529,"ens":530,"Ġaus":531,"ain":532,"all":533,"uld":534,"Ġyou":535,"up":536,"sp":537,"Ġwill":538,"od":539,"Ġab":540,"Ġcom":541,"Ġuns":542,"iel":543,"ern":544,"ĠÃ¼ber":545,"aus":546,"ure":547,"Ġi":548,"Ġsh":549,"Ġme":550,"ze":551,"Ġwhich":552,"age":553,"ions":554,"ommiss":555,"ted":556,"Ġwas":557,"Ġauch":558,"ĠO":559,"ben":560,"ran":561,"lie":562,"hen":563,"Die":564,"ĠPr":565,"Ġfrom":566,"ahr":567,"hal":568,"ungs":569,"du":570,"och":571,"ĠEurope":572,"ard":573,"Ġum":574,"ĠSch":575,"ould":576,"Ġsind":577,"Ġus":578,"tern":579,"Ġch":580,"Ġsch":581,"ommission":582,"ident":583,"og":584,"In":585,"Ġpr":586,"..":587,"ĠPro":588,"Ġent":589,"fer":590,"ĠâĢ":591,"Ġvor":592,"Ġwird":593,"uss":594,"esch":595,"ue":596,"Ġhas":597,"Ġhab":598,"schaf":599,"ip":600,"ft":601,"iz":602,"mer":603,"port":604,"ine":605,"Ġwor":606,"Th":607,"gr":608,"Ã¶n":609,"ss":610,"ud":611,"Ġres":612,"Ġen":613,"ang":614,"oc":615,"ĠEn":616,"llen":617,"ous":618,"ische":619,"ick":620,"ok":621,"Ġda":622,"Ġwie":623,"enn":624,"ast":625,"Ã¤t":626,"ĠBe":627,"our":628,"ĠPar":629,"Ġhe":630,"Ġcan":631,"me":632,"urch":633,"Ġman":634,"ise":635,"able":636,"etz":637,"Ġam":638,"err":639,"form":640,"ire":641,"ige":642,"keit":643,"Ġhat":644,"Ġich":645,"Ġsein":646,"pr":647,"ost":648,"ap":649,"Ġoder":650,"ert":651,"Ġour":652,"ament":653,"ia":654,"ĠAr":655,"be":656,"ore":657,"otel":658,"cc":659,"erv":660,"Ġcomp":661,"Ġzur":662,"ult":663,"Ġalso":664,"beit":665,"ations":666,"ĠEuropean":667,"ĠEr":668,"Ġhaben":669,"Ġsie":670,"ction":671,"ational":672,"her":673,"ical":674,"heit":675,"ition":676,"Ġad":677,"ese":678,"ĠAus":679,"lichen":680,"ice":681,"ated":682,"lo":683,"are":684,"out":685,"dern":686,"Ġbei":687,"Ġdo":688,"Ġeiner":689,"ĠkÃ¶n":690,"ome":691,"Ġ\"":692,"se":693,"rit":694,"olit":695,"ru":696,"aten":697,"tz":698,"hl":699,"ther":700,"ark":701,"ord":702,"fÃ¼":703,"ect":704,"ieren":705,"pt":706,"Ġunter":707,"ĠÃ":708,"Ġ200":709,"ish":710,"Ã¼n":711,"Ġnach":712,"Ġqu":713,"ac":714,"'s":715,"Ġeinen":716,"ĠGe":717,"ht":718,"schaft":719,"ms":720,"ign":721,"Ġpart":722,"tet":723,"ĠParl":724,"Ã¤r":725,"iert":726,"Ġyour":727,"ight":728,"elt":729,"ĠUnion":730,"Ġits":731,"ĠMit":732,"ates":733,"vel":734,"oun":735,"ake":736,"Ġte":737,"tra":738,"ear":739,"Ġreg":740,"ite":741,"Ġdurch":742,"Ġgro":743,"ian":744,"au":745,"ank":746,"ger":747,"fen":748,"Ġsu":749,"yste":750,"Ġsp":751,"Ġbut":752,"Ġwur":753,"ember":754,"ary":755,"Ġro":756,"Ġag":757,"ide":758,"Ġgo":759,"oll":760,"cial":761,"ĠkÃ¶nnen":762,"Ġthere":763,"ĠBer":764,"liche":765,"gt":766,"per":767,"Ã¤s":768,"We":769,"Ġapp":770,"ose":771,"con":772,"hre":773,"Ã¶r":774,"Ġdis":775,"Ġdar":776,"ĠEin":777,"Ġste":778,"anz":779,"cht":780,"Ġtra":781,"Ġwar":782,"ĠEU":783,"ual":784,"ĠFra":785,"Das":786,"chen":787,"ĠCommission":788,"ĠVor":789,"cl":790,"ime":791,"Ġspe":792,"Ġwould":793,"eren":794,"Ġ3":795,"ĠmÃ¶":796,"ance":797,"Ġmore":798,"tw":799,"ail":800,"ov":801,"ile":802,"Ġzum":803,"ĠAb":804,"Ġtheir":805,"Ġeinem":806,"Ġ19":807,"ommen":808,"Ġbeen":809,"mp":810,"Ġgen":811,"Ġbes":812,"Ġcont":813,"reat":814,"glich":815,"imm":816,"ute":817,"ase":818,"uÃŁ":819,"ame":820,"ong":821,"act":822,"chn":823,"chte":824,"ĠEuropÃ¤":825,"Ġar":826,"Ich":827,"ĠâĢĵ":828,"ild":829,"utz":830,"gra":831,"Ġkann":832,"âĢĻ":833,"Ã¼ck":834,"oss":835,"Ġfin":836,"ble":837,"che":838,"Ġone":839,"ack":840,"Ġdiese":841,"Ġacc":842,"Ã¼ss":843,"ont":844,"Ġnur":845,"ugh":846,"one":847,"ĠWe":848,"ents":849,"Ġper":850,"Ġcoun":851,"ĠTe":852,"Ġcomm":853,"Âł":854,"ĠGr":855,"gan":856,"sten":857,"ges":858,"hn":859,"Ġshould":860,"Ġalle":861,"Ġbet":862,"ahl":863,"Ġpl":864,"Ġwork":865,"pl":866,"wer":867,"ike":868,"ution":869,"Ġnew":870,"ĠDe":871,"geb":872,"eine":873,"Ġ.":874,"ierung":875,"Ġup":876,"ĠSp":877,"Ġ,":878,"ĠLe":879,"Ġcl":880,"ob":881,"Wir":882,"This":883,"ĠUnter":884,"zu":885,"auf":886,"ely":887,"hmen":888,"land":889,"ree":890,"ĠCh":891,"It":892,"hren":893,"Ã¤sident":894,"ktion":895,"to":896,"Ġout":897,"Ġdieser":898,"av":899,"Ġob":900,"ner":901,"igkeit":902,"rie":903,"ĠHotel":904,"ĠJahr":905,"lic":906,"ld":907,"olle":908,"Ġjed":909,"ons":910,"reich":911,"Ġpre":912,"...":913,"ings":914,"Ġvery":915,"Ġcountr":916,"Ġind":917,"Ġmust":918,"Ġwho":919,"Ġinter":920,"ke":921,"Ġzw":922,"Ġother":923,"ĠKommission":924,"ĠdaÃŁ":925,"bar":926,"Ġnoch":927,"ĠPres":928,"Ġprodu":929,"ities":930,"formation":931,"Ġma":932,"Ã¤hr":933,"Ġev":934,"mit":935,"Ġthey":936,"ĠMr":937,"Ġpe":938,"ink":939,"Ġweit":940,"Ġneed":941,"gram":942,"ces":943,"pro":944,"ĠHerr":945,"wo":946,"ors":947,"Ġwurde":948,"ater":949,"tell":950,"ments":951,"Der":952,"Ġno":953,"Ġber":954,"Ġmehr":955,"Ġsoll":956,"schen":957,"Ġonly":958,"Ġintern":959,"Ġyear":960,"Ġfe":961,"Ġcons":962,"gel":963,"Ġbec":964,"Ġsupp":965,"Ġlike":966,"ĠAuf":967,"Ġstr":968,"Ġaber":969,"ple":970,"olog":971,"oin":972,"glie":973,"Ġtime":974,"ystem":975,"Ġabout":976,"Ġwenn":977,"Ã¼ssen":978,"teil":979,"fe":980,"pos":981,"ĠPrÃ¤sident":982,"Ġpolit":983,"Es":984,"ible":985,"entr":986,"Ġany":987,"ĠSe":988,"ĠPresident":989,"ious":990,"Dies":991,"assen":992,"ced":993,"ange":994,"uen":995,"Ġges":996,"Ġprov":997,"Ġ5":998,").":999,"leich":1000,"Ġsehr":1001,"xt":1002,"ĠmÃ¼ssen":1003,"velop":1004,"lin":1005,"erm":1006,"Ġtran":1007,"ally":1008,"ject":1009,"enz":1010,"itÃ¤t":1011,"Ġunser":1012,"alt":1013,"Ġwo":1014,"Ġ4":1015,"nah":1016,"cess":1017,"Ġeff":1018,"Ġsow":1019,"hnen":1020,"Ġbis":1021,"iament":1022,"ĠReg":1023,"ans":1024,"Ġra":1025,"arbeit":1026,"Ã¼tz":1027,"onder":1028,"Ġthese":1029,"ĠParlament":1030,"ient":1031,"ammen":1032,"rat":1033,"ĠArbeit":1034,"Ġrec":1035,"Ġserv":1036,"io":1037,"Ġsol":1038,"Ġdire":1039,"Ġoff":1040,"ular":1041,"fore":1042,"atz":1043,"own":1044,"Ġvie":1045,"fahr":1046,"Ġhin":1047,"ied":1048,"ibt":1049,"led":1050,"ility":1051,"Ġimport":1052,"usammen":1053,"ĠMitglie":1054,"ative":1055,"als":1056,"Ġdiesem":1057,"ph":1058,"Ã¤l":1059,"erson":1060,"stit":1061,"Ġtr":1062,"irst":1063,"ider":1064,"ople":1065,"ring":1066,"ause":1067,"ures":1068,"ĠMember":1069,"sta":1070,"ÃŁen":1071,"igt":1072,"ĠMen":1073,"Ġgegen":1074,"Ġif":1075,"Ġdevelop":1076,"cy":1077,"Ġla":1078,"Ġsuch":1079,"halten":1080,"wend":1081,"Ġreport":1082,"ism":1083,"fol":1084,"ook":1085,"ays":1086,"Ã¤nd":1087,"fl":1088,"Ġact":1089,"Ġihre":1090,"unden":1091,"ĠEuropÃ¤ischen":1092,"wn":1093,"sche":1094,"Ġpol":1095,"ĠAl":1096,"Ġgr":1097,"etzt":1098,"iger":1099,"Ġsub":1100,"ĠTh":1101,"iven":1102,"dition":1103,"ateg":1104,"Ġmy":1105,"ks":1106,"ific":1107,"Ġins":1108,"itu":1109,"Ġrel":1110,"wor":1111,"Ġover":1112,"ale":1113,"nehmen":1114,"ĠZeit":1115,"Ġinto":1116,"Ġwere":1117,"Ġpeople":1118,"ĠMa":1119,"ĠFor":1120,"ĠThe":1121,"Ġihr":1122,"fÃ¼hr":1123,"kte":1124,"str":1125,"Ġwell":1126,"ices":1127,"cre":1128,"Ġgem":1129,"iden":1130,"Ã©":1131,"Ġbest":1132,"Ġ20":1133,"Ġinternational":1134,"ĠParliament":1135,"ken":1136,"erg":1137,"irt":1138,"),":1139,"Ġsome":1140,"bs":1141,"ement":1142,"Un":1143,"Ġviel":1144,"ĠmÃ¶chte":1145,"Ġwhat":1146,"ou":1147,"Ġuse":1148,"lung":1149,"cil":1150,"acht":1151,"enden":1152,"Ġinv":1153,"isten":1154,"ľber":1155,"Ġsa":1156,"ene":1157,"Ġdif":1158,"Ġhier":1159,"ĠStates":1160,"conom":1161,"Ġmark":1162,"arge":1163,"ĠMitglied":1164,"An":1165,"Ġhigh":1166,"icher":1167,"Ġher":1168,"fr":1169,"uropÃ¤":1170,"Ġeines":1171,"ustr":1172,"amen":1173,"Ġkn":1174,"ĠMar":1175,"rei":1176,"very":1177,"Ġhotel":1178,"ĠCoun":1179,"ory":1180,"Ġbed":1181,"ull":1182,"Ġfirst":1183,"Ġloc":1184,"Ġgew":1185,"Ġcountries":1186,"Ġincl":1187,"Ġvom":1188,"Ġthan":1189,"Ġmost":1190,"ention":1191,"zeit":1192,"Ġhis":1193,"Ġhel":1194,"Ġwicht":1195,"Ġwhen":1196,"olitik":1197,"Ġdec":1198,"itte":1199,"ating":1200,"esent":1201,"Ġlie":1202,"Ġpartic":1203,"iet":1204,"pect":1205,"Ġvers":1206,"Ġthem":1207,"Ġunder":1208,"ĠOr":1209,"ace":1210,"ards":1211,"inn":1212,"ages":1213,"itz":1214,"ĠCouncil":1215,"les":1216,"Ġdam":1217,"Ġjust":1218,"ett":1219,"sicht":1220,"Ġsowie":1221,"Ġwel":1222,"Ġpolic":1223,"att":1224,"ond":1225,"Ġele":1226,"ĠMenschen":1227,"Ġagain":1228,"Ġnow":1229,"abe":1230,"ĠeuropÃ¤":1231,"ĠEntw":1232,"ĠUm":1233,"tre":1234,"Ġsupport":1235,"ever":1236,"Ġdieses":1237,"Ġgu":1238,"ĠKon":1239,"Ġbas":1240,"Ġmake":1241,"ights":1242,"lÃ¤":1243,"Ġimportant":1244,"Ã¤nder":1245,"ats":1246,"ween":1247,"Ġaut":1248,"ĠBericht":1249,"ho":1250,"Ã¤ch":1251,"els":1252,"Ġpla":1253,"Ġgibt":1254,"halt":1255,"ĠÃľber":1256,"ĠLand":1257,"Ġmany":1258,"kl":1259,"ues":1260,"Ġroom":1261,"Ġhow":1262,"essen":1263,"kommen":1264,"Ġbetween":1265,"stÃ¼tz":1266,"Ġass":1267,"fin":1268,"Ġeconom":1269,"je":1270,"Ġpropos":1271,"oth":1272,"ĠMe":1273,"hand":1274,"Ġfr":1275,"Ġrequ":1276,"halb":1277,"Ġmo":1278,"any":1279,"fter":1280,"Ġtechn":1281,"ĠQ":1282,"issen":1283,"Ġposs":1284,"ives":1285,"Ġbecause":1286,"staaten":1287,"bst":1288,"igung":1289,"ence":1290,"ware":1291,"lieÃŁ":1292,"ural":1293,"ters":1294,"Ã¶s":1295,"ĠComm":1296,"Ġzwischen":1297,"Ġleg":1298,"dr":1299,"Ġtake":1300,"Ġbereit":1301,"Ġfre":1302,"legen":1303,"mal":1304,"Ã¶glich":1305,"zie":1306,"Ġkon":1307,"ublic":1308,"Ġpos":1309,"ote":1310,"Ġmarket":1311,"Ġworld":1312,"uer":1313,"ĠVerb":1314,"arm":1315,"ful":1316,"Ġ6":1317,"ĠEntwick":1318,"Ġcre":1319,"Ġ'":1320,"Ġmuss":1321,"ĠBed":1322,"oint":1323,"cted":1324,"Ġfo":1325,"rough":1326,"Ġfind":1327,"blem":1328,"off":1329,"ath":1330,"zial":1331,"ĠFl":1332,"min":1333,"ict":1334,"Ġsel":1335,"weit":1336,"amp":1337,"hÃ¶r":1338,"lear":1339,"Ġop":1340,"Ġunsere":1341,"Ġpar":1342,"Ġson":1343,"ount":1344,"dem":1345,"Ġnational":1346,"Ġwhere":1347,"Ġmin":1348,"Ġkeine":1349,"Ġgood":1350,"ĠPl":1351,"ĠNe":1352,"omp":1353,"ality":1354,"dit":1355,"Al":1356,"nis":1357,"Ġhand":1358,"rag":1359,"Ġgreat":1360,"Ġbie":1361,"Ġtwo":1362,"âĢľ":1363,"Ġav":1364,"Ġnat":1365,"Ġinformation":1366,"eschÃ¤":1367,"uring":1368,"urn":1369,"Ġemp":1370,"ĠStr":1371,"ĠIhnen":1372,"rauch":1373,"achen":1374,"vern":1375,"ĠGes":1376,"ĠIntern":1377,"ium":1378,"ĠEnt":1379,"Ġhad":1380,"Sie":1381,"Ġrem":1382,"Ġevery":1383,"Ġeinz":1384,"Ã¶ff":1385,"Ġmade":1386,"Ġverb":1387,"ĠMin":1388,"Ġyears":1389,"Ġconc":1390,"ÃŁe":1391,"aut":1392,"sel":1393,"Ġanderen":1394,"amil":1395,"Ġmein":1396,"hm":1397,"rol":1398,"stand":1399,"ĠProdu":1400,"unkt":1401,"ĠUS":1402,"Ġend":1403,"Ġeven":1404,"ĠArt":1405,"schie":1406,"laub":1407,"Ġthrough":1408,"fort":1409,"Ġway":1410,"Be":1411,"cept":1412,"Ġiss":1413,"air":1414,"geben":1415,"ĠGrund":1416,"Ġget":1417,"Ġsystem":1418,"Ġthose":1419,"Ġproduct":1420,"ision":1421,"chten":1422,"ischer":1423,"Ġsee":1424,"ĠMitgliedstaaten":1425,"forder":1426,"ession":1427,"gend":1428,"ereich":1429,"ister":1430,"Ġsc":1431,"gung":1432,"Ã¤lt":1433,"stell":1434,"lish":1435,"Ġange":1436,"Ġweiter":1437,"ws":1438,"ĠIhre":1439,"immer":1440,"ĠSo":1441,"Ġ199":1442,"urr":1443,"ys":1444,"ina":1445,"day":1446,"ower":1447,"ganis":1448,"lag":1449,"Ġimmer":1450,"weise":1451,"Ġorder":1452,"ows":1453,"ĠÃĦ":1454,"ĠZusammen":1455,"Ġtak":1456,"Ġmay":1457,"erein":1458,"ĠâĢŀ":1459,"uÃŁer":1460,"Ġpolicy":1461,"lick":1462,"Ġdirect":1463,"Ġdisc":1464,"ĠEuropa":1465,"ument":1466,"Ġdann":1467,"uman":1468,"spr":1469,"ster":1470,"hne":1471,"Ġright":1472,"ituation":1473,"Ġac":1474,"unity":1475,"rif":1476,"Ġbeing":1477,"If":1478,"ĠRat":1479,"ĠVorsch":1480,"ivers":1481,"alls":1482,"Ġnum":1483,"Ġfact":1484,"Ġbeg":1485,"chts":1486,"Ġbeste":1487,"Ġ7":1488,"ited":1489,"ital":1490,"isen":1491,"Ġrest":1492,"Ġke":1493,"000":1494,"10":1495,"eration":1496,"Ġcar":1497,"Im":1498,"Ġbelie":1499,"Ġdiesen":1500,"âĢĿ":1501,"Ġparticular":1502,"Ġappro":1503,"Ġwieder":1504,"Ġdiffer":1505,"Ġdamit":1506,"nahmen":1507,"com":1508,"ĠFr":1509,"Ġcent":1510,"nung":1511,"Ġcour":1512,"gest":1513,"Ġger":1514,"ionen":1515,"itt":1516,"Ġ10":1517,"ior":1518,"Ġwurden":1519,"Ġzwe":1520,"ĠHaus":1521,"vor":1522,"Ġinclud":1523,"Ġ8":1524,"Ġtrans":1525,"Ġganz":1526,"part":1527,"Ġown":1528,"aur":1529,"Ġgesch":1530,"ĠBereich":1531,"Ġ[":1532,"Ġprocess":1533,"ĠfÃ¼":1534,"eins":1535,"isse":1536,"ough":1537,"ry":1538,"icherheit":1539,"Ġresp":1540,"ade":1541,"adt":1542,"iness":1543,"Ġdel":1544,"Ġknow":1545,"eln":1546,"get":1547,"innen":1548,"Ġmon":1549,"read":1550,"zeich":1551,"bal":1552,"atter":1553,"ĠWelt":1554,"ouse":1555,"trag":1556,"ĠDie":1557,"old":1558,"gramm":1559,"Ġarea":1560,"Ġbus":1561,"Ein":1562,"elle":1563,"Ġquest":1564,"ler":1565,"Ã¤ndern":1566,"Ġmain":1567,"stitution":1568,"Wenn":1569,"az":1570,"oy":1571,"Ġph":1572,"Ġbu":1573,"schieden":1574,"Ġkein":1575,"hin":1576,"Ġunserer":1577,"zen":1578,"ool":1579,"There":1580,"itÃ¤":1581,"Ġagre":1582,"alk":1583,"You":1584,"round":1585,"rechen":1586,"ĠGro":1587,"Ġhabe":1588,"ix":1589,"ĠHand":1590,"Ġhere":1591,"Ġreal":1592,"ĠâĢľ":1593,"Ġhelp":1594,"ĠGeb":1595,"Ġsm":1596,"Ġsondern":1597,"eth":1598,"schafts":1599,"piel":1600,"Ġstand":1601,"Ġafter":1602,"Ġcomple":1603,"Ġseine":1604,"urs":1605,"leg":1606,"Ġjedoch":1607,"Ġdeb":1608,"res":1609,"ince":1610,"Ġform":1611,"ests":1612,"gesch":1613,"ĠHe":1614,"eite":1615,"Mr":1616,"Ġplace":1617,"tegr":1618,"Ġpolitical":1619,"ruck":1620,"Ġexp":1621,"Ġgut":1622,"Ġpublic":1623,"ĠEuropÃ¤ische":1624,"Ġide":1625,"eld":1626,"mb":1627,"Ġconcern":1628,"Ġpossible":1629,"ĠIhr":1630,"Ġprote":1631,"istr":1632,"Ġincre":1633,"ax":1634,"mittel":1635,"ved":1636,"Ġsame":1637,"ende":1638,"Ġ9":1639,"erk":1640,"ĠEx":1641,"ently":1642,"ĠBÃ¼r":1643,"Ġsim":1644,"Ġausge":1645,"Ġser":1646,"Ġclear":1647,"Ġetw":1648,"iron":1649,"ktiv":1650,"ata":1651,"For":1652,"ĠwÃ¼r":1653,"Ã¶glichkeit":1654,"bens":1655,"ierte":1656,"schlieÃŁ":1657,"eral":1658,"ĠFin":1659,"Ġhuman":1660,"tal":1661,"Ġneue":1662,"Ġcould":1663,"Ġwant":1664,"ines":1665,"ĠInter":1666,"tens":1667,"Ġbef":1668,"Ġdr":1669,"Ġheute":1670,"line":1671,"ĠBes":1672,"Ġnumber":1673,"fach":1674,"ĠGem":1675,"ĠInformation":1676,"Ġsay":1677,"lagen":1678,"Ġcontin":1679,"nder":1680,"Ġoffer":1681,"Ġperson":1682,"As":1683,"Ġdoes":1684,"ven":1685,"Ġgleich":1686,"Ġthen":1687,"Ġest":1688,"Ġcurr":1689,"ics":1690,"ertain":1691,"Ġdevelopment":1692,"Ġwithin":1693,"use":1694,"Ġopp":1695,"ĠBar":1696,"Ġeffect":1697,"ants":1698,"isk":1699,"trÃ¤":1700,"iti":1701,"Ġwen":1702,"ĠBr":1703,"Ġrights":1704,"ÃŁnahmen":1705,"Diese":1706,"tellt":1707,"ep":1708,"raft":1709,"ĠSta":1710,"Ġbereits":1711,"ĠKolle":1712,"ĠUnternehmen":1713,"osten":1714,"Ġavail":1715,"ĠTeil":1716,"Ġfest":1717,"Ġtransp":1718,"uro":1719,"Ã¤hl":1720,"Mit":1721,"Ġagainst":1722,"Ġselbst":1723,"Ġexam":1724,"yp":1725,"Ġmich":1726,"Ġohne":1727,"aup":1728,"alen":1729,"Herr":1730,"hip":1731,"Ġmuch":1732,"ander":1733,"Ġfund":1734,"ma":1735,"Ġeconomic":1736,"Ġused":1737,"Ġboth":1738,"bes":1739,"Ġvis":1740,"Ġval":1741,"lage":1742,"ĠÃĦnder":1743,"Ġtherefore":1744,"ĠInd":1745,"Ġprof":1746,"icult":1747,"ĠEntwicklung":1748,"ĠFre":1749,"ÂłÂł":1750,"Ġlang":1751,"Ġwichtig":1752,"Wh":1753,"Ġihrer":1754,"entlich":1755,"stru":1756,"ĠSchl":1757,"Ġsur":1758,"Ġsollte":1759,"utions":1760,"Ġlevel":1761,"fern":1762,"ock":1763,"Ġvar":1764,"rÃ¤":1765,"Ġhist":1766,"Ġsign":1767,"ife":1768,"que":1769,"ierten":1770,"ustom":1771,"ftware":1772,"loy":1773,"Ġneuen":1774,"Ġ...":1775,"setz":1776,"Ġmed":1777,"ds":1778,"ĠeuropÃ¤ischen":1779,"viron":1780,"Ġequ":1781,"erung":1782,"Ġregion":1783,"Ġpra":1784,"Ġ15":1785,"ĠSte":1786,"ulation":1787,"ĠFran":1788,"Ġbring":1789,"Ġfun":1790,"ivid":1791,"stÃ¤nd":1792,"ĠCon":1793,"Ġplay":1794,"ux":1795,"aff":1796,"Ġfull":1797,"lobal":1798,"eng":1799,"Ã¤re":1800,"ĠJahren":1801,"Ġprovid":1802,"Ġandere":1803,"satz":1804,"Ġbo":1805,"ĠRicht":1806,"urg":1807,"reichen":1808,"Ġcr":1809,"eut":1810,"ĠGerm":1811,"fahren":1812,"Ġsocial":1813,"ĠHer":1814,"way":1815,"Ġzwei":1816,"Ġcountry":1817,"ically":1818,"agement":1819,"net":1820,"Ġeigen":1821,"ittee":1822,"Ġbre":1823,"Ġthink":1824,"Ġdenn":1825,"Ġview":1826,"Ġconf":1827,"eiten":1828,"wert":1829,"Ġgroup":1830,"Ã¶ÃŁ":1831,"Ġlast":1832,"Er":1833,"its":1834,"ĠVers":1835,"Ġwithout":1836,"Ġpoint":1837,"Ġstill":1838,"Ġletz":1839,"Ġexper":1840,"work":1841,"vironment":1842,"ets":1843,"Ġfinan":1844,"wick":1845,"kehr":1846,"trib":1847,"licher":1848,"ichte":1849,"Ã¤ng":1850,"under":1851,"Ġmeas":1852,"immt":1853,"Ġdenen":1854,"ĠPre":1855,"ĠY":1856,"Ġens":1857,"Ġoper":1858,"br":1859,"wir":1860,"cur":1861,"Ġconsider":1862,"esse":1863,"par":1864,"ĠFrau":1865,"iver":1866,"over":1867,"St":1868,"Ġsollten":1869,"Ġdifferent":1870,"ator":1871,"Ġservices":1872,"Ġfinden":1873,"gar":1874,"Ġadv":1875,"Ġaccess":1876,"ffen":1877,"nahme":1878,"Ġlong":1879,"ĠSicherheit":1880,"Ġgemeins":1881,"ĠmÃ¶glich":1882,"man":1883,"Ġmod":1884,"ĠFrage":1885,"ĠNach":1886,"fra":1887,"Ġopt":1888,"Ġpriv":1889,"ER":1890,"esen":1891,"ize":1892,"Ġverschieden":1893,"ists":1894,"wort":1895,"Ġspec":1896,"lim":1897,"Ġers":1898,"ohl":1899,"ĠBet":1900,"ondere":1901,"hor":1902,"ĠAs":1903,"entral":1904,"Ġ18":1905,"zeug":1906,"Ã¤hrend":1907,"Ġdown":1908,"ness":1909,"ĠMon":1910,"Ġfree":1911,"Ġprin":1912,"ationen":1913,"Ġatt":1914,"ollow":1915,"Ġavailable":1916,"How":1917,"Ġgel":1918,"ope":1919,"richt":1920,"war":1921,"Ġable":1922,"Ġrequire":1923,"aking":1924,"ĠunterstÃ¼tz":1925,"Ġback":1926,"ude":1927,"ĠBÃ¼rger":1928,"Ġ12":1929,"Ġcap":1930,"uture":1931,"orte":1932,"Ġgovern":1933,"Ġindustr":1934,"hol":1935,"ibility":1936,"Ġbietet":1937,"ritt":1938,"Ġkle":1939,"ĠWirt":1940,"ready":1941,"akt":1942,"ĠDaten":1943,"ised":1944,"zahl":1945,"iÃŁ":1946,"pf":1947,"urther":1948,"Ġspecial":1949,"atur":1950,"Ġbusiness":1951,"ting":1952,"ability":1953,"kun":1954,"ience":1955,"Ġdazu":1956,"vers":1957,"ystems":1958,"alth":1959,"ĠPerson":1960,"ĠHin":1961,"yn":1962,"Ġbefore":1963,"Ġlook":1964,"ĠZu":1965,"Ġsmall":1966,"gem":1967,"ĠKont":1968,"Ġcustom":1969,"Ġliegt":1970,"Ġallen":1971,"Ġmachen":1972,"afÃ¼r":1973,"ispiel":1974,"Ġviele":1975,"ĠFe":1976,"ppen":1977,"ienst":1978,"Ġalready":1979,"loss":1980,"Ġben":1981,"Ġweil":1982,"Ġpers":1983,"Ġgest":1984,"ĠPart":1985,"Ġbelieve":1986,"Ġfuture":1987,"Ġaller":1988,"On":1989,"ahmen":1990,"Ġze":1991,"Ġbek":1992,"Ġcor":1993,"aben":1994,"ĠKommiss":1995,"Ġair":1996,"une":1997,"ward":1998,"tem":1999,"ins":2000,"ahre":2001,"press":2002,"ilt":2003,"ders":2004,"200":2005,"Ġsom":2006,"cond":2007,"So":2008,"ased":2009,"ctions":2010,"Ġseiner":2011,"ĠMittel":2012,"ctor":2013,"Ġhal":2014,"]]":2015,"ktur":2016,"ves":2017,"All":2018,"zug":2019,"Ġcourse":2020,"Ġopen":2021,"annt":2022,"Ġdarauf":2023,"Ġdesign":2024,"Ġproject":2025,"gramme":2026,"Ġtoday":2027,"kten":2028,"ante":2029,"esell":2030,"Ġset":2031,"jor":2032,"ĠIs":2033,"welt":2034,"Ġjetzt":2035,"Ġinst":2036,"ĠkÃ¶nn":2037,"agen":2038,"Ġtoo":2039,"ving":2040,"Ġproducts":2041,"ĠMÃ¶glichkeit":2042,"ĠAm":2043,"Ġservice":2044,"Ã¤ÃŁ":2045,"ismus":2046,"Ġet":2047,"Ġcann":2048,"Ã¤h":2049,"ron":2050,"aher":2051,"Ġeing":2052,"ĠStand":2053,"ĠAut":2054,"Ġenvironment":2055,"ĠgrÃ¶ÃŁ":2056,"ĠThem":2057,"Ġfl":2058,"omen":2059,"Ġrespons":2060,"hÃ¤lt":2061,"itiz":2062,"ica":2063,"cr":2064,"Ġcertain":2065,"ination":2066,"Ġcannot":2067,"llt":2068,"Ġfac":2069,"ĠRahmen":2070,"zus":2071,"nisse":2072,"ren":2073,"ĠFinanz":2074,"Ġdata":2075,"Ġgeb":2076,"mar":2077,"tend":2078,"Ġgeht":2079,"Ġschon":2080,"other":2081,"curity":2082,"Ġprev":2083,"aterial":2084,"Ġmir":2085,"come":2086,"lease":2087,"Ġeinfach":2088,"Ã¶l":2089,"ĠLage":2090,"ĠMaÃŁnahmen":2091,"Ġfollow":2092,"Ġfra":2093,"Ġcase":2094,"Ġbro":2095,"Ġbin":2096,"ately":2097,"olution":2098,"ĠTra":2099,"chie":2100,"operation":2101,"Ġredu":2102,"co":2103,"okrat":2104,"Ġindivid":2105,"20":2106,"iving":2107,"Ġint":2108,"klÃ¤r":2109,"Ġoffers":2110,"los":2111,"Ġneg":2112,"ars":2113,"ĠZiel":2114,"Ġeinige":2115,"Ġregard":2116,"olid":2117,"Ġput":2118,"ĠdafÃ¼r":2119,"orn":2120,"red":2121,"Ġquestion":2122,"tain":2123,"ĠInformationen":2124,"abei":2125,"EN":2126,"ĠVerein":2127,"Ġeas":2128,"ĠRechts":2129,"raph":2130,"Ġimpro":2131,"Ġseit":2132,"Ġart":2133,"inal":2134,"Ġvoll":2135,"ĠGemein":2136,"ĠMed":2137,"ccess":2138,"That":2139,"Ã¤tz":2140,"affen":2141,"Ġter":2142,"ervice":2143,"Ġje":2144,"ential":2145,"ually":2146,"eich":2147,"ĠHerrn":2148,"ified":2149,"iber":2150,"Ġ&":2151,"Ġcity":2152,"Ġintegr":2153,"ergy":2154,"ather":2155,"folg":2156,"ahn":2157,"Ġsaid":2158,"ĠGen":2159,"Ġreas":2160,"isierung":2161,"imes":2162,"Ġduring":2163,"Ġrepr":2164,"Ġimple":2165,"ĠStadt":2166,"Ġposit":2167,"ĠMan":2168,"Ġchange":2169,"ilit":2170,"Ġ[[":2171,"Ġfinancial":2172,"ĠAussch":2173,"ĠDem":2174,"utes":2175,"ĠÃ¶ff":2176,"ichten":2177,"grund":2178,"Ġcitiz":2179,"Ġrev":2180,"allen":2181,"Ã¼nd":2182,"Ġday":2183,"anden":2184,"Ġactiv":2185,"Ġihren":2186,"Ã¼h":2187,"ĠzurÃ¼ck":2188,"lex":2189,"ove":2190,"ucht":2191,"ĠInternet":2192,"Ġfar":2193,"Ġprom":2194,"Ġproblem":2195,"Ġfol":2196,"Ġallem":2197,"amm":2198,"ichter":2199,"Ġinvest":2200,"Ġdeut":2201,"inen":2202,"Ġnun":2203,"uchen":2204,"ĠPol":2205,"Ġmeans":2206,"Ġstat":2207,"Ġissue":2208,"Ġachie":2209,"cing":2210,"ĠJahre":2211,"Ã¤m":2212,"Ġproposal":2213,"bsite":2214,"Ġlarge":2215,"Ġsaf":2216,"Ġask":2217,"aum":2218,"so":2219,"tt":2220,"Ġkl":2221,"lossen":2222,"Ġmeine":2223,"ily":2224,"iele":2225,"Re":2226,"reib":2227,"isl":2228,"ways":2229,"Ġexample":2230,"Ġzusammen":2231,"Ġquality":2232,"Ġapplic":2233,"scheid":2234,"Ġmajor":2235,"Ġ2009":2236,"Ġfamil":2237,"Ġmember":2238,"besondere":2239,"nov":2240,"Ġmeet":2241,"Ġmodern":2242,"ĠRuss":2243,"illion":2244,"Ġpresent":2245,"heiten":2246,"Ġentsp":2247,"Ġsince":2248,"Ġsituation":2249,"udget":2250,"Ġgef":2251,"halts":2252,"Ġcost":2253,"Ġbesch":2254,"punkt":2255,"iend":2256,"Ã¡":2257,"Ġglobal":2258,"Ġrooms":2259,"lichkeit":2260,"Ġdebate":2261,"Ġbesonder":2262,"Ġnecess":2263,"ĠTran":2264,"unter":2265,"gress":2266,"ites":2267,"Ġ0":2268,"ĠAmer":2269,"ether":2270,"Ġwollen":2271,"Ġstrateg":2272,"aupt":2273,"Ġunseren":2274,"Ġsicher":2275,"ĠCommissioner":2276,"ĠverfÃ¼":2277,"fÃ¼hrt":2278,"ule":2279,"amer":2280,"ash":2281,"antwort":2282,"org":2283,"ized":2284,"pre":2285,"Ġeinge":2286,"Ġtechnolog":2287,"oten":2288,"fts":2289,"ilities":2290,"Ġchild":2291,"Ġamend":2292,"ktionen":2293,"tellen":2294,"leist":2295,"Ġcommon":2296,"angen":2297,"Ġeng":2298,"Ġeach":2299,"eschÃ¤ft":2300,"blems":2301,"But":2302,"Ġadop":2303,"ĠwÃ¼rde":2304,"ĠZimmer":2305,"haf":2306,"Des":2307,"Ġpass":2308,"Ġche":2309,"Pro":2310,"kunft":2311,"ird":2312,"etzen":2313,"Ġincluding":2314,"ĠKommissar":2315,"oren":2316,"fass":2317,"Ġgar":2318,"ĠCommittee":2319,"ĠPal":2320,"ode":2321,"ache":2322,"omat":2323,"Ġcompet":2324,"ĠKin":2325,"ĠÃĸ":2326,"immung":2327,"ĠParlaments":2328,"oh":2329,"reit":2330,"Ġcolle":2331,"Ġcitizens":2332,"cip":2333,"Ġpower":2334,"Ġref":2335,"Nach":2336,"ĠGew":2337,"genommen":2338,"ĠArbeits":2339,"Ġstehen":2340,"Ġthree":2341,"Ġetwas":2342,"ĠwÃ¤hrend":2343,"ĠEnerg":2344,"bed":2345,"ĠGesch":2346,"opp":2347,"por":2348,"Ġsagen":2349,"vention":2350,"aurant":2351,"Ġstay":2352,"Ġfound":2353,"ieder":2354,"ablish":2355,"Ġallow":2356,"ĠEng":2357,"ining":2358,"ipp":2359,"Ġareas":2360,"Ġnext":2361,"ĠPolitik":2362,"Ġrespect":2363,"Ġcult":2364,"Ġobject":2365,"Ġstud":2366,"gew":2367,"ell":2368,"Ġmeasures":2369,"gangen":2370,"ï¿":2371,"ĠVorschlag":2372,"ï¿½":2373,"Ġdoch":2374,"ains":2375,"orth":2376,"ĠWir":2377,"Ġgive":2378,"Ġorganis":2379,"ĠBest":2380,"ĠForm":2381,"Ġsozial":2382,"uge":2383,"However":2384,"zw":2385,"Ġfew":2386,"ands":2387,"Ġ/":2388,"ĠWor":2389,"zept":2390,"Ġrece":2391,"ordnung":2392,"ugen":2393,"Ġauthor":2394,"Ġbr":2395,"Ġ30":2396,"linie":2397,"Ġensure":2398,"ĠBild":2399,"Ġdiscuss":2400,"Ġkomm":2401,"Ġdemoc":2402,"Ġ%":2403,"Ġpres":2404,"rache":2405,"ught":2406,"ling":2407,"asch":2408,"Ġfurther":2409,"Ġthank":2410,"Ġresult":2411,"Ġhistor":2412,"Ġerm":2413,"Ġprovide":2414,"Ã¼rlich":2415,"Ġenergy":2416,"Ġtun":2417,"Ġtaken":2418,"Ġwissen":2419,"ĠPh":2420,"Ġfil":2421,"Ġmus":2422,"iff":2423,"falls":2424,"Ġbuild":2425,"ĠEuro":2426,"schaften":2427,"unde":2428,"Ġinsbesondere":2429,"Ġagreement":2430,"ĠUr":2431,"Ġcal":2432,"Ġsuccess":2433,"ĠBo":2434,"Ġerhalten":2435,"Ġcontrol":2436,"stellung":2437,"Ġaddition":2438,"Ġkom":2439,"gleich":2440,"ser":2441,"iate":2442,"ek":2443,"agt":2444,"stÃ¼tzung":2445,"schl":2446,"Ġdra":2447,"ĠLÃ¤nder":2448,"gre":2449,"anken":2450,"itor":2451,"Ġeinmal":2452,"Ġwaren":2453,"indet":2454,"Ġdet":2455,"Our":2456,"Ġemploy":2457,"ziel":2458,"Ġpay":2459,"ĠLÃ¶s":2460,"wirt":2461,"ĠauÃŁer":2462,"ĠVerfÃ¼":2463,"pecial":2464,"Ġposition":2465,"With":2466,"ases":2467,"cken":2468,"Ġestablish":2469,"Ġread":2470,"ĠFall":2471,"legt":2472,"Ġkommen":2473,"19":2474,"ilfe":2475,"Ġlaw":2476,"Ġabs":2477,"lungs":2478,"uff":2479,"itÃ¤ten":2480,"ditions":2481,"chnolog":2482,"Ġvo":2483,"gang":2484,"igten":2485,"Ġbeim":2486,"ohn":2487,"Ġcome":2488,"ĠProblem":2489,"Ġdu":2490,"ules":2491,"Ġlink":2492,"jekt":2493,"ross":2494,"arte":2495,"ĠDeut":2496,"ĠÃĦnderungs":2497,"ĠKunden":2498,"Ġersten":2499,"tschaft":2500,"Ġsk":2501,"arn":2502,"Ġopport":2503,"Ġinde":2504,"Ġcompany":2505,"Ġshall":2506,"mm":2507,"bo":2508,"Ġpop":2509,"Ġgrow":2510,"Ġproblems":2511,"ements":2512,"ĠMarkt":2513,"aren":2514,"uten":2515,"Ġdid":2516,"Ġnecessary":2517,"Ġverw":2518,"ĠGo":2519,"Ġimp":2520,"arten":2521,"ĠZusammenarbeit":2522,"igkeiten":2523,"rop":2524,"AT":2525,"ĠItal":2526,"ĠGroup":2527,"unic":2528,"Ġterr":2529,"ott":2530,"fre":2531,"Ġlassen":2532,"utzen":2533,"Auf":2534,"Ġprincip":2535,"Eine":2536,"Ġdrei":2537,"Ġel":2538,"ums":2539,"Ġschw":2540,"pend":2541,"ĠAll":2542,"umen":2543,"esser":2544,"ĠQual":2545,"lemen":2546,"Ġlegisl":2547,"ĠNamen":2548,"AN":2549,"Ġbegr":2550,"Ġkey":2551,"FÃ¼r":2552,"Ġbudget":2553,"Ġgiven":2554,"ĠUnterstÃ¼tzung":2555,"ĠGer":2556,"ĠSh":2557,"Ġpract":2558,"ises":2559,"ĠgroÃŁ":2560,"fung":2561,"ĠÃ¤":2562,"politik":2563,"elf":2564,"Ġgeben":2565,"Ġsecurity":2566,"fang":2567,"med":2568,"Ġerst":2569,"ĠÂ":2570,"Ġinvol":2571,"He":2572,"bau":2573,"Ġ|":2574,"ĠÐ":2575,"Ġem":2576,"Ġwirk":2577,"esellschaft":2578,"Ġhope":2579,"glichen":2580,"burg":2581,"Ġhowever":2582,"Ġsecond":2583,"Ã¶rder":2584,"orgen":2585,"iter":2586,"asse":2587,"Ġwhy":2588,"ctive":2589,"Ġchar":2590,"Ġhealth":2591,"To":2592,"joy":2593,"lungen":2594,"ichts":2595,"IN":2596,"Ġlead":2597,"wards":2598,"ĠZug":2599,"isation":2600,"Ġverl":2601,"ising":2602,"ĠSchw":2603,"ĠRes":2604,"Ġ25":2605,"bewer":2606,"Ġentwick":2607,"iety":2608,"ĠSpiel":2609,"ared":2610,"ĠMus":2611,"ĠUmwelt":2612,"ively":2613,"Ġcooperation":2614,"ĠProble":2615,"ĠStra":2616,"ave":2617,"ES":2618,"ĠBl":2619,"Ġbl":2620,"gether":2621,"nell":2622,"ĠMill":2623,"fte":2624,"Ġret":2625,"Ġwhile":2626,"Ġbesteht":2627,"ĠRecht":2628,"urz":2629,"Ġlocated":2630,"fÃ¼hrung":2631,"von":2632,"Sch":2633,"Ġir":2634,"Ġander":2635,"spro":2636,"Ġwish":2637,"Ġstart":2638,"Ġlife":2639,"Ġgra":2640,"arch":2641,"Ġprotection":2642,"ĠRo":2643,"Ġwirtschaft":2644,"Ġrefer":2645,"ĠDienst":2646,"Ġimplement":2647,"schied":2648,"Ġalways":2649,"Ġ14":2650,"altung":2651,"Ġtradition":2652,"Ġcomplete":2653,"ury":2654,"Ġwrit":2655,"Ġneeds":2656,"wendung":2657,"Ġseinen":2658,"En":2659,"Ġsehen":2660,"ĠfÃ¼hren":2661,"text":2662,"Ġsteht":2663,"Ġvote":2664,"erb":2665,"ĠMein":2666,"ried":2667,"earch":2668,"ĠLÃ¤ndern":2669,"Ġinform":2670,"licht":2671,"ĠX":2672,"zieh":2673,"ald":2674,"ĠGeschÃ¤":2675,"ĠTag":2676,"lect":2677,"ique":2678,"ppe":2679,"ogen":2680,"Ġstatt":2681,"Ġcomb":2682,"Ġbeh":2683,"kon":2684,"Ġsens":2685,"Ġ11":2686,"cell":2687,"Ġdiff":2688,"hÃ¤ng":2689,"ĠDeb":2690,"ca":2691,"kre":2692,"ĠIch":2693,"Ã¶t":2694,"Wie":2695,"ĠChina":2696,"tion":2697,"stellen":2698,"by":2699,"Ġbetter":2700,"Ġ16":2701,"ĠwÃ¤re":2702,"ĠFragen":2703,"Ġakt":2704,"Ġtre":2705,"ichterst":2706,"ĠSystem":2707,"Ġdabei":2708,"ches":2709,"alle":2710,"ivil":2711,"ettbewer":2712,"Ã¤tze":2713,"dress":2714,"Ġaction":2715,"ĠBeit":2716,"Ã¤d":2717,"zess":2718,"Ġmult":2719,"ĠHouse":2720,"At":2721,"ĠVol":2722,"ĠKollegen":2723,"ĠUnited":2724,"Se":2725,"Ġglaub":2726,"Ġaccount":2727,"schein":2728,"ialog":2729,"ĠgehÃ¶r":2730,"iation":2731,"gaben":2732,"zÃ¼":2733,"Ġinterest":2734,"ĠAt":2735,"Ġnet":2736,"Ġlegal":2737,"ĠRest":2738,"ĠTr":2739,"Ġmen":2740,"Ġfiel":2741,"Ġworden":2742,"bereich":2743,"Ġusing":2744,"Ġnor":2745,"iste":2746,"ĠLebens":2747,"cher":2748,"uft":2749,"Ġfav":2750,"Ã¤mp":2751,"Ġletzten":2752,"enten":2753,"Ġcho":2754,"rechte":2755,"ĠmuÃŁ":2756,"ĠhÃ¶":2757,"sequ":2758,"ĠRed":2759,"ĠDes":2760,"iod":2761,"ĠPort":2762,"Ġdefin":2763,"less":2764,"ikan":2765,"ĠSw":2766,"ĠRegierung":2767,"obil":2768,"Ġsing":2769,"schrif":2770,"ĠAd":2771,"Ġmov":2772,"of":2773,"clus":2774,"Ġreach":2775,"ierungs":2776,"rÃ¤n":2777,"ĠCommunity":2778,"Ġ17":2779,"Ġaround":2780,"Ġble":2781,"ingungen":2782,"ĠEnergie":2783,"Ġ2010":2784,"Ġbased":2785,"gehen":2786,"ĠBedeut":2787,"Ġconne":2788,"Ġ2008":2789,"Ġconsum":2790,"undheit":2791,"Ġtransport":2792,"ĠKr":2793,"Fra":2794,"ĠgroÃŁen":2795,"gabe":2796,"iges":2797,"ĠVerfÃ¼gung":2798,"Ġderen":2799,"Ġadd":2800,"gestellt":2801,"Ġwelche":2802,"ĠSpe":2803,"Ġworking":2804,"Ã¶lk":2805,"genden":2806,"Ġ50":2807,"ify":2808,"ĠgroÃŁe":2809,"Ġterms":2810,"Ġmet":2811,"markt":2812,"30":2813,"abil":2814,"Ġcurrent":2815,"ĠBedeutung":2816,"ervor":2817,"ĠSeite":2818,"asser":2819,"Ġinner":2820,"ged":2821,"Ġproduction":2822,"ĠEntscheid":2823,"lev":2824,"uments":2825,"Ġshort":2826,"ĠKom":2827,"racht":2828,"Ġstru":2829,"blick":2830,"Ġwhether":2831,"pporte":2832,"Ġbecome":2833,"ĠQu":2834,"Ġcentre":2835,"hof":2836,"ĠBel":2837,"Ġcrit":2838,"offe":2839,"ĠErgeb":2840,"Ġparticularly":2841,"Ġnon":2842,"ĠDas":2843,"eder":2844,"Ġlim":2845,"Ġless":2846,"Ġindividual":2847,"Ġtogether":2848,"Ġextre":2849,"Ġdifficult":2850,"ĠUSA":2851,"Ġvisit":2852,"Ġbel":2853,"load":2854,"ĠRom":2855,"Ġanother":2856,"Ġnear":2857,"Ã¼nst":2858,"ĠRegion":2859,"Ġorig":2860,"ferenz":2861,"Ġho":2862,"uter":2863,"Ġhim":2864,"Ġdef":2865,"Ġresearch":2866,"Ġdist":2867,"Ġzahl":2868,"Ġstate":2869,"druck":2870,"Ġclos":2871,"Ġrep":2872,"Ġwater":2873,"osition":2874,"kauf":2875,"anies":2876,"Ġtrade":2877,"Ġcare":2878,"Ġear":2879,"immen":2880,"ĠSchutz":2881,"ustrie":2882,"Ġchildren":2883,"ĠSk":2884,"ĠFamil":2885,"room":2886,"Ġbeach":2887,"ĠCl":2888,"Ġwhole":2889,"Ġnotwend":2890,"pecially":2891,"bene":2892,"Ġcontrib":2893,"Ġexist":2894,"Ġtour":2895,"Ġsl":2896,"tellung":2897,"ĠVertrag":2898,"ots":2899,"Ġbene":2900,"Ġjeder":2901,"Ġissues":2902,"astr":2903,"Ġhervor":2904,"Ġlocal":2905,"ners":2906,"akes":2907,"Ġbieten":2908,"ĠRegel":2909,"50":2910,"trÃ¤ge":2911,"ĠÃ¶ffent":2912,"ty":2913,"ording":2914,"entrum":2915,"Ġdavon":2916,"Ġconditions":2917,"iar":2918,"ckt":2919,"Ġ100":2920,"arante":2921,"leit":2922,"ĠThema":2923,"ames":2924,"Ġspecific":2925,"Ġfriend":2926,"ĠdarÃ¼ber":2927,"ĠLa":2928,"iew":2929,"Ġreason":2930,"Ġentfern":2931,"atte":2932,"Ġricht":2933,"Ã¼t":2934,"Ġenjoy":2935,"Ġkm":2936,"ĠBesch":2937,"Ġeben":2938,"ton":2939,"Ġcall":2940,"Ð¾":2941,"ultur":2942,"Ġerforder":2943,"Ġsubject":2944,"Ġshow":2945,"Ġbook":2946,"hang":2947,"ON":2948,"ody":2949,"Ġaff":2950,"orts":2951,"Bei":2952,"xim":2953,"adies":2954,"Ġstellen":2955,"Ġann":2956,"Ġbew":2957,"Ġalles":2958,"ĠgegenÃ¼ber":2959,"ours":2960,"Ġdaher":2961,"Ġ2007":2962,"ĠKinder":2963,"rieden":2964,"hÃ¶":2965,"Ġsystems":2966,"Ġaddress":2967,"ikel":2968,"ategor":2969,"Ġvarious":2970,"ĠUN":2971,"bt":2972,"ufen":2973,"ennt":2974,"Ġrapporte":2975,"Ġrole":2976,"What":2977,"ĠWeise":2978,"kungen":2979,"Ġschnell":2980,"ÃŃ":2981,"Ġbrauch":2982,"vest":2983,"Ġrun":2984,"Ġeigenen":2985,"ength":2986,"ĠService":2987,"When":2988,"Ã³":2989,"Ġexperience":2990,"ĠWirtschafts":2991,"Ġ24":2992,"ails":2993,"ika":2994,"ĠMal":2995,"row":2996,"Ġcompanies":2997,"Ġorgan":2998,"Ġgesam":2999,"Ġtax":3000,"ĠProbleme":3001,"Ġpage":3002,"fÃ¤h":3003,"Ġwomen":3004,"Ġold":3005,"ĠBeispiel":3006,"Ġindustry":3007,"sk":3008,"Ġstep":3009,"ĠBerichterst":3010,"Ġsowohl":3011,"Ġhatte":3012,"gemein":3013,"ĠGÃ¤":3014,"isions":3015,"schutz":3016,"Ġbasis":3017,"ĠTur":3018,"Ġur":3019,"isches":3020,"Ġbefindet":3021,"Ġguarante":3022,"Ġsector":3023,"Ġweitere":3024,"Ġaim":3025,"ĠnÃ¤ch":3026,"rodu":3027,"roll":3028,"sen":3029,"aster":3030,"esehen":3031,"Und":3032,"ĠWahl":3033,"Ne":3034,"Ġocc":3035,"They":3036,"ĠMrs":3037,"ĠInternational":3038,"ĠHaushalts":3039,"wirtschaft":3040,"oney":3041,"Ġdort":3042,"thing":3043,"itiative":3044,"neten":3045,"Ġpat":3046,"Ġbeaut":3047,"ĠWeg":3048,"Ġbenef":3049,"irm":3050,"Ġerreichen":3051,"Ġpolitischen":3052,"Ġpack":3053,"Ġprofession":3054,"Ġreally":3055,"Ġmeiner":3056,"Ġcomfort":3057,"ĠIhrer":3058,"ĠEUR":3059,"ĠAir":3060,"ĠFrauen":3061,"Ġmatter":3062,"ino":3063,"geord":3064,"Ġdi":3065,"Ġwirklich":3066,"Ġsever":3067,"Ġdeal":3068,"ĠnatÃ¼rlich":3069,"ĠSan":3070,"Aus":3071,"lock":3072,"ĠBus":3073,"ĠkÃ¶nnte":3074,"chan":3075,"AR":3076,"ĠGu":3077,"ai":3078,"Ġcommit":3079,"ĠGerman":3080,"ĠFahr":3081,"Ġarbeit":3082,"\",":3083,"reaty":3084,"Ġcol":3085,"Ġthird":3086,"Ġmonth":3087,"ober":3088,"Was":3089,"Ġtyp":3090,"Ġbesonders":3091,"inter":3092,"ived":3093,"Ġprior":3094,"ĠBen":3095,"ĠZahl":3096,"gende":3097,"Ġbar":3098,"Ġbreak":3099,"Ġihnen":3100,"ĠAusschuss":3101,"ritte":3102,"ably":3103,"Ġespecially":3104,"bild":3105,"Ġdoc":3106,"Ġdone":3107,"ĠFol":3108,"Ġstaff":3109,"ĠZukunft":3110,"Ġmembers":3111,"Ġperiod":3112,"Ġinnov":3113,"Ġclose":3114,"Ġgent":3115,"Ġverschiedenen":3116,"amt":3117,"ances":3118,"ĠunterstÃ¼tzen":3119,"Ġshe":3120,"ĠStud":3121,"Ġproced":3122,"cellent":3123,"ĠGeschÃ¤fts":3124,"til":3125,"ĠLin":3126,"ifiz":3127,"ĠKl":3128,"ean":3129,"ĠStaaten":3130,"Ġmot":3131,"ety":3132,"reg":3133,"ĠEnde":3134,"finden":3135,"Ġentfernt":3136,"Ġ13":3137,"ĠDer":3138,"dings":3139,"treten":3140,"ival":3141,"ograph":3142,"ething":3143,"werk":3144,"ides":3145,"ĠFun":3146,"ĠMark":3147,"Ġtop":3148,"ĠHaupt":3149,"zuf":3150,"\".":3151,"ican":3152,"Ġfood":3153,"Ã¼nft":3154,"uktur":3155,"Ġgovernment":3156,"Ġinnerhalb":3157,"ĠForsch":3158,"IT":3159,"Ġhoch":3160,"Ġpersonal":3161,"Ġfeat":3162,"ĠSeiten":3163,"Ġnegot":3164,"Ġteil":3165,"Ġcreate":3166,"spl":3167,"ization":3168,"Ġvielen":3169,"app":3170,"Ġturn":3171,"ĠProdukt":3172,"Ġlocation":3173,"neh":3174,"ĠSituation":3175,"raum":3176,"These":3177,"Ġsite":3178,"Ġrepresent":3179,"ĠFort":3180,"Ġperform":3181,"kung":3182,"Ġple":3183,"ichtet":3184,"Ġsum":3185,"Ġprivate":3186,"ĠRolle":3187,"Ġbetr":3188,"Ġpress":3189,"ec":3190,"icient":3191,"duc":3192,"Ġinstit":3193,"Ġenter":3194,"erien":3195,"ences":3196,"Ġprop":3197,"Ġzwar":3198,"asing":3199,"Ġgener":3200,"Ġapproach":3201,"indung":3202,"scheiden":3203,"Ġevent":3204,"Ġsoc":3205,"weisen":3206,"ension":3207,"fast":3208,"oment":3209,"Ġpoin":3210,"ĠProgramm":3211,"Ġinternationalen":3212,"Ġamong":3213,"Ġsingle":3214,"uc":3215,"Ġsomething":3216,"Ġstar":3217,"Ġdecision":3218,"ĠDeutsch":3219,"ĠWettbewer":3220,"ults":3221,"Ġseveral":3222,"ordin":3223,"Ġitself":3224,"Ġjob":3225,"Ġlo":3226,"Ġlangu":3227,"imate":3228,"Ġbestimm":3229,"zip":3230,"Ġreform":3231,"ĠmÃ¶chten":3232,"iol":3233,"Ã¼d":3234,"olf":3235,"Ġwelt":3236,"ĠFest":3237,"'t":3238,"Ġgeneral":3239,"ĠPark":3240,"Ġfavour":3241,"Ġlist":3242,"Ġdoub":3243,"wh":3244,"11":3245,"Ġmaterial":3246,"ktor":3247,"Ġinstall":3248,"uth":3249,"Ġstruct":3250,"ministr":3251,"Ġtown":3252,"uellen":3253,"ift":3254,"lands":3255,"tember":3256,"ittle":3257,"ativen":3258,"Ã¼hr":3259,"ĠRichtlinie":3260,"atch":3261,"oor":3262,"Ġresour":3263,"ians":3264,"eign":3265,"Ġaufge":3266,"Um":3267,"ĠWoch":3268,"Ã¤nde":3269,"Ġdirekt":3270,"Ġprogramme":3271,"onds":3272,"Ġmaking":3273,"mos":3274,"ĠdÃ¼r":3275,"Ġcontinue":3276,"Ġhinaus":3277,"IS":3278,"Ġresolution":3279,"mework":3280,"ĠDisk":3281,"ĠIhren":3282,"ĠVerbrauch":3283,"ĠGru":3284,"ane":3285,"Ġleast":3286,"wÃ¤r":3287,"Ġmillion":3288,"Ġenc":3289,"isis":3290,"ification":3291,"And":3292,"cel":3293,"yl":3294,"Ġautomat":3295,"Ġgentlemen":3296,"Ġfollowing":3297,"Ġintrodu":3298,"ĠTerr":3299,"Ġaccept":3300,"sprache":3301,"Ver":3302,"rael":3303,"Ġgoing":3304,"go":3305,"ĠNutz":3306,"wÃ¤":3307,"ĠAfr":3308,"ĠEl":3309,"iations":3310,"ĠTour":3311,"Als":3312,"ĠSoftware":3313,"Ġaway":3314,"Auch":3315,"Ġserious":3316,"Ġlet":3317,"Ġopin":3318,"Ġexcellent":3319,"ĠLie":3320,"Ġgl":3321,"ĠKÃ¼":3322,"Ġkind":3323,"Da":3324,"Ġtext":3325,"ĠComp":3326,"Ġprogress":3327,"Ġpeace":3328,"Ġrelations":3329,"Ġhome":3330,"nehmer":3331,"hens":3332,"bei":3333,"Ġoften":3334,"Ġmanagement":3335,"Ġname":3336,"Ġ:":3337,"ĠStrateg":3338,"Ġerste":3339,"ifen":3340,"atives":3341,"Ġsup":3342,"CH":3343,"rim":3344,"Ġfamily":3345,"Ġkonn":3346,"miss":3347,"ĠAbst":3348,"iere":3349,"Ġparticip":3350,"auer":3351,"Ġunderstand":3352,"Ġmar":3353,"Ġdirective":3354,"Ġrules":3355,"let":3356,"Ġoffen":3357,"ĠGermany":3358,"Ġans":3359,"Ġtro":3360,"Aber":3361,"ĠWer":3362,"oto":3363,"gricult":3364,"fehl":3365,"ĠeuropÃ¤ische":3366,"Ġapart":3367,"aps":3368,"strument":3369,"Ġcontact":3370,"antrag":3371,"ĠNot":3372,"Ġrapporteur":3373,"icle":3374,"ĠEs":3375,"orm":3376,"ĠHotels":3377,"Ġanal":3378,"ĠUhr":3379,"ĠGegen":3380,"ĠRÃ¼ck":3381,"ĠMeinung":3382,"ĠChr":3383,"unds":3384,"Ġ2000":3385,"Ġsett":3386,"fect":3387,"though":3388,"ype":3389,"produ":3390,"Ġregul":3391,"Ġfeel":3392,"iken":3393,"Ġmach":3394,"Ġtowards":3395,"ksam":3396,"Ġcrisis":3397,"weg":3398,"Hier":3399,"Ġforward":3400,"Ġsoftware":3401,"icial":3402,"Ġmoney":3403,"Ġexpress":3404,"Ġonce":3405,"12":3406,"ierungen":3407,"the":3408,"Ġprice":3409,"ony":3410,"ĠNew":3411,"Ġeinzel":3412,"Ġrange":3413,"leistungen":3414,"Ġline":3415,"ully":3416,"Ġklar":3417,"thers":3418,"Ġinc":3419,"Ġwelcome":3420,"pekt":3421,"Ġonline":3422,"Ġthings":3423,"Ġextrem":3424,"Ġetc":3425,"Ðµ":3426,"Ġstark":3427,"stÃ¼ck":3428,"prÃ¼":3429,"Ġabsol":3430,"Ġfast":3431,"ĠWind":3432,"etzung":3433,"ĠBerlin":3434,"zogen":3435,"Ġlittle":3436,"teilung":3437,"ference":3438,"ĠhÃ¤t":3439,"Ġrecog":3440,"ĠZusammenhang":3441,"Ġmention":3442,"voll":3443,"weis":3444,"ĠGesundheit":3445,"adam":3446,"Ġcommunic":3447,"Ġident":3448,"Ġdest":3449,"wach":3450,"Ġbal":3451,"DE":3452,"ĠAbgeord":3453,"Ġuntil":3454,"ifft":3455,"haus":3456,"Ġinstitutions":3457,"uÃŁen":3458,"Ġzus":3459,"ĠOn":3460,"Ġant":3461,"Ġpost":3462,"ĠKre":3463,"Ġsitu":3464,"ij":3465,"ubl":3466,"ĠRep":3467,"Ġunserem":3468,"itÃ¤ts":3469,"ĠUnivers":3470,"Ġbeiden":3471,"Ab":3472,"Ġdays":3473,"esten":3474,"ĠFisch":3475,"istic":3476,"AS":3477,"Ġkommt":3478,"Ġstre":3479,"wand":3480,"Ġwalk":3481,"aden":3482,"ww":3483,"outh":3484,"ĠTransp":3485,"asst":3486,"Ġcustomers":3487,"ured":3488,"enzen":3489,"Ð°":3490,"ennen":3491,"ĠDire":3492,"Ġoptim":3493,"gÃ¤n":3494,"airs":3495,"bet":3496,"Ġplan":3497,"Ġmilit":3498,"ĠWorld":3499,"vent":3500,"iesen":3501,"ume":3502,"atten":3503,"ison":3504,"zimmer":3505,"ĠTreaty":3506,"Ġaid":3507,"Ġentsprechen":3508,"anges":3509,"Ġstrong":3510,"ĠGÃ¤ste":3511,"Ġess":3512,"ĠPartner":3513,"Ġfinanz":3514,"lÃ¤ge":3515,"ĠPersonen":3516,"ĠJan":3517,"OR":3518,"tract":3519,"ieten":3520,"lean":3521,"ommend":3522,"ĠFrank":3523,"Ġincrease":3524,"Ġagree":3525,"ĠEntschlieÃŁ":3526,"ĠEmp":3527,"ĠHilfe":3528,"ĠMet":3529,"idence":3530,"ĠSpan":3531,"na":3532,"Ġopportunity":3533,"Ġ198":3534,"Ã¤chst":3535,"fassung":3536,"Ġbestehen":3537,"leicht":3538,"ĠKomm":3539,"Ġve":3540,"idency":3541,"Ġkeep":3542,"Ġactivities":3543,"Ġfunction":3544,"ĠBerichterstatter":3545,"eu":3546,"ĠZwe":3547,"rech":3548,"Ġrather":3549,"half":3550,"Ġmind":3551,"ĠGra":3552,"yr":3553,"crip":3554,"Ġhard":3555,"Ġquite":3556,"ĠVerantwort":3557,"edom":3558,"stra":3559,"ĠNov":3560,"ĠOp":3561,"ocus":3562,"ielen":3563,"Ġstellt":3564,"weil":3565,"Ġweltweit":3566,"Ġ2006":3567,"met":3568,"Ã¤uf":3569,"Ġbzw":3570,"Ġcheck":3571,"ĠSchluss":3572,"Ġil":3573,"Ġja":3574,"ana":3575,"side":3576,"ĠTechnolog":3577,"Ġbringen":3578,"mÃ¤ÃŁ":3579,"lieÃŁen":3580,"Ġpositive":3581,"ĠArtikel":3582,"Ġtry":3583,"ĠPrÃ¤sidentin":3584,"ĠLÃ¶sung":3585,"Ġprovided":3586,"annten":3587,"ender":3588,"ĠInvest":3589,"baren":3590,"ĠBank":3591,"ĠUms":3592,"ĠbegrÃ¼":3593,"Ġbig":3594,"Ġseem":3595,"ĠSu":3596,"Ġtas":3597,"Ġelect":3598,"ĠKo":3599,"ĠKlim":3600,"ĠLeben":3601,"Ġsw":3602,"ĠDies":3603,"ĠFil":3604,"Ġresources":3605,"ply":3606,"uell":3607,"eits":3608,"Ġpartners":3609,"ĠIt":3610,"Ġsug":3611,"Ġdaran":3612,"Ġdev":3613,"Ġtreat":3614,"Ġbehalf":3615,"ĠstÃ¤r":3616,"Ã¤ren":3617,"Ġmean":3618,"ĠfÃ¼hr":3619,"Ġideal":3620,"ined":3621,"Ġindem":3622,"Ġgilt":3623,"ideo":3624,"Ġport":3625,"ĠNational":3626,"rolle":3627,"erecht":3628,"Ġmight":3629,"Ġqual":3630,"ĠOrganis":3631,"Ġclass":3632,"Ġfully":3633,"Ã¤mlich":3634,"reiche":3635,"ĠMehr":3636,"amb":3637,"Ġweniger":3638,"ĠgewÃ¤hr":3639,"Ã¼cksicht":3640,"ĠKultur":3641,"forderungen":3642,"Ġland":3643,"mosph":3644,"ĠDemokrat":3645,"Ġfour":3646,"hnt":3647,"ona":3648,"Ġjeden":3649,"Le":3650,"Ġgesagt":3651,"Ġgrowth":3652,"Ġinclude":3653,"Ġetwa":3654,"Â®":3655,"ĠnÃ¤mlich":3656,"ĠMinister":3657,"abhÃ¤ng":3658,"ĠNatur":3659,"iful":3660,"ĠCent":3661,"letz":3662,"stadt":3663,"zeitig":3664,"ĠJul":3665,"uh":3666,"Ġbitte":3667,"Ã¤hlen":3668,"legenheit":3669,"ĠSep":3670,"amental":3671,"Ġyet":3672,"frage":3673,"Ġpark":3674,"Ġgute":3675,"Ġlab":3676,"Ġhaving":3677,"Ã¼hren":3678,"wohl":3679,"Ġsignific":3680,"Ġmag":3681,"ĠpersÃ¶n":3682,"ĠDurch":3683,"Ġvalue":3684,"fert":3685,"einander":3686,"Ġumf":3687,"Ġladies":3688,"Ġpur":3689,"onger":3690,"itions":3691,"sh":3692,"prochen":3693,"ception":3694,"Ġtechnology":3695,"ĠIm":3696,"komm":3697,"Am":3698,"OM":3699,"Ġsogar":3700,"Ġfield":3701,"Ġgenau":3702,"ales":3703,"telle":3704,"setzung":3705,"ĠRates":3706,"Ġproposals":3707,"ager":3708,"Ġentscheiden":3709,"ops":3710,"ĠState":3711,"ĠMembers":3712,"bon":3713,"Ġamendments":3714,"wendet":3715,"recht":3716,"self":3717,"ĠSozial":3718,"liches":3719,"ratic":3720,"ĠOrt":3721,"Ġgerade":3722,"Ġbor":3723,"ĠCar":3724,"apan":3725,"Ġalong":3726,"ĠSer":3727,"ĠProdukte":3728,"illa":3729,"Ġu":3730,"hunder":3731,"Ġbekannt":3732,"Ġleft":3733,"tragen":3734,"Ġtimes":3735,"ĠErfahr":3736,"roffen":3737,"Ġsolution":3738,"Ġkurz":3739,"Ġframework":3740,"Ġeduc":3741,"armon":3742,"Ġerfolg":3743,"arf":3744,"Ġremain":3745,"Ġlog":3746,"Ġnehmen":3747,"Ġtem":3748,"Ġkosten":3749,"Ġminutes":3750,"vÃ¶lk":3751,"fully":3752,"Ã¤chlich":3753,"Ġsafety":3754,"plan":3755,"Ġarch":3756,"ĠChar":3757,"Ġlight":3758,"Ġrecommend":3759,"sere":3760,"ĠEuropas":3761,"Ġerwar":3762,"Ġspeak":3763,"verb":3764,"iten":3765,"ativ":3766,"Ġihn":3767,"ĠProjekt":3768,"Ġabove":3769,"lei":3770,"inge":3771,"ĠGeld":3772,"Ġweek":3773,"Ġeasy":3774,"oph":3775,"ĠAustr":3776,"Ġcosts":3777,"anst":3778,"anc":3779,"stant":3780,"Ġothers":3781,"racy":3782,"Ġtaking":3783,"most":3784,"Ġadopted":3785,"Ġebenfalls":3786,"Ġihm":3787,"ĠJahres":3788,"ĠSeptember":3789,"ĠPunkt":3790,"Ġnie":3791,"ingen":3792,"ĠGrÃ¼n":3793,"ĠPreis":3794,"Ġpa":3795,"Ġessential":3796,"alten":3797,"lement":3798,"iberal":3799,"ĠText":3800,"ledge":3801,"Ġseinem":3802,"ethod":3803,"Ġflo":3804,"wahl":3805,"ĠKosten":3806,"Ġunterschied":3807,"za":3808,"ĠFraktion":3809,"Ġgemacht":3810,"Ġrecht":3811,"Ġstrength":3812,"ĠÃ¼":3813,"handlungen":3814,"Ġmakes":3815,"Ġmeisten":3816,"Ġopinion":3817,"ĠAss":3818,"Ġcreat":3819,"Ġcontent":3820,"ĠBas":3821,"AL":3822,"unst":3823,"ators":3824,"Ġcharac":3825,"Ġentire":3826,"Ġdessen":3827,"ĠZugang":3828,"ĠAnge":3829,"Ġviol":3830,"Ġtool":3831,"ĠTÃ¼r":3832,"iers":3833,"Ġeconomy":3834,"Ġcalled":3835,"ĠBezug":3836,"Ġverbunden":3837,"Man":3838,"Ġgehen":3839,"Ġbesser":3840,"ĠSc":3841,"Ġpolitische":3842,"Ġdarf":3843,"Ġled":3844,"ports":3845,"Ġbath":3846,"Ġflex":3847,"Ġconstru":3848,"atis":3849,"Ġwebsite":3850,"nete":3851,"Ġreturn":3852,"Ġlegislation":3853,"Ġnever":3854,"Ġagricult":3855,"ysteme":3856,"ĠGar":3857,"aurants":3858,"ĠAnd":3859,"ĠunterstÃ¼tzt":3860,"bare":3861,"iben":3862,"Ġwesent":3863,"reen":3864,"Ġapplication":3865,"Ġanges":3866,"tels":3867,"achten":3868,"word":3869,"igital":3870,"Ġresults":3871,"Ġfocus":3872,"gebung":3873,"ested":3874,"Ġ21":3875,"reicht":3876,"Ġterm":3877,"Ġbuilding":3878,"igr":3879,"Ã¼nf":3880,"Ġpoints":3881,"Dieses":3882,"iled":3883,"ĠZust":3884,"Ġak":3885,"Ġverst":3886,"Ġsure":3887,"Ġprovides":3888,"Deshalb":3889,"ĠRechte":3890,"vernment":3891,"aussch":3892,"aged":3893,"Ġbank":3894,"Ġdue":3895,"Alle":3896,"Ġprojects":3897,"ĠPe":3898,"Ġfreedom":3899,"Ġwahr":3900,"ĠWirtschaft":3901,"liament":3902,"Ġdarin":3903,"Ġdeliver":3904,"Ġattention":3905,"Ġbeginn":3906,"sweise":3907,"arian":3908,"Ġprogramm":3909,"Ġ40":3910,"ĠVerkehr":3911,"ĠInstitution":3912,"Ġconcerned":3913,"Ġfair":3914,"uz":3915,"ĠKomp":3916,"Ġheart":3917,"Ã¼l":3918,"Ġcover":3919,"Ġren":3920,"benso":3921,"Ġglaube":3922,"ĠWeb":3923,"Ġstandard":3924,"oting":3925,"ĠSa":3926,"Ġresponsibility":3927,"irc":3928,"Ġbeautiful":3929,"iner":3930,"Ð¸":3931,"ĠdÃ¼rfen":3932,"ĠÃ¶ffentlichen":3933,"Ġpot":3934,"mitted":3935,"Ġpolicies":3936,"Ġeinigen":3937,"Ġsimply":3938,"Europ":3939,"Ġpast":3940,"ufact":3941,"ric":3942,"now":3943,"Ġrela":3944,"EL":3945,"Ġteam":3946,"Ġappropr":3947,"berg":3948,"Ġnichts":3949,"âĤ":3950,"Ġperfect":3951,"Ġderzeit":3952,"ished":3953,"âĤ¬":3954,"Ġquestions":3955,"reiben":3956,"ĠKap":3957,"Ġgroups":3958,"ĠIsrael":3959,"Ã¨":3960,"Ġimportance":3961,"Ġyoung":3962,"ĠEntwicklungs":3963,"ĠMillionen":3964,"ients":3965,"Ġtotal":3966,"ĠGemeinschaft":3967,"Ġschaffen":3968,"Ġrisk":3969,"ĠDeutschland":3970,"zentr":3971,"Ġhead":3972,"Ġbit":3973,"Ġmass":3974,"Ġsollen":3975,"ĠBuch":3976,"bour":3977,"Ġabge":3978,"ĠAntw":3979,"Ã¤he":3980,"hing":3981,"afen":3982,"ada":3983,"ĠWebsite":3984,"ĠFrei":3985,"erst":3986,"ding":3987,"wÃ¼r":3988,"Ġ2005":3989,"ĠFlug":3990,"ĠRei":3991,"ampf":3992,"schlieÃŁlich":3993,"Ġihrem":3994,"Ġcontext":3995,"Ġknown":3996,"ceed":3997,"Ġmoder":3998,"Dar":3999,"Ġsociety":4000,"Ġeffective":4001,"ĠQualitÃ¤t":4002,"Ġkeinen":4003,"EC":4004,"Ġbrauchen":4005,"Ġdom":4006,"Ġholid":4007,"Ġadministr":4008,"ĠJanu":4009,"gesehen":4010,"Ġsea":4011,"Ġhandelt":4012,"ĠBeschÃ¤ft":4013,"Ġnationalen":4014,"ĠPat":4015,"zustellen":4016,"wÃ¤rt":4017,"ustain":4018,"Ġenvironmental":4019,"arbeiten":4020,"unkte":4021,"Ġcontinu":4022,"Ġgreater":4023,"Ġmethod":4024,"ĠAussprache":4025,"verkehr":4026,"spolitik":4027,"ĠApp":4028,"tlich":4029,"Ġstrategy":4030,"ĠWasser":4031,"aler":4032,"Ã¤us":4033,"utzt":4034,"Ġversion":4035,"Ġarr":4036,"onnen":4037,"Ġroad":4038,"Hotel":4039,"ĠVerbraucher":4040,"uelle":4041,"ĠTV":4042,"istan":4043,"iqu":4044,"ĠKolleg":4045,"ĠzusÃ¤tz":4046,"ĠMÃ¤r":4047,"Ġnatural":4048,"staat":4049,"ĠAngeb":4050,"Ġstandards":4051,"pflicht":4052,"Ġprinciple":4053,"ĠFir":4054,"ex":4055,"Ġverbess":4056,"Ġtable":4057,"leben":4058,"Ã¤ter":4059,"ĠHÃ¶":4060,"itive":4061,"ziehen":4062,"''":4063,"Ġtalk":4064,"mat":4065,"hib":4066,"unÃ¤chst":4067,"Ġverste":4068,"Ġna":4069,"Ġmiss":4070,"Ġweiterhin":4071,"Ġattra":4072,"Ġbetrifft":4073,"ha":4074,"Ġrad":4075,"OS":4076,"Ġwords":4077,"ette":4078,"unehmen":4079,"ringen":4080,"Ġsend":4081,"emp":4082,"eutet":4083,"ĠEbene":4084,"ĠerklÃ¤r":4085,"haltung":4086,"Ġrequired":4087,"Ġversch":4088,"ĠJahrhunder":4089,"rieg":4090,"After":4091,"ning":4092,"ller":4093,"ĠSitz":4094,"ĠMo":4095,"Ġsei":4096,"Ġviews":4097,"Ġincreasing":4098,"Ġinstitution":4099,"bereit":4100,"urf":4101,"Ġheraus":4102,"ÑĤ":4103,"frastr":4104,"Ġchallen":4105,"ided":4106,"zeichnet":4107,"useum":4108,"ĠPriv":4109,"rach":4110,"Fin":4111,"Ġhouse":4112,"unities":4113,"acy":4114,"Ġmanufact":4115,"isiert":4116,"ulture":4117,"Ġwenig":4118,"han":4119,"ĠThis":4120,"Ġmoment":4121,"Ġ2004":4122,"ĠII":4123,"ĠFortsch":4124,"Ġtraining":4125,"Ġmusic":4126,"rank":4127,"Ġmeeting":4128,"Ġreserv":4129,"ĠÃĦnderungsan":4130,"Ġdeshalb":4131,"ĠFrÃ¼h":4132,"Ġclearly":4133,"Unsere":4134,"Ġbedeutet":4135,"Ġsignificant":4136,"Ġcentral":4137,"Ġmacht":4138,"ĠNo":4139,"Ġauthorities":4140,"ĠVerw":4141,"igent":4142,"ĠbenÃ¶t":4143,"ĠGl":4144,"ĠMeer":4145,"ari":4146,"ĠAbstimmung":4147,"onen":4148,"Ġdon":4149,"fil":4150,"Ġsolche":4151,"Ġdeutlich":4152,"Ġquick":4153,"Ġunver":4154,"Ġlea":4155,"vo":4156,"ĠPra":4157,"Ġbesten":4158,"icro":4159,"Ġrelax":4160,"ĠTre":4161,"spruch":4162,"stoff":4163,"lÃ¤ss":4164,"Ġuser":4165,"Ã¤nger":4166,"Ġcla":4167,"anze":4168,"Ġnetwork":4169,"atal":4170,"Ġinteress":4171,"Ġextra":4172,"Ġnight":4173,"zÃ¼glich":4174,"cent":4175,"schluss":4176,"yle":4177,"ban":4178,"Ġbreakfast":4179,"ritten":4180,"ispielsweise":4181,"Ġkomple":4182,"iting":4183,"ĠGesetz":4184,"ĠSal":4185,"Ġlearn":4186,"ĠGroÃŁ":4187,"term":4188,"mals":4189,"Ġaufgrund":4190,"Ã¤sent":4191,"Ġinfl":4192,"Ġaspect":4193,"ĠLeist":4194,"Ġaccording":4195,"ĠNor":4196,"Ġachieve":4197,"Ġtechnical":4198,"pril":4199,"alitÃ¤t":4200,"ziehungen":4201,"Ġrecent":4202,"fall":4203,"Ġdemand":4204,"Ġfa":4205,"ĠBem":4206,"Ġsour":4207,"genda":4208,"Ġmat":4209,"ĠwÃ¼rden":4210,"Ġlar":4211,"Ġwichtige":4212,"Ġshare":4213,"achst":4214,"Pr":4215,"ork":4216,"aging":4217,"erous":4218,"Ġpages":4219,"Ġcapital":4220,"AP":4221,"ĠChrist":4222,"ĠGesellschaft":4223,"uche":4224,"Ġdistrib":4225,"cal":4226,"Ġvia":4227,"Ġsele":4228,"Ġoft":4229,"gesetzt":4230,"US":4231,"ĠDok":4232,"Ġnature":4233,"ones":4234,"ief":4235,"Ġclean":4236,"AD":4237,"Ġappear":4238,"Ġfundamental":4239,"hÃ¶rden":4240,"heb":4241,"Ġmonths":4242,"gelegt":4243,"heim":4244,"Ġinternal":4245,"platz":4246,"jen":4247,"Ġdirectly":4248,"Ġfindet":4249,"Ġfacilities":4250,"Ġfish":4251,"Ġthough":4252,"Ġside":4253,"wohn":4254,"Ġprec":4255,"Ġlonger":4256,"Ġobl":4257,"ĠKlima":4258,"Ġresponsible":4259,"ĠUmsetzung":4260,"change":4261,"Ġverein":4262,"ĠnÃ¤chsten":4263,"Ġimm":4264,"Ġproposed":4265,"Ġenough":4266,"ĠMitarbeit":4267,"ĠFar":4268,"elves":4269,"unch":4270,"ĠMenschenrechte":4271,"Ġsolutions":4272,"Ã¶rderung":4273,"ĠWohn":4274,"Ġemployment":4275,"ĠKunst":4276,"gency":4277,"ĠgewÃ¤hrle":4278,"Dieser":4279,"ĠAnsicht":4280,"Ġhistory":4281,"Ġcultural":4282,"ĠOb":4283,"Ġvorgesch":4284,"Ġern":4285,"ube":4286,"Ġguests":4287,"Ġtest":4288,"ption":4289,"ĠBevÃ¶lk":4290,"kÃ¤mp":4291,"Ar":4292,"ĠBetrie":4293,"13":4294,"Ġerne":4295,"Ġrequirements":4296,"elbst":4297,"ĠHerren":4298,"ĠIde":4299,"Ġcurrently":4300,"Ġnutzen":4301,"Ġvol":4302,"ĠNovember":4303,"Ġinterests":4304,"ĠRichtung":4305,"Ġvier":4306,"Ġcharacter":4307,"Ġbetre":4308,"Ġsubs":4309,"IC":4310,"Ge":4311,"tag":4312,"tes":4313,"ĠJu":4314,"Ġprevent":4315,"ĠDesign":4316,"ĠSchul":4317,"Ġlange":4318,"Ġmaintain":4319,"Ġassist":4320,"ffe":4321,"Ġevents":4322,"ĠNÃ¤he":4323,"Ġregions":4324,"umente":4325,"ither":4326,"ood":4327,"Ġcivil":4328,"gent":4329,"Ġmount":4330,"ables":4331,"ĠIndustrie":4332,"One":4333,"Ġallerdings":4334,"Ġterror":4335,"Ġinvolved":4336,"ĠDemokratie":4337,"lieÃŁlich":4338,"ele":4339,"Ġthems":4340,"Ġ23":4341,"gru":4342,"istischen":4343,"Ġthemselves":4344,"Ġilleg":4345,"Ð½":4346,"15":4347,"verstÃ¤nd":4348,"drÃ¼ck":4349,"Ġapply":4350,"Ġanim":4351,"Ġparties":4352,"ta":4353,"Ġweb":4354,"uk":4355,"Ġsy":4356,"ĠBÃ¼":4357,"lauf":4358,"ĠVerantwortung":4359,"stehen":4360,"esented":4361,"Ġlive":4362,"Ġzie":4363,"ellen":4364,"Ġrecogn":4365,"Ġhappen":4366,"Ġcompetition":4367,"frist":4368,"has":4369,"Ġvoted":4370,"Ġsustain":4371,"Ġhoffe":4372,"Ġgegeben":4373,"ĠWindows":4374,"val":4375,"Ġbil":4376,"ĠInsel":4377,"ĠBro":4378,"llig":4379,"Ġextremely":4380,"Ġrequest":4381,"Ġneeded":4382,"ĠCas":4383,"dam":4384,"Ġstation":4385,"folgt":4386,"ĠBedingungen":4387,"cke":4388,"Ġimplementation":4389,"richtung":4390,"ĠAnwendung":4391,"Ġgemeinsamen":4392,"wirkungen":4393,"mbH":4394,"ĠGebiet":4395,"Ġnotwendig":4396,"Ġforce":4397,"aper":4398,"teile":4399,"ĠCo":4400,"ench":4401,"Ġupon":4402,"Ġlanguage":4403,"Ġfight":4404,"Ġcamp":4405,"ublik":4406,"ĠIra":4407,"Ġguarantee":4408,"iellen":4409,"ĠBesuch":4410,"ĠEntscheidung":4411,"Ġforeign":4412,"ĠStruktur":4413,"Ġdemocracy":4414,"ommod":4415,"estern":4416,"ĠWert":4417,"gu":4418,"Ġitem":4419,"ĠRaum":4420,"ired":4421,"Ġcentury":4422,"Ġjeweil":4423,"Ġefforts":4424,"Ġdank":4425,"gliche":4426,"ri":4427,"ĠgehÃ¶rt":4428,"Ġkont":4429,"Ġbeispielsweise":4430,"ĠApril":4431,"obile":4432,"Ġago":4433,"Ã¼rz":4434,"peten":4435,"Ã¼ssel":4436,"rup":4437,"ĠAG":4438,"linien":4439,"ĠZiele":4440,"ĠInteresse":4441,"Ex":4442,"ano":4443,"Ġkleinen":4444,"enken":4445,"Ġchanges":4446,"Ġwohl":4447,"ĠHa":4448,"ĠFehl":4449,"ienen":4450,"ĠVorschlÃ¤ge":4451,"ĠBrit":4452,"Ġprep":4453,"Ġcaus":4454,"ĠBenutz":4455,"Ġbedeut":4456,"Ġvielleicht":4457,"ĠBau":4458,"Ġcharge":4459,"inzip":4460,"ynam":4461,"Ġ)":4462,"Ġdisk":4463,"trie":4464,"60":4465,"lied":4466,"ĠPf":4467,"ĠGmbH":4468,"ragen":4469,"Ġsozialen":4470,"bank":4471,"Ġverwendet":4472,"Ġenthalten":4473,"Ġplease":4474,"ĠKons":4475,"isher":4476,"Ġcirc":4477,"ĠStat":4478,"Ġerziel":4479,"Ġsepar":4480,"Ġcontain":4481,"Ġexpect":4482,"igur":4483,"Ġwind":4484,"atory":4485,"ĠTages":4486,"ĠDruck":4487,"Ġsprechen":4488,"bel":4489,"ĠIhrem":4490,"vert":4491,"Ġzust":4492,"ĠGrundlage":4493,"ĠKar":4494,"Ġdeveloped":4495,"grif":4496,"Ġcorre":4497,"ĠJapan":4498,"Ġdemokrat":4499,"andid":4500,"ĠParte":4501,"amous":4502,"ĠermÃ¶glich":4503,"-,":4504,"igungs":4505,"Ġbevor":4506,"Ġlot":4507,"Ġfarm":4508,"ims":4509,"ĠCan":4510,"Ch":4511,"jekte":4512,"Ġregulation":4513,"Ġlow":4514,"schn":4515,"ĠWort":4516,"chs":4517,"Ġsoon":4518,"key":4519,"ĠVerfahren":4520,"onstr":4521,"deut":4522,"ĠReihe":4523,"Ġprotect":4524,"Ġneu":4525,"Ġcases":4526,"Ġcomfortable":4527,"ĠÃ¶":4528,"ĠParis":4529,"Ġwerde":4530,"ffice":4531,"ĠMusik":4532,"Ġerreicht":4533,"handlung":4534,"ĠTats":4535,"Ġ2003":4536,"Ġmess":4537,"crib":4538,"tended":4539,"Ġpool":4540,"ĠErfolg":4541,"Ġmaxim":4542,"play":4543,"wÃ¼rd":4544,"sichtlich":4545,"ĠAuÃŁen":4546,"nehm":4547,"ips":4548,"ĠWachst":4549,"Ġnam":4550,"ĠEinsatz":4551,"Ġ22":4552,"TO":4553,"Ġnegotiations":4554,"Ġcomes":4555,"ĠGeschichte":4556,"Ġsituated":4557,"ker":4558,"immungen":4559,"ĠStre":4560,"ĠberÃ¼cksicht":4561,"Ġprevious":4562,"uct":4563,"teilt":4564,"ipped":4565,"Ġhalten":4566,"Ġeither":4567,"bl":4568,"ense":4569,"ĠAuss":4570,"Ġsafe":4571,"ĠNord":4572,"Ġrestaurant":4573,"eiter":4574,"urt":4575,"ĠerfÃ¼":4576,"geln":4577,"arbeitung":4578,"ilder":4579,"ĠMÃ¶glichkeiten":4580,"Ġtarge":4581,"teilen":4582,"ama":4583,"ĠKrit":4584,"Ġeinges":4585,"ini":4586,"merksam":4587,"Ã¤tzen":4588,"prise":4589,"lling":4590,"Ġpub":4591,"RO":4592,"Ġ197":4593,"ĠDate":4594,"inner":4595,"ĠTele":4596,"hend":4597,"ĠCour":4598,"ĠDebatte":4599,"Ġeverything":4600,"ĠDamen":4601,"onn":4602,"Ġregional":4603,"ĠNetz":4604,"rad":4605,"gern":4606,"orge":4607,"Ġhos":4608,"Ġausgest":4609,"best":4610,"ĠJun":4611,"ĠÃ¼bern":4612,"Ġindic":4613,"stall":4614,"ĠFrieden":4615,"abel":4616,"ĠProt":4617,"Ġfinal":4618,"ĠSoc":4619,"Ġmarkets":4620,"zeigt":4621,"Ġsurround":4622,"Ġminim":4623,"auen":4624,"ump":4625,"Ġcreated":4626,"ĠRestaurant":4627,"Ġdeveloping":4628,"ĠWh":4629,"date":4630,"ĠBlick":4631,"ĠfÃ¼nf":4632,"ĠHeraus":4633,"istet":4634,"erseits":4635,"Ġarbeiten":4636,"attet":4637,"Ġunique":4638,"itionen":4639,"Ġamb":4640,"Frau":4641,"ĠGleich":4642,"ĠIr":4643,"ĠPresidency":4644,"Vor":4645,"Ġlater":4646,"rieben":4647,"ĠCont":4648,"Ġverschiedene":4649,"Ġimprove":4650,"schriften":4651,"Ġvorgeschlagen":4652,"ĠHinblick":4653,"ĠhÃ¶ch":4654,"ĠErweit":4655,"Ġpict":4656,"ka":4657,"anten":4658,"Ġmer":4659,"ĠWar":4660,"Ġstates":4661,"Te":4662,"Ġaccommod":4663,"ĠAug":4664,"Ġprices":4665,"unik":4666,"mark":4667,"Ġeducation":4668,"iable":4669,"Ġkonkre":4670,"Ġimmed":4671,"ĠEur":4672,"ĠkÃ¶nnten":4673,"Ġschwier":4674,"Ġtrue":4675,"Ġadditional":4676,"Ġincluded":4677,"ichen":4678,"int":4679,"Ġ60":4680,"ĠSol":4681,"ĠâĤ¬":4682,"ging":4683,"eless":4684,"ipment":4685,"ĠArbeitspl":4686,"Ġmonitor":4687,"Ġalmost":4688,"haft":4689,"Ġque":4690,"igte":4691,"Ġexpl":4692,"chnik":4693,"Ġliving":4694,"Ġcontract":4695,"haps":4696,"Ġaltern":4697,"ulate":4698,"Ġgemeinsame":4699,"Ġanalys":4700,"Ġstor":4701,"Ġactually":4702,"orted":4703,"ĠverfÃ¼gt":4704,"ĠMot":4705,"mut":4706,"sprÃ¤sident":4707,"ĠFrance":4708,"ĠAktiv":4709,"ĠErklÃ¤r":4710,"ĠMinuten":4711,"ĠSchwe":4712,"Ġdemocratic":4713,"ĠPer":4714,"ibr":4715,"Ġtravel":4716,"Ġdocument":4717,"Ġidea":4718,"iÃŁt":4719,"Durch":4720,"Ġthus":4721,"Ġcut":4722,"ĠermÃ¶glicht":4723,"ĠEinz":4724,"lack":4725,"Ġseen":4726,"ommer":4727,"Ġfort":4728,"Ġbleiben":4729,"rechts":4730,"Ġclimate":4731,"pendent":4732,"ĠSteuer":4733,"bahn":4734,"Ġwide":4735,"ester":4736,"Ob":4737,"ĠSouth":4738,"ĠMont":4739,"gegen":4740,"Ġhatten":4741,"wegen":4742,"vin":4743,"ĠFrench":4744,"ĠDiskuss":4745,"IP":4746,"dle":4747,"Ġjoin":4748,"orf":4749,"laden":4750,"ĠInstitutionen":4751,"Ġfile":4752,"Ġreceive":4753,"ingt":4754,"ĠAuswirkungen":4755,"ielle":4756,"ikt":4757,"mail":4758,"Ġprogram":4759,"ĠDr":4760,"ĠRechn":4761,"ental":4762,"Ġencour":4763,"ĠAff":4764,"ios":4765,"ĠRussia":4766,"Ġtype":4767,"Ġakzept":4768,"ĠMay":4769,"ĠKraft":4770,"Ġtats":4771,"ĠWieder":4772,"jenigen":4773,"Ġknowledge":4774,"ĠâĢĺ":4775,"Ġhold":4776,"ĠvollstÃ¤nd":4777,"Ġlack":4778,"Ġzeigt":4779,"Ġdialog":4780,"rachten":4781,"Ġappropriate":4782,"ĠPlatz":4783,"ĠProzess":4784,"ilar":4785,"Ġvill":4786,"barkeit":4787,"ires":4788,"Ġheld":4789,"ĠViel":4790,"Ġfunds":4791,"Ġerforderlich":4792,"kra":4793,"Ġbisher":4794,"frei":4795,"ÑĢ":4796,"Ġenl":4797,"ĠStrategie":4798,"hinder":4799,"cies":4800,"usst":4801,"Ġofficial":4802,"Ġprocedure":4803,"ĠAusdruck":4804,"ĠfÃ¼hrt":4805,"ĠLis":4806,"Ġhapp":4807,"ĠForschung":4808,"Ġassoc":4809,"ĠDienstleistungen":4810,"Ġschein":4811,"Ġoutside":4812,"ĠAbgeordneten":4813,"ĠMod":4814,"setzen":4815,"Ġallgemein":4816,"ĠTrans":4817,"ĠRegionen":4818,"Ġgesamten":4819,"ĠHoch":4820,"auber":4821,"Ġschool":4822,"Please":4823,"Ġthing":4824,"ĠWissen":4825,"ĠerwÃ¤":4826,"ĠSicherheits":4827,"adurch":4828,"Ñģ":4829,"folgen":4830,"ctors":4831,"Ġwirtschaftlichen":4832,"ternal":4833,"Ġangeb":4834,"Ġdesigned":4835,"ams":4836,"ĠPlan":4837,"ĠEC":4838,"ĠIntegr":4839,"iance":4840,"ĠZus":4841,"Ġeinzelnen":4842,"feld":4843,"lle":4844,"Ġdarum":4845,"ĠKir":4846,"atisf":4847,"ĠWebs":4848,"Ġebenso":4849,"Ġmajority":4850,"ĠSport":4851,"ĠLandes":4852,"fragen":4853,"18":4854,"Ġworkers":4855,"ĠErgebnis":4856,"Ã¤hlt":4857,"Ã¶ffentlich":4858,"Ġfeatures":4859,"oper":4860,"Ġpropert":4861,"Ġsuggest":4862,"Ġprofessional":4863,"ogra":4864,"Ġfamous":4865,"Daher":4866,"Ġdanken":4867,"ieÃŁen":4868,"Ã¶glichen":4869,"stead":4870,"Pl":4871,"iews":4872,"Ġfunktion":4873,"ĠVertre":4874,"anced":4875,"cure":4876,"Ġhon":4877,"ĠspÃ¤ter":4878,"ĠSub":4879,"jÃ¤hr":4880,"ĠKolleginnen":4881,"va":4882,"ondon":4883,"fs":4884,"Von":4885,"clud":4886,"Ġrelev":4887,"otos":4888,"des":4889,"Ġeuro":4890,"Ġentwickelt":4891,"fel":4892,"ĠDank":4893,"Ġfive":4894,"Ġcommunication":4895,"Ġlooking":4896,"cep":4897,"Ġthroughout":4898,"Ġdraw":4899,"Ġcop":4900,"Ġdenke":4901,"Ġearly":4902,"ET":4903,"Ġrate":4904,"Ġanswer":4905,"ĠSchritt":4906,"Ġangenommen":4907,"Ġexclus":4908,"ĠÃĦnderungsantrag":4909,"Ã¤nden":4910,"ĠFamilien":4911,"Ð¾Ð":4912,"igration":4913,"orre":4914,"uÃŁerdem":4915,"Ġcustomer":4916,"ĠBinnen":4917,"Ġspace":4918,"ush":4919,"verfahren":4920,"ox":4921,"oid":4922,"ĠFunktion":4923,"Ġhours":4924,"mitteln":4925,"ĠÃĸff":4926,"ĠTatsache":4927,"ĠHers":4928,"Ġbehand":4929,"ound":4930,"isieren":4931,"Ġdownload":4932,"ĠKle":4933,"Ġtakes":4934,"indest":4935,"Ġworks":4936,"Ġemphas":4937,"Ġtransl":4938,"Ã¤sst":4939,"ĠArch":4940,"Ġdoing":4941,"Ġ000":4942,"From":4943,"Ġimpact":4944,"imme":4945,"ĠPortug":4946,"arbeitet":4947,"Ġbetra":4948,"lÃ¤ndern":4949,"Ã¼lt":4950,"Ġjedem":4951,"Ġacross":4952,"Ġnormal":4953,"Ġ27":4954,"ĠweiÃŁ":4955,"Ġlinks":4956,"kÃ¤mpfung":4957,"Ġdate":4958,"Ġenable":4959,"fÃ¤higkeit":4960,"Ġstrengthen":4961,"ĠBereichen":4962,"ĠÃĦnderungsantrÃ¤ge":4963,"Ġcertainly":4964,"Ġunivers":4965,"Ã¤ndert":4966,"ĠFrÃ¼hstÃ¼ck":4967,"Ġparts":4968,"schlag":4969,"ĠAmerican":4970,"Ġproper":4971,"ĠVerhandlungen":4972,"Ġwider":4973,"AC":4974,"ĠGemeinschafts":4975,"Ġever":4976,"Ġaud":4977,"ĠhÃ¤tte":4978,"ĠMitglieder":4979,"Ġkonnte":4980,"Ġinternationale":4981,"Zu":4982,"iens":4983,"Ġcolleag":4984,"Ã¤che":4985,"liegen":4986,"ielt":4987,"Ġpotential":4988,"Ġca":4989,"Ġsolid":4990,"Ġbefinden":4991,"Ġusers":4992,"Ġconsequ":4993,"uren":4994,"ĠÃ¤uÃŁer":4995,"kn":4996,"pression":4997,"ille":4998,"Ġgemeinsam":4999,"AM":5000,"Ġguest":5001,"zif":5002,"onom":5003,"ara":5004,"ĠRad":5005,"Ġtook":5006,"ĠVersion":5007,"Ġsetzen":5008,"ko":5009,"Ġtraditional":5010,"Ġrecord":5011,"ĠVereinigten":5012,"ĠPosition":5013,"Ġneues":5014,"Ġvorh":5015,"Ġgleichzeitig":5016,"Ã¤llen":5017,"Ġmechan":5018,"Ġweiteren":5019,"Ã¶sen":5020,"Ġoriginal":5021,"17":5022,"hab":5023,"ĠWest":5024,"bru":5025,"ĠAntwort":5026,"kr":5027,"erei":5028,"zer":5029,"Ã¼gen":5030,"ĠLuft":5031,"ĠFund":5032,"stre":5033,"Ġpublish":5034,"ĠDialog":5035,"Ġamount":5036,"Ġhinter":5037,"Ġeth":5038,"ĠGeneral":5039,"chsel":5040,"Ġdivers":5041,"Ġexisting":5042,"ĠheiÃŁt":5043,"Ġconcerns":5044,"ĠBeziehungen":5045,"ĠStaats":5046,"ias":5047,"ĠZentrum":5048,"Ġprogrammes":5049,"Ġresol":5050,"bildung":5051,"ĠWÃ¤hr":5052,"ĠIran":5053,"Ġconnection":5054,"ĠRis":5055,"teid":5056,"Sh":5057,"Ġzuf":5058,"ĠerhÃ¶":5059,"Ġcomplex":5060,"Ġumfassen":5061,"ava":5062,"Ã¤ss":5063,"oking":5064,"ĠBevÃ¶lkerung":5065,"uted":5066,"ĠProf":5067,"ĠHandels":5068,"Ġsearch":5069,"ball":5070,"Ġinvestment":5071,"Ġcross":5072,"Ġ2002":5073,"ĠWerk":5074,"Ġmentioned":5075,"hung":5076,"Ġneben":5077,"Ġ80":5078,"Ġlat":5079,"griff":5080,"halte":5081,"Ġconcerning":5082,"sehen":5083,"ĠAbkommen":5084,"cen":5085,"ipl":5086,"alter":5087,"Ġalthough":5088,"ĠLondon":5089,"oms":5090,"Unser":5091,"Ġtele":5092,"Ġrelig":5093,"lang":5094,"ande":5095,"fortun":5096,"Ġwriting":5097,"kei":5098,"Ġparliament":5099,"gl":5100,"ĠBre":5101,"ĠAugust":5102,"ĠNorth":5103,"Ġjede":5104,"Ġlux":5105,"ĠInteressen":5106,"Ġprim":5107,"Ġabsolute":5108,"Ġreasons":5109,"Ġcard":5110,"Ġmodel":5111,"ĠvÃ¶":5112,"Unter":5113,"ĠKos":5114,"Ġhelfen":5115,"ole":5116,"aly":5117,"ĠCourt":5118,"ĠProgramme":5119,"ĠKÃ¶n":5120,"Ġaktiv":5121,"Ġcompletely":5122,"Ġaware":5123,"face":5124,"ayer":5125,"richtungen":5126,"ĠBeitrag":5127,"hlen":5128,"Book":5129,"ature":5130,"ĠHos":5131,"Ġdemonstr":5132,"ED":5133,"lÃ¤nder":5134,"Ġdecisions":5135,"My":5136,"affung":5137,"Ġbuilt":5138,"Ġnothing":5139,"Ġgame":5140,"Ġleading":5141,"ĠGovernment":5142,"temp":5143,"Ġrelated":5144,"range":5145,"ĠVertra":5146,"Ġjoint":5147,"ID":5148,"esh":5149,"Ġgelten":5150,"ĠProz":5151,"Ġextens":5152,"ĠPak":5153,"ĠgegenwÃ¤rt":5154,"ĠMil":5155,"ĠSchlussel":5156,"aring":5157,"Ġempf":5158,"Ġgestellt":5159,"ĠFÃ¼hr":5160,"esserung":5161,"Ġrund":5162,"zÃ¶s":5163,"ĠVerpflicht":5164,"ĠAufgabe":5165,"Ġcommunity":5166,"Ġ2001":5167,"Ġhalf":5168,"Ġfriendly":5169,"Gen":5170,"ĠFÃ¶rderung":5171,"Ġkleine":5172,"ĠFlugh":5173,"Ġcommittee":5174,"amera":5175,"Ġwichtigen":5176,"arity":5177,"Ġmeinen":5178,"Ġintens":5179,"Ġbeit":5180,"Ġunseres":5181,"ĠHandel":5182,"ĠKontrolle":5183,"una":5184,"ĠListe":5185,"Ġenlarge":5186,"ĠSÃ¼d":5187,"ĠFuÃŁ":5188,"Ã¼sse":5189,"ĠNicht":5190,"Ġassess":5191,"Ġfront":5192,"more":5193,"Ġbasic":5194,"SE":5195,"Ġculture":5196,"ĠTÃ¼rkei":5197,"ĠAnt":5198,"Ġholiday":5199,"ĠThemen":5200,"Ġpractice":5201,"Ġconflic":5202,"Ġprakt":5203,"orten":5204,"quis":5205,"Ġmid":5206,"Ġinternet":5207,"fÃ¼hren":5208,"ĠVerbindung":5209,"Ġdigital":5210,"ĠBeg":5211,"ological":5212,"Ġincludes":5213,"Ġsag":5214,"Ġspr":5215,"uffer":5216,"grat":5217,"ahren":5218,"lies":5219,"Ġverd":5220,"Mail":5221,"Ġgab":5222,"Ġschwer":5223,"ĠPC":5224,"Ġagreements":5225,"spe":5226,"14":5227,"ĠErweiterung":5228,"alien":5229,"Ġconsult":5230,"ĠWettbewerbs":5231,"ĠTerror":5232,"odell":5233,"ĠStabil":5234,"itable":5235,"gangenen":5236,"Ġpopulation":5237,"ĠKampf":5238,"ĠCD":5239,"olz":5240,"ĠPa":5241,"Ġallows":5242,"ĠDec":5243,"Ġgestimmt":5244,"Ġmedia":5245,"Ġoblig":5246,"ĠEnglish":5247,"wie":5248,"termin":5249,"Ġliegen":5250,"inden":5251,"Ġerinn":5252,"este":5253,"formen":5254,"Ġspezie":5255,".,":5256,"ĠJust":5257,"Ġwegen":5258,"Ġbecom":5259,"enk":5260,"bedingungen":5261,"ĠCor":5262,"ying":5263,"nissen":5264,"Ġcommer":5265,"Ġbody":5266,"ĠAusschusses":5267,"Ġmilitary":5268,"statt":5269,"Ġadvant":5270,"Ġjedes":5271,"Ġconclus":5272,"Seit":5273,"zunehmen":5274,"ills":5275,"licken":5276,"Doch":5277,"Ġwa":5278,"Ġ-,":5279,"Ġobjectives":5280,"fluss":5281,"Ġbekommen":5282,"Con":5283,"First":5284,"Ġchoice":5285,"gn":5286,"ĠMor":5287,"Ġreceived":5288,"Ġerr":5289,"itness":5290,"zeugen":5291,"lant":5292,"iterran":5293,"Ġbleibt":5294,"More":5295,"Ã¤lle":5296,"ĠwÃ¼n":5297,"ĠVerordnung":5298,"Ġorigin":5299,"ovo":5300,"ery":5301,"rachen":5302,"annte":5303,"Ġsimple":5304,"By":5305,"amit":5306,"ĠEntschlieÃŁung":5307,"Ġtransfer":5308,"ason":5309,"Ġvalues":5310,"iated":5311,"Ġsatisf":5312,"ĠSy":5313,"struments":5314,"vement":5315,"ĠOnline":5316,"Ġwarm":5317,"Ġjobs":5318,"De":5319,"Ġnahe":5320,"ĠBarcel":5321,"ĠKonferenz":5322,"Ġestablished":5323,"Ġplann":5324,"agn":5325,"ourn":5326,"Ġcomputer":5327,"ending":5328,"Ã³n":5329,"uck":5330,"Ġapplications":5331,"ĠTurkey":5332,"Ġequipment":5333,"geschlossen":5334,"ĠVolk":5335,"ih":5336,"minister":5337,"oo":5338,"Ġfail":5339,"Ġangem":5340,"ĠNutzung":5341,"Ġregarding":5342,"ĠStrand":5343,"mbol":5344,"Ġrichtig":5345,"Ġbess":5346,"Ġpackage":5347,"ĠBehÃ¶rden":5348,"ĠReform":5349,"ĠAmerica":5350,"Ġperformance":5351,"ĠInform":5352,"sitz":5353,"Ġharmon":5354,"abon":5355,"Ġmove":5356,"Ġwunder":5357,"ikanischen":5358,"ĠFern":5359,"Ġjud":5360,"Ġgerne":5361,"Ġcapac":5362,"Ġemer":5363,"Ġcenter":5364,"Ġerlaub":5365,"Ã¶rdern":5366,"Ġ1999":5367,"len":5368,"ennung":5369,"Ġdurchge":5370,"Ġ$":5371,"ĠLisbon":5372,"Do":5373,"ĠEinzel":5374,"Ġlok":5375,"16":5376,"pite":5377,"Ġpleas":5378,"Ġimage":5379,"Ã¶st":5380,"pected":5381,"Ġfiles":5382,"pass":5383,"ĠAugen":5384,"Ġverantwort":5385,"Ġpoor":5386,"Ġwichtigsten":5387,"ĠFebru":5388,"atic":5389,"Ġagricultural":5390,"Ġpurch":5391,"vious":5392,"Ġattack":5393,"Ġobjective":5394,"Ġsun":5395,"Ġiniti":5396,"ĠLiss":5397,"ĠunabhÃ¤ng":5398,"Ġmehrere":5399,"icles":5400,"Ġbroad":5401,"Ġquickly":5402,"inne":5403,"ĠAufent":5404,"osen":5405,"Ġreports":5406,"omb":5407,"osed":5408,"erc":5409,"Ġstop":5410,"die":5411,"rab":5412,"Ġkeyword":5413,"Ġwonder":5414,"Ġsound":5415,"Sp":5416,"Ġherr":5417,"gesamt":5418,"ĠMitarbeiter":5419,"ros":5420,"Ġcru":5421,"ĠAffairs":5422,"erve":5423,"ĠForder":5424,"Ġface":5425,"Ġbelow":5426,"imension":5427,"seit":5428,"gef":5429,"essour":5430,"Ġparty":5431,"Ġganze":5432,"Ġganzen":5433,"Ã¶hn":5434,"Ġgoods":5435,"ĠKop":5436,"Ġhinsichtlich":5437,"stellungen":5438,"Ġeinger":5439,"uclear":5440,"Ġfran":5441,"ĠIS":5442,"ĠGruppe":5443,"Ġcredit":5444,"ĠNotwend":5445,"undes":5446,"hem":5447,"emb":5448,"ĠReise":5449,"mann":5450,"Ġindustrial":5451,"ĠVerbesserung":5452,"brigen":5453,"Ġwobei":5454,"ĠUrlaub":5455,"ĠVolks":5456,"Ġnote":5457,"Ġsouth":5458,"ĠWochen":5459,"ĠermÃ¶glichen":5460,"ĠKrise":5461,"ften":5462,"Ġexperien":5463,"ps":5464,"teller":5465,"Ġself":5466,"ernen":5467,"Ġtreatment":5468,"ĠLissabon":5469,"wide":5470,"chter":5471,"ĠenthÃ¤lt":5472,"Ġhuge":5473,"ĠAuswahl":5474,"40":5475,"ĠschÃ¶n":5476,"Ãľber":5477,"otion":5478,"Ġcode":5479,"Ġpopular":5480,"Ġbenefit":5481,"Ġnachhalt":5482,"Ġsense":5483,"Ġachieved":5484,"AuÃŁerdem":5485,"itect":5486,"Ġcontains":5487,"Ġtrotz":5488,"lassen":5489,"sterreich":5490,"Ġoption":5491,"einer":5492,"Ġpassen":5493,"lla":5494,"aving":5495,"Ġrail":5496,"schlieÃŁend":5497,"Ġinitiative":5498,"utt":5499,"entwick":5500,"opping":5501,"Ã¤um":5502,"Ġseems":5503,"wander":5504,"Ber":5505,"Ġindeed":5506,"ĠVeranst":5507,"Ġgarant":5508,"ĠIT":5509,"Ġzeigen":5510,"ĠPass":5511,"ĠBinnenmarkt":5512,"ĠOber":5513,"Ġleben":5514,"eden":5515,"erweise":5516,"Ġbeein":5517,"Ġrecently":5518,"Ġlos":5519,"ĠDokument":5520,"mÃ¶glichkeit":5521,"Let":5522,"Ġspac":5523,"Ġcarry":5524,"Ġengine":5525,"dom":5526,"ĠWill":5527,"iveness":5528,"RE":5529,"Ġcorrect":5530,"ĠGelegenheit":5531,"mor":5532,"Ġill":5533,"Ġveh":5534,"Ġvict":5535,"Ġdouble":5536,"ley":5537,"fon":5538,"ĠSchaffung":5539,"Bes":5540,"Ġcongrat":5541,"VD":5542,"Ġgrund":5543,"Ġbeginning":5544,"istische":5545,"ĠLux":5546,"Since":5547,"itel":5548,"jahr":5549,"Ġdialogue":5550,"âĢĵ":5551,"Ġseries":5552,"Ġruh":5553,"ĠGebÃ¤":5554,"lam":5555,"ĠFrankreich":5556,"ĠUkra":5557,"lass":5558,"ienste":5559,"Ġleaders":5560,"such":5561,"put":5562,"ania":5563,"oppel":5564,"Ġfloor":5565,"Ġspielen":5566,"Ġpresented":5567,"ĠSant":5568,"Ġhighly":5569,"Ġoil":5570,"kennen":5571,"ĠBad":5572,"haupt":5573,"stens":5574,"wertungen":5575,"Zum":5576,"rig":5577,"ĠfrÃ¼":5578,"ĠCity":5579,"ÃŁt":5580,"cer":5581,"Ġnice":5582,"fonds":5583,"Ġeveryone":5584,"Ġequipped":5585,"will":5586,"stances":5587,"Ġefficient":5588,"ĠEast":5589,"Ġgarden":5590,"ĠHome":5591,"Madam":5592,"utter":5593,"ĠvÃ¶llig":5594,"Ã¤tigkeit":5595,"Ġheut":5596,"vorschriften":5597,"Ġlevels":5598,"tliche":5599,"Ġscient":5600,"ba":5601,"nern":5602,"Ġsuccessful":5603,"Ġclick":5604,"ĠPrior":5605,"lace":5606,"Ġactive":5607,"inks":5608,"fordert":5609,"Ġcomprom":5610,"onse":5611,"Ġred":5612,"icien":5613,"ĠFach":5614,"Ġintegration":5615,"ĠVerwendung":5616,"Ġeinzig":5617,"PE":5618,"pid":5619,"IM":5620,"Ġexchange":5621,"OL":5622,"Ġ!":5623,"Ġ+":5624,"Ġcarried":5625,"fortunately":5626,"ĠGree":5627,"ĠAngebot":5628,"Ġpain":5629,"Ġkulture":5630,"Ġverbessern":5631,"ering":5632,"ĠNotwendigkeit":5633,"Ġfurn":5634,"ffiz":5635,"mehr":5636,"Ġwhose":5637,"isted":5638,"Ġfrei":5639,"ĠErgebnisse":5640,"ĠlÃ¤sst":5641,"organis":5642,"Ġincreased":5643,"ĠBef":5644,"Ġstage":5645,"aufen":5646,"Ã¶rper":5647,"ĠWoche":5648,"ĠBarcelona":5649,"abor":5650,"Ġconsumers":5651,"Finally":5652,"ĠClub":5653,"Ad":5654,"ĠWachstum":5655,"anzen":5656,"ĠTage":5657,"Ġgrundlegen":5658,"Ġdre":5659,"Ġblock":5660,"Ġprinciples":5661,"Ġsex":5662,"Ġage":5663,"atell":5664,"Ġguten":5665,"umb":5666,"Ġtw":5667,"Ġagreed":5668,"ĠManagement":5669,"Ġgovernments":5670,"just":5671,"Ġsent":5672,"Ġoffice":5673,"ĠSup":5674,"IL":5675,"ĠAmster":5676,"imming":5677,"hoben":5678,"Ġeigene":5679,"ĠGewalt":5680,"oz":5681,"ape":5682,"action":5683,"Ġasked":5684,"Ġverwenden":5685,"pose":5686,"ja":5687,"ĠMacht":5688,"lier":5689,"ĠZe":5690,"Ã¼tzen":5691,"ĠAnzahl":5692,"ĠKÃ¶nig":5693,"Ġstra":5694,"schw":5695,"buch":5696,"Ġamendment":5697,"Ġreviews":5698,"ĠverfÃ¼gen":5699,"ĠApart":5700,"25":5701,"anner":5702,"Ġbathroom":5703,"ĠDis":5704,"ĠgroÃŁer":5705,"Ġsoziale":5706,"ĠImm":5707,"ĠZeitpunkt":5708,"iko":5709,"Ġexc":5710,"Ġdirection":5711,"ĠServ":5712,"ĠKern":5713,"Ġverg":5714,"aschinen":5715,"Ġdang":5716,"unt":5717,"Ġtraff":5718,"bie":5719,"ico":5720,"Ġmal":5721,"Ġsix":5722,"ĠJune":5723,"ĠTeam":5724,"Ġchoose":5725,"Ġcommercial":5726,"Ġcoll":5727,"ĠgefÃ¤hr":5728,"Ġrat":5729,"Ġmeinem":5730,"ĠhÃ¤uf":5731,"icherung":5732,"griffen":5733,"Ġobtain":5734,"ĠMaterial":5735,"wise":5736,"Ġsimilar":5737,"Ġsubsid":5738,"Ġadded":5739,"ends":5740,"Ġtell":5741,"Ġhigher":5742,"Ġcommitment":5743,"Ġprofit":5744,"xis":5745,"ĠschÃ¶":5746,"Ġdiskut":5747,"Ġseek":5748,"ĠverfÃ¼g":5749,"mitt":5750,"apt":5751,"Ġsupply":5752,"atast":5753,"ĠkÃ¼nft":5754,"iles":5755,"verstÃ¤ndlich":5756,"klus":5757,"Ġshows":5758,"ĠfÃ¶rdern":5759,"Ġperhaps":5760,"Ġgesamte":5761,"ĠLiefer":5762,"ĠzunÃ¤chst":5763,"scht":5764,"Ġstress":5765,"Ġanzu":5766,"ĠgehÃ¶ren":5767,"Ġ500":5768,"Ġaspects":5769,"Ġnews":5770,"loyment":5771,"Ġatmosph":5772,"Ġobs":5773,"Ġavoid":5774,"Ġshown":5775,"Ġmatters":5776,"Ġgleichen":5777,"ĠSocial":5778,"Ġinfluen":5779,"Ġcame":5780,"ĠLÃ¶sungen":5781,"ĠYou":5782,"Ã¤ngt":5783,"standen":5784,"hes":5785,"Ġconsidered":5786,"ĠJugend":5787,"ĠMy":5788,"ĠTat":5789,"Ġthanks":5790,"ĠProduktion":5791,"ĠBerg":5792,"Ġformer":5793,"Ġbi":5794,"ufficient":5795,"Ġ28":5796,"usion":5797,"cks":5798,"ĠBud":5799,"Ġpromote":5800,"inger":5801,"Ġrein":5802,"ĠMiss":5803,"iglich":5804,"alu":5805,"Ã¤ndig":5806,"Ġspeed":5807,"fÃ¤lt":5808,"Ġgelegen":5809,"irit":5810,"Ġinnovative":5811,"pflich":5812,"Ġpan":5813,"Ġvorhanden":5814,"ĠVoraus":5815,"ĠtatsÃ¤chlich":5816,"greifen":5817,"ĠHigh":5818,"ehr":5819,"akter":5820,"Ġhotels":5821,"ĠAnfang":5822,"ĠBeschÃ¤ftigung":5823,"ki":5824,"fahrt":5825,"Ġdynam":5826,"Ġnuclear":5827,"Ġpossibility":5828,"ĠStandard":5829,"Ġlatest":5830,"24":5831,"Ġsorgen":5832,"ĠMÃ¤n":5833,"ĠLeit":5834,"lÃ¶s":5835,"Ġeindeut":5836,"Ġbehind":5837,"ĠYork":5838,"Ġmaterials":5839,"Ġeffects":5840,"ĠHerzen":5841,"ĠDu":5842,"ency":5843,"ĠMaÃŁ":5844,"Ã¤st":5845,"ĠCentral":5846,"ĠIntegration":5847,"Ġopportunities":5848,"cript":5849,"ĠMehrheit":5850,"ausch":5851,"ĠTod":5852,"otes":5853,"ously":5854,"astic":5855,"ĠInitiative":5856,"ored":5857,"ĠKrieg":5858,"Ġrates":5859,"ausschuss":5860,"ĠgefÃ¼hrt":5861,"ĠBalk":5862,"artige":5863,"owers":5864,"Ro":5865,"Ġsofort":5866,"ierenden":5867,"Denn":5868,"ĠStellung":5869,"Ġcondition":5870,"ology":5871,"ĠErfahrung":5872,"ĠverstÃ¤r":5873,"Here":5874,"ĠWein":5875,"Ġdraft":5876,"Ġerk":5877,"okoll":5878,"ilen":5879,"ĠPan":5880,"Ġdepend":5881,"essourcen":5882,"Ã¼hm":5883,"Ã¤cht":5884,"Ġlik":5885,"Ġreached":5886,"ĠSee":5887,"Ġaf":5888,"Ġreview":5889,"Ġernst":5890,"ĠÃĦnderungen":5891,"itting":5892,"Ġphys":5893,"Ġeig":5894,"ĠRepublic":5895,"ĠPersonal":5896,"Ġsetting":5897,"Ġentwickeln":5898,"bre":5899,"ĠBeschl":5900,"li":5901,"where":5902,"Ġaccommodation":5903,"Ġresponse":5904,"altungs":5905,"ĠSolid":5906,"ĠÃ¤uÃŁerst":5907,"Ġatmosphere":5908,"Thank":5909,"Ġsummer":5910,"icy":5911,"Ġproviding":5912,"gene":5913,"Ġeasily":5914,"arent":5915,"ĠOrganisation":5916,"unsch":5917,"Ġdeath":5918,"ĠChin":5919,"Ġcreation":5920,"Ġleicht":5921,"99":5922,"ĠNieder":5923,"Ġprepared":5924,"Ġverstehen":5925,"rid":5926,"ĠRu":5927,"ĠEinfÃ¼hrung":5928,"ĠPost":5929,"ĠProgram":5930,"ĠHam":5931,"Ġexhib":5932,"riften":5933,"iction":5934,"zub":5935,"Ġhoff":5936,"No":5937,"ĠgrÃ¶ÃŁten":5938,"Ġrelevant":5939,"zeugt":5940,"Ġexternal":5941,"Ġsomit":5942,"ĠLes":5943,"Ġcriter":5944,"Ġsize":5945,"Ġ90":5946,"idel":5947,"uel":5948,"Ġdeta":5949,"Ġdecided":5950,"ney":5951,"ĠJuni":5952,"ĠEigen":5953,"arily":5954,"ĠLeg":5955,"heben":5956,"uffet":5957,"ĠDez":5958,"ĠgewÃ¤hrleisten":5959,"leb":5960,"Ġdring":5961,"Ġgeschlossen":5962,"Ġreduce":5963,"Ġprepar":5964,"ĠÃł":5965,"Ġpressure":5966,"ĠLauf":5967,"ummer":5968,"ĠRegierungen":5969,"rechend":5970,"Ġschle":5971,"quare":5972,"istics":5973,"ĠRel":5974,"Ġcondu":5975,"Ġelekt":5976,"kraft":5977,"ĠMac":5978,"ĠRatsprÃ¤sident":5979,"Ġhohen":5980,"ĠUmgebung":5981,"rec":5982,"Ġverpflich":5983,"Ġgebracht":5984,"Ġlediglich":5985,"Ġsubmitted":5986,"Is":5987,"ĠSpain":5988,"Ġterra":5989,"Ġbeteil":5990,"Ġsustainable":5991,"Ġsagte":5992,"Ġcapacity":5993,"Ġactions":5994,"ĠSelbst":5995,"Ġvideo":5996,"ĠConvention":5997,"Ġstyle":5998,"Ġplaces":5999,"ĠRussland":6000,"DarÃ¼ber":6001,"Ġcoming":6002,"Ġgives":6003,"stellt":6004,"ĠInnov":6005,"Ġprob":6006,"Ã©s":6007,"Ġdetails":6008,"ibilities":6009,"ĠGolf":6010,"ounts":6011,"estens":6012,"creen":6013,"Ġemploye":6014,"Ġerfolgreich":6015,"ĠHÃ¶he":6016,"Ġconcept":6017,"ulgar":6018,"ĠMadam":6019,"ierter":6020,"ĠAgr":6021,"itzen":6022,"Ġarchitect":6023,"Ġregular":6024,"Ġsites":6025,"ĠAmsterdam":6026,"Ġ196":6027,"Ġneigh":6028,"Ġanderer":6029,"uern":6030,"Ġten":6031,"Ġgross":6032,"ĠKonfl":6033,"iately":6034,"ĠAkt":6035,"ĠMag":6036,"ĠImp":6037,"ĠFamilie":6038,"Ġ70":6039,"ĠSprache":6040,"volle":6041,"ĠHo":6042,"ĠAktion":6043,"Ġclosed":6044,"Ġregistr":6045,"ĠVereinbar":6046,"23":6047,"Ġenlargement":6048,"ĠStandpunkt":6049,"Ġannoun":6050,"ĠBusiness":6051,"Ġdep":6052,"Ġbestimmte":6053,"Ġsuffer":6054,"Wer":6055,"resp":6056,"ilos":6057,"roat":6058,"ĠErachten":6059,"Ġproperty":6060,"Ġvern":6061,"ĠMai":6062,"PL":6063,"Ġausgestattet":6064,"ĠBra":6065,"Ġmeines":6066,"maÃŁnahmen":6067,"Ġpriority":6068,"Ġcause":6069,"ĠErachtens":6070,"Damit":6071,"ĠGlobal":6072,"industrie":6073,"lav":6074,"Ġremains":6075,"sy":6076,"ala":6077,"Ġzweite":6078,"Ġleave":6079,"rehens":6080,"zeuge":6081,"ĠInformations":6082,"ĠKommunik":6083,"Ġerschein":6084,"Ġdisplay":6085,"iture":6086,"ĠKomprom":6087,"Ġwirtschaftliche":6088,"rief":6089,"adem":6090,"Ġtrain":6091,"ĠSicht":6092,"Ġisland":6093,"rimin":6094,"oder":6095,"ĠLat":6096,"eting":6097,"ĠAud":6098,"Some":6099,"Ġregister":6100,"son":6101,"ĠTransport":6102,"Now":6103,"iente":6104,"Ġbestimmten":6105,"ĠLog":6106,"kommens":6107,"ĠDinge":6108,"Therefore":6109,"ĠBekÃ¤mpfung":6110,"Ġ=":6111,"Ġzahlreiche":6112,"ĠRot":6113,"ĠKommissarin":6114,"ĠItaly":6115,"ĠWettbewerb":6116,"Ġdescrib":6117,"ĠVertrags":6118,"Ġ300":6119,"Ġvorgesehen":6120,"ato":6121,"Ġpartner":6122,"ĠAmend":6123,"emin":6124,"ĠFerien":6125,"Ã¼ndet":6126,"ziehung":6127,"ĠWahr":6128,"ĠNet":6129,"Ġut":6130,"Ġune":6131,"Ġfunding":6132,"Ġassistance":6133,"ĠAspe":6134,"Ġbalance":6135,"Further":6136,"mented":6137,"Ġfal":6138,"Ġconsumer":6139,"ĠDebian":6140,"Ġobwohl":6141,"ĠStad":6142,"....":6143,"Ġlimited":6144,"ĠParty":6145,"Ġmovement":6146,"ĠWTO":6147,"ugs":6148,"Ġamer":6149,"Ġforms":6150,"Ġdiscover":6151,"setzungen":6152,"ĠKosovo":6153,"Ġwoll":6154,"ctober":6155,"Par":6156,"ĠerhÃ¤lt":6157,"ĠFreiheit":6158,"ĠMich":6159,"ĠVerkehrs":6160,"sprÃ¼n":6161,"legenheiten":6162,"'.":6163,"terne":6164,"atastrop":6165,"iterranean":6166,"selves":6167,"Ġsport":6168,"ĠPers":6169,"uert":6170,"itzer":6171,"ĠMuseum":6172,"Ġsupported":6173,"ĠCol":6174,"Ġtragen":6175,"ghan":6176,"Ġdecl":6177,"ategories":6178,"Ġentde":6179,"Ġfoot":6180,"Ġhighl":6181,"Ġbrought":6182,"ĠChe":6183,"Ġneuer":6184,"Ġtransparen":6185,"ĠArticle":6186,"Ġ''":6187,"ĠauÃŁerdem":6188,"Ġground":6189,"ĠHinter":6190,"Ġvirt":6191,"mission":6192,"system":6193,"Ġelse":6194,"igungen":6195,"Ġ26":6196,"ĠEing":6197,"ĠÃľberein":6198,"schnitt":6199,"ournal":6200,"Ġvorlie":6201,"Ġprot":6202,"ĠAktivitÃ¤ten":6203,"rang":6204,"Ġregulations":6205,"Ġgreen":6206,"Ġscheint":6207,"ĠbestÃ¤t":6208,"Ġindependent":6209,"ĠGed":6210,"gesellschaft":6211,"stitute":6212,"ĠInstrument":6213,"Ġarg":6214,"velopment":6215,"ĠDecember":6216,"ĠÃ¤hn":6217,"Ġnorth":6218,"ĠKontakt":6219,"cle":6220,"ĠAfrica":6221,"Ġerweit":6222,"Ġversuchen":6223,"ĠDar":6224,"Ġallein":6225,"wertung":6226,"iciency":6227,"Ġhor":6228,"ĠMad":6229,"reibung":6230,"Ġrule":6231,"Ġgewor":6232,"NG":6233,"stein":6234,"ĠTo":6235,"Ġwww":6236,"ĠFortschritte":6237,"ieg":6238,"Ġquiet":6239,"Ġlimit":6240,"etimes":6241,"ĠSpa":6242,"Ġfig":6243,"ĠFehler":6244,"uis":6245,"geber":6246,"elten":6247,"Ġsolchen":6248,"Fraktion":6249,"Ġpleased":6250,"view":6251,"Ġconstruction":6252,"ĠBestimmungen":6253,"bert":6254,"Ġunterst":6255,"ĠUkraine":6256,"Ġexpla":6257,"Ġx":6258,"ĠAdr":6259,"Ġrestaurants":6260,"Ġerster":6261,"ĠBritish":6262,"Ġord":6263,"Ġpurpose":6264,"hindern":6265,"Ġvariety":6266,"ader":6267,"Ġcreating":6268,"Ġlic":6269,"Ġdadurch":6270,"ĠgemÃ¤ÃŁ":6271,"ehen":6272,"Ġzweiten":6273,"Ġeffiz":6274,"Ġregel":6275,"ĠStelle":6276,"ĠVis":6277,"Ġfriends":6278,"ena":6279,"Ġmobile":6280,"Ġapartment":6281,"Ġeffe":6282,"stag":6283,"Ġrepe":6284,"page":6285,"Ġeinzige":6286,"ĠItalien":6287,"Ġdiscussion":6288,"ĠGefahr":6289,"Ã¼tzt":6290,"ĠMedien":6291,"ĠfranzÃ¶s":6292,"ĠStunden":6293,"ĠOkt":6294,"Ġthous":6295,"dra":6296,"anischen":6297,"Ġexec":6298,"Ġmessage":6299,"Ġinsgesamt":6300,"Pres":6301,"Ġsus":6302,"Ġfix":6303,"ategorien":6304,"Ġaufgenommen":6305,"ĠIN":6306,"ĠInstall":6307,"Ġproduced":6308,"Ġfisher":6309,"Ġhy":6310,"Ġbecame":6311,"merksamkeit":6312,"Ġinstead":6313,"ĠItalian":6314,"Ġhohe":6315,"ĠMarch":6316,"Ġrenov":6317,"isters":6318,"**":6319,"Ġbillion":6320,"mÃ¶glichkeiten":6321,"endes":6322,"unternehmen":6323,"Ġwid":6324,"ĠPunkte":6325,"tent":6326,"Ġvergangenen":6327,"Ġlargest":6328,"âĢ¦":6329,"ĠWestern":6330,"ĠMicro":6331,"Ġairport":6332,"FR":6333,"Ġconference":6334,"mÃ¤ÃŁig":6335,"Ġcontr":6336,"Ġdeep":6337,"ero":6338,"Ġerheb":6339,"Or":6340,"ĠWohl":6341,"Ġstudy":6342,"Ġinteresting":6343,"Ġregards":6344,"ĠAufmerksamkeit":6345,"Ġaccord":6346,"ĠFolgen":6347,"ĠDezember":6348,"aft":6349,"Ġrelationship":6350,"isp":6351,"Ġalten":6352,"Ġhost":6353,"Ġboard":6354,"ĠUnterk":6355,"bus":6356,"ĠFed":6357,"ĠSil":6358,"Ġways":6359,"arenz":6360,"ĠschlieÃŁlich":6361,"bewertungen":6362,"wa":6363,"Booking":6364,"Ġobvious":6365,"entlichkeit":6366,"Ġmeasure":6367,"ritts":6368,"Ġstarted":6369,"legung":6370,"ĠUnd":6371,"besch":6372,"ĠJahrhundert":6373,"lare":6374,"Ã¼rf":6375,"80":6376,"Ġeffort":6377,"Ġchem":6378,"ĠErklÃ¤rung":6379,"Ġstability":6380,"Ġsteps":6381,"kont":6382,"ĠPreise":6383,"Ġallowed":6384,"Ġ1998":6385,"Ġfishing":6386,"coming":6387,"Ġactivity":6388,"Ġprocedures":6389,"ĠgenieÃŁen":6390,"ĠAf":6391,"ĠeinschlieÃŁlich":6392,"Ġdetermin":6393,"Ġvertreten":6394,"ST":6395,"ĠÃ¤ndern":6396,"ĠPrivat":6397,"falt":6398,"yond":6399,"porate":6400,"ĠBenutzer":6401,"rÃ¤fte":6402,"Ġrich":6403,"ĠEntscheidungen":6404,"Ġinstrument":6405,"Ġtask":6406,"Ġoperation":6407,"Ġproduce":6408,"EP":6409,"Ġmedium":6410,"ronic":6411,"ugg":6412,"Ġkeiner":6413,"anlage":6414,"Ã¤gt":6415,"angt":6416,"Ġhous":6417,"WÃ¤hrend":6418,"ĠBildung":6419,"ĠStaat":6420,"Ġhervorra":6421,"Ġstatus":6422,"Ġdiv":6423,"ĠBerichts":6424,"altet":6425,"no":6426,"ĠAnforderungen":6427,"see":6428,"Ġmorgen":6429,"Ġaccep":6430,"Ġlegislative":6431,"ĠFilm":6432,"conomic":6433,"soft":6434,"Ġcompromise":6435,"ĠRights":6436,"Ġkonzentr":6437,"ĠBasis":6438,"Ġdut":6439,"Ġrelation":6440,"Ġcontribution":6441,"ĠKÃ¼che":6442,"Ġprovisions":6443,"prises":6444,"Ġsource":6445,"ĠOctober":6446,"Ġexact":6447,"Ġeigentlich":6448,"ĠSchweiz":6449,"ĠbeschÃ¤ft":6450,"ĠDi":6451,"ĠtÃ¤":6452,"ades":6453,"ground":6454,"itude":6455,"ĠGÃ¤stebewertungen":6456,"annen":6457,"ĠKing":6458,"ĠAlt":6459,"ĠjÃ¼n":6460,"ĠÃĸffentlichkeit":6461,"ĠAbend":6462,"ĠVorschriften":6463,"ĠCons":6464,"Ġbetroffen":6465,"Ġdamage":6466,"ĠServer":6467,"Ġpurs":6468,"Ġwritten":6469,"ued":6470,"bor":6471,"Ġdisp":6472,"Ġfall":6473,"ĠDiskussion":6474,"ira":6475,"ibil":6476,"ĠDom":6477,"Ġforder":6478,"Ġlabour":6479,"Ġappe":6480,"wendungen":6481,"Ġword":6482,"Ġliberal":6483,"Bitte":6484,"Ġinstruments":6485,"President":6486,"Ġsan":6487,"Ġvillage":6488,"glied":6489,"sicherheit":6490,"lines":6491,"ĠGip":6492,"ĠZeich":6493,"lÃ¤nd":6494,"ĠOper":6495,"Ġmor":6496,"Ġkonnten":6497,"ĠUnternehmens":6498,"ĠGruppen":6499,"itial":6500,"Ġdistance":6501,"ĠBereiche":6502,"ienten":6503,"Ġerwarten":6504,"Ġcompon":6505,"Ġgiving":6506,"ford":6507,"--":6508,"ĠErzeug":6509,"Ġourselves":6510,"Ġkit":6511,"dienst":6512,"enntnis":6513,"EM":6514,"Ġleisten":6515,"iminal":6516,"oker":6517,"âĢľ,":6518,"Ġeingesetzt":6519,"overty":6520,"ĠHar":6521,"Ġleider":6522,"Ġfehl":6523,"Ġdise":6524,"Ġgot":6525,"idge":6526,"cker":6527,"ivity":6528,"ĠStÃ¤d":6529,"Ġcriteria":6530,".)":6531,"ĠFlughafen":6532,"Ġdocuments":6533,"Ġgain":6534,"ĠGrenzen":6535,"etary":6536,"ĠhÃ¤ufig":6537,"kosten":6538,"Ġhistorical":6539,"ĠLandwirtschaft":6540,"Tod":6541,"ĠBundes":6542,"Ġconven":6543,"ĠArbeitnehmer":6544,"ĠOpt":6545,"ilfen":6546,"Ġminor":6547,"UR":6548,"Ġstatement":6549,"ĠJanuary":6550,"rats":6551,"Ġpen":6552,"ĠOktober":6553,"Ġwenige":6554,"ĠTer":6555,"Ã¼hungen":6556,"ĠSpanish":6557,"ifik":6558,"ĠKan":6559,"unk":6560,"Ġloss":6561,"Ġgenommen":6562,"Office":6563,"Ġsta":6564,"Ġmountain":6565,"ĠMÃ¤rz":6566,"works":6567,"Ġwon":6568,"polit":6569,"Ġevalu":6570,"gy":6571,"cret":6572,"Ġklein":6573,"Ġdat":6574,"ĠPrÃ¼":6575,"Ã¶ffnet":6576,"Ġverm":6577,"Ġeleg":6578,"Ġprefer":6579,"iete":6580,"ĠdurchgefÃ¼hrt":6581,"ĠPrÃ¤sidenten":6582,"wesen":6583,"lekt":6584,"ĠÃ¼berw":6585,"Ġfirm":6586,"Ġgeworden":6587,"freund":6588,"Ġlaunch":6589,"Ã±":6590,"ĠSite":6591,"ĠSystems":6592,"Ġgran":6593,"Ġdepart":6594,"ĠNationen":6595,"Ġbase":6596,"Ġfinally":6597,"Ġfilm":6598,"Ġviolence":6599,"Ġcomprehens":6600,"Ġfell":6601,"Reg":6602,"ĠGesundheits":6603,"ĠTransparenz":6604,"Ġmem":6605,"Ġinterpre":6606,"ĠPap":6607,"ĠWider":6608,"orgt":6609,"Ġtypes":6610,"Ġstructure":6611,"ĠDon":6612,"ĠberÃ¼hm":6613,"ya":6614,"ĠAnsatz":6615,"ĠStÃ¤r":6616,"ĠOrgan":6617,"ograf":6618,"ought":6619,"ĠSinne":6620,"ĠbenÃ¶tigen":6621,"Ġunmittel":6622,"Ġzentr":6623,"ĠPrinzip":6624,"uls":6625,"letzt":6626,"ĠEre":6627,"ĠCamp":6628,"ĠTagesordnung":6629,"ocated":6630,"Ġimmediately":6631,"terprise":6632,"ateral":6633,"Ġsuchen":6634,"Ġsection":6635,"Ġworth":6636,"lichkeiten":6637,"head":6638,"forderung":6639,"Ġedit":6640,"orgung":6641,"teuer":6642,"Ġbenefits":6643,"Ġbra":6644,"eks":6645,"OT":6646,"Ġconstant":6647,"Ġwine":6648,"Ġelements":6649,"ierende":6650,"Ġpath":6651,"zwe":6652,"Ġ29":6653,"...\"":6654,"here":6655,"Ġihres":6656,"Ġemployees":6657,"Ġhighest":6658,"ĠGrÃ¼nden":6659,"anted":6660,"ĠBelg":6661,"Second":6662,"Of":6663,"ĠAuftrag":6664,"ĠBilder":6665,"ĠeuropÃ¤ischer":6666,"ĠCom":6667,"Ġobserv":6668,"yer":6669,"drÃ¼cklich":6670,"Ġwest":6671,"!!":6672,"wind":6673,"Ġfreund":6674,"Ġperfe":6675,"Ġbrit":6676,"ĠTex":6677,"Ġdistribution":6678,"Ġkennen":6679,"Ġgas":6680,"Ġtransparency":6681,"Ġkannst":6682,"Ġgefunden":6683,"Ġgrat":6684,"ĠVorsitz":6685,"orning":6686,"cription":6687,"ĠbezÃ¼glich":6688,"leitet":6689,"ĠInn":6690,"Ġaktuellen":6691,"urance":6692,"fordern":6693,"ĠSommer":6694,"house":6695,"zeichnung":6696,"zone":6697,"Ġsuper":6698,"pen":6699,"Ġwichtiger":6700,"Ġnied":6701,"ĠSl":6702,"ĠGemeins":6703,"ĠMart":6704,"ieht":6705,"ĠHung":6706,"Ġuseful":6707,"ĠEmpfehl":6708,"frastruct":6709,"Ġthreat":6710,"zusch":6711,"enew":6712,"Ġweder":6713,"Ġintegrated":6714,"Ġgele":6715,"Ġnumerous":6716,"ĠSchwier":6717,"ĠJuli":6718,"Ġvorge":6719,"Ġstock":6720,"ammlung":6721,"Tra":6722,"Ġequal":6723,"ĠUntersuch":6724,"Ġreading":6725,"ĠAuffassung":6726,"ĠhÃ¶her":6727,"aign":6728,"Ġgre":6729,"ĠursprÃ¼n":6730,"ĠFirma":6731,"ĠSache":6732,"ĠMetho":6733,"Ġangesichts":6734,"ĠEd":6735,"Ġelections":6736,"Ġapplied":6737,"Ġparking":6738,"erner":6739,"ĠRede":6740,"mosphÃ¤re":6741,"Ġlate":6742,"Ġaffect":6743,"Ġhalte":6744,"Ġlower":6745,"Ġalternative":6746,"Ġzeit":6747,"Ġgeschaffen":6748,"ĠUniversity":6749,"Ġcy":6750,"Ġult":6751,"Ġsonst":6752,"ĠPortugal":6753,"ĠAufenthalt":6754,"Ã¤ngen":6755,"Ġhelpful":6756,"ĠCentre":6757,"Ġagenda":6758,"Ġreality":6759,"Ã¤te":6760,"iker":6761,"Ġdrive":6762,"ĠStar":6763,"ĠNr":6764,"bezogen":6765,"ĠServices":6766,"ral":6767,"Ġapartments":6768,"lose":6769,"rÃ¼":6770,"ĠProjekte":6771,"ĠVerÃ¤nder":6772,"Ġcoast":6773,"Ġpayment":6774,"Ġround":6775,"Ã¼cken":6776,"Ġconsist":6777,"ĠDevelopment":6778,"ola":6779,"ĠAfghan":6780,"ĠÃ¼brigen":6781,"wortern":6782,"Ġemb":6783,"Ġdaily":6784,"Zur":6785,"Ġteach":6786,"Ġprocesses":6787,"Ġsaying":6788,"ĠDemoc":6789,"Ġeher":6790,"Ġski":6791,"PS":6792,"ĠInvestitionen":6793,"ĠLinux":6794,"Ġmis":6795,"phone":6796,"Ġoccas":6797,"ĠInnen":6798,"legation":6799,"Ġsieht":6800,"achtung":6801,"98":6802,"Wel":6803,"ĠComputer":6804,"afe":6805,"Ġchallenges":6806,"Ġoffering":6807,"Ġhom":6808,"ĠTro":6809,"ĠMann":6810,"ĠJuly":6811,"ĠPrÃ¤sidentschaft":6812,"Ġtools":6813,"ĠbegrÃ¼ÃŁe":6814,"Ġerneut":6815,"ĠÃ¼berprÃ¼":6816,"Ġtreffen":6817,"Ã¼nde":6818,"Ã¼nstler":6819,"II":6820,"Ġbem":6821,"ĠLebensmittel":6822,"park":6823,"ownload":6824,"ĠIndustr":6825,"Ġsolidarity":6826,"ogle":6827,"Ġbringt":6828,"ĠBulgar":6829,"Ġdiejenigen":6830,"Ġemiss":6831,"ĠKur":6832,"front":6833,"Ġtim":6834,"Ġconsequences":6835,"ares":6836,"Ġphot":6837,"Ġanalysis":6838,"zufÃ¼hren":6839,"Ġmut":6840,"ĠSum":6841,"Ġentsprechenden":6842,"ilosoph":6843,"Ġbad":6844,"Ġpersons":6845,"richten":6846,"Ġpaid":6847,"engen":6848,"Ġhinzu":6849,"Ġcrucial":6850,"Ġpoverty":6851,"ĠEm":6852,"ĠIraq":6853,"Ġperman":6854,"ĠRegeln":6855,"Ã§":6856,"sprozess":6857,"Ġdistr":6858,"Ã¶ren":6859,"ĠStraÃŁen":6860,"ĠRev":6861,"ione":6862,"Ġundert":6863,"ĠMid":6864,"izin":6865,"sprÃ¼":6866,"ĠEreign":6867,"aktion":6868,"ĠGal":6869,"ĠverÃ¶ffentlich":6870,"Ġbeyond":6871,"Ġplant":6872,"eg":6873,"Ġkrit":6874,"Ġcolleagues":6875,"Ġthought":6876,"ye":6877,"ĠBahn":6878,"Ġerfahren":6879,"Ġoffered":6880,"Ġziehen":6881,"ĠMobil":6882,"Ġspirit":6883,"ĠSolidar":6884,"ĠJanuar":6885,"Ġign":6886,"Ġhumanit":6887,"spiel":6888,"Ġgoes":6889,"mÃ¶":6890,"Ġwissenschaft":6891,"Ġillegal":6892,"spricht":6893,"Ġunemp":6894,"zehn":6895,"iegel":6896,"ĠEnts":6897,"ded":6898,"folge":6899,"Today":6900,"Ġlegit":6901,"ĠBeteil":6902,"ĠJava":6903,"ĠSchlusselwortern":6904,"ĠCost":6905,"Ġbeitragen":6906,"ĠGott":6907,"ĠDan":6908,"ĠÃĦnderung":6909,"ĠKoh":6910,"Ġpal":6911,"ufe":6912,"ĠAufgaben":6913,"Ġhappy":6914,"Ġlas":6915,"ĠÃ¶ffentliche":6916,"ĠDVD":6917,"ĠFlor":6918,"Ġ35":6919,"Ġpractical":6920,"ĠFÃ¤llen":6921,"back":6922,"Also":6923,"Ġ1997":6924,"ula":6925,"Ġentsprechend":6926,"othe":6927,"Ġvan":6928,"Ġvergessen":6929,"vors":6930,"ĠGast":6931,"ĠMonaten":6932,"Ġconflict":6933,"IA":6934,"iment":6935,"wser":6936,"Ġsufficient":6937,"Ġkur":6938,"ĠLinie":6939,"Qu":6940,"ienz":6941,"obby":6942,"Ġideas":6943,"ĠAgrar":6944,"schlieÃŁen":6945,"Ġkil":6946,"ĠZw":6947,"Dabei":6948,"ĠfrÃ¼her":6949,"scheinlich":6950,"ĠMediterranean":6951,"iability":6952,"fÃ¼hl":6953,"leistung":6954,"Ã¼rger":6955,"ĠUp":6956,"losen":6957,"angeb":6958,"ĠBedÃ¼rf":6959,"DF":6960,"SS":6961,"fo":6962,"cement":6963,"Ġzehn":6964,"Jed":6965,"Ġhar":6966,"Ġexception":6967,"ĠCO":6968,"ĠBemÃ¼hungen":6969,"Ġausgezeich":6970,"zy":6971,"ĠFolge":6972,"Ġhil":6973,"ĠTerm":6974,"ocol":6975,"Ã¼cht":6976,"Ġgenannten":6977,"Ġgetan":6978,"ĠRepublik":6979,"Ġpie":6980,"Ġorganisations":6981,"Ġweeks":6982,"iveau":6983,"irl":6984,"Ġverhindern":6985,"Ġ31":6986,"wart":6987,"ĠTa":6988,"ĠBÃ¼rgern":6989,"ĠSitzung":6990,"Ġforces":6991,"ĠVertreter":6992,"{{":6993,"ĠhÃ¤tten":6994,"tellten":6995,"ĠNachbar":6996,"Ġbehandelt":6997,"Ġban":6998,"craft":6999,"Ġtomor":7000,"Ġunbe":7001,"Ġrequires":7002,"Ġminimum":7003,"Ġadvantage":7004,"ĠWunsch":7005,"strumente":7006,"Ġfrequ":7007,"sych":7008,"anging":7009,"Ġspee":7010,"Ġinfrastruct":7011,"based":7012,"Ãł":7013,"Ġtomorrow":7014,"Ġerfolgt":7015,"ĠprÃ¤sent":7016,"Ġanderem":7017,"Ġdoubt":7018,"ĠDet":7019,"ĠTagen":7020,"ĠMos":7021,"ĠDritt":7022,"Ġcongratulate":7023,"cape":7024,"Ġmodified":7025,"urb":7026,"Ġlangfrist":7027,"Ġvorher":7028,"ĠArmut":7029,"Ġhistoric":7030,"Every":7031,"Ġsales":7032,"ifel":7033,"Ġhear":7034,"ĠVÃ¶lk":7035,"ĠOst":7036,"Ġclients":7037,"22":7038,"atÃ¼rlich":7039,"Ã¼ge":7040,"programm":7041,"Ã¶ÃŁe":7042,"Ġwaste":7043,"ĠAuto":7044,"vere":7045,"ĠDirective":7046,"Ġmorning":7047,"Ġshopping":7048,"Ġimplemented":7049,"Ġrelating":7050,"gewiesen":7051,"Ġreference":7052,"ĠSpezial":7053,"Ġpartnership":7054,"Ð»":7055,"Ġsecure":7056,"ret":7057,"Ġnimmt":7058,"Ġlines":7059,"ĠBehandlung":7060,"Ġpublished":7061,"Ġweak":7062,"ibe":7063,"03":7064,"hold":7065,"Ġstarting":7066,"vis":7067,"Å¡":7068,"ischem":7069,"ĠRessourcen":7070,"esellschaften":7071,"Ġmonitoring":7072,"):":7073,"Ġversucht":7074,"Ġbedroom":7075,"Ã¤nge":7076,"ordination":7077,"45":7078,"Ġpaar":7079,"ĠGas":7080,"aint":7081,"Ġrenew":7082,"Ġrestr":7083,"ĠRestaurants":7084,"ĠVen":7085,"Ġbesondere":7086,"Ġreich":7087,"wÃ¼n":7088,"estic":7089,"Ġschl":7090,"Ġmaximum":7091,"Ġol":7092,"ĠjÃ¼ng":7093,"Ġsimpl":7094,"ĠBeginn":7095,"zt":7096,"Ġcaused":7097,"icken":7098,"oon":7099,"theless":7100,"ĠAnstr":7101,"Ġsyn":7102,"Ġoperating":7103,"Ġready":7104,"ĠDo":7105,"Ġusw":7106,"Ġfordern":7107,"Ġmachine":7108,"ĠWinter":7109,"Zweit":7110,"ĠBÃ¼rgerinnen":7111,"Ġcircum":7112,"Ġcomprehensive":7113,"Ġlives":7114,"pective":7115,"Ġefficiency":7116,"ĠBa":7117,"During":7118,"ĠSign":7119,"Ġaccordance":7120,"ĠAtmosphÃ¤re":7121,"Ġreduction":7122,"Ġserver":7123,"App":7124,"ĠGerichts":7125,"ĠDiese":7126,"CO":7127,"ĠKor":7128,"Ġausreich":7129,"gruppe":7130,"Ġcampaign":7131,"ais":7132,"Ġwr":7133,"ĠVerl":7134,"Ġselect":7135,"book":7136,"ĠGebÃ¤ude":7137,"nungen":7138,"ĠKredit":7139,"schreit":7140,"Ġful":7141,"Ġgewesen":7142,"stitutional":7143,"ĠTechnologie":7144,"ĠerklÃ¤rt":7145,"ĠBetrieb":7146,"Ġsechs":7147,"Ġmeaning":7148,"ius":7149,"ĠPalest":7150,"zielle":7151,"rem":7152,"schÃ¶":7153,"ĠmÃ¼":7154,"Ġjen":7155,"ĠVal":7156,"Ġstreet":7157,"ungsver":7158,"Acc":7159,"pack":7160,"Ġsports":7161,"ategie":7162,"frastruktur":7163,"ĠÃ¼berhaupt":7164,"Ph":7165,"hafte":7166,"Ġrecon":7167,"Ġanything":7168,"Many":7169,"ado":7170,"Nur":7171,"bin":7172,"cia":7173,"Although":7174,"ĠNeu":7175,"Ġanti":7176,"ichert":7177,"Ġinitial":7178,"icit":7179,"ĠNacht":7180,"ĠBot":7181,"Ġoptions":7182,"Ġunbed":7183,"Ã´":7184,"altungen":7185,"pool":7186,"Ġded":7187,"Ġmitt":7188,"ĠErfahrungen":7189,"ulated":7190,"schriftlich":7191,"Furthermore":7192,"Ġbeant":7193,"ĠerfÃ¼llen":7194,"Ġplayers":7195,"Ġzahlreichen":7196,"ĠFinanzierung":7197,"Ġgrowing":7198,"LA":7199,"standing":7200,"Ġsometimes":7201,"itch":7202,"ĠVilla":7203,"ÂŃ":7204,"Ġcritic":7205,"ĠOpen":7206,"Ġbegin":7207,"ĠberÃ¼cksichtigt":7208,"ĠMult":7209,"',":7210,"ĠForschungs":7211,"mus":7212,"Ġurg":7213,"Ġfolgen":7214,"atform":7215,"ĠMinder":7216,"Ġones":7217,"ĠProtokoll":7218,"Ġadvert":7219,"Ġpictures":7220,"Ġko":7221,"Ġborder":7222,"Ġwarum":7223,"ĠsÃ¤m":7224,"ĠgÃ¼nst":7225,"Ġcharm":7226,"Ġbetreff":7227,"Ġtechnologies":7228,"board":7229,"Ġgerecht":7230,"Ġextent":7231,"Ġlanguages":7232,"ĠVergangen":7233,"asten":7234,"Ġoffiz":7235,"Ġchance":7236,"Ġswimming":7237,"flÃ¤che":7238,"ĠAustria":7239,"Ġstimmen":7240,"}}":7241,"utive":7242,"ĠgrÃ¶ÃŁer":7243,"Ġprobably":7244,"trÃ¤gen":7245,"IV":7246,"alyse":7247,"ĠVerteid":7248,"Ġwelches":7249,"Ġbegan":7250,"Ġterrorism":7251,"hotel":7252,"Ġremov":7253,"ĠWerte":7254,"ĠPraxis":7255,"SP":7256,"Ġmensch":7257,"ĠAspekte":7258,"Str":7259,"itation":7260,"ĠCenter":7261,"Ġvoting":7262,"Ġeingeb":7263,"Ġdecor":7264,"ichern":7265,"Ġrichtige":7266,"Ġfarmers":7267,"ĠOl":7268,"Ġmethods":7269,"Ġrapid":7270,"Ġinterested":7271,"Ġuner":7272,"Ã¤llt":7273,"legten":7274,"Ġemail":7275,"oke":7276,"ĠInhalt":7277,"iell":7278,"ifically":7279,"Ġcounter":7280,"Ġjeweiligen":7281,"ĠSecurity":7282,"ĠVergangenheit":7283,"Ġexport":7284,"Ġsav":7285,"Ġcandid":7286,"Ġwanted":7287,"Ġworldwide":7288,"itten":7289,"Ġlands":7290,"Ġsal":7291,"Ġmotor":7292,"Ġstets":7293,"Ġtourist":7294,"Ġverpflichtet":7295,"iding":7296,"Ġeinheit":7297,"Ġcast":7298,"ĠgrÃ¶ÃŁte":7299,"97":7300,"Ġbur":7301,"igation":7302,"ĠConference":7303,"ffizienz":7304,"Ġsectors":7305,"Ġconcentr":7306,"Ġrespond":7307,"ĠIniti":7308,"Ġadopt":7309,"izes":7310,"Ġtransparent":7311,"grenz":7312,"ĠKe":7313,"Ġseines":7314,"ĠWeit":7315,"ĠZentral":7316,"Ġhistorischen":7317,"wel":7318,"ĠMc":7319,"ĠVideo":7320,"Ġchallenge":7321,"ĠTerrorismus":7322,"Ġsymbol":7323,"ĠMenschenrechts":7324,"ĠRats":7325,"Ġehem":7326,"Ġcert":7327,"zeiten":7328,"ĠAgent":7329,"Ġvalid":7330,"Ġscientific":7331,"ĠStock":7332,"Ġbill":7333,"Ġgames":7334,"ĠBeruf":7335,"vollen":7336,"Ġles":7337,"ĠFÃ¤h":7338,"ĠwÃ¤hlen":7339,"ĠGrand":7340,"nungs":7341,"reland":7342,"Ġrelease":7343,"Ġarrange":7344,"Ġbein":7345,"ktive":7346,"Ġstaat":7347,"fence":7348,"Ã¤chen":7349,"Ġselection":7350,"ĠHel":7351,"Ġrele":7352,"Ġaccepted":7353,"Ġbald":7354,"ĠTest":7355,"ĠAk":7356,"ĠReal":7357,"ĠErd":7358,"karte":7359,"sam":7360,"ĠauÃŁerhalb":7361,"wenden":7362,"ĠAnfrage":7363,"ĠTradition":7364,"Ġkam":7365,"ĠTier":7366,"ichtlich":7367,"Ġexerc":7368,"ĠGef":7369,"ĠAirport":7370,"ĠbefÃ¼r":7371,"sc":7372,"ĠDa":7373,"figur":7374,"ĠOpfer":7375,"furt":7376,"ĠSchritte":7377,"Ġapprec":7378,"rÃ¤nkt":7379,"inary":7380,"poses":7381,"enze":7382,"ĠbetrÃ¤":7383,"ĠCal":7384,"âĦ":7385,"abkommen":7386,"Ġbusinesses":7387,"Ġverantwortlich":7388,"Ġmodernen":7389,"meer":7390,"ĠGreen":7391,"Ġupd":7392,"Ġfine":7393,"Ġblo":7394,"Ġzumindest":7395,"ĠRechtsvorschriften":7396,"izing":7397,"âĢĿ.":7398,"Ġfolgt":7399,"enh":7400,"Ġgemein":7401,"iant":7402,"Ġpowers":7403,"ĠSpanien":7404,"fÃ¼r":7405,"Ġimages":7406,"Ġexpert":7407,"Ġvisitors":7408,"kom":7409,"tempt":7410,"Ġtrying":7411,"Ġlay":7412,"ĠMer":7413,"Ġwalking":7414,"Ġremember":7415,"ĠTH":7416,"ĠAngelegenheit":7417,"bas":7418,"Ġverkauf":7419,"ĠtÃ¤t":7420,"Ġlies":7421,"ĠDat":7422,"Ġverab":7423,"umm":7424,"zul":7425,"erdings":7426,"ĠZivil":7427,"ĠGel":7428,"Ġlost":7429,"Ġdespite":7430,"Meine":7431,"ĠWell":7432,"atalog":7433,"ĠvollstÃ¤ndig":7434,"Ġheutigen":7435,"Ġgenu":7436,"Ġraised":7437,"Ġwach":7438,"imb":7439,"Ġabsolutely":7440,"Ġcoup":7441,"ĠMand":7442,"ĠpersÃ¶nlichen":7443,"Ã¤mpfen":7444,"Ġseparate":7445,"affe":7446,"ĠMass":7447,"Ġgenug":7448,"Ġinfluence":7449,"ĠAngelegenheiten":7450,"ĠschÃ¼tzen":7451,"akte":7452,"Ġfant":7453,"Ġelegant":7454,"ĠBerat":7455,"Ġenorm":7456,"Zweitens":7457,"ĠGarten":7458,"tritt":7459,"ATO":7460,"ĠWenn":7461,"ĠGet":7462,"Ġtechnischen":7463,"ĠFirmen":7464,"losigkeit":7465,"raten":7466,"MS":7467,"anda":7468,"erkennung":7469,"Ġcompetit":7470,"ĠWaren":7471,"ĠKn":7472,"imed":7473,"Ġkomp":7474,"Ġerinnern":7475,"barer":7476,"verage":7477,"ĠVergleich":7478,"ĠprÃ¼":7479,"ga":7480,"Ġcohes":7481,"ML":7482,"Ġfolgenden":7483,"icket":7484,"Ġine":7485,"ĠPet":7486,"gesetz":7487,"ĠausschlieÃŁlich":7488,"âĦ¢":7489,"ĠParteien":7490,"ĠCap":7491,"Ġheav":7492,"ĠSchwierigkeiten":7493,"quem":7494,"Ġdeutschen":7495,"Ġerlaubt":7496,"ĠDoppel":7497,"ĠExper":7498,"Ġsubstant":7499,"Ġdemands":7500,"ologie":7501,"ĠHy":7502,"ĠAnnahme":7503,"Ġreflect":7504,"Ġclub":7505,"Ġaffe":7506,"sÃ¤tze":7507,"Ġmanufactur":7508,"IF":7509,"Ġhonour":7510,"Ġanders":7511,"Ġsil":7512,"hÃ¤ltnis":7513,"ĠHerausforderungen":7514,"star":7515,"werte":7516,"ĠHinsicht":7517,"Ġnamely":7518,"Ġbessere":7519,"Ġerwartet":7520,"last":7521,"Ġunten":7522,"ĠEinwander":7523,"Ġspezif":7524,"ĠEntschlieÃŁungs":7525,"ĠRegierungs":7526,"tere":7527,"Ġborders":7528,"Ġ1996":7529,"ĠstÃ¤rker":7530,"Ġlisten":7531,"ĠâĢĶ":7532,"handel":7533,"zusetzen":7534,"Ġangemessen":7535,"Ġinsp":7536,"Ġfields":7537,"ĠChance":7538,"ION":7539,"Â´":7540,"abr":7541,"ĠId":7542,"gÃ¼lt":7543,"Ġanerk":7544,"ĠTor":7545,"Ġzuk":7546,"lemente":7547,"ĠVertrauen":7548,"70":7549,"Ġ).":7550,"Ġris":7551,"Ġchanged":7552,"Ġgetroffen":7553,"reise":7554,"ĠEss":7555,"chtet":7556,"Ã¶rt":7557,"attle":7558,"//":7559,"ĠIhres":7560,"zulegen":7561,"Ġgek":7562,"Ġfire":7563,"Ġvital":7564,"NatÃ¼rlich":7565,"ids":7566,"gehend":7567,"Even":7568,"bit":7569,"uly":7570,"EG":7571,"Ġrepresentatives":7572,"ĠHal":7573,"Ġmenu":7574,"âĢŀ":7575,"Ġkitchen":7576,"Ġitalien":7577,"Ġseason":7578,"hilfe":7579,"Ġglo":7580,"unge":7581,"ĠÂ»":7582,"Ġproceed":7583,"Ã¤tzlich":7584,"Ġallgemeinen":7585,"Ġverurs":7586,"ĠÃ¼bernehmen":7587,"Ġcalls":7588,"uses":7589,"rogen":7590,"amin":7591,"ĠGespr":7592,"Ġinnovation":7593,"Ġstrategic":7594,"Ġgesetz":7595,"Ġoverall":7596,"iarden":7597,"ighted":7598,"ĠEinrichtung":7599,"indungen":7600,"Ġworked":7601,"ĠIreland":7602,"Ġgesehen":7603,"used":7604,"ĠGran":7605,"Ġevening":7606,"Ġyourself":7607,"Ġslow":7608,"ruption":7609,"aters":7610,"engungen":7611,"Ġplayer":7612,"Ġimpl":7613,"Heute":7614,"konom":7615,"ĠEnd":7616,"aries":7617,"Ġtrip":7618,"ĠSpieler":7619,"itts":7620,"La":7621,"ĠMicrosoft":7622,"Ġprocessing":7623,"ĠzukÃ¼nft":7624,"vorsitz":7625,"Ġinitiatives":7626,"ziert":7627,"pport":7628,"asc":7629,"sprechen":7630,"ĠSm":7631,"Ġheard":7632,"ĠUK":7633,"Ġbitten":7634,"ĠjÃ¤hr":7635,"Ġannual":7636,"Ġwiederhol":7637,"Ġintended":7638,"Ġexpressed":7639,"Tro":7640,"ĠModell":7641,"ĠEigent":7642,"wan":7643,"ĠbegrÃ¼ÃŁen":7644,"Secondly":7645,"Ġaward":7646,"immern":7647,"ĠChinese":7648,"Ġwrong":7649,"lymp":7650,"ĠPH":7651,"Ġehemal":7652,"Ġdarstellt":7653,"di":7654,"ĠOrd":7655,"mand":7656,"Â²":7657,"Ġvertra":7658,"ĠHuman":7659,"isely":7660,"Ġplans":7661,"ĠSen":7662,"Ġtrack":7663,"gruppen":7664,"krise":7665,"hers":7666,"Ġangeboten":7667,"Ġoffens":7668,"ĠGeneration":7669,"wes":7670,"Ġnegative":7671,"Ġoccup":7672,"ĠProzent":7673,"Ġbeginnen":7674,"ĠMess":7675,"Ġaccession":7676,"Ġprivaten":7677,"eignet":7678,"ĠBal":7679,"QL":7680,"ĠVerwaltung":7681,"umin":7682,"Ġendlich":7683,"Ġsetzt":7684,"ulations":7685,"iÃ³n":7686,"Ġbir":7687,"Ġcommitted":7688,"ita":7689,"nel":7690,"ĠVerfassung":7691,"Ġcell":7692,"Ġautomatisch":7693,"Ã¶rdert":7694,"ĠProduktions":7695,"Ġangene":7696,"Ġzudem":7697,"ĠLiberal":7698,"AG":7699,"auern":7700,"ĠnatÃ¼r":7701,"ruit":7702,"ĠRussian":7703,"Ġtraffic":7704,"Ġlove":7705,"Gleich":7706,"European":7707,"Ġfalls":7708,"Ġtalking":7709,"Ġgoal":7710,"Ġletzte":7711,"Ġflexible":7712,"ĠTem":7713,"ildet":7714,"ystemen":7715,"ĠArbeitsplÃ¤tze":7716,"inens":7717,"Ġeindeutig":7718,"Ġbestimmt":7719,"zeichen":7720,"gere":7721,"90":7722,"Ġfresh":7723,"Ġrestrict":7724,"ĠJohn":7725,"TV":7726,"Ġentgegen":7727,"ollar":7728,"ifizierung":7729,"Ġdeine":7730,"Ġphoto":7731,"ĠlÃ¤nd":7732,"Ġcities":7733,"ĠSÃ¼":7734,"While":7735,"ĠHause":7736,"cluded":7737,"Ġability":7738,"Ġdatab":7739,"ĠPrÃ¤":7740,"stoffe":7741,"Not":7742,"ustausch":7743,"Ġplaced":7744,"ories":7745,"ĠSonder":7746,"ĠSolidaritÃ¤t":7747,"Ġjem":7748,"ĠKapital":7749,"ĠBerichterstatterin":7750,"Ġsays":7751,"Ġmainly":7752,"Ġrom":7753,"Ġtarget":7754,"set":7755,"zlich":7756,"ĠAgre":7757,"Ġhot":7758,"Ġbrand":7759,"ĠÃĸsterreich":7760,"Ġrunning":7761,"Ġdipl":7762,"Ġtit":7763,"ĠFalle":7764,"ĠAntrag":7765,"Ġspect":7766,"ĠAmendment":7767,"ĠAfghanistan":7768,"bum":7769,"bringen":7770,"ĠbemÃ¼":7771,"idelines":7772,"Ġtal":7773,"ĠPrem":7774,"Ġsinn":7775,"ras":7776,"Ġplanning":7777,"ĠSwiss":7778,"hood":7779,"Ġdringend":7780,"Ġterrace":7781,"agraph":7782,"Ġelement":7783,"ĠKonzept":7784,"Ġautom":7785,"Ġalone":7786,"Ġremind":7787,"Ġfamilies":7788,"Ġ195":7789,"Ġcohesion":7790,"96":7791,"etten":7792,"Ġstudents":7793,"Ġapproved":7794,"gebiet":7795,"ĠGene":7796,"ĠEind":7797,"Ġopening":7798,"ĠAmb":7799,"Ġbeide":7800,"ĠHostels":7801,"Ġbege":7802,"ples":7803,"ĠIslam":7804,"CD":7805,"gers":7806,"ĠLeute":7807,"ĠHeim":7808,"kaufs":7809,"ĠEinfluss":7810,"Ġconfirm":7811,"ores":7812,"ĠDel":7813,"Ã¼b":7814,"ĠTal":7815,"ĠFreiz":7816,"Ġanc":7817,"ĠlÃ¤nger":7818,"ils":7819,"Ġjustice":7820,"ĠZustimmung":7821,"Ġimproved":7822,"Ġverme":7823,"ĠTÃ¤tigkeit":7824,"acc":7825,"ĠKrank":7826,"Ġwhom":7827,"Ġfear":7828,"ĠVerpflichtungen":7829,"Ġbuy":7830,"Ġcomments":7831,"Ġethn":7832,"ĠAusschuÃŁ":7833,"ĠAnstrengungen":7834,"Ġaffected":7835,"zech":7836,"Ġtot":7837,"Ġconclusion":7838,"ibly":7839,"ĠMÃ¼n":7840,"rieb":7841,"ĠgrÃ¶ÃŁere":7842,"Ġfeature":7843,"Ġreag":7844,"Ġgenannt":7845,"Ġbenutzt":7846,"ĠKompromiss":7847,"itory":7848,"Ġdecide":7849,"Ġkaum":7850,"Ġlaws":7851,"zeigen":7852,"bourg":7853,"Ġattempt":7854,"Ġirgend":7855,"grams":7856,"Ġadministrative":7857,"Ġumfang":7858,"Ġcircumstances":7859,"do":7860,"ĠNATO":7861,"Ġbanks":7862,"Ġsuitable":7863,"Ġkomfort":7864,"Ã¼ckt":7865,"Ġgenutzt":7866,"anach":7867,"Â»":7868,"mel":7869,"Ġcele":7870,"Ġbilden":7871,"ĠSam":7872,"Ġtouch":7873,"ĠGold":7874,"Ġcollection":7875,"Ġbox":7876,"Inde":7877,"Ġprovision":7878,"ĠVerhalten":7879,"Ġphone":7880,"Ġbezahl":7881,"ĠAnerkennung":7882,"ĠVoll":7883,"itzt":7884,"ifying":7885,"Ġ150":7886,"aschine":7887,"aria":7888,"Ġautomatically":7889,"ĠzusÃ¤tzliche":7890,"Ġunbedingt":7891,"ĠAusgang":7892,"ĠOrganisationen":7893,"Ġinn":7894,"Ġcurrency":7895,"aste":7896,"Ġbelieb":7897,"ĠMitte":7898,"Ã¤ndigen":7899,"Ġeingehen":7900,"quate":7901,"ĠGesamt":7902,"Lassen":7903,"ĠBade":7904,"Ġentspricht":7905,"Ġreduced":7906,"ĠJe":7907,"Ġvorgelegt":7908,"ĠGeorg":7909,"ĠIdee":7910,"Den":7911,"ĠRoma":7912,"Ġdelivery":7913,"Ġpo":7914,"ĠÃ¼berzeugt":7915,"Ðº":7916,"ĠPla":7917,"ĠGod":7918,"bÃ¼":7919,"ago":7920,"Ġincreasingly":7921,"Ġpriorities":7922,"ĠTher":7923,"ĠSlo":7924,"ĠMex":7925,"ĠÂ«":7926,"ĠselbstverstÃ¤ndlich":7927,"Ġemissions":7928,"Ġoben":7929,"Ġmoderne":7930,"ses":7931,"enty":7932,"Ġmill":7933,"Ġentstehen":7934,"Ġfeed":7935,"alled":7936,"Moreover":7937,"ĠCy":7938,"how":7939,"Ġentschieden":7940,"ĠGoogle":7941,"Ġcos":7942,"ĠAc":7943,"igran":7944,"Ġreforms":7945,"Kon":7946,"ĠAC":7947,"Ġadministration":7948,"Ġgegr":7949,"ĠNations":7950,"reiber":7951,"angs":7952,"ael":7953,"Ġsupports":7954,"Ġgere":7955,"Ġcontribute":7956,"Ġextensive":7957,"ray":7958,"Ġextend":7959,"ĠÃľberwach":7960,"Ġconfidence":7961,"Ġersch":7962,"Ġgesetzt":7963,"endence":7964,"Ġunterb":7965,"Ġintell":7966,"laufen":7967,"iano":7968,"Ã¡n":7969,"ĠkÃ¼rz":7970,"ĠQualitÃ¤ts":7971,"Ġhol":7972,"Neben":7973,"Ġerkennen":7974,"elte":7975,"fun":7976,"Ġzufrieden":7977,"ĠFree":7978,"ĠNews":7979,"Ġregime":7980,"ĠPublic":7981,"ĠKauf":7982,"ĠFlex":7983,"âĢĿ,":7984,"ocation":7985,"fÃ¤lle":7986,"Ġelektron":7987,"Ġcoordin":7988,"endet":7989,"ĠAng":7990,"mon":7991,"26":7992,"verlÃ¤ss":7993,"ĠberÃ¼cksichtigen":7994,"Ġce":7995,"ĠDub":7996,"://":7997,"Ġensuring":7998,"Ġstabil":7999,"Ġwesentlich":8000,"iums":8001,"Ġvictims":8002,"struktur":8003,"Ġparticipation":8004,"ĠDurchfÃ¼hrung":8005,"ĠCop":8006,"Ġunterschiedlichen":8007,"ĠWahlen":8008,"Ġstructural":8009,"ĠBur":8010,"Ġauszu":8011,"Ã¤her":8012,"izenz":8013,"ĠHoff":8014,"âĢľ.":8015,"Ġspecifically":8016,"Ġinfrastructure":8017,"time":8018,"Ġmanner":8019,"Ġcrime":8020,"ĠVereinbarung":8021,"PT":8022,"Ġplayed":8023,"ideos":8024,"artigen":8025,"folger":8026,"omet":8027,"Ġanz":8028,"aming":8029,"ĠSchwer":8030,"Ġscope":8031,"ĠWissenschaft":8032,"isc":8033,"Ġencourage":8034,"Ġangegeben":8035,"Ġunemployment":8036,"ĠÃĸl":8037,"letter":8038,"azz":8039,"entwicklung":8040,"Ġmedic":8041,"ĠKriterien":8042,"Ġspeziell":8043,"Ġfellow":8044,"Ġcas":8045,"rel":8046,"Allerdings":8047,"Ġhund":8048,"ĠLicht":8049,"ĠLang":8050,"ongs":8051,"Ġmehreren":8052,"daten":8053,"esearch":8054,"Ġblack":8055,"Ġmindestens":8056,"IG":8057,"Ġelectronic":8058,"ampag":8059,"IR":8060,"ĠmilitÃ¤r":8061,"Ġvoraus":8062,"Ġgezeigt":8063,"Ġnachdem":8064,"ĠHolz":8065,"Ġed":8066,"Ġmittel":8067,"Ġpowerful":8068,"ĠBoden":8069,"benen":8070,"Ġtabled":8071,"ĠAlle":8072,"Ġpurposes":8073,"zentrum":8074,"ĠKÃ¶rper":8075,"haften":8076,"ING":8077,"Ġintroduced":8078,"Ġherunter":8079,"Ã¼ndung":8080,"gewÃ¶hn":8081,"Ġbewusst":8082,"lying":8083,"laus":8084,"Ã¤stinens":8085,"arus":8086,"ĠCosta":8087,"Ã¤den":8088,"Ġdanke":8089,"iler":8090,"Ġhochwert":8091,"het":8092,"Ġplus":8093,"Ġchurch":8094,"Ġrise":8095,"Ġaktuelle":8096,"ĠverfÃ¼gbar":8097,"Ġagriculture":8098,"Ġgetting":8099,"odies":8100,"Ġhinweisen":8101,"brit":8102,"Viele":8103,"Your":8104,"wirken":8105,"ĠAbschluss":8106,"Ġdemokratischen":8107,"Ġerreich":8108,"Ġentsprechende":8109,"ĠGlaub":8110,"ĠGrie":8111,"Ġscreen":8112,"Ġrepla":8113,"afft":8114,"Ġanimals":8115,"rÃ¤ge":8116,"ĠWaffen":8117,"Ġvorsch":8118,"Ġpolice":8119,"Ġwonderful":8120,"Ġdetailed":8121,"ĠErk":8122,"Ġplatform":8123,"inian":8124,"anlagen":8125,"Ġserved":8126,"Ġship":8127,"ĠArchite":8128,"ĠBestand":8129,"Ġreferred":8130,"ĠKommunikation":8131,"Ġsources":8132,"chtung":8133,"ĠGarant":8134,"amber":8135,"ĠAnspruch":8136,"ĠHaft":8137,"Ġbeschlossen":8138,"Ġusually":8139,"ickets":8140,"Ġ1990":8141,"aktiv":8142,"zeichnen":8143,"Ġclient":8144,"ĠAusbildung":8145,"Ġglauben":8146,"Ġharm":8147,"Ġ\"...":8148,"ĠOsten":8149,"Ġeffectively":8150,"Ġwhite":8151,"ĠPartei":8152,"ĠerwÃ¤hnt":8153,"Ġeuch":8154,"Ġfunctions":8155,"Ġlarger":8156,"ĠMitteilung":8157,"Ġgesprochen":8158,"mack":8159,"Ġfert":8160,"Ġdedic":8161,"Ġaimed":8162,"Ġmotion":8163,"lÃ¼ck":8164,"ida":8165,"Ã¶m":8166,"sm":8167,"Ġsummit":8168,"Ġcompetitive":8169,"Ġec":8170,"ĠnÃ¶t":8171,"idential":8172,"Ġmm":8173,"ĠBran":8174,"avi":8175,"Ñĥ":8176,"esents":8177,"ĠGest":8178,"Ġpleasant":8179,"Ġsort":8180,"Ġexactly":8181,"Ġinstallation":8182,"tert":8183,"atik":8184,"Ġquant":8185,"ĠBon":8186,"ĠCzech":8187,"Ġwert":8188,"Ġangesprochen":8189,"fa":8190,"Ġdead":8191,"ĠSea":8192,"Ġbesonderen":8193,"fu":8194,"ĠAutom":8195,"ĠWik":8196,"Einige":8197,"Ġstated":8198,"ĠAgreement":8199,"iertel":8200,"Ġ45":8201,"Ġoccur":8202,"ĠSprachen":8203,"Ġserve":8204,"zieht":8205,"Ġsitting":8206,"spunkt":8207,"Ġprotected":8208,"Ġzentral":8209,"Ġreception":8210,"ĠDre":8211,"ĠWÃ¤hrung":8212,"itzerland":8213,"ingu":8214,"bad":8215,"Ġnationale":8216,"called":8217,"Ġkontroll":8218,"schuld":8219,"ĠStabilitÃ¤t":8220,"Ġpoll":8221,"uts":8222,"Ġprecisely":8223,"Ġluxur":8224,"Ġrural":8225,"Ġvac":8226,"Ġchann":8227,"Ġprem":8228,"Â°":8229,"Ġcompeten":8230,"oted":8231,"ounge":8232,"fÃ¼hrer":8233,"unkten":8234,"Ġcamera":8235,"ĠRa":8236,"ĠVorteile":8237,"Ġwants":8238,"Ġeingerichtet":8239,"fahrens":8240,"Ġeinzus":8241,"Ġrepresents":8242,"Ġsicherzustellen":8243,"fiz":8244,"Ġakzeptieren":8245,"'ll":8246,"gree":8247,"ĠEnterprise":8248,"Ġmand":8249,"Ġdiscussed":8250,"ĠKoordin":8251,"ĠDen":8252,"Ġotherwise":8253,"ĠVerwaltungs":8254,"Per":8255,"atoren":8256,"ĠSchaden":8257,"Ġbudgetary":8258,"ĠInhalte":8259,"rip":8260,"Ġtemper":8261,"ĠZeichen":8262,"Ġgeeignet":8263,"ibilitÃ¤t":8264,"35":8265,"idents":8266,"ologischen":8267,"uber":8268,"hy":8269,"weder":8270,"Äį":8271,"ĠEinsch":8272,"Ġdiscussions":8273,"Ġinstitutional":8274,"War":8275,"ĠHintergrund":8276,"Ġbecoming":8277,"ĠIP":8278,"law":8279,"ĠSchlaf":8280,"IE":8281,"wegung":8282,"atively":8283,"ield":8284,"agegen":8285,"udem":8286,"Ġ2020":8287,"Ġfacilit":8288,"Ġverz":8289,"ĠMio":8290,"enhagen":8291,"Ġsold":8292,"ĠBoard":8293,"ĠTab":8294,"ĠMensch":8295,"Ġbenutzen":8296,"Wann":8297,"ĠFischerei":8298,"ĠLab":8299,"Ġerzielt":8300,"ĠEas":8301,"Ġdevelopments":8302,"Ġehr":8303,"Ġ;":8304,"Ġzug":8305,"Ġbestehenden":8306,"Ġmix":8307,"Nun":8308,"ĠElekt":8309,"jo":8310,"Ġarm":8311,"Ġspacious":8312,"Ġconvin":8313,"ĠAltern":8314,"ĠHomepage":8315,"jected":8316,"Ġauth":8317,"try":8318,"Bet":8319,"Ġ*":8320,"Ġthousands":8321,"Ġmanaged":8322,"01":8323,"Ġconver":8324,"Ġrisks":8325,"Spe":8326,"ĠEt":8327,"ima":8328,"ĠAssoc":8329,"Ġforget":8330,"ĠFrankfurt":8331,"ĠBesucher":8332,"Ġexpens":8333,"Ġwahrscheinlich":8334,"Ġwatch":8335,"Ġmetres":8336,"mas":8337,"uisine":8338,"Ġrechts":8339,"Ġausgew":8340,"Dem":8341,"Ġfreuen":8342,"uit":8343,"Ġcovered":8344,"stieg":8345,"ĠKarte":8346,"Ġfestgelegt":8347,"ente":8348,"Ã¼ste":8349,"wasser":8350,"ĠKind":8351,"ĠIrak":8352,"ĠHaltung":8353,"ĠBemerk":8354,"ĠIdent":8355,"Ġassessment":8356,"Ġremark":8357,"Ġentry":8358,"quality":8359,"ĠHaushalt":8360,"Ġzuletzt":8361,"Ġinside":8362,"Ġdomin":8363,"Ins":8364,"ĠAufnahme":8365,"Ġcorresp":8366,"achtet":8367,"ĠSektor":8368,"ĠNahr":8369,"amente":8370,"obilien":8371,"Ġnotwendigen":8372,"ĠPolicy":8373,"ĠFot":8374,"ĠKenntnis":8375,"ĠErn":8376,"Ġexpected":8377,"categories":8378,"Ġguidelines":8379,"Ġselected":8380,"ĠprÃ¼fen":8381,"ĠEst":8382,"ĠRoman":8383,"Ġearlier":8384,"Ġprovider":8385,"Ġwood":8386,"Ġanderes":8387,"Ġspend":8388,"Only":8389,"ĠLiber":8390,"Ġcritical":8391,"ĠgeÃ¤ndert":8392,"Ġactual":8393,"Ġumgesetzt":8394,"ĠKonflikt":8395,"Ġprograms":8396,"ags":8397,"Ġhoffen":8398,"schiede":8399,"ĠMilliarden":8400,"ĠRegional":8401,"Ġwinter":8402,"ĠBeitritts":8403,"cause":8404,"ensions":8405,"27":8406,"mod":8407,"ĠAL":8408,"Ġschrif":8409,"Ġradio":8410,"ĠSand":8411,"werke":8412,"Ġfollowed":8413,"Ġglobalen":8414,"ĠSpr":8415,"ĠmÃ¶glicherweise":8416,"Ġfinanziellen":8417,"asts":8418,"Ġexpand":8419,"ĠerfÃ¼llt":8420,"Ġclosely":8421,"Obwohl":8422,"Ġintroduction":8423,"Ġunters":8424,"Ġvotes":8425,"Ġmedical":8426,"ĠDav":8427,"Ġjene":8428,"ĠSalz":8429,"ads":8430,"ĠUnterkategorien":8431,"Ġbuildings":8432,"ura":8433,"rum":8434,"ĠSchengen":8435,"Ã¤user":8436,"orea":8437,"Ġpaper":8438,"Ġlisted":8439,"ĠAcc":8440,"Ġbequem":8441,"ĠReformen":8442,"ĠAusgaben":8443,"ĠStraÃŁe":8444,"Ġlikely":8445,"icks":8446,"ĠOlymp":8447,"Ġdienen":8448,"ĠAN":8449,"ĠDol":8450,"ureau":8451,"Ġcentr":8452,"posed":8453,"ĠSing":8454,"ĠIf":8455,"ĠMiddle":8456,"Ġergreifen":8457,"inu":8458,"levision":8459,"Ġfreien":8460,"iat":8461,"Ġ1995":8462,"ĠAgenda":8463,"ĠSerb":8464,"ĠCast":8465,"ĠMonate":8466,"Ġbeziehen":8467,"ĠWel":8468,"ulieren":8469,"Ġimpress":8470,"Ġjederzeit":8471,"ĠCode":8472,"ĠVorbereit":8473,"Ġweap":8474,"Mein":8475,"bu":8476,"ĠFÃ¼r":8477,"ĠFakt":8478,"ĠRichtlinien":8479,"ĠAsia":8480,"Ġspread":8481,"Ġenterprises":8482,"ĠHow":8483,"Ġscen":8484,"prÃ¤sident":8485,"Ġdisapp":8486,"Ġnetworks":8487,"ĠwÃ¼nschen":8488,"gal":8489,"uropa":8490,"ĠCard":8491,"denken":8492,"ĠProdukten":8493,"ĠFunktionen":8494,"ĠLuxem":8495,"Ġfahren":8496,"ailing":8497,"ham":8498,"Ġtrust":8499,"werten":8500,"ĠPlay":8501,"onym":8502,"ĠSchlÃ¼ssel":8503,"ĠWettbewerbsfÃ¤higkeit":8504,"gets":8505,"ĠAnpass":8506,"chnologie":8507,"ĠlÃ¶sen":8508,"ĠTechnologien":8509,"either":8510,"ĠGeh":8511,"Soll":8512,"Ġgraph":8513,"Ġvermeiden":8514,"ora":8515,"ĠFischere":8516,"Ġcolor":8517,"Ġopened":8518,"iques":8519,"Ġschwierig":8520,"ĠArab":8521,"Ġlinked":8522,"ĠAnn":8523,"Ġoperations":8524,"Ġausger":8525,"Ġterritor":8526,"ishing":8527,"ĠTurk":8528,"Ġgleiche":8529,"ĠKomfort":8530,"Ġmarketing":8531,"jekten":8532,"ĠHaup":8533,"Ġries":8534,"Ġimmigration":8535,"scher":8536,"Ġsupporting":8537,"Ġimproving":8538,"Ġged":8539,"aves":8540,"ĠGriechen":8541,"Ġelectric":8542,"ĠStellen":8543,"vements":8544,"Ġwent":8545,"Ġeinzu":8546,"inc":8547,"Ġexplo":8548,"ulierung":8549,"reiten":8550,"ĠsÃ¼d":8551,"ĠBew":8552,"Ġcomment":8553,"Trotz":8554,"ennis":8555,"TA":8556,"Ġade":8557,"Ġtelephone":8558,"rahmen":8559,"ĠMotor":8560,"Intern":8561,"ĠÃ©":8562,"Ġspeech":8563,"wirk":8564,"ĠÃ¶ffentlich":8565,"Ġbraucht":8566,"Indeed":8567,"Ġexclusive":8568,"ĠUmst":8569,"Ġnah":8570,"ĠMeter":8571,"freiheit":8572,"Ġunderstanding":8573,"ĠKindern":8574,"Ġkostenlos":8575,"Mar":8576,"aser":8577,"ĠHerz":8578,"ĠWellness":8579,"Ihre":8580,"nach":8581,"etze":8582,"ĠArten":8583,"Ġbeds":8584,"Ġstattfinden":8585,"ĠDownload":8586,"ometer":8587,"ym":8588,"ĠSon":8589,"ĠVielfalt":8590,"Ġuses":8591,"Ġsagt":8592,"Ġ?":8593,"Ġdegree":8594,"Ġhands":8595,"kap":8596,"ÃĦ":8597,"Ġcompens":8598,"Ġsicherlich":8599,"Ġverbessert":8600,"Ġlesen":8601,"ĠLink":8602,"Ġconsiderable":8603,"IB":8604,"folgend":8605,"ĠDateien":8606,"gencies":8607,"leisch":8608,"roh":8609,"Ġcompar":8610,"Ġmultip":8611,"Ġmap":8612,"crete":8613,"ĠCr":8614,"konferenz":8615,"Ġaccomp":8616,"cers":8617,"Ġentit":8618,"Ġfallen":8619,"clude":8620,"gment":8621,"akfast":8622,"ĠSchiff":8623,"istence":8624,"Mitglied":8625,"ktiven":8626,"Ġabst":8627,"Ġempfehl":8628,"Dann":8629,"Ġmil":8630,"aw":8631,"can":8632,"Ġgave":8633,"mÃ¶glich":8634,"SchlieÃŁlich":8635,"ĠZweck":8636,"Ġpresence":8637,"ĠIM":8638,"ĠgemÃ¼t":8639,"Ġtempor":8640,"Ġacqu":8641,"Ġfrag":8642,"ĠBi":8643,"ĠEv":8644,"Ġsubstantial":8645,"ĠInnovation":8646,"Ġtourism":8647,"Ġshower":8648,"olden":8649,"ĠMenge":8650,"britann":8651,"Ġgelangen":8652,"prÃ¼fung":8653,"ĠInfrastruktur":8654,"istrib":8655,"2000":8656,"ĠStil":8657,"Ġgern":8658,"ĠEinrichtungen":8659,"Ġdestro":8660,"ĠGrundsatz":8661,"ADS":8662,"Ġproperly":8663,"28":8664,"igem":8665,"leitung":8666,"Ġjeweils":8667,"ussels":8668,"Ġplaying":8669,"Ġcuisine":8670,"Ġsave":8671,"ĠgewÃ¼n":8672,"Ġmultil":8673,"Fl":8674,"Ġabzu":8675,"ĠFebruary":8676,"Ġbrief":8677,"Viel":8678,"ĠHil":8679,"ĠStimme":8680,"Ġpercent":8681,"Ġcomponents":8682,"Ġphotograph":8683,"Ġdarunter":8684,"Ġ400":8685,"ĠSuche":8686,"Ger":8687,"Ġging":8688,"Ġangezeigt":8689,"Ġexperts":8690,"lad":8691,"EU":8692,"Ġdelay":8693,"Ġpurchase":8694,"Ġdoor":8695,"Ġeffizient":8696,"ĠBu":8697,"Ġbott":8698,"Ġitems":8699,"ported":8700,"According":8701,"ĠWege":8702,"bruch":8703,"ĠForderung":8704,"Ġfisheries":8705,"Ġduty":8706,"punkte":8707,"Ġanimal":8708,"Ġfounded":8709,"itors":8710,"inder":8711,"itter":8712,"Ġentweder":8713,"ĠHier":8714,"Ġerzielen":8715,"ĠStandards":8716,"Ġconvenient":8717,"Ġpicture":8718,"union":8719,"gemeine":8720,"ĠFrem":8721,"Its":8722,"21":8723,"uting":8724,"band":8725,"ĠStart":8726,"ĠIndia":8727,"preis":8728,"Falls":8729,"Just":8730,"Ã¼tze":8731,"ĠOffice":8732,"ĠÃ¼bernachten":8733,"stelle":8734,"ikanische":8735,"wohner":8736,"chmal":8737,"gebaut":8738,"ĠergÃ¤n":8739,"ĠausdrÃ¼cklich":8740,"Ġgekommen":8741,"ĠStreet":8742,"Ġsho":8743,"Ġentirely":8744,"ĠVereinten":8745,"ĠPaul":8746,"RA":8747,"itze":8748,"Ġsole":8749,"Ġplants":8750,"Ġincor":8751,"Ġhosp":8752,"Ġformat":8753,"ĠCharakter":8754,"zieren":8755,"ĠKlein":8756,"Ġcoordination":8757,"Ġtypical":8758,"ĠTelefon":8759,"ĠTar":8760,"Ġstrict":8761,"schech":8762,"Ġbesuchen":8763,"Ġrefuge":8764,"ĠStation":8765,"rÃ¤ft":8766,"sper":8767,"sport":8768,"ĠSwitzerland":8769,"ĠSinn":8770,"Ġauthority":8771,"DP":8772,"Ġpresidency":8773,"prechen":8774,"Ġcoffe":8775,"ĠerhÃ¶hen":8776,"Ġdealing":8777,"Ġwollte":8778,"Ġwelcher":8779,"Ġgenerally":8780,"tempor":8781,"Ġuntern":8782,"club":8783,"Ġtack":8784,"Ġdifficulties":8785,"Ġtechnische":8786,"ĠBeih":8787,"Ġteilweise":8788,"Ġdebt":8789,"maÃŁ":8790,"Ġcombat":8791,"ĠstÃ¤ndig":8792,"Ġgrenz":8793,"Ġcriminal":8794,"ĠPrag":8795,"AbschlieÃŁend":8796,"Ġmobil":8797,"ĠwÃ¤ren":8798,"Ġelim":8799,"Ãĥ":8800,"Ã¼nen":8801,"Ġstimme":8802,"ĠstÃ¤rk":8803,"Ġkommenden":8804,"Ġorganisation":8805,"Dazu":8806,"Ġunc":8807,"Ġkomplett":8808,"schul":8809,"Ġinterpret":8810,"Ġcompetitiveness":8811,"plÃ¤tze":8812,"ĠInstallation":8813,"vey":8814,"oman":8815,"ĠLehr":8816,"ĠKy":8817,"Ġrecognis":8818,"Ġdispos":8819,"ĠMilit":8820,"Ġbetonen":8821,"Ġerstellt":8822,"Ġnieder":8823,"ĠThere":8824,"ĠNetzwerk":8825,"Ġwilling":8826,"ĠDatei":8827,"Ġrelate":8828,"ĠVÃ¶lker":8829,"Ġdetail":8830,"ĠAp":8831,"Ġconstit":8832,"Ġverur":8833,"Ġpermanent":8834,"schlossen":8835,"ĠSim":8836,"Ã¼nden":8837,"ĠTun":8838,"Ġshops":8839,"ĠEntwurf":8840,"Ã¼cke":8841,"Ġinformieren":8842,"Ġdramat":8843,"etter":8844,"erstellen":8845,"ĠPlen":8846,"ishes":8847,"ĠStatus":8848,"Ġzuvor":8849,"fÃ¼ll":8850,"gewicht":8851,"Ġvehicles":8852,"ĠBÃ¼ro":8853,"ĠAbs":8854,"ĠprÃ¤":8855,"Res":8856,"Ġalte":8857,"Ġklare":8858,"ova":8859,"MU":8860,"Ġcalc":8861,"fachen":8862,"Ġpeaceful":8863,"ries":8864,"ĠOff":8865,"Ġtold":8866,"Ġhandeln":8867,"ĠWie":8868,"Ġmachines":8869,"Ġsand":8870,"year":8871,"ossible":8872,"Ġparagraph":8873,"Ġkomplex":8874,"Ġfunktioniert":8875,"EA":8876,"ameter":8877,"Ġsuc":8878,"ĠKlimawand":8879,"Ġlernen":8880,"Ġthinking":8881,"Ġfacing":8882,"Ġpsych":8883,"Ġspeaking":8884,"umn":8885,"aken":8886,"ĠBereit":8887,"Ġmeetings":8888,"ĠBelarus":8889,"ĠISO":8890,"opol":8891,"Ġresort":8892,"Ġtrave":8893,"Ġfragen":8894,"Ġdistrict":8895,"ĠInstrumente":8896,"ĠArbeiten":8897,"ĠBrussels":8898,"henswÃ¼rd":8899,"Ġapplies":8900,"ĠArg":8901,"ĠGreece":8902,"Ġdarstellen":8903,"Ġ194":8904,"ĠZeitraum":8905,"Ġconsideration":8906,"Erstens":8907,"ĠWebseite":8908,"ĠWien":8909,"pper":8910,"pliz":8911,"ĠGlÃ¼ck":8912,"inding":8913,"Ġhour":8914,"ashion":8915,"Ġober":8916,"Ġnumbers":8917,"Ġflexibility":8918,"tete":8919,"ĠDienste":8920,"Any":8921,"Ġresist":8922,"ĠInitiativen":8923,"Ġsauber":8924,"ĠAbgeordnete":8925,"ĠLeistungen":8926,"Ġmoral":8927,"Ġgefordert":8928,"haben":8929,"ranken":8930,"Ġbear":8931,"allel":8932,"bew":8933,"ĠBerichte":8934,"portion":8935,"overy":8936,"cts":8937,"erman":8938,"Ġbecomes":8939,"Ġaverage":8940,"ĠSach":8941,"ĠBos":8942,"Ġadjust":8943,"ĠMadrid":8944,"ĠExp":8945,"las":8946,"Ġdagegen":8947,"rich":8948,"Ġsle":8949,"schung":8950,"iking":8951,"ĠWirk":8952,"esterday":8953,"Ġfixed":8954,"CC":8955,"ĠBegriff":8956,"Ġkonkrete":8957,"ĠFebruar":8958,"yes":8959,"ĠVerÃ¤nderungen":8960,"33":8961,"Ġdro":8962,"Ġpromotion":8963,"Ġ--":8964,"ĠTeile":8965,"Ġwenigen":8966,"ĠKol":8967,"Ġruss":8968,"hrase":8969,"Ġsorg":8970,"ĠEngagement":8971,"Ġhimself":8972,"Ġpractices":8973,"Ġopposition":8974,"embly":8975,"Ġinstru":8976,"2010":8977,"ĠPack":8978,"ĠBil":8979,"Ġjur":8980,"ĠGipfel":8981,"Ġschem":8982,"hnung":8983,"ĠAbsatz":8984,"Nicht":8985,"mÃ¤r":8986,"ĠHeil":8987,"ĠWass":8988,"sb":8989,"aker":8990,"lern":8991,"ĠEisen":8992,"ĠZeiten":8993,"hÃ¶rde":8994,"Ġunternehmen":8995,"ĠMitgliedstaat":8996,"ĠBay":8997,"iro":8998,"Ġdurchaus":8999,"iÃŁen":9000,"ĠBush":9001,"Ġbodies":9002,"ĠÃľ":9003,"Ġerleben":9004,"ĠSysteme":9005,"Ġorient":9006,"ae":9007,"ĠVerstÃ¤nd":9008,"SC":9009,"ĠBand":9010,"like":9011,"LE":9012,"Ġsucceed":9013,"ĠFonds":9014,"ĠgewÃ¤hrleistet":9015,"Ġvolle":9016,"Ġaims":9017,"Europe":9018,"Ġcontra":9019,"ĠMaschinen":9020,"ĠstÃ¤rken":9021,"illing":9022,");":9023,"Ġmyself":9024,"Ġgradu":9025,"uba":9026,"reifen":9027,"wagen":9028,"ĠHauses":9029,"www":9030,"erehr":9031,"ĠApartments":9032,"Ġpropose":9033,"Ġsuperv":9034,"SL":9035,"ĠName":9036,"Ġeingesch":9037,"ĠHerstellung":9038,"tte":9039,"qualitÃ¤t":9040,"waren":9041,"da":9042,"Ġrent":9043,"ĠLib":9044,"ĠGuest":9045,"Selbst":9046,"ĠPhil":9047,"Each":9048,"leistungs":9049,"bericht":9050,"Ġverring":9051,"ista":9052,"ĠAngaben":9053,"cting":9054,"ĠProte":9055,"iche":9056,"Ġlif":9057,"ĠtrÃ¤gt":9058,"Ġabsolut":9059,"ĠÃľbergang":9060,"Ġlokalen":9061,"ĠBarro":9062,"Why":9063,"Ġchines":9064,"ĠEinigung":9065,"fÃ¼hrten":9066,"Ã©e":9067,"Ġfreue":9068,"Ġdefined":9069,"ĠGrenz":9070,"Ġliebe":9071,"Ġsigned":9072,"dis":9073,"cknow":9074,"ĠGebieten":9075,"Ġestablishment":9076,"free":9077,"ault":9078,"Ġeasier":9079,"ĠGroÃŁbritann":9080,"Ġ32":9081,"schrift":9082,"Ist":9083,"Ġfit":9084,"ĠPoland":9085,"Ġincome":9086,"ĠhÃ¤lt":9087,"Ġwirks":9088,"ĠerklÃ¤ren":9089,"Then":9090,"Ġhinzuf":9091,"Ġclar":9092,"Ġsignal":9093,"ĠverÃ¶ffentlicht":9094,"Ġdatabase":9095,"Ã¤umen":9096,"known":9097,"worten":9098,"isms":9099,"Ġclaim":9100,"kle":9101,"isierten":9102,"Ġinformed":9103,"ĠKritik":9104,"ando":9105,"ĠRegelung":9106,"ĠNah":9107,"ĠbenÃ¶tigt":9108,"ĠSchn":9109,"Ġerfolgen":9110,"accept":9111,"ĠKÃ¶nigreich":9112,"ĠWorte":9113,"Ġpromoting":9114,"Ġparliamentary":9115,"Ã¶der":9116,"oyal":9117,"ĠfrÃ¼h":9118,"Ġseriously":9119,"Art":9120,"eig":9121,"ibet":9122,"Last":9123,"Ġmiddle":9124,"Ġexperienced":9125,"Ġacknow":9126,"Ġverwende":9127,"Ġzul":9128,"ĠStellungnahme":9129,"Ġhtt":9130,"ĠAnteil":9131,"Ġerscheint":9132,"Ġfailure":9133,"Ġancient":9134,"ĠRatsvorsitz":9135,"04":9136,"Ġdomestic":9137,"ĠKil":9138,"ĠRein":9139,"Ġdennoch":9140,"lÃ¤gen":9141,"ĠÅ":9142,"Ġanyone":9143,"Ġvoice":9144,"Ġcoffee":9145,"Ġlength":9146,"ĠEconomic":9147,"ĠKal":9148,"Ġtranslation":9149,"ĠWander":9150,"Ġfinanzielle":9151,"ĠRechnung":9152,"Ġhop":9153,"box":9154,"Ġfinancing":9155,"Ġmulti":9156,"Ġrech":9157,"Ġpolitics":9158,"lisch":9159,"ĠPakistan":9160,"lÃ¶sung":9161,"ĠmÃ¶glichst":9162,"05":9163,"]],":9164,"ĠnÃ¤chste":9165,"2001":9166,"wogen":9167,"ĠRisiko":9168,"Ġcelebr":9169,"ris":9170,"Dank":9171,"Ã¼g":9172,"ĠVill":9173,"Ġgeograph":9174,"Ġgering":9175,"Ġestate":9176,"Ġklass":9177,"She":9178,"Ġpros":9179,"ĠTool":9180,"ĠVien":9181,"Ġdefence":9182,"Ġadvanced":9183,"ĠResearch":9184,"qual":9185,"ĠHerausforderung":9186,"pendence":9187,"ĠEinhaltung":9188,"95":9189,"Ð²":9190,"ĠTechnik":9191,"deck":9192,"Ġgegenseit":9193,"Ġinstance":9194,"ĠPrioritÃ¤ten":9195,"zig":9196,"ĠVersuch":9197,"Will":9198,"Ġconnected":9199,"ĠSehenswÃ¼rd":9200,"zeption":9201,"Ġimag":9202,"ĠProv":9203,"erse":9204,"Ġpositions":9205,"Ġerstellen":9206,"ĠZweifel":9207,"einen":9208,"Ġsty":9209,"ibrary":9210,"ĠNI":9211,"Ġcooper":9212,"Ġconcrete":9213,"ĠÃ¼bertragen":9214,"Ġstructures":9215,"Ġkonzentrieren":9216,"making":9217,"arter":9218,"ĠBanken":9219,"Ġklicken":9220,"arta":9221,"ĠForderungen":9222,"ĠSP":9223,"ĠHafen":9224,"DA":9225,"flanzen":9226,"Ġdifferences":9227,"Ġorganiz":9228,"Ġwithdra":9229,"Ġstudies":9230,"Unfortunately":9231,"ENT":9232,"Ġfle":9233,"Ġdangerous":9234,"Ġdifference":9235,"Click":9236,"icians":9237,"ĠGN":9238,"ungsk":9239,"Part":9240,"ĠAtlant":9241,"peratur":9242,"Ġwelcom":9243,"Ġassociated":9244,"Ġneighbour":9245,"Ġhouses":9246,"Ġberu":9247,"Ġhappened":9248,"Ġtut":9249,"ĠSonnen":9250,"llos":9251,"ua":9252,"Ġzerst":9253,"ĠGewÃ¤hr":9254,"ĠKirche":9255,"verkehrs":9256,"ĠSM":9257,"Ġdrink":9258,"Ġoppos":9259,"Ġunto":9260,"ibel":9261,"ĠFormen":9262,"umÃ¤n":9263,"Ġmodels":9264,"ĠpersÃ¶nlich":9265,"ĠTitel":9266,"ĠBrÃ¼ssel":9267,"ĠMoment":9268,"Ġappears":9269,"ĠAssociation":9270,"Ġstable":9271,"ĠFlÃ¼cht":9272,"Ġbeaches":9273,"ifiziert":9274,"Ġnames":9275,"ĠKingdom":9276,"Ġadoption":9277,"Ġarticle":9278,"Ġunterschiedliche":9279,"ĠAspekt":9280,"Nachfolgend":9281,"Ñı":9282,"Ġunge":9283,"Ġapproxim":9284,"yright":9285,"ategory":9286,"gas":9287,"Ġsafegu":9288,"ĠendgÃ¼lt":9289,"Ġimplementing":9290,"Ġnennen":9291,"door":9292,"ĠAnalyse":9293,"Ġcombination":9294,"LAN":9295,"ĠMittelmeer":9296,"Ġhumanitarian":9297,"Ġcourses":9298,"Ġcarefully":9299,"ĠGemeinsamen":9300,"body":9301,"ĠAsyl":9302,"Ġexhibition":9303,"Ġannounced":9304,"ĠWeiter":9305,"Ġverfolgen":9306,"person":9307,"Ġtelevision":9308,"Ġpet":9309,"tenance":9310,"ĠEntschlieÃŁungsantrag":9311,"Ġnatur":9312,"Ġgeleistet":9313,"ĠGeist":9314,"greif":9315,"zz":9316,"ĠLesung":9317,"Ġunaccept":9318,"Ġbooking":9319,"Chr":9320,"aby":9321,"Ġcondem":9322,"Ġcollabor":9323,"Ġlegen":9324,"Ġspielt":9325,"ĠgegrÃ¼ndet":9326,"ĠPower":9327,"olo":9328,"Ġumfasst":9329,"ĠFore":9330,"ĠFound":9331,"Ġaccur":9332,"liefer":9333,"Ġstatements":9334,"zwischen":9335,"Ġmanage":9336,"iffer":9337,"Ġspent":9338,"rÃ¤ume":9339,"Ġverlassen":9340,"Ġarrival":9341,"Ãº":9342,"ibli":9343,"Ġproducers":9344,"rollen":9345,"stattung":9346,"Ġamerikanischen":9347,"Ġdiskutieren":9348,"Ġausges":9349,"ĠSekt":9350,"leiten":9351,"ĠtÃ¤glich":9352,"Ġpositiv":9353,"licherweise":9354,"estaurant":9355,"arischen":9356,"ĠMount":9357,"eing":9358,"Ġagencies":9359,"raucher":9360,"Ġdenken":9361,"Ġimpossible":9362,"ĠAg":9363,"ĠLeistung":9364,"ĠTerrasse":9365,"zeugung":9366,"Ã¼ter":9367,"ema":9368,"ĠschÃ¶nen":9369,"Ġunan":9370,"ĠForum":9371,"ĠHealth":9372,"Ġverloren":9373,"Ser":9374,"abhÃ¤ngigkeit":9375,"Ġleader":9376,"Ġbetrachtet":9377,"Ġarchitecture":9378,"lik":9379,"Innen":9380,"road":9381,"Ġindire":9382,"Ġcalling":9383,"Ġimmediate":9384,"Ġdescribed":9385,"Ġfulfil":9386,"Zudem":9387,"regel":9388,"ĠMechan":9389,"ĠPHP":9390,"Ġau":9391,"Ġadapt":9392,"ĠSanta":9393,"Date":9394,"stimmung":9395,"ĠEnvironment":9396,"Ġreasonable":9397,"Bar":9398,"sized":9399,"Ġtruly":9400,"ĠFen":9401,"Ġguarantees":9402,"Ġattractive":9403,"ĠunabhÃ¤ngig":9404,"haber":9405,"Ġrecognition":9406,"Ġhair":9407,"Ġbehaup":9408,"ador":9409,"ĠAufbau":9410,"Ã¤lter":9411,"ruf":9412,"Ġhttp":9413,"ĠBlack":9414,"ointed":9415,"lÃ¤uf":9416,"kÃ¼nd":9417,"ading":9418,"Ġglob":9419,"Ġcompla":9420,"kor":9421,"ĠDorf":9422,"Ġevidence":9423,"Ġreleased":9424,"Ġfeststellen":9425,"Ġerforderlichen":9426,"ĠPaket":9427,"ny":9428,"Ġabgeschlossen":9429,"Ġreducing":9430,"Ġalt":9431,"Ð¼":9432,"gelt":9433,"Ġcharged":9434,"Ġzweit":9435,"Leider":9436,"ĠCasino":9437,"karten":9438,"ido":9439,"utin":9440,"Ġsatell":9441,"orient":9442,"ĠVerfass":9443,"ĠhÃ¶ren":9444,"Ġ2011":9445,"ĠPolize":9446,"hindert":9447,"ĠKenn":9448,"ĠKatastrop":9449,"ĠFernse":9450,"lager":9451,"Because":9452,"organisation":9453,"Ġshared":9454,"Ġbackground":9455,"rimination":9456,"hle":9457,"meld":9458,"Ã¤rm":9459,"Ġterritory":9460,"UN":9461,"Ġeiniger":9462,"Ġgenuine":9463,"ohlen":9464,"Ðĵ":9465,"active":9466,"Ġerleich":9467,"Ġgarantiert":9468,"ĠHarmon":9469,"ĠMesse":9470,"Ġarbeitet":9471,"ĠJahrhunderts":9472,"Ġcards":9473,"Ġenth":9474,"wurf":9475,"ĠTexte":9476,"Ġentertain":9477,"Ġcred":9478,"Ġtaste":9479,"%.":9480,"Ġadvance":9481,"ĠVielzahl":9482,"Ã¤ck":9483,"irus":9484,"ĠJustice":9485,"02":9486,"Ġahead":9487,"Ġwin":9488,"Ġmist":9489,"Ġforest":9490,"ugos":9491,"75":9492,"Ġpossibilities":9493,"ĠKompeten":9494,"Ġimprovement":9495,"reten":9496,"Ġavailability":9497,"ĠSehenswÃ¼rdigkeiten":9498,"Ġbemer":9499,"ĠAv":9500,"Ġbegrenz":9501,"Ġdiscrimination":9502,"temporary":9503,"Ġwishes":9504,"ĠÃ¼berprÃ¼fen":9505,"okraten":9506,"Ã¤ten":9507,"preise":9508,"ĠZugrif":9509,"ĠIrish":9510,"Gu":9511,"Ġtrag":9512,"ĠIdeen":9513,"iendly":9514,"auftrag":9515,"itious":9516,"atisch":9517,"eto":9518,"ĠStein":9519,"jÃ¤hrigen":9520,"Script":9521,"sprogramm":9522,"Ġkulturellen":9523,"nam":9524,"oring":9525,"condition":9526,"Ġglass":9527,"Ġrelaxing":9528,"ĠStÃ¤rkung":9529,"Ġhingewiesen":9530,"ĠEine":9531,"Ġnearby":9532,"ĠSorge":9533,"Ġmembership":9534,"100":9535,"wissen":9536,"rÃ¤nken":9537,"Ġspl":9538,"Ġowners":9539,"34":9540,"Ġunacceptable":9541,"posit":9542,"Never":9543,"Ġexcess":9544,"with":9545,"ologische":9546,"ĠRuhe":9547,"Ġtasks":9548,"ĠKommissions":9549,"ĠtÃ¤tig":9550,"ĠAnwendungen":9551,"Ġstell":9552,"bieter":9553,"grade":9554,"ĠReserv":9555,"Ġfigures":9556,"36":9557,"rance":9558,"gestimmt":9559,"Ġparticipate":9560,"ĠCre":9561,"icking":9562,"Ġcur":9563,"Ġcontinued":9564,"comm":9565,"ÃŃa":9566,"ĠSaint":9567,"Ġmiteinander":9568,"Ġoccasion":9569,"Ġuna":9570,"Ġisol":9571,"Ġdesire":9572,"Ġintroduce":9573,"Ġsn":9574,"Ġausreichend":9575,"Ġunz":9576,"Ġcars":9577,"ensus":9578,"weist":9579,"Ġdelic":9580,"haltet":9581,"Ġtrading":9582,"Ġbezeichnet":9583,"ĠHol":9584,"formationen":9585,"ĠStrom":9586,"istisch":9587,"aration":9588,"Ġgreatest":9589,"ĠEntwicklungen":9590,"Gr":9591,"fÃ¼hrungen":9592,"'re":9593,"32":9594,"Produ":9595,"Ġskills":9596,"Ġattach":9597,"Ġrichtigen":9598,"ĠHamburg":9599,"Ġcompleted":9600,"Ġcontinues":9601,"Ġweiterer":9602,"ĠLam":9603,"ĠHersteller":9604,"Ġgeneration":9605,"Once":9606,"Ġcombined":9607,"Ġdevices":9608,"Bahn":9609,"km":9610,"System":9611,"ĠÃľberwachung":9612,"ĠWald":9613,"Ġexcept":9614,"ĠWÃ¤hrungs":9615,"ĠDemocrats":9616,"Ġstrongly":9617,"ĠAussicht":9618,"bere":9619,"assung":9620,"ĠBedarf":9621,"Ġhaup":9622,"Ġsurrounding":9623,"ireless":9624,"Ġallowing":9625,"Ġentitled":9626,"ilst":9627,"Ã¶ss":9628,"Ġconv":9629,"Ġunfortunately":9630,"ĠUmfang":9631,"Ġow":9632,"ĠSaf":9633,"Ġpackages":9634,"ĠvernÃ¼nft":9635,"Ġexpend":9636,"Ġzahlen":9637,"ĠeingefÃ¼hrt":9638,"chnet":9639,"New":9640,"Ġunless":9641,"ĠTourismus":9642,"Ġmission":9643,"Can":9644,"Ġsale":9645,"partner":9646,"utch":9647,"ĠKonz":9648,"sequent":9649,"Ġconsumption":9650,"Ġbeauty":9651,"Ġregistered":9652,"Ġaufmerksam":9653,"38":9654,"pa":9655,"ĠArbeitslosigkeit":9656,"Ġeffektiv":9657,"ylum":9658,"Ġraise":9659,"government":9660,"Ġattractions":9661,"ĠBedÃ¼rfnisse":9662,"ĠElement":9663,"ĠVerletz":9664,"Ã¶se":9665,"chem":9666,"Ġsquare":9667,"uble":9668,"ĠProblemen":9669,"Ġmeters":9670,"Ġenables":9671,"ĠKÃ¼nstler":9672,"Ġgewinnen":9673,"ĠFestival":9674,"Ġerf":9675,"ĠHeimat":9676,"Ġpure":9677,"schlÃ¤ge":9678,"ĠPatienten":9679,"Ġriver":9680,"andidaten":9681,"ĠNahrungs":9682,"Ġappeal":9683,"Ġborn":9684,"Ġprofitieren":9685,"ĠFoundation":9686,"Ġtransition":9687,"ĠWand":9688,"ĠRechnungs":9689,"Sub":9690,"ĠWÃ¼n":9691,"ĠFreund":9692,"Ġkonstru":9693,"ĠBeitritt":9694,"Ġreligious":9695,"Vers":9696,"ĠEngland":9697,"ĠZustÃ¤nd":9698,"Ġfruit":9699,"Ġdanach":9700,"ĠGeschÃ¤ftsordnung":9701,"ĠAchtung":9702,"Ġgeschehen":9703,"Ġmicro":9704,"Ġmonetary":9705,"ĠTechn":9706,"windigkeit":9707,"Ġsurface":9708,"Ġbeginnt":9709,"Her":9710,"Jetzt":9711,"ĠRand":9712,"Ġdedicated":9713,"cont":9714,"ĠSuch":9715,"Ġvert":9716,"ĠAfrican":9717,"ĠÃ¼b":9718,"Ġvorliegenden":9719,"Ġinsurance":9720,"krieg":9721,"ikal":9722,"ĠbestÃ¤tigt":9723,"omas":9724,"allery":9725,"Ġentstanden":9726,"Ġspezielle":9727,"Ġwindow":9728,"viel":9729,"Ġliter":9730,"ĠÃ¼berall":9731,"bieten":9732,"tzeit":9733,"stands":9734,"hÃ¶ren":9735,"Fe":9736,"ĠunterstÃ¼tze":9737,"Most":9738,"real":9739,"Ġ1994":9740,"ĠsÃ¤mtliche":9741,"Ġcloser":9742,"ĠNutzen":9743,"Ġkeinerlei":9744,"Ġeinsetzen":9745,"ĠRome":9746,"igned":9747,"Ġholidays":9748,"Ġ75":9749,"rÃ¼st":9750,"Ġburden":9751,"riminierung":9752,"Ġexercise":9753,"brauch":9754,"Ġbesitzt":9755,"TE":9756,"Ġcommand":9757,"Ġregionalen":9758,"ĠGroÃŁbritannien":9759,"anische":9760,"Ġvul":9761,"ĠNether":9762,"onia":9763,"ĠAllgemein":9764,"ĠVerpflichtung":9765,"version":9766,"Ã¼rk":9767,"Cont":9768,"Ġverfolgt":9769,"Ġrefle":9770,"Ġasylum":9771,"ĠWall":9772,"ĠAnw":9773,"plex":9774,"ĠTurkish":9775,"Other":9776,"ĠMel":9777,"Ġearth":9778,"ĠKurs":9779,"ĠGerichtshof":9780,"ĠTop":9781,"ĠDrogen":9782,"ague":9783,"Ġclaims":9784,"rochen":9785,"Ġrelativ":9786,"ĠVerteidigung":9787,"ĠgegenwÃ¤rtig":9788,"ausschusses":9789,"ĠVersch":9790,"technik":9791,"ĠJustiz":9792,"Ġbeteiligt":9793,"glieder":9794,"iam":9795,"ĠfranzÃ¶sischen":9796,"ĠPolen":9797,"ĠImmobilien":9798,"Ġforced":9799,"Up":9800,"steht":9801,"Ġtotally":9802,"ĠZur":9803,"Ġromant":9804,"Ġverehr":9805,"linge":9806,"Ġfolgende":9807,"Ġadvertising":9808,"Ġcourt":9809,"Ġeinst":9810,"ĠFinn":9811,"Dennoch":9812,"Ġenormous":9813,"log":9814,"Ġnotice":9815,"Ġnorm":9816,"Ãĸ":9817,"atever":9818,"Ġperspective":9819,"ĠEffe":9820,"ĠElemente":9821,"afr":9822,"ĠRooms":9823,"ĠgrenzÃ¼ber":9824,"Ġsides":9825,"Ġconfir":9826,"Ġvollkommen":9827,"Ġurban":9828,"Ġrailway":9829,"Ã£":9830,"ĠLandwir":9831,"leihen":9832,"ĠAusfl":9833,"Ġkept":9834,"Ġreservation":9835,"ĠWi":9836,"Ġindividuals":9837,"ĠAK":9838,"Ġkons":9839,"isierte":9840,"ĠAnlagen":9841,"ĠChanc":9842,"Ġmeant":9843,"ĠÃ¶k":9844,"Parliament":9845,"sektor":9846,"Ġreliable":9847,"ĠnÃ¼tz":9848,"Ġeinver":9849,"ĠÃ¤uÃŁ":9850,"ĠAltstadt":9851,"ĠColle":9852,"gesichts":9853,"ĠAfrika":9854,"Ġinstalled":9855,"hÃ¶hung":9856,"Ġzentrale":9857,"Ġgestalten":9858,"Firstly":9859,"Ġbutton":9860,"ĠgroÃŁes":9861,"Ġ36":9862,"Ġoffensichtlich":9863,"ĠChristian":9864,"ĠPoker":9865,"ĠMuse":9866,"imit":9867,"ĠPartnerschaft":9868,"Ġgranted":9869,"ĠEuropÃ¤er":9870,"werb":9871,"zep":9872,"gegeben":9873,"Ġshop":9874,"ĠWorten":9875,"ĠPrioritÃ¤t":9876,"Ġcompared":9877,"aktionen":9878,"mittag":9879,"Ġstory":9880,"olge":9881,"Pe":9882,"Ġluxury":9883,"Ġhaupts":9884,"Ġunion":9885,"istik":9886,"ĠOrig":9887,"Ġdiss":9888,"ĠTeilnehmer":9889,"Ġdevice":9890,"Fi":9891,"ĠgrÃ¶ÃŁeren":9892,"Ġlearning":9893,"Ġvision":9894,"hlt":9895,"Ġeinfache":9896,"Ġconvinced":9897,"Ġestablishing":9898,"Ġpara":9899,"rate":9900,"ĠVienna":9901,"pal":9902,"gypt":9903,"Ġempfehlen":9904,"Ġmemory":9905,"Ġergeben":9906,"2009":9907,"Ġqualit":9908,"Ġseven":9909,"Ġmountains":9910,"Ġgrant":9911,"ĠGlobalisierung":9912,"systeme":9913,"iscal":9914,"Ġstands":9915,"Ġstorage":9916,"ĠVerst":9917,"Ġpolitischer":9918,"ĠFortschritt":9919,"ĠStadtz":9920,"ĠGrunde":9921,"Ġgeeig":9922,"attform":9923,"ĠMP":9924,"ĠBern":9925,"Ġextended":9926,"Ġfailed":9927,"Ġniedr":9928,"Ġbiggest":9929,"ĠEADS":9930,"Ġwarten":9931,"Ġsession":9932,"ĠgegenwÃ¤rtigen":9933,"ram":9934,"ĠEuropeans":9935,"Ġgarantieren":9936,"upp":9937,"ĠBut":9938,"uchten":9939,"Ġpassed":9940,"Ġhighlight":9941,"itage":9942,"Ġbuffet":9943,"eller":9944,"Ġconclusions":9945,"ĠgeschÃ¼tzt":9946,"Ġreprodu":9947,"ĠTrade":9948,"reisen":9949,"Ġforth":9950,"Ġchair":9951,"500":9952,"Ġprison":9953,"ĠhÃ¶chste":9954,"Ind":9955,"ĠRegelungen":9956,"ĠPrime":9957,"ĠHall":9958,"xts":9959,"Ġgutes":9960,"Ġveget":9961,"Ġurgent":9962,"Ġstim":9963,"reu":9964,"reibt":9965,"Ġgrunds":9966,"Ġpor":9967,"ĠMutter":9968,"ĠFoto":9969,"ĠUSB":9970,"Ġsolcher":9971,"Ġmagn":9972,"ĠAlex":9973,"Ġverbundenen":9974,"Ġgolf":9975,"athed":9976,"29":9977,"ĠTisch":9978,"erma":9979,"ammer":9980,"ĠVo":9981,"ipping":9982,"ĠkÃ¼":9983,"ĠDollar":9984,"ĠRegulation":9985,"ĠBewertung":9986,"Ġru":9987,"ĠMeeres":9988,"ĠzusÃ¤tzlich":9989,"onial":9990,"teten":9991,"ergie":9992,"ĠIrland":9993,"Ġscience":9994,"zust":9995,"64":9996,"Ġhum":9997,"ĠMaÃŁe":9998,"Ġcontrols":9999,"Ġbeinhaltet":10000,"Ġelimin":10001,"ĠSchif":10002,"Ġdauer":10003,"reis":10004,"Ġbeige":10005,"Ġinternationaler":10006,"ĠBeteiligung":10007,"ĠIns":10008,"ĠFÃ¼hrung":10009,"ilot":10010,"Ġunable":10011,"ĠMik":10012,"Ġumfassende":10013,"Ġmoving":10014,"prinzip":10015,"ĠBarroso":10016,"Ġtried":10017,"alia":10018,"Ġadvice":10019,"Com":10020,"hebung":10021,"ĠEindruck":10022,"Ã¤fen":10023,"==":10024,"Os":10025,"Ġtief":10026,"ĠFel":10027,"iode":10028,"ĠNetherlands":10029,"Ġcontrary":10030,"enkt":10031,"oram":10032,"Ġformal":10033,"ĠLake":10034,"Ġaufzu":10035,"det":10036,"Ġgenet":10037,"Ihr":10038,"Ġ),":10039,"Ġunit":10040,"Ġsogen":10041,"Ġenfor":10042,"Ġperfectly":10043,"asil":10044,"ĠausfÃ¼hr":10045,"Ġwesentlichen":10046,"Ġartists":10047,"ington":10048,"Sterne":10049,"SQL":10050,"igrants":10051,"Ġdrawn":10052,"mÃ¶gen":10053,"straÃŁe":10054,"heits":10055,"Ġsaw":10056,"Ġcorporate":10057,"Ġdimension":10058,"lÃ¤gt":10059,"Ġfactors":10060,"Ġcandidate":10061,"Ġearn":10062,"aket":10063,"Ġleb":10064,"Ġrob":10065,"Ġmaintenance":10066,"ĠPPE":10067,"ĠlÃ¤":10068,"ĠUniversitÃ¤t":10069,"Ġdefinition":10070,"Ġdefend":10071,"ĠMun":10072,"Ġchosen":10073,"ĠDigital":10074,"actions":10075,"Ġlaid":10076,"verein":10077,"Ġpour":10078,"Ġexpression":10079,"Ġinvestig":10080,"Ġdisease":10081,"Â«":10082,"istor":10083,"ĠBeach":10084,"iertes":10085,"ĠmÃ¼s":10086,"Ġeconomies":10087,"setzt":10088,"Ġliber":10089,"Ġmotiv":10090,"ancy":10091,"Ã¼gel":10092,"ĠHard":10093,"stÃ¤t":10094,"Ġmode":10095,"ĠGebrauch":10096,"Ġmatch":10097,"Ġguide":10098,"ĠDefin":10099,"lÃ¼ckwÃ¼n":10100,"Ġdestroy":10101,"Ã¤ufer":10102,"Me":10103,"idung":10104,"ĠFederal":10105,"iced":10106,"Ġcore":10107,"Ġ00":10108,"worfen":10109,"Ġspa":10110,"Ġteilnehmen":10111,"Ãľ":10112,"utzer":10113,"ĠPDF":10114,"ĠHaut":10115,"ĠUrs":10116,"ĠMond":10117,"ĠMÃ¼":10118,"Ġagency":10119,"Mehr":10120,"Ġcommitments":10121,"ĠVertrie":10122,"Ġfinance":10123,"itar":10124,"Ġjour":10125,".âĢĿ":10126,"Hin":10127,"ĠHT":10128,"Ġfreie":10129,"ĠMedia":10130,"Ġcondemn":10131,"ĠFotos":10132,"Adr":10133,"ibliothe":10134,"reck":10135,"Ġunf":10136,"ĠMonat":10137,"enntnisse":10138,"fallen":10139,"Warum":10140,"gibt":10141,"ĠwunderschÃ¶":10142,"ĠTodes":10143,"Ġscale":10144,"Ġerh":10145,"vorschlag":10146,"Ent":10147,"ĠbeglÃ¼ckwÃ¼n":10148,"Ġsem":10149,"Ġkos":10150,"ĠLeistungs":10151,"ĠPeople":10152,"Ġhonourable":10153,"ancial":10154,"ĠPalace":10155,"Ġdefinit":10156,"ĠMindest":10157,"Such":10158,"mittelt":10159,"Ġweapons":10160,"ĠGrÃ¶ÃŁe":10161,"Ġinterface":10162,"DR":10163,"ĠEastern":10164,"apers":10165,"Ġkorre":10166,"Ġsecret":10167,"Ġrightly":10168,"iefer":10169,"Ġlegitim":10170,"ĠInstitute":10171,"wechsel":10172,"Ġspending":10173,"ĠAustrian":10174,"ĠPresse":10175,"nehmern":10176,"Ġneither":10177,"ĠVermitt":10178,"Ġintervention":10179,"leun":10180,"bald":10181,"bring":10182,"08":10183,"Ġobligations":10184,"ĠConstitution":10185,"holung":10186,"ĠGrÃ¼nde":10187,"alty":10188,"Ġbalcon":10189,"Ã¥":10190,"Ġrock":10191,"ĠLizenz":10192,"ĠGriechenland":10193,"inning":10194,"Ġdiplomat":10195,"Ġcolour":10196,"Ġspeziellen":10197,"Ã¤lfte":10198,"Ġyesterday":10199,"ĠBudget":10200,"Ġsched":10201,"Ġï¿½":10202,"aschen":10203,"omin":10204,"Ġroute":10205,"ĠVerz":10206,"ichtete":10207,"ĠGreek":10208,"Ġoutstanding":10209,"umer":10210,"Ġachieving":10211,"ĠGegensatz":10212,"Ġbetrachten":10213,"Ġambitious":10214,"ternen":10215,"rans":10216,"sequently":10217,"ĠAber":10218,"Ġdient":10219,"Ġsam":10220,"ĠDus":10221,"ĠNutzer":10222,"ela":10223,"Ġobviously":10224,"Ġflight":10225,"uters":10226,"Ġlangen":10227,"Ġsituations":10228,"Ġenor":10229,"Ġorganised":10230,"ÑĮ":10231,"ĠIC":10232,"ĠLive":10233,"Ġphotos":10234,"ĠMÃ¤rkte":10235,"ĠStÃ¤dte":10236,"Ġtitle":10237,".-":10238,"Ġweight":10239,"Ġgelungen":10240,"Ġvehicle":10241,"ĠUnabhÃ¤ngigkeit":10242,"jet":10243,"Ġminute":10244,"Ġcolleague":10245,"ickt":10246,"Ġoutcome":10247,"ĠKohÃ¤s":10248,"Ġconstantly":10249,"uzz":10250,"Ġfestge":10251,"Ġelection":10252,"iov":10253,"Ġsell":10254,"Ġsomeone":10255,"orial":10256,"ĠAktionen":10257,"wortet":10258,"asters":10259,"Ġsensitive":10260,"governmental":10261,"Ġanaly":10262,"Br":10263,"look":10264,"ĠWechsel":10265,"Ġchemical":10266,"Ġupdate":10267,"ĠThey":10268,"urm":10269,"ĠGre":10270,"ĠTrek":10271,"Ġcorrespond":10272,"ĠErklÃ¤rungen":10273,"ĠNav":10274,"Ġsurrounded":10275,"ĠErde":10276,"ĠVerstÃ¤ndnis":10277,"Ġerfre":10278,"ario":10279,"ĠControl":10280,"ĠFitness":10281,"endum":10282,"Fre":10283,"versorgung":10284,"ĠBeschÃ¤ftigungs":10285,"Ġep":10286,"fÃ¤hig":10287,"ĠECU":10288,"ĠSchÃ¶n":10289,"ĠerhÃ¶ht":10290,"39":10291,"Ġvergleich":10292,"Ġcompat":10293,"klang":10294,"Ġpatent":10295,"Ġlimits":10296,"Ġpayments":10297,"Ġinformiert":10298,"Ġdur":10299,"onenten":10300,"Ġdistin":10301,"Ġasking":10302,"fest":10303,"ĠEreignisse":10304,",\"":10305,"Ġdaraus":10306,"ĠMarken":10307,"Meiner":10308,"Ġsteigen":10309,"Klicken":10310,"ĠgeÃ¶ffnet":10311,"UT":10312,"NL":10313,"ĠLatin":10314,"era":10315,"isure":10316,"ĠschÃ¶ne":10317,"Ġlauf":10318,"Ġcontinuing":10319,"Ġstore":10320,"Ġumwelt":10321,"Ġbenach":10322,"PC":10323,"ipe":10324,"ifications":10325,"Ġelected":10326,"ĠBahnhof":10327,"ĠSÃ¼den":10328,"ĠCH":10329,"elbe":10330,"AB":10331,"Ġequality":10332,"Ġcontents":10333,"ĠMitteln":10334,"ĠCompany":10335,"ĠKopf":10336,"Ñĭ":10337,"arth":10338,"ĠnÃ¤her":10339,"ĠCam":10340,"ĠUnterkunft":10341,"Ġsuccessfully":10342,"Ġcategory":10343,"abilities":10344,"Ġorganization":10345,"atures":10346,"gefÃ¤hr":10347,"utzung":10348,"ĠResort":10349,"Ġstarke":10350,"ĠKarten":10351,"ĠSÃ¤":10352,"ĠZwischen":10353,"Ben":10354,"management":10355,"nd":10356,"Ġcra":10357,"ĠCa":10358,"Ġaccessible":10359,"ĠSummit":10360,"Ġaircraft":10361,"knÃ¼":10362,"ĠAnlage":10363,"Nevertheless":10364,"Ġreject":10365,"ky":10366,"ĠAusland":10367,"ĠFraktionen":10368,"reitung":10369,"Ġbritischen":10370,"ĠEmpfehlungen":10371,"auso":10372,"ategorie":10373,"ĠBotschaft":10374,"ĠForeign":10375,"ĠAgency":10376,"Ġrace":10377,"Ġbound":10378,"Ġexklus":10379,"reitet":10380,"ĠMarket":10381,"lament":10382,"Ġprivile":10383,"ĠBeschluss":10384,"Ġrecommendations":10385,"ĠWirkung":10386,"09":10387,"oret":10388,"Weit":10389,"ĠRos":10390,"Ġcheap":10391,"EW":10392,"kurr":10393,"Ġeinverstanden":10394,"ĠNiveau":10395,"ĠRealitÃ¤t":10396,"Ġgoals":10397,"Ġguter":10398,"ĠTHE":10399,"ĠAgentur":10400,"EO":10401,"ĠÃ¼berein":10402,"apter":10403,"Ġexpenditure":10404,"Ġsurv":10405,"Ġphilosoph":10406,"ismen":10407,"Ã¢":10408,"ĠArchitektur":10409,"Ġspecies":10410,"Ã¤hren":10411,"ĠFlexibilitÃ¤t":10412,"ĠID":10413,"enswert":10414,"ĠProgramms":10415,"ĠCroat":10416,"ĠsorgfÃ¤lt":10417,"ĠBetriebs":10418,"Ġphysical":10419,"ĠDimension":10420,"erry":10421,"Ander":10422,"ĠSuper":10423,"ĠMichael":10424,"Ġallgemeine":10425,"Another":10426,"Gem":10427,"Ġsatellite":10428,"ask":10429,"tellect":10430,"Ġbeachten":10431,"Ġindependence":10432,"Ġ48":10433,"Ġeinsch":10434,"Ġgehalten":10435,"cast":10436,"ĠdÃ©":10437,"Ġpun":10438,"wers":10439,"ĠPo":10440,"Ġfestgestellt":10441,"ĠFarben":10442,"ĠhauptsÃ¤chlich":10443,"Ġrig":10444,"Ġgeschieht":10445,"Ġrevolution":10446,"Ġmittl":10447,"Ġacts":10448,"Ġtreten":10449,"Ġintention":10450,"Ġconsists":10451,"Ġdete":10452,"ĠauÃŁerord":10453,"Ġfurnished":10454,"Angesichts":10455,"Ġideale":10456,"ĠLo":10457,"obility":10458,"ĠGebiete":10459,"Ġniemand":10460,"imal":10461,"Ġlake":10462,"ĠFeld":10463,"Ġbalanced":10464,"otten":10465,"Ġeinzigen":10466,"Ġapproximately":10467,"Ġgebe":10468,"Ġmittels":10469,"ĠDatenschutz":10470,"Ġmerely":10471,"ĠZahlen":10472,"Ġreve":10473,"ktivitÃ¤t":10474,"ĠHoffnung":10475,"abl":10476,"ĠmÃ¶glichen":10477,"Ġherzlich":10478,"Ġcontained":10479,"gbarkeit":10480,"Ġhoh":10481,"Ġmanchmal":10482,"ĠStudien":10483,"Ġwaiting":10484,"06":10485,"Ġgrie":10486,"ĠWhite":10487,"ĠOut":10488,"abled":10489,"ĠReich":10490,"Ġcontemporary":10491,"Gleichzeitig":10492,"ĠBeihilfen":10493,"bett":10494,"handels":10495,"Ġtargets":10496,"ĠVoraussetzungen":10497,"ĠGesetzgebung":10498,"ĠLinks":10499,"Ġsage":10500,"bindung":10501,"Ġspricht":10502,"Ã¼nfte":10503,"wendungs":10504,"ĠStudio":10505,"ĠLiberalisierung":10506,"Ġpreserv":10507,"Ġkaufen":10508,"bÃ¼rger":10509,"kan":10510,"lege":10511,"ĠPool":10512,"Ġ(\"":10513,"ĠtÃ¼rk":10514,"ĠEmiss":10515,"Ġwealth":10516,"ĠFront":10517,"Ġlandscape":10518,"ĠDay":10519,"eind":10520,"Ġsobald":10521,"ĠWiederauf":10522,"Ġchanging":10523,"Ġputting":10524,"ĠKooperation":10525,"Ġprevention":10526,"Ġrasch":10527,"Ġunternommen":10528,"ĠFert":10529,"ĠVe":10530,"ĠLord":10531,"Ġnar":10532,"Ġvorgeschlagenen":10533,"Sim":10534,"ĠUl":10535,"Ġsubmit":10536,"Ġplanned":10537,"ĠMail":10538,"Ġparticipants":10539,"ĠGegenteil":10540,"ĠVan":10541,"ĠGrundrechte":10542,"Ġgrounds":10543,"ĠKontroll":10544,"Ġbars":10545,"ĠRob":10546,"Ġcommunities":10547,"Ġdisposal":10548,"Ġjungen":10549,"Ġfraud":10550,"aub":10551,"Ġther":10552,"ĠGarden":10553,"Ġswe":10554,"ĠSyn":10555,"annung":10556,"ĠIndien":10557,"Ġdynamic":10558,"()":10559,"ĠVerkauf":10560,"37":10561,"Wo":10562,"Ġbringing":10563,"Comp":10564,"Ġglad":10565,"istungs":10566,"ĠOption":10567,"verse":10568,"Ġmechanism":10569,"ĠVorteil":10570,"Ġpointed":10571,"ĠÃ¼bernommen":10572,"aul":10573,"Ġmassive":10574,"Over":10575,"Ġslight":10576,"rupt":10577,"ĠauslÃ¤nd":10578,"Ġschneller":10579,"cap":10580,"ĠAls":10581,"ĠArbeitsmarkt":10582,"Ġguaranteed":10583,"Ġsmaller":10584,"Ġcount":10585,"Ġleads":10586,"2008":10587,"artet":10588,"Ġcool":10589,"ĠPalestinian":10590,"Ġwebs":10591,"ansion":10592,"ĠjÃ¼ngsten":10593,"Ġgewiss":10594,"ĠIII":10595,"ĠRelig":10596,"ĠRegistr":10597,"Ġselten":10598,"Ġblog":10599,"ĠLag":10600,"Ã¤hlten":10601,"inent":10602,"ĠSquare":10603,"Ġquot":10604,"Ġteilen":10605,"ĠAlban":10606,"Ġwrite":10607,"ĠSchm":10608,"ĠMarketing":10609,"splan":10610,"unehm":10611,"ĠErwart":10612,"Ġdamals":10613,"ulating":10614,"TP":10615,"endung":10616,"ĠMain":10617,"ĠAns":10618,"ĠpersÃ¶nliche":10619,"Ġoperate":10620,"Ġdig":10621,"ĠZoll":10622,"hel":10623,"Ġfactor":10624,"ĠHauptstadt":10625,"akete":10626,"wegs":10627,"kunden":10628,"Ġerfordert":10629,"ĠgewÃ¼nsch":10630,"oster":10631,"Ġnationaler":10632,"Ġresponsibilities":10633,"Ġlabor":10634,"Ġbeob":10635,"Ġcapable":10636,"Ġanbieten":10637,"ĠregelmÃ¤ÃŁig":10638,"zil":10639,"ĠMitgliedern":10640,"]].":10641,"Ġresulting":10642,"Ġpill":10643,"odurch":10644,"Ġfashion":10645,"ĠManager":10646,"Ġacceptable":10647,"Ġconvention":10648,"Ġpleasure":10649,"ĠAlliance":10650,"rist":10651,"ints":10652,"Ġbetroffenen":10653,"Ġprospect":10654,"Ġandererseits":10655,"Ġcauses":10656,"ieb":10657,"cco":10658,"ĠDeutsche":10659,"Ġstrengthening":10660,"vely":10661,"Ġnav":10662,"Ġvieler":10663,"\")":10664,"Ġpred":10665,"Ġberecht":10666,"rittens":10667,"His":10668,"ĠabhÃ¤ng":10669,"Ġfiscal":10670,"ques":10671,"istenz":10672,"Ġconclude":10673,"Ġseeking":10674,"rea":10675,"ĠGaz":10676,"Ġbrings":10677,"ausende":10678,"Ġverk":10679,"ress":10680,"ĠAct":10681,"Ġband":10682,"asen":10683,"ĠBill":10684,"Ġmedizin":10685,"Ġregistration":10686,"gin":10687,"arium":10688,"Ġung":10689,"Ġletter":10690,"wiesen":10691,"ĠMitglieds":10692,"ĠMilitÃ¤r":10693,"Ġgramm":10694,"rÃ¤nkungen":10695,"omit":10696,"iene":10697,"Ġvorschlagen":10698,"Ġassociation":10699,"Ġexamples":10700,"ermaÃŁen":10701,"ssystem":10702,"Ġunderg":10703,"ventions":10704,"Ġpraktisch":10705,"ĠFischer":10706,"richtlinie":10707,"krat":10708,"Vielen":10709,"ĠzÃ¤hlen":10710,"ĠRisiken":10711,"Ġlov":10712,"Ġgemeinschaft":10713,"Ã¤ume":10714,"Ġretain":10715,"vereign":10716,"going":10717,"ĠBla":10718,"ĠPrÃ¼fung":10719,"ĠAuch":10720,"Ġzugleich":10721,"gesellschaften":10722,"Ġsovereign":10723,"ĠBeob":10724,"Ġexplain":10725,"Ġvalu":10726,"ĠGesam":10727,"ĠMartin":10728,"ifellos":10729,"ĠTouristen":10730,"ĠMEP":10731,"ĠIsland":10732,"Ġid":10733,"ĠPhase":10734,"ĠFriedens":10735,"ĠBestandteil":10736,"SV":10737,"Ġspaces":10738,"ĠbeschÃ¤ftigt":10739,"iot":10740,"ĠJournal":10741,"Ġschn":10742,"Ġnachhaltige":10743,"ĠNiederl":10744,"Ġacht":10745,"rant":10746,"mlich":10747,"ĠMÃ¤nner":10748,"sph":10749,"ĠTreffen":10750,"Ġsieben":10751,"ĠGreat":10752,"ĠTeilnahme":10753,"Ġidentity":10754,"Ġzone":10755,"ĠFire":10756,"ĠSprach":10757,"weiten":10758,"ĠSlow":10759,"Ġtherm":10760,"ĠJac":10761,"ĠExperten":10762,"Ġsafeguard":10763,"Ġtoler":10764,"Ġwodurch":10765,"El":10766,"ĠChamber":10767,"eshalb":10768,"cling":10769,"liance":10770,"utr":10771,"ablen":10772,"Ġnearly":10773,"Inter":10774,"Ġweg":10775,"Ġenh":10776,"wachst":10777,"Ġmanufacturing":10778,"ĠLandschaft":10779,"ĠKoordinierung":10780,"Ġincorpor":10781,"Ġzunehm":10782,"ĠÃľberprÃ¼fung":10783,"Ġsurpr":10784,"Ġkleiner":10785,"warz":10786,"Ġassum":10787,"Ġwithdraw":10788,"Sm":10789,"ource":10790,"Ġrequested":10791,"ĠErhÃ¶hung":10792,"Ġsiehe":10793,"Ġpassword":10794,"Ġwachs":10795,"Ġechte":10796,"gestellten":10797,"ĠPflicht":10798,"ĠRules":10799,"Ġirgende":10800,"Ġtraditionellen":10801,"Ġsichern":10802,"Ġsteel":10803,"Ġnations":10804,"Ġwichtigste":10805,"ierend":10806,"Ġregret":10807,"Ġprint":10808,"ĠSchne":10809,"Ġattend":10810,"Ġmultiple":10811,"Ġpatients":10812,"Ã£o":10813,"Ġfuel":10814,"ĠWerb":10815,"ĠApparte":10816,"zwungen":10817,"Yet":10818,"Ġproportion":10819,"ktop":10820,"station":10821,"Ġ1992":10822,"ĠGedanken":10823,"Ġsets":10824,"Ġversions":10825,"ĠEN":10826,"ĠGefÃ¼hl":10827,"ĠBei":10828,"Ġseitens":10829,"Ġadequate":10830,"place":10831,"Go":10832,"ĠPeter":10833,"Ġtesting":10834,"Ġerneuer":10835,"Sol":10836,"Ġdiscussing":10837,"Ãª":10838,"Ġtruth":10839,"Ġsouthern":10840,"ĠHÃ¤lfte":10841,"ĠJo":10842,"organisationen":10843,"ocal":10844,"zur":10845,"ĠKomb":10846,"ĠLaufe":10847,"Ġrepresentative":10848,"ĠNichtraucher":10849,"ĠEffizienz":10850,"sprach":10851,"odes":10852,"Ġdriving":10853,"lebt":10854,"iring":10855,"Ġliability":10856,"Ġconsensus":10857,"Ġoptimal":10858,"Ġtrend":10859,"Ġdivid":10860,"ĠFax":10861,"selben":10862,"ĠPublik":10863,"Ġelegan":10864,"sprÃ¼che":10865,"Ġinhab":10866,"Ġbesseren":10867,"Ġattacks":10868,"ĠOS":10869,"ĠfÃ¤llt":10870,"Ġaddressed":10871,"ĠST":10872,"issens":10873,"ĠAbsicht":10874,"Ġhergestellt":10875,"Ġargument":10876,"Ã¼ben":10877,"MA":10878,"ĠAnpassung":10879,"legte":10880,"Ġgovernance":10881,"Ġcopy":10882,"Ġlau":10883,"Ġpreviously":10884,"sid":10885,"aces":10886,"pielt":10887,"ĠStreit":10888,"ĠZimmern":10889,"ĠKaffe":10890,"ĠSupport":10891,"Ġunterschiedlich":10892,"ĠVorbereitung":10893,"ror":10894,"Ġrecovery":10895,"Ġschools":10896,"ĠInternationalen":10897,"ĠRiver":10898,"ahrt":10899,"Ġkinds":10900,"Ġjemand":10901,"Ġexplan":10902,"position":10903,"gÃ¤nglich":10904,"ĠNorden":10905,"Ġprimarily":10906,"Ġmaster":10907,"Ġrespekt":10908,"Ġdiskutiert":10909,"Ġdisch":10910,"Ġweiteres":10911,"Ġprimary":10912,"ĠKlimaanlage":10913,"ĠAkte":10914,"ĠAusnahme":10915,"ĠgrenzÃ¼berschreit":10916,"Ġzunehmend":10917,"Ġeight":10918,"ktions":10919,"ĠEinkaufs":10920,"Ġblue":10921,"phrase":10922,"Ġ250":10923,"Ġexpensive":10924,"Ġthereby":10925,"Ġvulner":10926,"ampagne":10927,"ĠBosn":10928,"Ġfif":10929,"ĠGent":10930,"ĠTyp":10931,"Ġremove":10932,"Ġdeutsche":10933,"ĠRoyal":10934,"enture":10935,"ĠvielfÃ¤lt":10936,"annes":10937,"Ġconsolid":10938,"ĠJavaScript":10939,"lesen":10940,"Ġbegann":10941,"Ġverteid":10942,"Ġphase":10943,"ĠTeilen":10944,"ĠCypr":10945,"Ġmail":10946,"ĠAR":10947,"iquid":10948,"Ġtalks":10949,"Ġap":10950,"ĠMethode":10951,"Christ":10952,"Ġaktual":10953,"produktion":10954,"Ġreinfor":10955,"Ġauthent":10956,"Ġfinde":10957,"Ġindustries":10958,"ĠBlog":10959,"Room":10960,"Ġevaluation":10961,"icon":10962,"nahm":10963,"Ġkontext":10964,"Ġorders":10965,"Ġta":10966,"Ġjunge":10967,"zeÃŁ":10968,"ĠInseln":10969,"ĠOrdnung":10970,"ĠkÃ¼rzlich":10971,"Ġsec":10972,"Thus":10973,"Med":10974,"ĠSchool":10975,"ĠCharter":10976,"ĠJoh":10977,"iling":10978,"2003":10979,"bereiche":10980,"Ġafford":10981,"lebnis":10982,"Ġconduct":10983,"ĠDiskriminierung":10984,"krÃ¤fte":10985,"ĠStadtzentrum":10986,"Che":10987,"Jeder":10988,"Ã¤dt":10989,"BS":10990,"aks":10991,"AV":10992,"Ste":10993,"entscheid":10994,"Ġjournal":10995,"gro":10996,"iern":10997,"Ġwillkommen":10998,"Ġeinzelne":10999,"ĠMethoden":11000,"ĠDutch":11001,"ĠMaria":11002,"ĠgewÃ¤hlt":11003,"Ġreagieren":11004,"iegen":11005,"ĠVeranstaltungen":11006,"Ġsnow":11007,"ĠModern":11008,"Ġdealt":11009,"ahnen":11010,"ĠGÃ¤sten":11011,"Ġturned":11012,"Ġakzeptiert":11013,"Ġaudio":11014,"entlichen":11015,"Ġdecades":11016,"verw":11017,"Ġnamed":11018,"ĠWillen":11019,"Ġbio":11020,"otenzial":11021,"ĠBan":11022,"zahlung":11023,"ĠPolitiker":11024,"Ġmel":11025,"enter":11026,"gramms":11027,"ĠEltern":11028,"Ġdetermined":11029,"Ġbooks":11030,"ĠMat":11031,"Ġnation":11032,"ady":11033,"fÃ¼gt":11034,"ĠPic":11035,"Ġbetont":11036,"Cl":11037,"border":11038,"Ġdemokratische":11039,"iser":11040,"Ġbran":11041,"Wor":11042,"Ġmutual":11043,"kret":11044,"metho":11045,"Ġdoll":11046,"Ġdelivered":11047,"Ġlag":11048,"Ġbehandeln":11049,"Ġdiesbe":11050,"Ġcapt":11051,"Ġflow":11052,"48":11053,"Ġwaters":11054,"Ġbere":11055,"Ġopposite":11056,"Ġcorner":11057,"2006":11058,"Ð´":11059,"tten":11060,"Ġamongst":11061,"ĠAngriff":11062,"Ġanerkannt":11063,"ĠlÃ¤ndlichen":11064,"cor":11065,"ĠFirst":11066,"ĠZuf":11067,"Ã¤ger":11068,"Ġsinnvoll":11069,"Sehr":11070,"ĠMerk":11071,"Ġfried":11072,"essor":11073,"Ġcook":11074,"kund":11075,"ĠChem":11076,"ciliation":11077,"tellectual":11078,"ĠHor":11079,"Ġbon":11080,"Ġonto":11081,"fangen":11082,"sein":11083,"ungsverfahren":11084,"ĠgenÃ¼":11085,"ĠberÃ¼hmten":11086,"Ġprepare":11087,"Ġnochmals":11088,"Europa":11089,"Ġdritten":11090,"ĠProvin":11091,"ĠÐ¿":11092,"sec":11093,"31":11094,"ÅĤ":11095,"unsten":11096,"Ġangeht":11097,"ĠBol":11098,"ĠVerhÃ¤ltnis":11099,"Ġvorbe":11100,"ĠValle":11101,"ĠFormular":11102,"strategie":11103,"Ġpositiven":11104,"Ġbelong":11105,"Ġunanim":11106,"uttle":11107,"ĠDublin":11108,"ĠBerÃ¼cksicht":11109,"Ġbegonnen":11110,"iry":11111,"atlant":11112,"ouver":11113,"ĠFreizeit":11114,"ĠBildungs":11115,"ĠSweden":11116,"Ġdiversity":11117,"Ġdry":11118,"ĠAnliegen":11119,"stat":11120,"Are":11121,"Ġwall":11122,"Ġfeeling":11123,"meister":11124,"Ġqualified":11125,"ĠGlas":11126,"cluding":11127,"kurs":11128,"Ġzunehmen":11129,"nes":11130,"Ġmechanisms":11131,"Ġbewegen":11132,"Ġgespe":11133,"down":11134,"oÃŁ":11135,"ĠAutor":11136,"ĠDach":11137,"Ġumgeben":11138,"uminium":11139,"Those":11140,"Ġextreme":11141,"EF":11142,"uy":11143,"Ġmanufacturers":11144,"iana":11145,"Ġgriech":11146,"ĠEinklang":11147,"Ġtechnological":11148,"ĠverstÃ¤rkt":11149,"Ġterritorial":11150,"ĠâĢ¦":11151,"ĠfÃ¼hrenden":11152,"ĠTiere":11153,"Ġconsultation":11154,"Ġthre":11155,"eds":11156,"igern":11157,"ĠJose":11158,"ĠChamp":11159,"Ġpension":11160,"Ġurge":11161,"ĠZustand":11162,"bereitet":11163,"ĠspÃ¤t":11164,"2002":11165,"griffe":11166,"ĠFÃ¤higkeit":11167,"Ġsicherstellen":11168,"fers":11169,"Ġnoise":11170,"Ġskin":11171,"ĠUmstÃ¤nden":11172,"ĠSonn":11173,"ĠReaktion":11174,"Ġvielmehr":11175,"Ġparallel":11176,"Ġaccounts":11177,"uj":11178,"Ġeye":11179,"Ġinvestments":11180,"grundlage":11181,"dete":11182,"ĠStunde":11183,"ĠBerÃ¼cksichtigung":11184,"Ġdiverse":11185,"ĠFÃ¤lle":11186,"ĠAlter":11187,"Ġgrand":11188,"ĠPin":11189,"absicht":11190,"klÃ¤rung":11191,"Ġmoved":11192,"Ġcharming":11193,"ĠData":11194,"Ġimper":11195,"Ġhall":11196,"ĠÃľbern":11197,"Ġfand":11198,"Ġattemp":11199,"iary":11200,"opt":11201,"Ġattitude":11202,"Ġgesellschaft":11203,"spart":11204,"Member":11205,"Ġmarked":11206,"jection":11207,"ĠMinutes":11208,"ĠRepr":11209,"ĠGraf":11210,"Ġbureau":11211,"Ġexceed":11212,"Ġmeist":11213,"icherungs":11214,"Ġknows":11215,"folgerungen":11216,"ĠZahlungs":11217,"jÃ¤hrige":11218,"Ġrepeated":11219,"DS":11220,"mo":11221,"ĠRomania":11222,"ĠProdi":11223,"Ġspot":11224,"ĠMinderheiten":11225,"Ġlaut":11226,"Ġehemaligen":11227,"Ġrejected":11228,"wood":11229,"ĠFluss":11230,"Ġexistence":11231,"Ġwhe":11232,"ĠzuverlÃ¤ss":11233,"Ġultim":11234,"Ġruns":11235,"gg":11236,"Ġleiden":11237,"ĠKorea":11238,"ĠStÃ¼ck":11239,"folio":11240,"Ġberuf":11241,"zahlt":11242,"Ġergriffen":11243,"Ġzustimmen":11244,"âĢĶ":11245,"Ġ..":11246,"Ġinten":11247,"Ġverlieren":11248,"Ġschlecht":11249,"TER":11250,"gence":11251,"ĠRoh":11252,"Ġimprovements":11253,"Ġvorgenommen":11254,"Ġreply":11255,"Ġseien":11256,"ĠOF":11257,"Ġbarr":11258,"Ġderzeitigen":11259,"Ġ>":11260,"ĠEth":11261,"fertigt":11262,"Ġexperiences":11263,"ĠÃ¼berzeugen":11264,"ito":11265,"struction":11266,"Ġbefassen":11267,"ĠFreude":11268,"07":11269,"termine":11270,"izont":11271,"anger":11272,"Ġcompliance":11273,"Ġspok":11274,"Ġfordert":11275,"onte":11276,"Ġgewisse":11277,"ĠRumÃ¤n":11278,"ĠBack":11279,"Ġ800":11280,"Ġstone":11281,"orgnis":11282,"ĠFenster":11283,"car":11284,"ĠVerÃ¶ffentlich":11285,"kehren":11286,"ĠKong":11287,"stoffen":11288,"venue":11289,"Ġblood":11290,"Ġrequests":11291,"Ġillustr":11292,"atically":11293,"ĠBM":11294,"ĠTai":11295,"ĠFlÃ¤":11296,"berecht":11297,"Ġheavy":11298,"imin":11299,"ĠVerfÃ¼gbarkeit":11300,"49":11301,"uries":11302,"Ã¶p":11303,"ĠUnterschiede":11304,"Ġfed":11305,"ĠEinwanderung":11306,"ĠGrenze":11307,"Ġwait":11308,"ĠNik":11309,"Ġcm":11310,"Ġbedarf":11311,"ĠAutob":11312,"Ġ#":11313,"ĠschlieÃŁen":11314,"Ġstreets":11315,"gebracht":11316,"Ġwiederum":11317,"Ġhelping":11318,"igence":11319,"Ġshape":11320,"Programm":11321,"Ġabgele":11322,"ĠRef":11323,"ĠPrÃ¤s":11324,"Ã¨s":11325,"ĠSchÃ¤den":11326,"Ġlock":11327,"oples":11328,"Ġrecommended":11329,"Us":11330,"Ġcompetence":11331,"ĠChurch":11332,"Ġbirth":11333,"Ġglobale":11334,"itime":11335,"ĠCustom":11336,"Ġdah":11337,"pped":11338,"Ġkonkreten":11339,"ĠDiskussionen":11340,"ĠPatent":11341,"orough":11342,"Ġleisure":11343,"Ġstraight":11344,"Ġpiece":11345,"akten":11346,"Ġpermit":11347,"Ġdestru":11348,"Ġtreated":11349,"Ġstarken":11350,"Ġleadership":11351,"ĠKlimawandel":11352,"kunfts":11353,"ĠKombination":11354,"sichts":11355,"ĠRoom":11356,"Ġbetreffen":11357,"Ġarms":11358,"Ġprivacy":11359,"mechan":11360,"ĠDienstleistungs":11361,"Ġspeakers":11362,"ĠHandeln":11363,"ĠKunde":11364,"new":11365,"ĠnÃ¶tig":11366,"ikte":11367,"igerung":11368,"uropÃ¤ischen":11369,"Ġbildet":11370,"Ġobligation":11371,"Ġexpertise":11372,"tehen":11373,"Ġgestern":11374,"Ġpresentation":11375,"ĠUntersuchung":11376,"Ġlaunched":11377,"lechter":11378,"ieties":11379,"Ġwelchen":11380,"Ġdir":11381,"Ġsignificantly":11382,"Ġgeehr":11383,"Ġdele":11384,"ĠPrakt":11385,"Ġbedrooms":11386,"Ġbinding":11387,"oni":11388,"lichem":11389,"fÃ¼llung":11390,"zed":11391,"ĠVerbesser":11392,"Located":11393,"Very":11394,"ĠPerspekt":11395,"ĠlÃ¤uft":11396,"ĠGesetze":11397,"iating":11398,"geht":11399,"lause":11400,"SA":11401,"Ġunits":11402,"ĠExpress":11403,"Where":11404,"Ġcompensation":11405,"grÃ¶ÃŁ":11406,"ĠErwach":11407,"Ġrot":11408,"Ġdrugs":11409,"Nachdem":11410,"Ġswitch":11411,"Ġrecognise":11412,"rift":11413,"ĠVision":11414,"heber":11415,"Ġconfigur":11416,"Ġfelt":11417,"Ġconsistent":11418,"Ġsleep":11419,"erungs":11420,"Ġlandwirtschaft":11421,"owned":11422,"ispiele":11423,"ĠFreunde":11424,"iest":11425,"Ġkeines":11426,"Ġdestination":11427,"Ġwebsites":11428,"vak":11429,"istribution":11430,"ĠBalt":11431,"ĠRevolution":11432,"ĠSwed":11433,"ĠAdresse":11434,"Ġpolitisch":11435,"ĠQue":11436,"entwurf":11437,"Ġ1993":11438,"ĠTheater":11439,"Ã¤hrt":11440,"ĠPflanzen":11441,"schaffen":11442,"ĠSpiele":11443,"akers":11444,"Ġsubsidiar":11445,"68":11446,"Ġparad":11447,"ĠStrukturfonds":11448,"teen":11449,"Rooms":11450,"Ġfurniture":11451,"stÃ¤nde":11452,"Ġtransform":11453,"Ġflat":11454,"Ġsanctions":11455,"Ġdishes":11456,"ĠKranken":11457,"Ġbasiert":11458,"Ġexpectations":11459,"ĠVia":11460,"Ġengag":11461,"ettbewerbs":11462,"ĠRotary":11463,"uds":11464,"ĠGrundsÃ¤tze":11465,"ivate":11466,"ameras":11467,"Ġrepresented":11468,"ĠFlash":11469,"ĠStraf":11470,"geiz":11471,"iform":11472,"beziehung":11473,"Ġemphasis":11474,"Ġfir":11475,"ĠLos":11476,"ruppen":11477,"Ġoperators":11478,"Ġextension":11479,"ĠLu":11480,"Ġcomply":11481,"zÃ¼g":11482,"Ġumfass":11483,"Beim":11484,"Ġkompliz":11485,"Ġvess":11486,"handlungs":11487,"sparte":11488,"ti":11489,"Ġwirksam":11490,"Ġsprach":11491,"GB":11492,"ĠLast":11493,"Ġgenauso":11494,"kop":11495,"Ġlose":11496,"ĠKyoto":11497,"Ġsubstances":11498,"atre":11499,"zubauen":11500,"Dr":11501,"oli":11502,"ĠEigenschaften":11503,"Ġentlang":11504,"stitut":11505,"ev":11506,"fare":11507,"Ġapplicable":11508,"stance":11509,"ĠOne":11510,"Ġbrowser":11511,"ĠLaw":11512,"Besch":11513,"Ġcomplic":11514,"ĠBreakfast":11515,"Ġsights":11516,"Ġstations":11517,"alys":11518,"ĠKollege":11519,"ĠAllgemeinen":11520,"Ġtrees":11521,"irk":11522,"Ġwild":11523,"Ġbezieht":11524,"Ġverlangen":11525,"abilitÃ¤t":11526,"Zimmer":11527,"Ġexists":11528,"ichteten":11529,"bahnhof":11530,"Ġdog":11531,"ĠAngebote":11532,"ati":11533,"Ġ1980":11534,"Ġproud":11535,"formance":11536,"ĠJahrzehn":11537,"Ġdefault":11538,"Ġdeiner":11539,"ĠBÃ¶r":11540,"Ġresolve":11541,"Both":11542,"ĠMenÃ¼":11543,"Ġ600":11544,"Ġfantastic":11545,"Ġolder":11546,"estion":11547,"âĢ¢":11548,"ossen":11549,"ĠZul":11550,"ochen":11551,"ucher":11552,"ĠSatell":11553,"Ġzeich":11554,"rote":11555,"Ġbeiz":11556,"dass":11557,"hop":11558,"zza":11559,"theit":11560,"ĠOur":11561,"ĠOld":11562,"ischung":11563,"Ġentered":11564,"Ġtests":11565,"okument":11566,"Ġtrial":11567,"ĠEnglisch":11568,"ÑģÑĤ":11569,"Ġkor":11570,"Ġspezial":11571,"ĠDokumente":11572,"ĠMÃ¼nchen":11573,"grad":11574,"ĠSignal":11575,"ĠHerk":11576,"Ġapproval":11577,"Ġcentres":11578,"otte":11579,"Ġhelps":11580,"Ġarticles":11581,"Ġobjects":11582,"ĠMaÃŁnahme":11583,"Ġlatter":11584,"Ġwichtiges":11585,"Ġdict":11586,"ĠSun":11587,"ifall":11588,"uste":11589,"ĠDatenbank":11590,"ĠLeitlinien":11591,"ĠabhÃ¤ngig":11592,"Ġadj":11593,"Ġrare":11594,"Ġindividuell":11595,"Ġrefugees":11596,"Ġemphasise":11597,"Ġdischarge":11598,"Ġreicht":11599,"Ġerror":11600,"Ġappreciate":11601,"urger":11602,"tragung":11603,"Ġkeeping":11604,"ĠBio":11605,"service":11606,"Ġcold":11607,"ZunÃ¤chst":11608,"Ġrelatively":11609,"ĠLÃ¶":11610,"Ġliefern":11611,"schule":11612,"ĠGewinn":11613,"Ġsenden":11614,"what":11615,"Bis":11616,"acher":11617,"Ġadvantages":11618,"Ġitalienischen":11619,"Ġalter":11620,"Ġoutput":11621,"Ġaktuell":11622,"ĠArgent":11623,"Ġvast":11624,"ĠUnterschied":11625,"rechten":11626,"Ġeur":11627,"ĠfÃ¼hrte":11628,"abling":11629,"ĠEnergy":11630,"Ġziemlich":11631,"Ġwhilst":11632,"ĠClass":11633,"Apart":11634,"ĠDetails":11635,"ĠKÃ¼ste":11636,"Ġtrotzdem":11637,"ĠOriginal":11638,"inations":11639,"Ġwhatever":11640,"ĠJack":11641,"ĠBewegung":11642,"Ġengineering":11643,"usal":11644,"antly":11645,"Ġumfassenden":11646,"netz":11647,"obe":11648,"ichtig":11649,"Ġaffairs":11650,"hard":11651,"ĠAntworten":11652,"Ġcovers":11653,"Ġdinner":11654,"ani":11655,"Ġbekannten":11656,"ĠSchloss":11657,"Ġgeist":11658,"Ġdelegation":11659,"ĠDefinition":11660,"fit":11661,"ĠKreat":11662,"Ġtemperature":11663,"Ġhoher":11664,"Ġwenden":11665,"ĠAustausch":11666,"spar":11667,"Ġrespective":11668,"Ġ37":11669,"Service":11670,"flug":11671,"code":11672,"Ġhappens":11673,"Ġye":11674,"Ġplug":11675,"Ġmini":11676,"ĠWesten":11677,"region":11678,"ey":11679,"ĠSud":11680,"Ġarrangements":11681,"ĠauÃŁergewÃ¶hn":11682,"lÃ¤ne":11683,"ĠVerbrechen":11684,"Ġobst":11685,"Ġod":11686,"Ġgepr":11687,"Ġtexts":11688,"Star":11689,"Ġcloth":11690,"ĠOs":11691,"Ġhelped":11692,"ĠSchwerpunkt":11693,"oÃŁen":11694,"weite":11695,"Ġunmittelbar":11696,"ĠMunich":11697,"OP":11698,"Ġentertainment":11699,"ĠMinisters":11700,"ĠerhÃ¤ltlich":11701,"win":11702,"reds":11703,"ĠBedenken":11704,"Ġfinding":11705,"Ġadap":11706,"ĠFremden":11707,"Ġinvolving":11708,"maschinen":11709,"uchte":11710,"Ġregionale":11711,"Ġfavor":11712,"Ã¨re":11713,"Ġentre":11714,"Ġsi":11715,"Ġfoll":11716,"Ã¤tzung":11717,"Ġpersonally":11718,"Ġsuffering":11719,"ĠSD":11720,"ĠSyr":11721,"ĠGut":11722,"ĠUser":11723,"Ġestim":11724,"ĠPaper":11725,"ĠRich":11726,"inos":11727,"ĠJes":11728,"ĠmaÃŁ":11729,"Ġpeoples":11730,"Ġ120":11731,"prech":11732,"ĠZusatz":11733,"wareness":11734,"Ġexclusively":11735,"Ġtaxes":11736,"ĠBesitz":11737,"TS":11738,"Ġthorough":11739,"ilding":11740,"tellte":11741,"Ġhistorische":11742,"UM":11743,"Ġdisaster":11744,"ĠBerufs":11745,"Ġangep":11746,"ĠWahrheit":11747,"Thanks":11748,"Ġtours":11749,"ĠZugriff":11750,"ikas":11751,"Ġentspannen":11752,"Ġmuseum":11753,"Ġerweitert":11754,"fÃ¤":11755,"spruchs":11756,"Ġnaturally":11757,"Ġrecognised":11758,"Ġzuge":11759,"unktions":11760,"ĠDrit":11761,"ĠSchule":11762,"Ġengl":11763,"Ġdanger":11764,"ĠPremier":11765,"Ġgather":11766,"Ġscrip":11767,"Ġvaluable":11768,"ĠerÃ¶ffnet":11769,"ĠVertrÃ¤ge":11770,"Ġconfirmed":11771,"Ġverf":11772,"ĠWachstums":11773,"Find":11774,"Ġbeschrieben":11775,"Restaurant":11776,"vec":11777,"gelassen":11778,"Despite":11779,"ĠFahrzeug":11780,"ĠWin":11781,"behÃ¶rden":11782,"ĠShe":11783,"ĠLou":11784,"ĠSanktionen":11785,"Ġspring":11786,"Ġspectac":11787,"urd":11788,"ĠbetrÃ¤gt":11789,"Ġintend":11790,"Ã©r":11791,"Ġreligi":11792,"Seine":11793,"trÃ¤cht":11794,"Weitere":11795,"ĠgÃ¼lt":11796,"ĠInde":11797,"ĠBeweis":11798,"Ġpoliticians":11799,"Ã¤ndige":11800,"Ġinf":11801,"ĠWith":11802,"Ġweather":11803,"fÃ¤llen":11804,"isory":11805,"amerika":11806,"Ġbreat":11807,"neter":11808,"Ġfalsch":11809,"ĠPlaza":11810,"Ebenso":11811,"ĠKonsequ":11812,"ĠkÃ¼nftig":11813,"Ġkommun":11814,"ĠPress":11815,"ĠHong":11816,"izz":11817,"Ġreichen":11818,"ĠTibet":11819,"Ġopposed":11820,"rÃ¼stung":11821,"ĠGesicht":11822,"ĠUmweltschutz":11823,"Ġjourney":11824,"à¸":11825,"tran":11826,"quellen":11827,"aj":11828,"Ġpick":11829,"ĠAmts":11830,"west":11831,"ulted":11832,"flÃ¤chen":11833,"Ġutil":11834,"ĠLandwirte":11835,"kommt":11836,"ĠPlayer":11837,"ĠBrazil":11838,"Ġdiseases":11839,"Ġentdecken":11840,"Ã¼ren":11841,"ĠDelegation":11842,"vol":11843,"pers":11844,"ĠRock":11845,"Ġfill":11846,"ĠJean":11847,"ĠFarb":11848,"uden":11849,"achte":11850,"Ġfirstly":11851,"ĠRub":11852,"ĠStrategy":11853,"Ġoutdoor":11854,"ĠzusÃ¤tzlichen":11855,"ĠTechnology":11856,"Ġkoordin":11857,"ĠAngel":11858,"Ġmobility":11859,"Ġgirl":11860,"Ã©n":11861,"ĠEG":11862,"Ġhostels":11863,"Ġthreaten":11864,"baut":11865,"Ġobtained":11866,"Ġrepeat":11867,"ruct":11868,"ĠHoll":11869,"Ġkurzem":11870,"Ġsoft":11871,"ĠSound":11872,"ĠHerkun":11873,"Ġfigure":11874,"zin":11875,"Ġresidence":11876,"Ġerscheinen":11877,"politischen":11878,"class":11879,"ĠzugÃ¤nglich":11880,"ufÃ¼hren":11881,"ĠBestell":11882,"Ġconserv":11883,"ĠArm":11884,"Ġsolve":11885,"TR":11886,"ĠGM":11887,"far":11888,"Ġinteressiert":11889,"reuung":11890,"Lin":11891,"Ġintellectual":11892,"essene":11893,"Ġvoller":11894,"Ã¤ndler":11895,"Ġfamiliar":11896,"Note":11897,"ĠgeprÃ¼":11898,"Ġdans":11899,"Ġoffices":11900,"Ġgrundlegenden":11901,"chron":11902,"55":11903,"Ġdiscovered":11904,"ĠschÃ¶nsten":11905,"Ġpassengers":11906,"Ġrenewable":11907,"oler":11908,"ĠErwÃ¤":11909,"ĠhÃ¶here":11910,"Je":11911,"ĠgefÃ¶rdert":11912,"ĠBerichterstat":11913,"Ġschwierigen":11914,"ĠMaterialien":11915,"not":11916,"azine":11917,"ĠStudenten":11918,"onders":11919,"Ġ1000":11920,"ĠStrategien":11921,"Ġcombating":11922,"trieben":11923,"Ġexceptional":11924,"Ġlaufen":11925,"Ġlooks":11926,"ĠSuite":11927,"ĠMach":11928,"ĠPop":11929,"Ġbesitzen":11930,"Ġgeschrieben":11931,"ĠWirklichkeit":11932,"ĠBaum":11933,"ĠlÃ¤ng":11934,"Ġsofern":11935,"pol":11936,"ĠMorgen":11937,"ikes":11938,"ĠWork":11939,"Ġwesentliche":11940,"Ġeigent":11941,"CS":11942,"ĠMittelpunkt":11943,"ĠSwedish":11944,"ichtbar":11945,"Ġexem":11946,"Ġstrugg":11947,"hme":11948,"idden":11949,"uens":11950,"Ġeigenes":11951,"deten":11952,"ugnisse":11953,"Ġweshalb":11954,"iva":11955,"ĠErwartungen":11956,"Å¾":11957,"Ġ38":11958,"alta":11959,"stes":11960,"Ġdirectives":11961,"ĠEisenbahn":11962,"Ġmillions":11963,"Ġfaced":11964,"Aufgrund":11965,"Ġniemals":11966,"Ġaccom":11967,"Ġchain":11968,"Ġhilft":11969,"Mod":11970,"Ġdirekte":11971,"ĠÃ¶ffnen":11972,"actory":11973,"ĠEssen":11974,"Ã¶ger":11975,"ĠTit":11976,"liefert":11977,"Ġeinerseits":11978,"Ġdetermine":11979,"inken":11980,"ĠHeiz":11981,"Aut":11982,"Vom":11983,"Vert":11984,"ĠFinancial":11985,"Ġinvolvement":11986,"bauen":11987,"stehenden":11988,"Ġcouple":11989,"ĠAmbiente":11990,"ĠUmgang":11991,"ĠStudie":11992,"Ġkulturelle":11993,"Ġzweifellos":11994,"andon":11995,"Ġweltweiten":11996,"ĠEmpfehlung":11997,"Ġeyes":11998,"lieben":11999,"Ġhervorragende":12000,"aal":12001,"ml":12002,"ĠNachrichten":12003,"ĠAgrarpolitik":12004,"gendes":12005,"Ġcreative":12006,"ĠRadio":12007,"Ġserves":12008,"handelt":12009,"Ġbedeuten":12010,"Ġobstac":12011,"hi":12012,"bek":12013,"ĠBadezimmer":12014,"ĠKandidaten":12015,"ĠMonte":12016,"lles":12017,"ĠHindern":12018,"ecutive":12019,"ĠMaster":12020,"dire":12021,"ancing":12022,"ĠdurchzufÃ¼hren":12023,"Ġenthus":12024,"anks":12025,"Ġimpressive":12026,"Ġpresident":12027,"Ġpush":12028,"Ġausgezeichnete":12029,"astronom":12030,"ĠauÃŁen":12031,"Ġleaving":12032,"ĠEntsp":12033,"Ġzuerst":12034,"Ġbureauc":12035,"ĠKategorie":12036,"istry":12037,"ĠBeratung":12038,"ĠnatÃ¼rlichen":12039,"weisung":12040,"ĠWas":12041,"ĠDavid":12042,"Ġprotecting":12043,"Ġneuesten":12044,"Ġdoesn":12045,"Ġkombin":12046,"Ġremoved":12047,"ĠAmerika":12048,"icip":12049,"andal":12050,"wei":12051,"legungen":12052,"umping":12053,"gesundheit":12054,"ĠjÃ¤hrlich":12055,"ĠDirector":12056,"ĠObama":12057,"OW":12058,"abwe":12059,"Tats":12060,"Ġconstructive":12061,"ĠErinner":12062,"Ġcriticism":12063,"ĠverÃ¤ndert":12064,"Ġamounts":12065,"Ġspanischen":12066,"Ġtreaty":12067,"ĠWÃ¼r":12068,"rÃ¤ften":12069,"ĠEgypt":12070,"ĠProced":12071,"ĠSkype":12072,"ventionen":12073,"ĠFerienwohn":12074,"ingesch":12075,"ĠAtom":12076,"Bericht":12077,"Ġreden":12078,"Ġhappening":12079,"ĠKarl":12080,"Ġstattf":12081,"ĠbemÃ¼ht":12082,"Fr":12083,"Ġcontributions":12084,"Enjoy":12085,"Ġautomatic":12086,"dessen":12087,"Third":12088,"Ġnewly":12089,"Ġhospit":12090,"ĠÃľbersetzung":12091,"Ġequally":12092,"Ġinzwischen":12093,"ĠNachfrage":12094,"apest":12095,"Ġgepl":12096,"ĠAdministr":12097,"Ġlicense":12098,"ĠMassen":12099,"Ġlargely":12100,"ĠVeranstaltung":12101,"itÃ¤re":12102,"Ġ{{":12103,"ede":12104,"Ã¶rung":12105,"Ġcommunications":12106,"Ġruhigen":12107,"Ġausgezeichneten":12108,"looking":12109,"ĠVerk":12110,"tedly":12111,"ĠKomment":12112,"Ġinteressant":12113,"Ġbetreffenden":12114,"Ġorganizations":12115,"ĠTon":12116,"ĠDiv":12117,"Mill":12118,"mes":12119,"Ġimpression":12120,"Ġstake":12121,"gemeinschaft":12122,"Ġofficials":12123,"Ġmandate":12124,"reb":12125,"verletz":12126,"Ã¤hlte":12127,"Ġpreparation":12128,"47":12129,"ĠBor":12130,"Ġstrategies":12131,"ĠUngleich":12132,"gemÃ¤ÃŁ":12133,"light":12134,"pÃ¤ck":12135,"institution":12136,"Ġcontracts":12137,"rd":12138,"Ġtemporary":12139,"anen":12140,"ĠFer":12141,"Ġgetr":12142,"Ġreserve":12143,"ĠEinstellung":12144,"Ġlovely":12145,"Ġcancel":12146,"Ġhandling":12147,",âĢĿ":12148,"ĠKrie":12149,"ĠOpp":12150,"Adresse":12151,"Ġhit":12152,"Ġladen":12153,"ĠPapier":12154,"Ġgelegt":12155,"Ġawareness":12156,"Ġissued":12157,"unicip":12158,"Ġremaining":12159,"Ġschreiben":12160,"Ġmusste":12161,"einrichtungen":12162,"Ġprohib":12163,"Ġrequirement":12164,"ashington":12165,"Ġincreases":12166,"freie":12167,"Ġqualifiz":12168,"ĠursprÃ¼nglichen":12169,"Ġinstalliert":12170,"Ġboat":12171,"steuer":12172,"finanz":12173,"ĠGrad":12174,"Ġcer":12175,"Ġacquis":12176,"ĠVoraussetzung":12177,"ĠfÃ¼hlen":12178,"Stand":12179,"ĠEntwicklungslÃ¤ndern":12180,"Ġcharges":12181,"Welche":12182,"Ġrestrictions":12183,"Ja":12184,"Ġhealthy":12185,"Ġoffenen":12186,"ĠPrivate":12187,"'ve":12188,"ĠÃ¤lter":12189,"ĠInc":12190,"systems":12191,"Ġliberalisation":12192,"Ġessen":12193,"entions":12194,"ĠverÃ¤ndern":12195,"ĠEP":12196,"Ġrichten":12197,"Ġvolume":12198,"ĠSund":12199,"hmigung":12200,"[[":12201,"Ġeinfachen":12202,"Ġgene":12203,"ĠÃľberzeugung":12204,"ĠbetrÃ¤cht":12205,"ĠTemperatur":12206,"adow":12207,"ĠNormen":12208,"Ġbalcony":12209,"ĠVerbesserungen":12210,"ĠprÃ¤sentiert":12211,"Ġanwes":12212,"Ġinhabit":12213,"ĠMut":12214,"Ġmur":12215,"ĠFranc":12216,"Ġkommer":12217,"Ġcharacteristics":12218,"ĠSchulden":12219,"Ġdebates":12220,"ĠMeinungs":12221,"Ġrapporteurs":12222,"Vielleicht":12223,"Ġdecis":12224,"Ġabroad":12225,"Ġopinions":12226,"ĠGNU":12227,"ipel":12228,"Ġaufzunehmen":12229,"Ġcontroll":12230,"Sta":12231,"holders":12232,"Ġsorgt":12233,"Ġdich":12234,"Ġachten":12235,"Ġphen":12236,"Ġremote":12237,"ĠKÃ¼sten":12238,"Ġreturned":12239,"Ġmenschlichen":12240,"Ġalbum":12241,"behÃ¶rde":12242,"Ġdining":12243,"ĠKnow":12244,"Ġsurroundings":12245,"Ġgrundlegende":12246,"stood":12247,"holen":12248,"meldung":12249,"reichung":12250,"ĠBauern":12251,"wirkung":12252,"Ġextraordin":12253,"Ġincent":12254,"schirm":12255,"Ġgewalt":12256,"-/":12257,"hrt":12258,"Ġstimmt":12259,"Ġenhan":12260,"Ġfighting":12261,"grenzung":12262,"Ġabol":12263,"Ġuniversal":12264,"nischen":12265,"Ġdetaill":12266,"Ġabgelehnt":12267,"Ġlobby":12268,"ĠLas":12269,"Ġtrifft":12270,"Ġresolutions":12271,"ĠLuxembourg":12272,"Ġfasc":12273,"Ġprove":12274,"Ġcollective":12275,"2005":12276,"Ġsla":12277,"ĠTom":12278,"Ġsuite":12279,"Ġoperational":12280,"Ġentscheidend":12281,"ĠAz":12282,"Ġgezogen":12283,"ĠStahl":12284,"Ġberaten":12285,"Ġvous":12286,"ĠschlieÃŁ":12287,"Ġmaintained":12288,"Ġfunktionieren":12289,"angebot":12290,"ĠSafety":12291,"Get":12292,"Ġwalls":12293,"%,":12294,"oria":12295,"Ġ1989":12296,"Ġfaith":12297,"Ġcry":12298,"Ġstarten":12299,"Ġcoher":12300,"uite":12301,"Ġcreates":12302,"Ġorganisiert":12303,"ĠVir":12304,"Ġmessages":12305,"ĠhÃ¶chsten":12306,"Ġsexual":12307,"Nor":12308,"Ġidentify":12309,"Ã¤umt":12310,"td":12311,"gÃ¤nge":12312,"Ġausgesprochen":12313,"reffen":12314,"Ġunderm":12315,"Ġcab":12316,"ĠMÃ¶":12317,"ĠTagung":12318,"ĠkÃ¼nftigen":12319,"ĠMySQL":12320,"eler":12321,"ĠEp":12322,"garn":12323,"Ġfee":12324,"ĠUNO":12325,"isierungs":12326,"Ġcommun":12327,"ittees":12328,"Ġrenovated":12329,"gut":12330,"Ġrecommendation":12331,"ĠÃľbereinstimmung":12332,"Ġprecise":12333,"ĠAirbus":12334,"ĠHostelsclub":12335,".\"":12336,"ĠRund":12337,"Ġvolunt":12338,"ffect":12339,"Ġbreite":12340,"Ġdecorated":12341,"ĠGarantie":12342,"ĠBritain":12343,"Ġdepends":12344,"ĠPunkten":12345,"ĠÐ²":12346,"Ġclassic":12347,"ĠTschech":12348,"ĠSchweden":12349,"General":12350,"material":12351,"Ġdark":12352,"Ġdritte":12353,"ĠDauer":12354,"ĠHarmonisierung":12355,"86":12356,"ateful":12357,"ĠKapaz":12358,"Ġgets":12359,"Ġ1991":12360,"Ġverschiedener":12361,"ĠStabilitÃ¤ts":12362,"Ġgratulieren":12363,"Bo":12364,"gÃ¤":12365,"ĠStrukturen":12366,"Ġumzusetzen":12367,"ĠTermin":12368,"Ġtraditions":12369,"Ġgewonnen":12370,"Ġriesigen":12371,"ĠBurg":12372,"Ġerlauben":12373,"Ġkurze":12374,"ĠPia":12375,"ĠVerfahrens":12376,"Ġgebaut":12377,"Ġpattern":12378,"Ġignor":12379,"ĠWÃ¤hl":12380,"AF":12381,"table":12382,"rohung":12383,"ĠTy":12384,"lastung":12385,"Ġausgeschlossen":12386,"iday":12387,"grenzen":12388,"Ġowner":12389,"BC":12390,"Ġcatalog":12391,"Ġveran":12392,"Ġsoweit":12393,"ĠPolizei":12394,"inational":12395,"loyed":12396,"forschung":12397,"zellen":12398,"krit":12399,"tÃ¤us":12400,"Ġlegend":12401,"Ġinspir":12402,"ĠÃ¼bernimmt":12403,"deb":12404,"ĠNahrungsmittel":12405,"Comm":12406,"Follow":12407,"Ġbattle":12408,"ĠNon":12409,"fined":12410,"ĠBox":12411,"ĠTim":12412,"Ġverursacht":12413,"Gro":12414,"Ġartist":12415,"Ġschnelle":12416,"Ġreported":12417,"rufen":12418,"ĠbekÃ¤mpfen":12419,"Entw":12420,"Ġinvolve":12421,"Ġniedrig":12422,"bil":12423,"ĠFestlegung":12424,"ĠWeiÃŁ":12425,"Ġaftern":12426,"Ġperfekt":12427,"Ġausgewogen":12428,"center":12429,"ci":12430,"ĠAction":12431,"Ġappoint":12432,"macht":12433,"ĠTown":12434,"Ġsin":12435,"Ġsauna":12436,"vant":12437,"Â¤":12438,"Ġverlangt":12439,"Under":12440,"Ġproperties":12441,"zne":12442,"Ġleistungs":12443,"cles":12444,"inuier":12445,"ĠNG":12446,"Ġconflicts":12447,"Ġregularly":12448,"mÃ¤rkte":12449,"Ġwitness":12450,"Ã¤tigung":12451,"ĠProcedure":12452,"ĠzÃ¤hlt":12453,"Ġangesehen":12454,"ĠMall":12455,"ĠRefer":12456,"ĠgelÃ¶st":12457,"ĠGeschÃ¤ft":12458,"acion":12459,"Ġgone":12460,"cohol":12461,"ĠPuert":12462,"ighten":12463,"ĠAusstattung":12464,"ĠEngine":12465,"Ġbuchen":12466,"Ġreveal":12467,"Ġdrawing":12468,"arma":12469,"Ġlautet":12470,"Ġyouth":12471,"wachstum":12472,"ĠSens":12473,"Ġbezug":12474,"Ġhardware":12475,"ĠÃĦnderungsantrÃ¤gen":12476,"ĠDra":12477,"ĠmÃ¶gliche":12478,"Ġvacation":12479,"ziplin":12480,"Ġconducted":12481,"Ġuneingesch":12482,"ĠAnfragen":12483,"Ġsmo":12484,"ĠHohen":12485,"Ġfacilitate":12486,"igu":12487,"Ġfordere":12488,"ĠDrittlÃ¤ndern":12489,"Ġanstatt":12490,"tele":12491,"uliert":12492,"ĠVorschlÃ¤gen":12493,"azier":12494,"ĠNahen":12495,"ĠZustÃ¤ndigkeit":12496,"Ġauftreten":12497,"Ġbeseit":12498,"ĠSecret":12499,"water":12500,"Ġcable":12501,"Ġparents":12502,"Ġcustoms":12503,"Ġeinzigartige":12504,"ĠGeschmack":12505,"liste":12506,"ĠGerÃ¤te":12507,"Ġaufgefordert":12508,"ĠanschlieÃŁen":12509,"Ġmeat":12510,"mitten":12511,"Ġannehmen":12512,"Ġalarm":12513,"ĠKonsens":12514,"Ġschafft":12515,"Ġcareer":12516,"ĠBulgaria":12517,"ĠGestaltung":12518,"onymous":12519,"ĠSov":12520,"44":12521,"Ġschne":12522,"ĠÎ":12523,"ĠArme":12524,"Ġabgesch":12525,"ĠArmen":12526,"Ġload":12527,"ĠMuslim":12528,"67":12529,"modell":12530,"Ġgold":12531,"Ġhundreds":12532,"iny":12533,"decken":12534,"ĠGegend":12535,"Ġgender":12536,"Ġperformed":12537,"ĠThese":12538,"ĠUSD":12539,"ypern":12540,"ĠMangel":12541,"Ġaccompan":12542,"Ġzugunsten":12543,"Ġsehe":12544,"Ġconsc":12545,"ĠShow":12546,"col":12547,"Ġtopic":12548,"Commission":12549,"ĠerÃ¶r":12550,"ĠBestellung":12551,"Ġirre":12552,"Ġwissenschaftlichen":12553,"Ġtransportation":12554,"ĠInternets":12555,"Ġhervorheben":12556,"ĠCaf":12557,"uese":12558,"Ġinterior":12559,"Ġintensiv":12560,"arr":12561,"uster":12562,"ĠAbschnitt":12563,"lÃ¤ut":12564,"ĠKommun":12565,"Ġparliaments":12566,"Ġphenomen":12567,"Ġwettbewerbs":12568,"Ġeast":12569,"asche":12570,"berge":12571,"Ġmetal":12572,"eta":12573,"point":12574,"ĠAth":12575,"ĠWare":12576,"lieb":12577,"Ġintensive":12578,"ĠBehinder":12579,"ĠAngst":12580,"aller":12581,"ĠMaastr":12582,"erechtigkeit":12583,"udes":12584,"ĠStandort":12585,"izer":12586,"Ġrecip":12587,"ĠFarbe":12588,"Ġholding":12589,"ĠverstÃ¤nd":12590,"fÃ¼hrte":12591,"Ġzentralen":12592,"ĠdurchfÃ¼hren":12593,"Ġsupposed":12594,"ĠKrisen":12595,"ĠBalkan":12596,"Ġbekomm":12597,"ĠAktien":12598,"ĠVater":12599,"Ġdefine":12600,"lared":12601,"ĠKilometer":12602,"Ġvereinbar":12603,"ĠKurz":12604,"essions":12605,"andt":12606,"ĠPlanung":12607,"Ġzufolge":12608,"ĠCanada":12609,"Ġbeabsicht":12610,"istern":12611,"Ġiron":12612,"Ġvisa":12613,"Ġdates":12614,"Ġeinig":12615,"Ġ900":12616,"ĠList":12617,"Ġseeing":12618,"Ġfollows":12619,"orca":12620,"ĠMEPs":12621,"Ġkurzen":12622,"Ġavec":12623,"ĠAlternative":12624,"Ġsomewhat":12625,"ĠbeglÃ¼ckwÃ¼nschen":12626,"Ġworse":12627,"ĠzustÃ¤ndigen":12628,"ĠerwÃ¤hn":12629,"65":12630,"Ġmitten":12631,"Ġamaz":12632,"ĠprÃ¤z":12633,"Ġjoined":12634,"Ġdisplayed":12635,"ivals":12636,"standards":12637,"wald":12638,"ĠAusfÃ¼hrungen":12639,"ĠCroatia":12640,"ĠBlut":12641,"estr":12642,"Ġ95":12643,"Ġnorthern":12644,"ĠRegierungskonferenz":12645,"igsten":12646,"iox":12647,"Ġerheblich":12648,"ĠAlp":12649,"ĠExecutive":12650,"Ferner":12651,"Zus":12652,"Ġfather":12653,"Ġunfor":12654,"ĠRobert":12655,"ĠSteuern":12656,"Ġverstanden":12657,"Ġterrorist":12658,"organ":12659,"Ġnoted":12660,"ĠKrankheiten":12661,"Ġcollect":12662,"ĠMS":12663,"Ġparlament":12664,"Ġupdated":12665,"ĠMarina":12666,"ĠzurÃ¼ckge":12667,"Ġtowns":12668,"Ġabandon":12669,"ĠbestÃ¤tigen":12670,"ĠBSE":12671,"ĠRatsprÃ¤sidentschaft":12672,"Ġfrequently":12673,"Ġschwed":12674,"ef":12675,"schiedet":12676,"Ġorganized":12677,"stanz":12678,"Ġverbringen":12679,"CHT":12680,"Ġzut":12681,"ĠBy":12682,"ĠMusic":12683,"ĠAusgangspunkt":12684,"ĠfrÃ¼heren":12685,"Ġislands":12686,"ĠPolish":12687,"Ġconnections":12688,"Ġlabel":12689,"Ġverabschiedet":12690,"Ġought":12691,"Ġmother":12692,"ĠWashington":12693,"Ġsodass":12694,"ĠAnwendungs":12695,"ĠGeorge":12696,"Ġcontinent":12697,"Ġanswers":12698,"Ġreserves":12699,"ĠungefÃ¤hr":12700,"ĠLim":12701,"ĠHimm":12702,"osis":12703,"Ã¤hrung":12704,"ĠAusfÃ¼hrung":12705,"ĠJapanese":12706,"ĠIst":12707,"lÃ¤sslich":12708,"ĠReisen":12709,"aine":12710,"beauftrag":12711,"Ġtechniques":12712,"Ġkontinuier":12713,"Ġnachhaltigen":12714,"Ġstylish":12715,"unning":12716,"ringerung":12717,"Ġ65":12718,"schÃ¤d":12719,"ausend":12720,"ĠFÃ¤higkeiten":12721,"iera":12722,"ĠExport":12723,"wechs":12724,"Ġemergency":12725,"iftung":12726,"ĠGU":12727,"Ġdeals":12728,"kreis":12729,"Ġdemanding":12730,"Ġunent":12731,"ifies":12732,"Ġregulatory":12733,"ĠTel":12734,"Ġtrib":12735,"ĠSauna":12736,"ĠHalb":12737,"ĠGeheim":12738,"Ġminority":12739,"ĠEis":12740,"ĠUrspr":12741,"Ġdrop":12742,"ĠStraÃŁ":12743,"ĠApartment":12744,"ĠAward":12745,"Ġehrgeiz":12746,"ĠKontext":12747,"Ġnotwendige":12748,"Ġbud":12749,"ĠSat":12750,"Ġfaster":12751,"well":12752,"wing":12753,"iessen":12754,"ĠHans":12755,"Ġreact":12756,"minuten":12757,"Ġsettings":12758,"ĠCheck":12759,"kur":12760,"Ġultimately":12761,"zeichnis":12762,"Ġcontrast":12763,"Ġausgestatte":12764,"ĠGleichgewicht":12765,"bart":12766,"ĠTemp":12767,"ĠBeispiele":12768,"ĠUmfeld":12769,"Ã¤ltigen":12770,"Ã¶ÃŁen":12771,"ĠÃľbereinkommen":12772,"ĠHilfs":12773,"Ġworry":12774,"orama":12775,"ĠArbeitsplÃ¤tzen":12776,"ĠauÃŁerordentlich":12777,"fuhr":12778,"stud":12779,"passen":12780,"igend":12781,"minute":12782,"Ġdriver":12783,"ĠReport":12784,"care":12785,"Ġgrateful":12786,"ĠRegen":12787,"Ġbehavi":12788,"Ġheat":12789,"ĠKroat":12790,"Ġanspruchs":12791,"otive":12792,"Ġamt":12793,"ĠAutomobil":12794,"uers":12795,"Ġdrug":12796,"nor":12797,"Ġhostel":12798,"ĠDusche":12799,"Pal":12800,"Ġbezahlen":12801,"Men":12802,"ĠSur":12803,"ĠLiebe":12804,"Ġinteressante":12805,"Ġcastle":12806,"ĠSonne":12807,"Ã½":12808,"ĠAusstellung":12809,"ĠAnti":12810,"Ġquarter":12811,"ĠCyprus":12812,"ounter":12813,"Ġethnic":12814,"Ġgewissen":12815,"ibliothek":12816,"Ã¼ler":12817,"Ġheritage":12818,"Ġinvite":12819,"ĠLife":12820,"Ġdivided":12821,"ties":12822,"cean":12823,"Ġderart":12824,"ĠRegime":12825,"aciÃ³n":12826,"ĠPlenum":12827,"ĠWild":12828,"Ġvisual":12829,"Ġtourists":12830,"ete":12831,"aya":12832,"related":12833,"Ġproduziert":12834,"Ġseat":12835,"Ġdelighted":12836,"usted":12837,"Ġarrive":12838,"zÃ¼ge":12839,"Ġwindows":12840,"Ġentrance":12841,"ĠEntwicklungslÃ¤nder":12842,"ĠEinheit":12843,"Ġstatistics":12844,"Ġelectricity":12845,"ĠAnbieter":12846,"Ġentschlossen":12847,"ĠRedner":12848,"ĠExpl":12849,"ĠÃ¶sterreich":12850,"Ġproducing":12851,"Ġtail":12852,"Ġmigration":12853,"Ġausgezeichnet":12854,"Two":12855,"ĠNap":12856,"Ġvorange":12857,"tendlich":12858,"gÃ¼nst":12859,"ĠSchatten":12860,"ĠAusgabe":12861,"ĠDeutschen":12862,"Ġmagnific":12863,"Ġster":12864,"ĠKMU":12865,"Ġcourage":12866,"Software":12867,"Ġ55":12868,"Ġverleihen":12869,"Ġsuites":12870,"ĠBuchung":12871,"ĠbeschrÃ¤nkt":12872,"ĠArbeitsplatz":12873,"Ġprotocol":12874,"ĠgeÃ¤":12875,"Ġrelaxation":12876,"Ġentdeck":12877,"iga":12878,"ĠTime":12879,"ĠVerd":12880,"Ġermut":12881,"Ġfreiwill":12882,"Ġwines":12883,"Ġjetz":12884,"ĠGewicht":12885,"Ġserviert":12886,"ĠPrinzipien":12887,"Ã®":12888,"Ġlibrary":12889,"Ġchannels":12890,"ĠgeprÃ¼ft":12891,"ĠMir":12892,"ĠWebsites":12893,"das":12894,"ĠWil":12895,"Ġvalley":12896,"ĠmÃ¼nd":12897,"ikaner":12898,"ĠNice":12899,"ĠEinbeziehung":12900,"Rat":12901,"pg":12902,"Ġinhabitants":12903,"gor":12904,"arat":12905,"ĠPartnern":12906,"ĠPrÃ¼f":12907,"BM":12908,"ĠLate":12909,"ĠZentralbank":12910,"Ġafternoon":12911,"ĠhÃ¤ngt":12912,"Ġrefr":12913,"Ġproof":12914,"Ġgeboten":12915,"Ġflights":12916,"Ġmultinational":12917,"Ġvisible":12918,"Ġcontacts":12919,"Drittens":12920,"Ġverhindert":12921,"Ġinvolves":12922,"ĠSpeicher":12923,"Ġaufnehmen":12924,"ĠMonetary":12925,"OF":12926,"banken":12927,"Ġlocations":12928,"ĠFreiheiten":12929,"Ġpieces":12930,"rovers":12931,"imedia":12932,"ergeb":12933,"ieben":12934,"Ġentsteht":12935,"ĠRumÃ¤nien":12936,"Ġstarts":12937,"Ġdeclaration":12938,"Ã¶rd":12939,"Ġkontakt":12940,"ĠunmÃ¶glich":12941,"apy":12942,"Ġstring":12943,"sidiar":12944,"Ġwelchem":12945,"Ġwelfare":12946,"Ġball":12947,"Ġindicated":12948,"rett":12949,"schm":12950,"nerg":12951,"kontrolle":12952,"Ġausgesetzt":12953,"Ġdirekten":12954,"Ġbottom":12955,"88":12956,"Ġticket":12957,"ĠSchlafzimmer":12958,"ochter":12959,"ĠVerringerung":12960,"Ġnewsp":12961,"Ġderartige":12962,"ĠBlock":12963,"izza":12964,"Ġ34":12965,"OC":12966,"icer":12967,"Ġstars":12968,"Ġoral":12969,"Ġsymp":12970,"ĠEarth":12971,"ĠViertel":12972,"Ġwollten":12973,"ĠProp":12974,"Ġentwickelten":12975,"Ġvisiting":12976,"Ġexciting":12977,"Ġcash":12978,"erkennen":12979,"Ġantw":12980,"ĠMold":12981,"Ġinterv":12982,"kohol":12983,"Ġdepartment":12984,"Ġabgestimmt":12985,"Ġexplore":12986,"dro":12987,"Ġpresents":12988,"Ġwidely":12989,"Ġpollution":12990,"ĠBeziehung":12991,"ĠErsatz":12992,"ROM":12993,"ĠBrasil":12994,"ĠKohÃ¤sion":12995,"onien":12996,"hÃ¶rigen":12997,"Ã¤tigkeiten":12998,"Well":12999,"Ġsupplement":13000,"Ġgeboren":13001,"UNG":13002,"ĠTrag":13003,"aux":13004,"Ġprotest":13005,"Ġerreichbar":13006,"Ġstored":13007,"LT":13008,"diction":13009,"etr":13010,"ibar":13011,"etzten":13012,"Ġsigns":13013,"Ġmitge":13014,"ĠIndones":13015,"Ġpassiert":13016,"Ġmaintaining":13017,"Ġcollaboration":13018,"fÃ¤nger":13019,"Ġsac":13020,"ĠGDP":13021,"ĠkÃ¤mpfen":13022,"Ġbestimmen":13023,"cons":13024,"Ġaccident":13025,"ĠVerbot":13026,"Ġshowing":13027,"Ġbeeindruck":13028,"ĠUpdate":13029,"Ġcorresponding":13030,"lichung":13031,"Ġvisited":13032,"ĠYear":13033,"Like":13034,"ĠVorbe":13035,"icans":13036,"ĠCongress":13037,"Ġdemonstrate":13038,"Ġunderstood":13039,"undert":13040,"ĠVorschlags":13041,"Ġverschw":13042,"Ġcareful":13043,"isses":13044,"Ġdrivers":13045,"ĠGesetzes":13046,"Ġgardens":13047,"ruh":13048,"Ġproved":13049,"iented":13050,"agers":13051,"ĠGovern":13052,"ĠHaftung":13053,"maschine":13054,"Ġtie":13055,"level":13056,"Ġvoc":13057,"Ġexpansion":13058,"Ġgeltenden":13059,"Ġcosy":13060,"Ġspoken":13061,"life":13062,"Ġsubsidies":13063,"ĠFaktoren":13064,"ĠEdition":13065,"ĠJer":13066,"Ġstopp":13067,"ĠProblems":13068,"ĠPortuguese":13069,"ulf":13070,"Ġking":13071,"ietnam":13072,"Ġdemonstrated":13073,"ĠInf":13074,"ups":13075,"Ġdepending":13076,"Bus":13077,"rak":13078,"ĠgerÃ¤um":13079,"Ohne":13080,"TH":13081,"Ġrub":13082,"ĠNeben":13083,"Ġhervorge":13084,"werks":13085,"Ġinvestors":13086,"Ġawa":13087,"Ġgezwungen":13088,"ĠAnton":13089,"Ġcommission":13090,"ĠGeschÃ¤fte":13091,"ĠFÃ¼hrer":13092,"ĠFunds":13093,"Ġferner":13094,"Ġfocused":13095,"ĠsorgfÃ¤ltig":13096,"ĠHof":13097,"Ã©es":13098,"Ġstaatlichen":13099,"weile":13100,"ĠFramework":13101,"ĠausgefÃ¼hrt":13102,"ography":13103,"Ġplanet":13104,"ausschuÃŁ":13105,"ĠtatsÃ¤ch":13106,"ĠvollstÃ¤ndige":13107,"scheidet":13108,"ĠGentoo":13109,"Ġmostly":13110,"Ġtrop":13111,"Ġlegt":13112,"ĠGerichte":13113,"Ġbilateral":13114,"ĠBemerkungen":13115,"ĠÃĦr":13116,"ĠDirekt":13117,"Ġven":13118,"ĠAqu":13119,"Ġerleichtern":13120,"ĠWÃ¼nsche":13121,"ĠBook":13122,"ĠGemeinde":13123,"Ġkostet":13124,"Ġfinished":13125,"Ġfitness":13126,"ĠCook":13127,"ĠProjekten":13128,"hÃ¤user":13129,"Ġwann":13130,"ĠVideos":13131,"aching":13132,"ĠFÃ¶rder":13133,"mÃ¤ÃŁigen":13134,"ĠbegrÃ¼ÃŁt":13135,"national":13136,"rown":13137,"vertre":13138,"Ġworksh":13139,"Ġpreis":13140,"Du":13141,"Ġcategories":13142,"Ġdefiniert":13143,"ĠLager":13144,"wÃ¼rdigkeit":13145,"Ġdidn":13146,"ĠWolf":13147,"ĠPRO":13148,"ĠStruct":13149,"ĠhinzufÃ¼gen":13150,"ĠTax":13151,"ĠVermÃ¶gen":13152,"Ġkurzfrist":13153,"Ġinput":13154,"gerÃ¤te":13155,"Ġpersonnel":13156,"Ġaccompanied":13157,"Ġvorlegen":13158,"etzte":13159,"ĠPrague":13160,"ĠBaltic":13161,"Ġfacility":13162,"Ġordnungs":13163,"liers":13164,"2004":13165,"arische":13166,"Ġwestlichen":13167,"ammeln":13168,"Ġcutting":13169,"Ġverehrte":13170,"langen":13171,"Ġlebens":13172,"ĠFeuer":13173,"ulin":13174,"klass":13175,"NS":13176,"Ġtheme":13177,"Ġjegliche":13178,"ĠBudapest":13179,"Ġnine":13180,"ulen":13181,"ĠNic":13182,"ĠKrÃ¤fte":13183,"Ġdream":13184,"ĠHD":13185,"ĠKreuz":13186,"Ġcopyright":13187,"iforn":13188,"ĠKompetenz":13189,"mÃ¤ÃŁige":13190,"ĠTaiwan":13191,"ĠPact":13192,"ĠCopenhagen":13193,"66":13194,"Ġconcluded":13195,"produkte":13196,"Ġ33":13197,"schluÃŁ":13198,"Ġsolange":13199,"ĠBeitrÃ¤ge":13200,"Ġdistingu":13201,"ĠErholung":13202,"holm":13203,"Ñĩ":13204,"rep":13205,"Ġerinnert":13206,"Ġechten":13207,"Welcome":13208,"Ġsettlement":13209,"Port":13210,"ughter":13211,"ĠVereinbarungen":13212,"Ġspectacular":13213,"ĠGrÃ¼ndung":13214,"Ġcontrolled":13215,"Ġnahezu":13216,"Ġspezifischen":13217,"Ġsad":13218,"pping":13219,"Ġprivat":13220,"Ġfab":13221,"Stud":13222,"ĠAudio":13223,"Ġgespeichert":13224,"ĠZentr":13225,"ĠSchuld":13226,"ĠGipf":13227,"Ġrestruct":13228,"ĠBrenn":13229,"Ġpursu":13230,"Ġindividuelle":13231,"ĠFleisch":13232,"ĠLtd":13233,"ĠFrÃ¼":13234,"Pol":13235,"rent":13236,"ĠSemin":13237,"ĠZypern":13238,"Sow":13239,"iences":13240,"Ġcommittees":13241,"Before":13242,"Ġsah":13243,"Ġangemessene":13244,"ĠbemÃ¼hen":13245,"mens":13246,"teilungen":13247,"hips":13248,"Strategie":13249,"Mark":13250,"ĠEinwohner":13251,"trans":13252,"ĠSpazier":13253,"ĠOrte":13254,"IDS":13255,"ĠÃ¼brigens":13256,"Ġfertig":13257,"techn":13258,"ulpt":13259,"Ġtermin":13260,"Ġdocumentation":13261,"ĠhÃ¶heren":13262,"ĠMode":13263,"usse":13264,"Ġlounge":13265,"Ġbreit":13266,"fragt":13267,"Ã¡s":13268,"Ġflag":13269,"ĠZiffer":13270,"ĠBalkon":13271,"Ġraw":13272,"Ġawarded":13273,"Ġheating":13274,"ĠAndre":13275,"Ġsmooth":13276,"Ġcitizen":13277,"Ġfilms":13278,"cepts":13279,"arters":13280,"ifest":13281,"Ġeffectiveness":13282,"Ġbeschleun":13283,"Ġreplaced":13284,"Ġdefinitely":13285,"ameters":13286,"Ġplenty":13287,"Ġconfer":13288,"Ġtar":13289,"Ġnights":13290,"Ġongoing":13291,"ĠEuropol":13292,"Ġnachzu":13293,"immungs":13294,"Ġheutige":13295,"Ġoccasions":13296,"ĠMexico":13297,"Ġbehaviour":13298,"ĠKamera":13299,"ĠWord":13300,"Ġprinting":13301,"chnung":13302,"Ġresistance":13303,"ĠVerÃ¶ffentlichung":13304,"ĠThat":13305,"Ġexplicit":13306,"ĠWerbung":13307,"Ġautonom":13308,"usehen":13309,"ativer":13310,"ĠIV":13311,"ĠVorgehen":13312,"ĠSchweizer":13313,"ĠFriday":13314,"Ġera":13315,"Ġfoundation":13316,"ĠProfession":13317,"ĠAgricult":13318,"Ġimmigrants":13319,"ĠMaastricht":13320,"ĠWC":13321,"liegt":13322,"Ġcarbon":13323,"ĠFreit":13324,"nitten":13325,"Ġtickets":13326,"ifizieren":13327,"ĠKas":13328,"ĠBetr":13329,"Ġtrafficking":13330,"ĠRec":13331,"Ġeducational":13332,"Vis":13333,"wege":13334,"ignet":13335,"Ġminorities":13336,"Ġspeaker":13337,"apie":13338,"}})":13339,"bleme":13340,"ĠIdentitÃ¤t":13341,"ĠProtection":13342,"pap":13343,"orter":13344,"urlaub":13345,"ĠÃ¼berras":13346,"gerufen":13347,"ĠKonzer":13348,"ĠVerbindungen":13349,"Ġrecorded":13350,"Ġpassenger":13351,"BA":13352,"durch":13353,"Ġrational":13354,"Ġframe":13355,"ĠNetwork":13356,"ĠSlovak":13357,"ĠGesellschaften":13358,"ĠAuÃŁenpolitik":13359,"Ġverdient":13360,"sieht":13361,"Ġwoman":13362,"irs":13363,"Ġbestehende":13364,"ĠWebseiten":13365,"ĠBÃ¶":13366,"Ġstreng":13367,"Ġcrimes":13368,"herr":13369,"ĠpalÃ¤stinens":13370,"Verb":13371,"ĠAP":13372,"Ġeingere":13373,"wirtschafts":13374,"ĠNaz":13375,"Ġfem":13376,"1999":13377,"85":13378,"DER":13379,"ĠKat":13380,"demark":13381,"Ġspiel":13382,"Ġcycle":13383,"Ġtackle":13384,"Ġverringern":13385,"ĠGames":13386,"beziehungen":13387,"Ġverbind":13388,"klusive":13389,"Ġneun":13390,"schaffung":13391,"ĠMobilitÃ¤t":13392,"Ġassume":13393,"Ġbilater":13394,"ĠgrundsÃ¤tzlich":13395,"ĠElect":13396,"Ġprosper":13397,"ĠOffen":13398,"Ġusual":13399,"ĠFernseh":13400,"COM":13401,"ĠCamping":13402,"Ġice":13403,"ĠGepÃ¤ck":13404,"Ġgegebenen":13405,"ĠBoot":13406,"ĠSubsidiar":13407,"77":13408,"kter":13409,"Ġconstitution":13410,"ĠUngarn":13411,"Ġbehalten":13412,"Ġvirtual":13413,"emble":13414,"ĠÐ½":13415,"Ġcorruption":13416,"ĠMilch":13417,"Ġprest":13418,"ĠFormat":13419,"Ġmanufacturer":13420,"ĠKommunikations":13421,"Ġberechtigt":13422,"Ġcompetent":13423,"Ġplen":13424,"ĠZwecke":13425,"hÃ¤ngen":13426,"athol":13427,"Ġverurteilt":13428,"Ġfirms":13429,"ĠOR":13430,"ĠPrin":13431,"Ġcompatible":13432,"Ġrespected":13433,"oden":13434,"Dadurch":13435,"agg":13436,"Through":13437,"ĠPartners":13438,"kommunik":13439,"Ġarrived":13440,"ĠBord":13441,"ĠBars":13442,"Ġadopting":13443,"Amer":13444,"oche":13445,"Instead":13446,"ĠgewÃ¤hrt":13447,"Ä±":13448,"Ġroutes":13449,"ĠWei":13450,"Ġnunmehr":13451,"Applause":13452,"ĠProvinz":13453,"Ġdesired":13454,"Ġweekend":13455,"Ġconfiguration":13456,"ĠVerpack":13457,"Ġeinfacher":13458,"ĠPalÃ¤stinens":13459,"Ġoblige":13460,"ĠTarif":13461,"ĠbeschÃ¤ftigen":13462,"Ġforg":13463,"ĠLuf":13464,"ĠWegen":13465,"Ġdeclared":13466,"Ġimposed":13467,"Ġprofile":13468,"ĠBeam":13469,"xy":13470,"bekÃ¤mpfung":13471,"teils":13472,"Ġovercome":13473,"ĠBesonder":13474,"Ġdein":13475,"asy":13476,"Ġped":13477,"Ġproven":13478,"useums":13479,"raf":13480,"vertrag":13481,"Ġseas":13482,"Ġminister":13483,"Ġmittler":13484,"ĠOptim":13485,"Ġthr":13486,"Ġvorzu":13487,"Ġverbinden":13488,"Ġorganisieren":13489,"ardo":13490,"ammt":13491,"Ġeinheitlichen":13492,"ĠGesprÃ¤che":13493,"Ġshares":13494,"Ġtransactions":13495,"ĠFranz":13496,"Ġrechtlichen":13497,"Ġdiscre":13498,"ĠAktual":13499,"Take":13500,"itra":13501,"ĠMarktes":13502,"ĠSMEs":13503,"ultural":13504,"Ġgespielt":13505,"Ġfacts":13506,"Ġsugar":13507,"nex":13508,"ĠPolitiken":13509,"Ġscheme":13510,"ĠZielen":13511,"Free":13512,"ĠLiter":13513,"Ġappointed":13514,"mung":13515,"ĠVerbreitung":13516,"ockt":13517,"Ġreplace":13518,"Ġbeliebt":13519,"Ġcontaining":13520,"Ġjudicial":13521,"ĠChancen":13522,"technolog":13523,"Ġrapidly":13524,"ĠhÃ¶chst":13525,"Ġcenturies":13526,"ĠIsraeli":13527,"Ġsending":13528,"Ġlicens":13529,"oub":13530,"zent":13531,"Ġvorstellen":13532,"Ġcorrectly":13533,"Ġersetzt":13534,"ĠSymbol":13535,"Ġmilk":13536,"Bl":13537,"ĠAnschluss":13538,"ĠInvestitions":13539,"Ġchinesischen":13540,"Ġsubsidiarity":13541,"Ġletztlich":13542,"comp":13543,"ĠWart":13544,"Ġenjoyed":13545,"Ġtraditionelle":13546,"Ġmaritime":13547,"Ġmanager":13548,"Ġruhig":13549,"ĠRent":13550,"Ġjenen":13551,"Ã¼hrt":13552,"alerie":13553,"Ġinj":13554,"Ġerweiter":13555,"ĠSpecial":13556,"Ã´tel":13557,"ĠUR":13558,"ĠAsien":13559,"TatsÃ¤chlich":13560,"Ġgallery":13561,"ĠPreisen":13562,"ĠbekrÃ¤ft":13563,"EE":13564,"Ã¶rter":13565,"ĠTraining":13566,"Ġdestruction":13567,"glichkeit":13568,"Beifall":13569,"freien":13570,"Ġ1970":13571,"Phone":13572,"ĠUs":13573,"agent":13574,"2007":13575,"ĠMax":13576,"Ġpossibly":13577,"zneimit":13578,"bro":13579,"ĠiP":13580,"Ġprofessionals":13581,"Ġsud":13582,"ĠThomas":13583,"Ġcertific":13584,"Ġforum":13585,"Ġconditioning":13586,"bach":13587,"ĠRezeption":13588,"Ġfunctioning":13589,"Jedes":13590,"ĠMikro":13591,"ĠNos":13592,"Ġletzter":13593,"Ġhundred":13594,"ĠSorgen":13595,"Ġalcohol":13596,"ained":13597,"ĠHostel":13598,"Ġsatisfied":13599,"Sc":13600,"Ġsit":13601,"ĠSerie":13602,"Ġluxurious":13603,"Ġgestaltet":13604,"Ġlabe":13605,"iki":13606,"Ġvorhandenen":13607,"dauer":13608,"ĠZert":13609,"town":13610,"rain":13611,"Ġassets":13612,"Ġinstallieren":13613,"anw":13614,"Ġfuer":13615,"ila":13616,"Ġdivision":13617,"ĠGefahren":13618,"Ġinflation":13619,"Ġchannel":13620,"ĠEnergien":13621,"ĠArgument":13622,"ĠRespekt":13623,"Ġrul":13624,"ĠLegal":13625,"Ġcredibility":13626,"ĠerlÃ¤ut":13627,"Ġcourts":13628,"Ġentscheidende":13629,"ĠunverzÃ¼glich":13630,"ĠDenk":13631,"ĠJa":13632,"Ġindividuellen":13633,"ursday":13634,"ĠAuthor":13635,"Ġuncertain":13636,"Russ":13637,"ulich":13638,"Ġerfolgreiche":13639,"Ġlots":13640,"yside":13641,"Ġtheoret":13642,"ĠER":13643,"ernel":13644,"ĠMedik":13645,"Ġglobalisation":13646,"Ġstehenden":13647,"Ġhorizont":13648,"ĠBesorgnis":13649,"Ġberuht":13650,"IK":13651,"jan":13652,"tein":13653,"ĠKomponenten":13654,"Ġconsent":13655,"Ġdied":13656,"Ġisrael":13657,"Ġverwirk":13658,"Ġsen":13659,"Ġthousand":13660,"Daten":13661,"IX":13662,"Ġadults":13663,"ĠShop":13664,"Their":13665,"ĠAbkommens":13666,"Ġrental":13667,"ĠBrowser":13668,"Commissioner":13669,"gess":13670,"wertet":13671,"Cons":13672,"Ġdign":13673,"Ġdiscip":13674,"ĠFreunden":13675,"Ġtransatlant":13676,"Ġflood":13677,"ĠPage":13678,"Ġpartly":13679,"Ġmagnificent":13680,"Tr":13681,"ĠWerke":13682,"ĠVerlust":13683,"Ġstronger":13684,"Whether":13685,"unications":13686,"Ġrechtzeit":13687,"ĠRechnungshof":13688,"luss":13689,"Ã¼ne":13690,"ĠLi":13691,"ĠGericht":13692,"Noch":13693,"cho":13694,"ĠMem":13695,"ĠFac":13696,"ĠRen":13697,"Ġmiles":13698,"ĠAnre":13699,"ĠBetrag":13700,"Ġaussprechen":13701,"behandlung":13702,"Ġconsidering":13703,"mir":13704,"ĠFerr":13705,"uchs":13706,"acks":13707,"ĠWerkzeug":13708,"Ġkamen":13709,"Ġsuppliers":13710,"Ġklaren":13711,"ĠRoad":13712,"CP":13713,"Ġtaxation":13714,"Ġconstitutional":13715,"imbabwe":13716,"lehnung":13717,"ĠAD":13718,"Ã¼ndete":13719,"gelÃ¶st":13720,"Ġaddresses":13721,"ju":13722,"etheless":13723,"ĠursprÃ¼nglich":13724,"ĠTO":13725,"uben":13726,"marquis":13727,"Ġpopul":13728,"Ġsuspend":13729,"Ġslightly":13730,"ĠschlÃ¤gt":13731,"ĠdÃ¼rfte":13732,"estra":13733,"Dire":13734,"gested":13735,"ĠBedien":13736,"Ġdistributed":13737,"94":13738,"ographic":13739,"Ġpreparing":13740,"Ġfehlt":13741,"Ġunfair":13742,"Ġdiagn":13743,"ĠStÃ¤dten":13744,"Ġjener":13745,"EX":13746,"ĠPR":13747,"ĠMitarbeitern":13748,"ĠZÃ¼r":13749,"ĠSki":13750,"while":13751,"teln":13752,"Ġattract":13753,"Ġsurf":13754,"Ġeastern":13755,"ĠVerlauf":13756,"Ġbestimmter":13757,"erts":13758,"orie":13759,"ivalent":13760,"Ġwiederholen":13761,"NA":13762,"Ġproposes":13763,"Ġangewand":13764,"ĠDonner":13765,"ville":13766,"ĠErzeugnisse":13767,"Ġangegebenen":13768,"Ġidentified":13769,"ĠSozialdem":13770,"zut":13771,"ĠRechtsstaat":13772,"Ġzusammenarbeiten":13773,"Ġformed":13774,"Ġextraordinary":13775,"ildren":13776,"Ġreduzieren":13777,"ĠNorthern":13778,"dienste":13779,"Ġcoal":13780,"ĠUntersuchungen":13781,"Car":13782,"aling":13783,"Ġluxuri":13784,"ĠPay":13785,"ziele":13786,"ĠKapitel":13787,"Ġencouraging":13788,"ĠverstÃ¤rken":13789,"ĠSektoren":13790,"vi":13791,"Ġexit":13792,"rates":13793,"stellungs":13794,"otic":13795,"Ġplays":13796,"ĠSpaÃŁ":13797,"Ġeingereicht":13798,"ĠVict":13799,"ĠIndian":13800,"Ġbetreffend":13801,"Ġsuit":13802,"ĠSar":13803,"Ġsubstance":13804,"athem":13805,"ĠBrand":13806,"wirkt":13807,"wÃ¤hlen":13808,"Ġvari":13809,"ÐµÐ½":13810,"Ġ2012":13811,"Ġverkaufen":13812,"ĠVorstellung":13813,"ĠBalkans":13814,"betrieb":13815,"Ġappeared":13816,"Ġbritische":13817,"Ġplenary":13818,"ĠBetracht":13819,"Ġbright":13820,"ĠNiger":13821,"ipt":13822,"ĠUrheber":13823,"ĠAuge":13824,"ĠTochter":13825,"Ġbrut":13826,"rical":13827,"Ġroads":13828,"Äĩ":13829,"ĠKriegs":13830,"informationen":13831,"regeln":13832,"ĠUSS":13833,"Ġproviders":13834,"ĠgroÃŁzÃ¼g":13835,"ĠMÃ¤nnern":13836,"ĠOptionen":13837,"Ġarmy":13838,"ĠSalzburg":13839,"ĠOpposition":13840,"Don":13841,"Ġ700":13842,"ĠVietnam":13843,"ĠÃ¤uÃŁern":13844,"waffen":13845,"Ġinclusion":13846,"ĠBelgium":13847,"ĠHungary":13848,"Ġerhielt":13849,"ieller":13850,"ĠSche":13851,"TM":13852,"ĠBek":13853,"ĠKontrollen":13854,"ĠKriminal":13855,"Ġresolved":13856,"ĠFair":13857,"ĠVersand":13858,"ĠAbhÃ¤ng":13859,"amo":13860,"ĠInfl":13861,"zentren":13862,"anke":13863,"Ġdeposit":13864,"prene":13865,"gener":13866,"idet":13867,"ĠMichel":13868,"ĠKaffee":13869,"bi":13870,"ĠCharta":13871,"strafe":13872,"ĠTsch":13873,"werken":13874,"ĠProgrammen":13875,"ĠKopenhagen":13876,"Ġvorbereitet":13877,"ĠChair":13878,"Ġamen":13879,"kehrt":13880,"ĠDetail":13881,"Ġeuros":13882,"Ġhonest":13883,"ademy":13884,"ĠBemerkung":13885,"ĠQuark":13886,"ĠDipl":13887,"ĠSchlussfolgerungen":13888,"Perhaps":13889,"Ġverbesser":13890,"Ġempfangen":13891,"Ġrussischen":13892,"ĠEZ":13893,"ĠLuc":13894,"ĠKonsult":13895,"bung":13896,"zonen":13897,"ĠSatz":13898,"Kann":13899,"ÃŃn":13900,"Ġduties":13901,"dorf":13902,"Ġeveryday":13903,"Ġensures":13904,"Ġerfolgreichen":13905,"erin":13906,"ĠAusmaÃŁ":13907,"Ġnahm":13908,"site":13909,"Ġunw":13910,"ĠMalta":13911,"Ġstil":13912,"ĠMoz":13913,"Press":13914,"Ġvieles":13915,"Ġartistic":13916,"ĠDal":13917,"Ġcompos":13918,"Ġsensible":13919,"gÃ¤nger":13920,"ĠValley":13921,"lichten":13922,"ĠPlug":13923,"Ð·":13924,"Ġmusical":13925,"ĠGaza":13926,"Best":13927,"ĠHinweis":13928,"Ġfunctional":13929,"Ġdomain":13930,"Ġconcepts":13931,"ĠVern":13932,"ĠAlpen":13933,"ĠerÃ¶ff":13934,"ĠMrd":13935,"Ġsor":13936,"ianz":13937,"ĠSoviet":13938,"ĠDefiz":13939,"ĠBereitstellung":13940,"spartner":13941,"Ġnutz":13942,"Ġvermitteln":13943,"Ġdirector":13944,"Ġpartial":13945,"Ġwestern":13946,"unger":13947,"Ġauseinander":13948,"Check":13949,"ĠWesent":13950,"idad":13951,"Ġtoba":13952,"Ġactively":13953,"ĠKu":13954,"bereiten":13955,"programme":13956,
[...]
