#version: 0.2
e n
e r
c h
Ġ d
e i
u n
i e
s t
i n
a n
e s
i ch
o n
ei n
Ġd ie
Ġ un
Ġ w
Ã ¼
Ġ s
Ġ a
un g
Ã ¤
g e
Ġd er
s ch
Ġun d
t e
Ġ S
t i
Ġ v
o r
Ġ ein
l l
a r
t en
a s
Ġ b
Ġ z
Ġ m
i t
u r
Ġ i
Ġ A
g en
u s
Ġ in
e m
h r
a l
d en
Ġ n
d er
Ġ B
Ġ E
Ġ f
i r
Ġ h
t er
r a
Ġ P
Ġ M
Ã ¶
Ġz u
l ich
u f
Ġ K
e t
Ã¼ r
e l
Ġ F
a t
m m
Ġ k
Ġd as
ei t
Ġ G
i s
Ġd en
Ġ V
b er
Ġ R
Ġ g
r o
i sch
Ġv on
i er
d e
Ġ ge
ich t
Ã Ł
Ġ H
Ġ W
Ġ D
Ġ I
Ġ an
Ġw ir
ti on
b en
en t
Ġ er
u m
Ġi st
r e
Ġ T
Ġa uf
Ġf Ã¼r
o l
a ch
Ġ L
u ch
e h
s en
Ġv er
a m
Ġm it
i g
c k
Ġd es
s e
ĠV er
an d
s er
Ġb e
e ll
Ġ U
ung en
Ġ Z
Ġ l
u t
n en
f t
ei ch
s i
Ġein e
Ġ o
Ġs o
i l
Ġw er
Ġn icht
Ġi m
in d
o p
s p
isch en
Ã¼ ber
D ie
l e
Ġs ich
Ã¤ n
o mm
k t
f f
Ġwer den
a h
Ġ N
Ġd em
Ġ p
Ġdas s
l s
ĠS ie
o m
a tion
Ġa us
ĠS t
ĠI n
Ġ t
l a
a hr
Ġ es
Ġ Ã¼ber
an n
ĠA n
r i
e hr
ĠR e
e u
Ġ st
i en
Ġa uch
st en
Ġd a
ur op
Ġ C
et z
r ei
b e
g t
m en
ung s
Ġ um
o ch
Ġh a
Ġs ind
ll e
sch a
Ġ J
ĠU n
ĠS ch
Ġ 1
r Ã¤
Ġv or
Ġwir d
er n
w ei
es ch
Ġa ls
h al
Ġ j
Ã¶ n
Ġs ch
Ġb ei
v er
ĠB e
Ġ (
Ġw ie
en d
â Ģ
ie l
l ie
ti g
ĠP ro
0 0
or t
Ġ 2
en n
Ġ ich
Ġh at
Ġs ein
ei l
a u
scha ft
Ġo der
Ã¤ t
Ġdie s
ĠE n
Ġz ur
Ġ e
z u
ur ch
in g
ĠE urop
ter n
a us
h e
te l
un d
Ġha ben
Ġs ie
er r
i mm
lich en
st ell
ĠE r
Ġ -
Ġ O
Ġ ent
Ġein er
ĠA us
ĠB er
Ġi hr
si on
isch e
Ġk Ã¶n
a b
i on
r Ã¼
u l
te t
f or
Ġun ser
ĠA r
o t
g er
f Ã¼
der n
a ten
sch en
i k
ch t
i ck
o s
z en
e d
ei ten
h eit
Ġn ach
Ġein en
Ġun ter
st a
k eit
Ã¤ r
ll en
an g
i ti
Ġ Ã
r u
us s
el t
ĠM it
i gen
ĠK omm
st e
Ġd urch
ĠP ar
w er
Ġw ur
ti v
ĠkÃ¶n nen
o h
lich e
ĠE in
an z
D as
Ġd ar
omm en
ĠKomm is
r ie
ĠJ ahr
n e
b l
ĠF ra
ĠG e
Ġm Ã¶
eh en
a g
an t
Ã¶ r
Ġ âĢ
Ġzu m
Ġein em
a d
b eit
ein e
ier en
g lich
ĠV or
u ÃŁ
e st
ch te
p f
ĠEurop Ã¤
I ch
ier t
. .
ĠEn t
r eich
Ġa ll
Ġun s
ĠS p
k tion
Ġk ann
ch en
Ġdie se
Ã¼ s
k en
Ġn ur
b ar
d u
i ge
Ġan der
ol iti
a ll
i st
ĠA b
Ã¼ n
Ġa b
ah l
ei ter
ff en
g es
a mm
W ir
ge b
rÃ¤ si
o k
ch e
Ġw ar
b t
a uf
rÃ¤si den
Ġdie ser
ĠI hr
eh men
ĠKommis sion
h en
ĠK on
Ġn eu
Ã¤ hr
ier ung
t ra
r it
I n
o g
f en
r und
Ġb er
Ġda ÃŁ
er s
z i
Ġn och
Ã¼ t
Ġ re
l ei
Ġs p
ĠH o
r an
n is
Ã¼ ck
er en
ĠH err
rÃ¤siden t
ut z
it Ã¤t
al en
Ġwur de
Ġa m
e g
i c
l am
D er
Ġm ehr
Ġso ll
ge l
Ã¤ h
Ġ "
o ll
ĠA uf
Ġa ber
g lie
n er
w ick
Ġm Ã¼s
u g
Ġw enn
ti gen
a ge
es s
Ġm an
ĠM a
for m
st imm
l eich
or d
er t
Ġd e
Ġs ehr
ĠmÃ¼s sen
as sen
z e
p p
h t
w ie
i ll
E s
n ah
Ġ c
Ġz w
lam ent
m a
l in
m e
etz t
ĠP rÃ¤sident
Ġb is
a k
Ġb es
f ahr
e kt
amm en
ĠPar lament
i z
fÃ¼ hr
al e
o b
Ġg es
Ġ r
q u
ĠMit glie
e k
us ammen
ro ÃŁ
Ġh in
Ġdies em
Ġ2 00
ĠUn ion
t schaft
Ġw eiter
Ġge gen
at z
as s
Ġw as
m it
s am
Ġ gen
w end
ĠM en
ĠAr beit
ĠEuropÃ¤ ischen
Ã¤n d
l ung
un den
f ol
ĠU m
ĠRe g
ach t
h nen
Ġa lle
on der
sch e
Ġge w
e ben
sch ie
o lle
lie ÃŁ
v or
g ra
Ġb et
st em
p l
ation en
d i
ar t
Ġk on
Ġge m
hal ten
e b
ĠmÃ¶ chte
l Ã¤
al t
ell en
Ã¤ l
ch n
ei gen
hal t
d em
Ġk l
y stem
r in
ich tig
ľ ber
ĠZ eit
k ommen
ĠUn ter
ĠMitglie d
Ġh ier
ĠG es
urop Ã¤
Ã¼ hr
E in
Ġein es
ĠR at
ti ge
i bt
l and
Ġ 3
a p
g an
h er
Ġj e
ĠE U
Ġv om
ĠâĢ ĵ
m al
st Ã¼t
r en
a st
Ġg roÃŁ
z ie
h a
er k
Ġihr e
in den
h o
Ġl ie
ĠHo tel
Ġso wie
b es
ĠF or
Ã¤ ch
ĠMen schen
Ġ1 9
p ro
Ġe uropÃ¤
ig keit
Ġz wei
Ġdies es
Ġh er
u b
t eil
ich er
Ġj ed
Ã¤n der
oliti k
Ġg ibt
ĠBer icht
ĠÃ ľber
Ġ et
Ġw o
oh l
p t
ĠW ir
hal b
Â ł
w ir
k l
mm er
f ten
il d
bl em
Ġbe st
ie le
sta aten
ĠL and
Ġv iel
n ung
Ġzw ischen
ĠD ie
U n
Ã¶ glich
ĠM ar
b st
l an
a ti
ĠEnt wick
s s
Ġm uss
ein en
er e
am it
l os
and el
Ġunser e
s etz
w ar
an k
Ġk eine
Ġber eit
b ei
gra mm
Ġb ie
Ġaus ge
a gen
Ġbe g
ra uch
Ġan ge
u st
esch Ã¤
s icht
ĠFra u
eu te
ĠI hnen
ach en
g ung
a tiv
o ur
.. .
ĠC h
i d
Ġs on
et t
S ie
Ã¶ ff
Ġp ro
Ġander en
ĠRe cht
eh t
ĠT e
z eu
st at
ĠG rund
ĠO r
Ġt he
tern ehmen
ĠH aus
ĠMitglied staaten
for der
r Ã¶
ge ben
Ġbe f
ent r
ch ten
gen d
o v
i v
it u
is sen
ĠD e
f e
k eiten
el bst
o w
a te
isch er
Ġi mmer
wei se
ĠPro du
ĠZ usammen
ĠÃ Ħ
g esch
uÃŁ er
sch lieÃŁ
stell en
un kt
ĠPro blem
imm er
w e
g a
ig er
in anz
Ġd ann
ei d
ĠEurop a
k te
am en
l er
l en
ĠVor sch
om p
ĠF l
o d
Ġ ,
Ġin s
st er
Ġdie sen
ĠW elt
Ġ .
âĢ ľ
nah men
Ġd amit
Ġwie der
ĠâĢ ŀ
rit t
g ie
tra g
Ġein z
ĠBer eich
ĠB Ã¼r
Ġwur den
le gen
l i
c e
Ġg anz
en den
stell t
Ġg esch
ĠIn form
Ã¶ s
n der
tern ation
ar beit
Ġ eigen
d ing
z ung
in nen
f er
Ġ 5
icher heit
ĠVer b
z eich
ar d
ĠZ u
Ã¤ m
Q u
s el
p er
st Ã¤nd
Ã¤n dern
ra g
re chen
W enn
ĠS o
Ġneu e
Ġw ichtig
la g
schie den
Ġ 4
Ġunser er
ell e
ĠH er
h ne
t ur
at s
ĠA l
w ort
z eit
Ġm ein
i a
r icht
Ġha be
Ã ©
Ġson dern
ÃŁ en
ol og
I m
fahr en
ein sam
rÃ¼ n
ĠGe b
Ġsein e
in der
Ġjed och
ers on
m ent
s atz
al is
ĠMa ÃŁ
Ġp oliti
ĠEuropÃ¤ ische
ra gen
reich en
z t
mit tel
ti k
ĠS te
l o
s k
m in
l uss
f Ã¼r
) .
Ġet w
in n
Ġw Ã¼r
Ġ Qu
f ach
ru ck
Ġh eute
la gen
m er
on t
Ġg leich
la u
ĠG em
Ġo b
z ei
M it
er v
Ġw en
o sten
Ġan d
rÃ¶ ÃŁ
Ġg er
es sen
u ten
s uch
ĠSt a
Ã¤ re
Die se
ĠT h
ĠK olle
ĠIhr e
Ġbereit s
st and
ĠUn ternehmen
ĠB et
at t
ei st
Ġs elbst
ok ra
k ehr
H err
k e
Ġm ich
Die s
f all
Ġ en
i m
lich er
ĠÃĦ nder
tion en
la ge
Ġsoll te
al itÃ¤t
Ġw el
ĠEntwick lung
Ġunter stÃ¼t
ĠT eil
Ġihr er
ei te
Ġf Ã¼hr
n et
k tiv
or den
ĠeuropÃ¤ ischen
Ġneu en
o ff
ĠSt ra
Ġo hne
Ġver b
Ġ2 0
Ġe x
stell ung
m us
el d
ĠL eben
ĠFra ge
ind et
ĠJahr en
Ġander e
Ã¶ff ent
ge m
Ġden n
ier te
Ġin ternation
Ġf est
ĠD aten
Ã¤l t
ĠSt ad
Ġden en
f ern
ck en
Ġsoll ten
t re
ĠR icht
n t
Ġf inden
or en
nah me
Ġgem einsam
at ur
ĠmÃ¶ glich
nis se
i o
Ġver schieden
ru pp
ĠIn ter
ĠS icherheit
Ġf or
E r
onder e
ĠBÃ¼r ger
Ã¤hr end
ĠM in
es se
z ahl
ĠB ei
h in
kt ur
n te
Ġs ol
lei st
o si
ĠS e
) ,
ar b
ti gt
Ġbie tet
w ohl
el e
ĠStad t
un ft
k er
Ã¼n f
un ktion
Ġda zu
ti eren
ich te
is k
Ã¤n g
ier ten
Ġent sp
ĠT ag
Ġm achen
Ġlie gt
Ġa llen
a de
an der
ĠWir tschaft
Ġw eil
h Ã¶r
is s
Ġbe k
ĠH in
Ġall er
ĠKon t
ah men
Ġv iele
w elt
Ġo f
Ã¤ ÃŁ
ĠN ach
e ch
Ġl etz
un der
Ġsein er
h n
ei den
ĠP erson
ĠMit tel
Ġdar auf
ig ung
ei se
ĠM Ã¶glich
i al
au pt
st r
al ten
wer t
m ar
w or
zu g
Ġj etzt
ĠPar t
Ġb en
ien st
Ġb eh
rei s
ah er
um en
Ġg rÃ¶ÃŁ
Ġsich er
ic e
l ungen
gan is
Ġein ge
ĠL i
Ġk ein
s ar
Ġv oll
u d
ĠR ahmen
Ġge f
ĠTh em
Ġge ht
ul tur
rin gen
Ġge b
a y
ann t
at Ã¼r
Ġwir k
Ġsch on
ĠMaÃŁ nahmen
Ġein fach
f l
ĠPro gramm
ion en
Ġe ben
Ġa r
zi al
ĠL age
los sen
ein schaft
o ten
Ġein ige
ĠW eb
sp iel
Ġda fÃ¼r
k unft
Ġg ut
ungs ant
es en
ĠS ystem
ĠInform ationen
ti ert
g ar
el n
ĠVer ein
ĠF inanz
ĠHerr n
ĠU S
t s
ĠSt and
ĠB es
u te
a ffen
ot wend
ĠJahr e
h Ã¤lt
a c
fol g
Ġzur Ã¼ck
ĠAus sch
b au
h eiten
Ġ 6
Ã¶ l
g rund
it z
ti schen
Ġall em
Ġihr en
kl Ã¤r
s o
r is
r Ã¤n
A n
k s
lich keit
ĠKommis sar
u er
bes ser
Ã¤ ten
v en
Ã¼ h
Ġ te
in e
ĠE x
Ġm eine
ich ten
Ġn un
Ġt o
setz ung
Ġz usammen
ĠM on
eich t
Ġde ut
Ġm ir
ie t
sch eid
Ġd ir
bes ondere
Ġb in
an ge
B ei
Ġb esch
gen ommen
p unkt
Ġbes onder
Ġwo llen
fÃ¼hr t
Ġunser en
al er
ant wort
ĠE ur
an den
Ġver fÃ¼
ar en
ru ktur
as ser
o gen
Ġm o
ĠGe w
g leich
i te
ĠwÃ¼r de
ation s
re cht
Ġa l
ĠZ iel
f te
un de
sp ro
on d
re u
ĠZ immer
a ut
ri v
lich t
ĠParlament s
er gie
ei ÃŁ
r em
o de
ich ter
a um
ĠB l
a v
Ġs eit
ar k
ah n
y p
st itu
Ġst ehen
Ġw Ã¤hrend
Ġs agen
ĠP l
N ach
Ġetw as
ĠG esch
de ut
stimm ung
ĠVorsch lag
gan gen
it te
Ġw issen
g r
ord nung
Ġd och
ĠA ut
ĠÃ ĸ
z w
wer b
Ġd rei
ek te
lin ie
Ġbe stimm
an ken
Ġer sten
f ra
ĠB ild
ra che
Ġer m
ie der
k on
Ġf ol
h and
g ang
Ġver st
ĠM e
ĠG er
eschÃ¤ ft
f ft
Ġins besondere
scha ften
Ġk ommen
Ġer halten
ĠRecht s
Ġsch n
rÃ¤ ge
atÃ¼r lich
o st
ĠG en
stÃ¼t zung
ĠF all
am il
en de
ran k
Ġk omm
a gt
Ġein mal
ĠL Ã¤nder
ĠN amen
Ġa uÃŁer
ĠF rei
h ol
fall s
ĠVer fÃ¼
ĠL Ã¶s
Ġ Ã¶ffent
ass ung
Ġwar en
l ungs
ut zen
Ã¤t z
oh n
f ri
Ġ19 9
il fe
S t
ĠK l
r on
ell schaft
Ġbei m
it Ã¤ten
Ġ 7
00 0
ver s
z Ã¼
ĠUm welt
1 0
ĠK unden
ĠB ar
ĠPro j
te ls
Ġletz ten
ĠB eh
ĠMar kt
Ġwir tschaft
ach e
ĠArbeit s
ĠHaus halt
ĠFor m
a kt
ĠZusammen arbeit
ge hen
A uf
Ġl assen
Ġbe de
Ġn ation
Ġals o
ĠP olitik
Ġsp e
Ein e
ĠUnter stÃ¼tzung
h Ã¶
Ġ 8
F Ã¼r
ar ten
Ġge ben
le gt
ĠAr t
alt ung
ra um
ĠGem einschaft
i sten
or gen
Ġ1 0
n eh
Ġent wick
v on
is mus
Ã¶r der
fÃ¼hr ung
ĠU r
al d
Ġum f
x t
Ġver w
Ġbest eht
ig n
Ġbes ser
Ġs ehen
uch en
ti er
war e
ĠÃĦnder ungsant
icht s
n ten
i an
ra ft
ĠEn ergie
ga be
iel en
chn olog
etz en
d ruck
V er
wend ung
g lichen
schie d
Un ser
a ck
Ġsein en
ativ e
Ġst eht
uf t
ĠL Ã¤ndern
Ġt un
kt u
k ten
ti sch
ie ll
n ehmen
zie h
ur z
le x
ĠFl ug
ga ben
ĠM ein
o u
m an
ĠM ill
ran sp
Ġge l
ĠM us
ĠH aupt
W ie
Ġh o
Ġst att
rie b
Ġ [
Ġin ter
a ff
ge w
ĠH andel
h Ã¤ng
ĠS ti
ĠI ch
s f
Ġw Ã¤re
ĠFra gen
ett be
ichter stat
ro t
Ġf rei
Ġda bei
tern et
ĠZ ug
Ġge st
Ġw ich
ĠD em
Ã¤t ze
ĠKolle gen
f iz
ĠEur o
a z
ra k
f ort
ĠDe ut
Ġge hÃ¶r
bl ick
wir tschaft
mar kt
ig t
ber eich
in a
and elt
re chte
ĠReg ierung
ĠD ienst
Ġw orden
tig ung
ar te
Ġm uÃŁ
ei sten
ei le
a il
ĠB eit
um ent
r uch
Ġd u
Ġh Ã¶
sch ri
eschÃ¤ f
ei g
ar e
sta ur
ei en
Ġw e
entr um
g ri
ĠBe deut
Ġp er
Ġre cht
und heit
Ġ qu
z ess
a ter
ra cht
Ġder en
ĠVerfÃ¼ gung
Ġbe d
ĠgroÃŁ en
Ġwel che
ob il
ding ungen
ĠG eschÃ¤ft
Ġ ch
ĠL in
S ch
rÃ¼ ck
ĠgroÃŁ e
Ġin ner
Ġer st
l t
ĠBedeut ung
s st
ĠR ei
Ġ 9
ettbe werb
ĠK om
ĠEnt scheid
i b
ĠS eite
Ġso zi
rÃ¼ h
Ã¤ d
ĠSch w
ĠE m
ĠH and
ĠEr geb
Ġje der
Ġn ie
Ġl e
as se
Ġb lei
ĠMÃ¶glich keit
E N
Ġ em
ĠSp iel
ti sche
f eren
ktion en
k auf
Ġsch w
i um
D es
F ra
ĠSch utz
ĠD as
Ġ or
off e
w eg
re ffen
un ter
Ġz ahl
Ã¼ck s
Ã¼n st
E R
ĠAn t
ge stellt
d r
Ġo ffen
b ild
i ff
am t
Ġn otwend
wir k
Ġher vor
Ġge t
v est
or g
w eit
ie s
ra t
ier ungs
ab il
ĠVer trag
Ġk om
Ġ %
Ġbie ten
la ub
p olitik
sch utz
ĠH a
re ch
Ġent fern
Ġda von
ges etzt
ĠRe gel
Ġdar Ã¼ber
Ã¶l ker
Ġ el
ĠThem a
ie ls
Ġg lau
ĠV ol
on e
iel t
Ġer forder
ĠK inder
Ã¤m pf
ĠZu kunft
z uf
eu er
ĠB esch
ĠLeben s
h ang
ĠIn ternet
Ġent sch
tik el
ris e
Ġst ellen
Ġw ill
Ġgegen Ã¼ber
Ġd aher
Ġschn ell
ĠA m
staur ant
rie den
ichterstat ter
Ġall es
uf en
ĠW eise
Ġl ang
in de
ze p
Ġb rauch
Ġst ell
Ġl a
Ġeigen en
tig keit
Ġver l
it al
ĠProblem e
rit te
gen den
enn t
Ġ ...
Ġso wohl
ĠG Ã¤
tre ten
Ġhat te
Ġi s
A ls
Ġ1 5
Ġbef indet
wei ter
Ġn Ã¤ch
ig keiten
Ġweiter e
g l
i de
b eh
ne ten
e c
ĠBei spiel
Ġer reichen
Ġpoliti schen
ho f
Ġt eil
A us
Ġmein er
ge ord
ĠIhr er
Un d
en s
ĠkÃ¶n nte
ĠW eg
ĠunterstÃ¼t zen
Ġn atÃ¼rlich
ĠD er
Ġwirk lich
zeu g
ĠFrau en
Ġbe w
ff iz
ist er
ĠW ahl
ĠM an
an ischen
ÃŁ e
P ro
ĠF ahr
Âł Âł
te m
u bl
ĠA t
Ġauf ge
o ck
t ie
Ġi hnen
ĠAussch uss
Ġbesonder s
ĠZ ahl
ben e
D a
ach ten
Ġges am
Ġverschieden en
ĠS eiten
ĠSta aten
ĠE s
ĠBe d
ein t
ĠQu alitÃ¤t
wei sen
itu ation
e w
Ġentfern t
ĠEn de
ĠK am
p h
ĠF amil
W as
i der
Ġinner halb
du st
b ung
h m
Ġh och
ĠI m
Ġd ort
tiv e
rei se
ĠFor sch
Ġviel en
ri fft
l ob
ĠF ol
wer k
ers Ã¶n
ĠR olle
ich tet
Ġgen au
Ġzw ar
re und
ding s
ĠD eb
o c
ind ung
w Ã¤h
es ent
Ġinternation alen
2 00
Ġa ktu
Ġ1 8
ig ten
U m
zi p
ĠReg ion
r and
Ġw eit
Ã¼ d
ĠmÃ¶ chten
ĠM ed
zei tig
Ġw elt
rei fen
Ã¤ u
ft ware
st ra
ï ¿
ï¿ ½
sp rache
s ystem
ĠRicht linie
Ġer n
ĠBer ichterstatter
er ien
rupp e
ĠB en
S o
ei m
ĠP h
ĠfÃ¼hr en
ĠS erv
rauch er
ĠW och
Ġd Ã¼r
ĠW asser
Ġhin aus
Ġb el
sten s
Ġdir ekt
Ġ ro
iv e
Ã¤n ger
ĠE l
ĠIhr en
w Ã¤r
rie ben
Ġgew Ã¤hr
ĠT ra
b ur
uch t
Ġre g
ĠU hr
Ã¤r en
sp olitik
ĠD isk
A uch
ĠW er
i p
ĠR es
ĠL ie
ĠF ort
ĠN utz
c en
p r
reich t
ĠR Ã¼ck
h aus
Ġkl ar
m Ã¤ÃŁ
ch er
2 0
y m
ĠW ettbewerb
z immer
ĠDeut sch
ĠF unktion
u x
di tion
ĠS u
Ġer ste
ĠeuropÃ¤ ische
A ber
ĠB o
op p
te gie
sicht lich
m erk
ĠDem okra
ra ch
ĠMein ung
ĠGe gen
il t
p rÃ¤
ĠUS A
v oll
a x
at te
ĠA u
H ier
as e
o ol
Ġeinz el
el s
ĠT err
un ehmen
sta ll
dust rie
c om
f rei
ur s
ĠG rÃ¼n
ĠAr tikel
ĠZusammen hang
on en
Ġh Ã¤t
z ogen
b eiten
uÃŁ en
ĠGes undheit
] ]
ĠVer t
Ġ y
ĠAb geord
ĠP f
age ment
v e
an gen
ativ en
Ġbei den
ĠA ll
Ġunser em
u ter
Ġkomm t
ach st
Ġan ges
ĠS ituation
reich e
Ġg ar
b et
as st
ĠGeschÃ¤ft s
rupp en
f ang
Ġ Ã¤
ĠPerson en
imm t
Ġ ra
us Ã¤tz
wei s
s w
Ġentsp rechen
ĠH ilfe
d t
Ġ on
lÃ¤ ge
Ġf inanz
ĠS ol
ĠEnt schlieÃŁ
t lich
Ã¤ uf
ie ten
ĠK li
Ġd i
p rÃ¼
n it
f assung
Ġbest ehen
ier ungen
feren z
alis ierung
in en
ĠK ultur
Ã¤ch st
teil ung
ĠKont ro
it y
Ġt ra
bar en
Ġem pf
ĠGes etz
Ġbeg rÃ¼
ĠVer antwort
lin e
ĠF ir
or e
ro ffen
Ġstell t
ĠL e
ĠS k
ein er
om e
Ġb ringen
ĠSch luss
ĠF est
ĠPrÃ¤sident in
ĠLÃ¶s ung
a in
ĠGÃ¤ ste
rei ben
st ehen
ann ten
Ġdar an
setz en
ge gen
Ġver besser
al s
eit ung
ĠN atur
ĠR o
Ġb zw
Ġver such
ĠM ehr
Ġst Ã¤r
ĠL a
ĠP reis
p art
achst um
Ã¤m lich
Ã¼ b
Ã¤n de
Ġwen iger
Ġ1 2
ĠM o
Ġg ilt
ar bei
forder ungen
Ġw ahr
Ġ '
le g
leist ungen
ĠD es
Ġges agt
m o
eit s
lich es
Ġje den
Ġn Ã¤mlich
ĠFra ktion
ĠOr t
Ġetw a
y n
ein ander
ul d
fra ge
ĠD i
ĠPart ner
ab hÃ¤ng
ĠK o
Ġin dem
s ol
Ġb itte
rit ten
ĠRe staurant
ĠD urch
Ġp ersÃ¶n
Ġg ute
ĠP ol
Ġk osten
Ġ u
Ġj a
un st
am p
r ing
Ġso gar
ar m
Ġab ge
Ġentsch eiden
Ġ[ [
l Ã¼s
ĠAn ge
an s
s ver
wend et
ĠRat es
Ġger ade
h under
u en
iell eicht
ĠK osten
osi tion
A b
sta at
ĠK Ã¼
Ġn ehmen
stimm t
ĠEr fahr
Z u
Ġk urz
rot z
ĠHo tels
ro m
ĠW or
ĠIn stitu
Ġver m
sp l
Ġer folg
sta dt
er ik
em ber
ĠProdu kte
an st
ĠEurop as
Ġer war
ĠD at
Ġi hn
Ġer sch
Ã¼n d
ĠG eld
ick en
ur e
ĠG ren
c o
Ã¤ch lich
ĠDeutsch land
Ġeben falls
v Ã¶lker
Ġi hm
ĠW e
o te
en nen
Ġ 0
Ġun ver
an zen
ĠP unkt
ĠT he
f Ã¤
zu stellen
k a
Ã ¡
ĠKli ma
Ġunter schied
Ġsein em
ri gen
Ġgem acht
ra chten
arb eiten
Ġi r
Ġ Y
Ġm eisten
Ġa k
Ġh oh
ĠT Ã¼r
ĠG roÃŁ
ĠZug ang
u tet
tra gen
Ġdes sen
g Ã¤n
sion en
ond s
ĠBe zug
ĠM al
Ġverb unden
Ġpoliti sche
Ġver sch
v i
Ġdar f
Ġge hen
ĠVer fahren
ist or
isch es
du z
Ġall gem
ver kehr
ĠM et
ĠunterstÃ¼t zt
Ġw esent
ne te
Ġ200 9
ĠT ransp
k ung
Ġa ut
it zen
geb ung
y s
si te
Dies es
s or
Des halb
an ten
ĠProj ekt
pro chen
ra f
ran s
Ġ &
ĠIn vest
ĠJahr es
on nen
Ġdar in
sch ein
Ġn ah
et te
Ġte chn
1 9
bur g
Ġ Ð
ĠVer kehr
f in
ĠSo zial
le ben
ĠRe chte
Ġglau be
Ġer z
ll t
ĠVer hand
om ati
ĠO p
Ġt h
Ã¶ st
Ġan zu
ĠB au
ĠdÃ¼r fen
Ġein igen
ĠÃ¶ffent lichen
ĠOr ganis
Ġg ern
D ar
Ã¼hr en
Ġnicht s
ĠK ap
ĠVer w
n ov
ĠMill ionen
Ġ Â
Ġsch affen
at or
ĠProdu ktion
et s
ĠSo ftware
d urch
ĠF rÃ¼h
Ġso llen
geb ot
ĠEntwick lungs
ĠMe er
al te
Ã¤ he
neh mer
a llen
ĠF il
ier e
Ġ eh
Ġmo dern
Ã¤h igkeit
schlieÃŁ lich
ei gt
Ġihr em
ĠK omp
ĠE igen
ĠGes ellschaft
ti s
ĠIn iti
Ġbrauch en
w ahl
wie sen
Ġk einen
g or
un kte
ĠB eschÃ¤f
m Ã¶glich
Ġnation alen
Ġh andelt
am e
bar e
ĠVerb raucher
ĠAus sprache
ĠB el
Ġspe zie
Ġbek annt
r es
ĠP al
utz t
z us
ar i
Ġp osi
au er
ĠB us
ĠKolle g
zie hen
ig es
sp iels
Ġ /
Ġz usÃ¤tz
re d
ot t
Ã¤ ter
ĠM Ã¤r
ĠH Ã¶
un Ã¤chst
Ġweiter hin
ei der
Ġ3 0
Ġbet rifft
ĠAb stimmung
Ġsch lieÃŁ
Ġs ei
ĠE bene
Ġer klÃ¤r
h andel
em en
ti m
A lle
Ġsch wer
p ort
ĠJahr hunder
A N
rie g
sp ruch
an ce
Ġher aus
Ġumf assen
Ġo p
Ã¤h len
Ġa ktiv
re g
Ġl eben
zeich net
ĠFort sch
M an
Ġdes halb
Ġwen ig
ĠB uch
Ġbede utet
Unser e
p or
Ġben Ã¶
Ġm acht
Ġsol che
ĠS an
d ien
a den
d rÃ¼ck
z ent
Ġdeut lich
spiels weise
ĠIn dustrie
Ġbe sten
w ach
ĠF ischer
ge legt
ubl ik
lie gen
mal s
b el
Ġein ger
zÃ¼ glich
Ġf r
ma ÃŁ
ĠW issen
Ġun be
il it
s ehen
Ġt Ã¤
Ġauf grund
Ġinter ess
zieh ungen
ĠIn str
st Ã¼ck
Ġwich tige
ĠwÃ¼r den
sch luss
ĠL eist
sch t
gesch lagen
ĠProdu kt
ĠB em
ĠA d
ĠT our
rei ten
ich tigen
Ġ end
ze pt
Ã¶r den
ro p
z lich
ĠN etz
chn ik
rin zip
ĠErgeb nis
ĠTe chnolog
Ġg rund
ĠW erk
ĠD ok
ĠS er
u e
Ġo ft
ĠUm setzung
ar f
Ġf indet
Ġp riv
ĠF rank
ĠnÃ¤ch sten
ĠMenschen rechte
e ten
Ġh el
ĠWeb site
Ġs e
ĠGeb iet
ĠServ ice
ĠAn sicht
ĠA sp
gri ff
A ll
halt ung
Ġl Ã¤
Ã¶rder ung
Ġsch Ã¶n
Die ser
ĠBes uch
ĠBe vÃ¶lker
wei ten
z er
al i
Ġa t
Ġn utzen
ck t
ĠHerr en
ĠS a
j en
ĠAb kommen
v ent
Ġkon k
ĠRicht ung
al ien
b o
umen te
ĠDemokra tie
Ġ Ã¼b
Ġp rÃ¤
ĠN Ã¤he
Ã¼r d
ĠHaushalt s
te g
ĠVer besser
Ġaller dings
ffiz ien
Ġ2 5
at ten
richt ung
ĠF ot
ver stÃ¤nd
S p
Ġv ier
r et
Ġf ort
ĠVerantwort ung
fri st
ck e
Ġh offe
la uf
pl atz
Ġge geben
u p
ĠBe dingungen
Ġz ie
ĠAn wendung
Ġgemeinsam en
es sion
wirk ungen
fol gt
I N
ĠIn sel
ĠF eh
ĠSt ruktur
Ġnotwend ig
merk sam
ĠW ert
ĠEntscheid ung
ben d
ĠN eu
ab le
C H
Ġst imm
Ġ1 4
ĠR aum
ĠgehÃ¶r t
ĠI de
Ġbei spielsweise
Ġin te
Ġje wei
Ã¼ l
ĠK unst
Ġh istor
lin ien
an te
ĠInter esse
ĠVorsch lÃ¤ge
Ġar beiten
âĢ Ŀ
a ÃŁ
Ġkon t
as si
ĠZ iele
Ġkl einen
Ġ |
Ġp ar
Ġd ank
ĠBen utz
Ġv ielleicht
ll ig
aus sch
Ġw ohl
Ġin form
Ġsozi alen
i ten
pf licht
Ġz entr
Ġent halten
Ġver wendet
d et
Ġi de
g ern
ate gor
V or
Ġsp rechen
ĠW ort
z el
Ġdem okra
ĠIhr em
ĠB as
ĠAnge legen
ĠGrund lage
ĠEm pf
ĠTag es
Ġ1 6
Ġerm Ã¶glich
ĠSte uer
ĠI s
eh m
Ð ¾
ĠA uÃŁen
em ent
Ġc on
er st
ĠD ruck
Ġbe vor
Ġpro f
ĠJ u
ll ung
ĠRei he
ĠPar k
Ġwer de
Ġer reicht
sp h
ĠT ats
ĠVer s
ĠB r
ĠW achstum
k Ã¤mpf
ĠG ol
ĠEr folg
sch er
E S
Ġber Ã¼cks
ĠEin satz
st ruktur
la den
arbeit ung
Ġh alten
gel n
ĠGen er
teil t
ĠMus ik
l assen
i vers
ĠGesch ichte
ĠStand ard
ĠG l
Ã¤t zen
ĠK at
ek ten
ĠMÃ¶glich keiten
Ġer fÃ¼
Ġ1 7
f ung
Ġg lob
ĠTe xt
ĠDeb atte
ĠC o
ĠBe g
ĠD amen
Ġh eiÃŁ
re ten
or m
ele gen
in ter
stell ungen
Ġkom pl
ĠÃ¼ber n
zei gt
Ġblei ben
ĠF rieden
Ġ X
âĢ Ļ
arb eiter
lÃ¤ ss
bild ung
Ġ us
ĠHer aus
schri ften
Fra u
mit t
it h
ĠG leich
Ġ1 1
ĠC omp
Ġvor geschlagen
ĠHin blick
abil itÃ¤t
fol gen
ĠV ort
stimm ungen
ĠEin w
Ġverschieden e
ĠhÃ¶ ch
ĠBl ick
ul t
ĠP ort
ĠP ri
ĠEr weiter
Ġf Ã¼nf
in gen
in ge
ver b
ges ehen
ĠkÃ¶n nten
Ġschw ier
mittel n
ĠA ktiv
ĠForsch ung
Ġf unktion
g reifen
Ġj en
ru h
pro du
stat t
Ã¤ um
o ber
un ik
ist ischen
ĠD u
Ġgemeinsam e
ann te
kt or
ĠverfÃ¼ gt
ĠEr klÃ¤r
h l
we gen
ĠMin uten
eh n
ĠermÃ¶glich t
R e
ĠSch ul
Ġw eiÃŁ
stat tet
us st
D urch
- ,
zi f
ĠL uft
ĠDisk us
p ar
s be
d es
Ġwelt weit
ĠStra tegie
ĠInstitu tionen
Ġ5 0
Ġhat ten
ekt or
tiv en
ĠP lan
Ġ20 10
Ġgel ten
ĠP er
el ten
ĠArbeit spl
ĠAus wirkungen
ter ial
Ġk m
Ġk omp
Ġl ange
jen igen
Ġt ats
i tion
b ank
Ġvoll stÃ¤nd
ĠW ieder
A m
ĠK raft
Ġz eigt
Ġerforder lich
" ,
ĠP rÃ¤
ungs ver
ĠIn te
Ġbis her
Ġb em
ĠAus druck
lan gen
Ġ200 8
ĠZ entrum
ri min
ĠAbgeord neten
schri ft
d ung
ĠfÃ¼hr t
ĠU N
sch lag
il der
ĠDienst leistungen
Ã¶ sen
ĠPro zess
m et
ĠReg ionen
Ġd anken
Ġgesam ten
in o
Ã¼n schen
Ġwirtschaft lichen
o llen
T O
3 0
ĠInter essen
Ġeinzel nen
T he
Ġdar um
ing s
is ierung
Ġg ere
di vi
Ġeben so
ig ht
D aher
t h
j Ã¤hr
ur f
Ġgleich zeitig
Ã¶ glichen
divi du
Ġan geb
ĠKolleg innen
Ġsp Ã¤ter
l y
rÃ¤siden ten
uss land
ĠLand es
ĠSch ritt
ĠSp ort
V on
an ische
Ġentwick elt
Ġden ke
Ġ1 00
Ġan genommen
ĠPl atz
ĠÃĦnderungsant rag
Ġf ast
bar keit
a ir
ĠN ation
gesch lossen
ĠD ial
ĠI t
au ber
ĠB innen
uÃŁer dem
ĠFamil ien
ĠD ank
ĠTats ache
ĠÃĸ ff
c a
ĠVor aus
ĠÃ¤ uÃŁer
Ã Ń
ĠH och
Ġein zu
pro gramm
Ã¤nder t
Ġver ein
b ahn
rei sen
ĠW ohn
Ġer wÃ¤h
Ġjed em
arbei tet
ĠÃĦnderungsant rÃ¤ge
ow n
Ã ³
Ġd isk
o se
ĠBereich en
ĠWirtschaft s
ĠhÃ¤t te
l Ã¤ndern
B er
ĠVerhand lungen
ar itÃ¤t
ren z
is ik
ĠC on
ĠMitglie der
ĠF Ã¤
Ġbef inden
ĠSta ats
ĠV iel
al y
ie llen
ĠâĢ ľ
ĠCh ina
Ġlie gen
i x
Ġinternation ale
Ġkon nte
kÃ¤mpf ung
ab el
f on
ra d
Ã¼ gen
ie ÃŁen
Ġs etzen
ĠG ar
ĠVer l
ĠVerein igten
ĠTÃ¼r k
stell er
ch es
Ġe ff
ord in
ĠSti mm
f el
ĠAnt wort
Ġweiter en
Ġst ar
ĠBe ziehungen
i pf
un i
Ġn eben
nit t
ĠW Ã¤hr
ĠheiÃŁ t
ed ig
ĠN icht
ĠBevÃ¶lker ung
Ġfol gen
Ġr es
Ġer hÃ¶
Ġbede uten
fol ge
n a
and lung
z entrum
omm er
ĠP riv
andel n
r eit
Ġvor h
ĠG elegen
et ten
ĠF re
is se
ĠVer sion
M ail
st re
a lle
5 0
ien en
al ter
Ġr ichtig
Ġhin ter
in ner
ĠN ew
Ġje de
Ġv Ã¶
ĠT a
richt ungen
j ahr
Ġhel fen
ĠW ind
Ġer he
ĠS Ã¼d
um s
ĠA pp
Ġver s
ich tigt
ĠEin zel
s itz
ĠO n
aff ung
ĠBeit rag
tem ber
ĠVer tra
den ken
ĠSchluss el
Ġgegen wÃ¤r
all s
Ġ200 7
ĠBet rieb
ĠVer pflicht
ĠM ode
ĠF Ã¼hr
Ġ ur
Ġge stellt
or n
ĠAuf gabe
Ð µ
ĠThem en
Ġb eit
Ġwich tigen
b in
ĠF Ã¶rderung
ĠTÃ¼rk ei
Ġm einen
anz Ã¶s
Ġunser es
an ien
ĠWeb s
ĠLi ste
Ġ1 3
hal te
Ġ rund
eich en
ent halt
Ġkl eine
ĠDial og
for men
c t
ĠKontro lle
ĠF uÃŁ
Ġp rak
ha ft
st ru
ĠR isik
teil en
ont ro
ĠErweiter ung
f lÃ¤
ĠVerb indung
un t
ĠKam pf
Ġer f
l Ã¤nder
ĠUn ivers
R O
s vor
gangen en
ĠS h
Ġge stimmt
ĠK Ã¶n
u tion
Ð °
en ten
ĠTerr or
B e
Ġ2 4
Ã¤ us
Ġaus zu
Ġg ab
z unehmen
ĠAusschuss es
ĠVol k
Ġwe gen
Ġjed es
wor ten
D och
ri ft
Ġr el
Ġbe kommen
Ġblei bt
ĠVer ordnung
ra chen
ĠAn gebot
ĠEntschlieÃŁ ung
ĠW eiter
ilit Ã¤r
ĠN ord
f ragen
S eit
ell er
Ġf reu
z entr
eh len
Ġs ag
Ġor ganis
ĠS on
i tionen
ab on
ha fen
pf lich
ĠSt u
Ġaut omati
ĠRe chn
Ġange m
tern e
la y
n ern
Ġreg ion
ĠP ak
ĠBeh Ã¶rden
Ġdurch ge
ĠAn st
sta g
p ublik
ĠO b
ĠNutz ung
Ġn e
rÃ¤ gt
ĠG eh
Ġzwei ten
fahr t
h il
Ã¶r dern
ob ei
enn ung
Ġnah e
err eich
ĠR ussland
ĠSp e
iss abon
ĠMit arbeiter
Ġw under
ĠSt rand
ig ar
ĠCh ar
ven tion
Ġg ro
Ġgern e
Ġver antwort
Ġkl ein
Ġwichtig sten
ĠAu gen
gra tion
zeu gen
Ġun abhÃ¤ng
Ġab zu
ss ystem
Ġak zep
Ġmehr ere
Ġ- ,
ĠV ide
O b
f Ã¤l
ĠIn ternation
nis sen
sp rÃ¤sident
Ġl ok
Ġge legen
ĠEn g
g liche
ĠR eise
ie lle
ĠL issabon
" .
ĠFor der
ĠSta at
A R
ges amt
er weise
st off
b ringen
Ġhin sichtlich
J e
s y
Ġg anzen
ĠN otwend
ĠM acht
Ġganz e
ĠWoch en
Ã¤n den
Ġk ultur
ĠG ruppe
neh m
ess our
d ie
ĠVerbesser ung
H o
in ne
Ġerm Ã¶glichen
Ġw obei
ĠK rise
Ġh err
Ġent hÃ¤lt
iv il
Ġnach hal
ĠF ern
l ub
A uÃŁerdem
te te
ĠAus wahl
ĠBeit ritt
ĠPro f
auf en
ge f
ser v
op er
schlieÃŁ end
f eld
ĠSicherheit s
Ã ľber
rech end
Ġge eig
ĠBinnen markt
Ġz eigen
ĠK op
ĠUr laub
Ġst ark
ĠK ir
Ġb il
rin gt
tig er
ĠInform ation
ĠFischer ei
f s
1 1
ĠGelegen heit
h end
ĠS ub
ĠSch affung
w urf
Ġir gend
Ġt rotz
g rÃ¼n
I hr
in gt
st anden
Ġer lau
ber g
ĠVer anst
I T
I S
de u
Ġder zeit
al es
k Ã¼nf
ĠR om
ken nen
on a
au sch
Ġ :
ĠBe f
leist et
ak ter
ĠFrank reich
Ġbel ie
stell e
Ġgar an
Ã¼t zen
wert ungen
Ġh eu
ĠPro t
Ġsp ielen
ĠR u
Ġtra dition
ĠJ an
sp lan
ĠJ uni
ĠvÃ¶ llig
Ġ ruh
ĠK ar
m ut
Ã¤h lt
Z um
Ã¼r f
forder t
ĠAuf enthalt
Ġm us
ĠZ ust
s ei
ch ter
z a
Ã¤ tigkeit
ĠVer wendung
ol z
ĠTe x
ĠNotwend igkeit
Ġw ith
Ġverbesser n
ment s
ĠGew alt
n ess
Un ter
t liche
ĠHer zen
ĠErgeb nisse
sp rechen
stitu tion
ĠBer lin
a ar
pro m
g n
ĠlÃ¤ sst
Ġinte gr
fÃ¼hr en
ĠA ktion
Ġer k
is sion
ĠC hr
Ġin dividu
Ã¤h n
w and
ĠF ach
ĠWoch e
ĠN acht
ĠRe form
kl us
ĠPri or
ĠVer tre
Ã¶r per
Ġverw enden
ĠverfÃ¼ gen
her e
Ġeigen e
Ġg uten
ĠAn zahl
ĠgroÃŁ er
Ġsozi ale
ĠLand wirtschaft
Ġgesch lossen
A S
ĠZeit punkt
Ġ200 0
ĠK ern
sph Ã¤re
ĠSch wei
i tel
Ġgef Ã¤hr
ĠAr ch
h ung
ahr en
ei ster
ĠF ar
Ġmein em
Ġh Ã¤uf
ĠInte gration
ĠG ast
ĠT age
1 2
ĠKon f
eil en
ri ff
verstÃ¤nd lich
Ġk Ã¼nf
ĠN ov
Ġdisk u
Ġf Ã¶rdern
ĠverfÃ¼ g
ĠDes ign
ĠB al
ĠgehÃ¶r en
ĠTe am
Ġz unÃ¤chst
spro gramm
rei bung
ow s
an a
Ġgesam te
er nen
min ister
mÃ¤ÃŁ ig
ĠS uch
ungs k
l ang
ĠLÃ¶s ungen
Ġgleich en
o od
ĠZ we
gri ffen
ĠK or
ĠIt alien
sch inen
ers eits
Ġangem essen
lei sten
ĠBeschÃ¤f tigung
ĠG u
essour cen
ĠJu gend
ich tige
ĠV is
Ġtats Ã¤chlich
ĠN e
Ġst Ã¤nd
ĠKÃ¶n ig
' s
sch w
Ã ¨
Ġvorh anden
Ġver t
Ð ¸
ĠAn fang
w w
Ġs orgen
Ġges p
Ã¶ff net
it ten
Ġw ider
edig lich
Ġein deu
o ok
E nt
ĠW ein
ra el
ĠMehr heit
ĠVol ks
be dingungen
maÃŁ nahmen
ĠFeh ler
Ġver Ã¶ffent
O N
zeu gt
pf er
ĠM Ã¤n
ab ei
aussch uss
Ġge fÃ¼hrt
ĠSte llung
ĠA ir
Ġab sol
ie d
r y
Ġverst Ã¤r
ĠErfahr ung
D enn
ok oll
Ġp l
h ilfe
ĠÃĦnder ungen
ĠKon ferenz
Ġern st
ĠA mer
ĠK rieg
b uch
ĠP ra
on s
Ġentwick eln
ĠÃ¤uÃŁer st
ri ften
Ġb as
opp el
lÃ¼s sel
Ã¤ st
qu en
ti fiz
Ġverst ehen
a is
ĠR ad
ĠEin fÃ¼hrung
urop a
s ent
or f
r ichten
stimm en
ĠN ieder
ĠLie fer
ĠgrÃ¶ÃŁ ten
it zung
ur t
und es
Ġso mit
ĠA k
ĠgewÃ¤hr leisten
un sch
b ie
ĠReg ierungen
Ã¤ te
a ktion
ĠMin ister
Ġm en
Ġhoh en
ĠL auf
ĠZ wei
c c
Ġho tel
Ġgeb racht
i ar
Ġver pflich
Ã¤u de
d aten
ĠUm gebung
ĠF erien
Ġl ediglich
Ã¼h m
Ġsag te
Ġbet eil
m b
Ġl eicht
Dar Ã¼ber
ren g
ind ust
ra tion
sp art
ĠT er
Ã¶ hn
ĠS elbst
ĠSt abilitÃ¤t
ĠP osition
an nen
Ġt ragen
Ġel ekt
ĠSch l
ĠHÃ¶ he
ĠSe p
ĠMa i
Ġander er
Ġerfolg reich
ist ische
arm on
ĠVerein bar
ur en
ĠStand punkt
ul ar
d ienst
m ehr
Ġg ra
ĠE rachten
Ġbestimm te
ĠErachten s
Ġsch le
ĠFamil ie
Ġmein es
ĠSp rache
ges sen
s on
u ar
D amit
W er
Ġausge stattet
ĠS al
et ter
ĠSt ud
ĠGes amt
Ġwirtschaft liche
ĠDiskus sion
ĠKom prom
A r
entr al
Ġver n
ger ung
di o
ĠS icht
ĠBe kÃ¤mpfung
ĠKommissar in
Ñ Ĥ
Ġ200 6
Ġb ein
ĠKomm unik
Ġzahl reiche
Â ®
ĠD inge
Ġbestimm ten
zieh ung
Ġ2 1
Ġzwei te
Ġvor gesehen
h aupt
ĠW ahr
Ġstatt f
ĠPrÃ¤sident schaft
ĠL es
ĠBer g
j ekt
Ġob wohl
vor schriften
zeu ge
lo se
v ol
z ember
ie w
ĠEin f
oll te
schlieÃŁ en
glie d
sp rÃ¼n
wert ung
ĠMa terial
ĠJ ul
ĠHandel s
Ġer hÃ¤lt
ĠFrei heit
p en
ger e
om ent
ĠauÃŁer dem
Ġ19 8
Ġent de
ĠÃľber ein
ĠOn line
se ktor
Ġneu er
ÃŁ t
indust rie
v is
ĠAktiv itÃ¤ten
hÃ¤lt nis
Ġbest Ã¤
ĠT at
Ġsch eint
ĠG ra
x is
rei b
ĠMed ien
Ġversuch en
Ġ Ã¤hn
Ġst ra
ĠI mm
an de
Ġwirk sam
Ġd el
Ġall ein
Fra ktion
ĠIniti ative
la st
ĠFortsch ritte
l Ã¼ck
ĠSch iff
ĠB ank
Ġc a
ie f
ĠFlug hafen
rÃ¤ gen
Ġsol chen
lex ib
Ġro om
ĠD ir
ĠBe stimmungen
ĠM obil
Ġer ster
wick lung
Ġbet roffen
g ren
le gung
red it
Ġh e
ach sen
Ġda durch
ĠHin ter
ĠÃĸff ent
ti en
ge ber
A T
E L
Ġgem Ã¤ÃŁ
ĠJahrhunder t
Ġs ech
ĠE ing
Ġre gel
v olle
ĠSte lle
ĠT ele
Ġeinz ige
ges ellschaft
Ġfr anzÃ¶s
ĠSt unden
ĠBe st
Ġam erik
ĠSep tember
ĠKont akt
ten si
K l
ategor ien
ĠFol gen
Ġauf genommen
un ternehmen
Ġins gesamt
ĠP unkte
te xt
mÃ¶glich keiten
ĠS or
Ġho he
ges etz
ĠComp uter
ĠA bend
er ung
ul ti
Ġver gangenen
ĠGe fahr
ĠBenutz er
Ġb ri
ĠAuf merksam
Ã¶ nen
ist r
b esch
aren z
Ġerhe b
zuf Ã¼hren
t a
st o
i llen
an lage
qu e
ĠschlieÃŁ lich
be wertungen
ut ter
Ġal ten
ĠBas is
ĠDe zember
ĠDok ument
ĠF r
Ã¤h l
ĠAufmerksam keit
al tet
ck er
ĠIn halt
ĠO ber
ĠErklÃ¤r ung
ĠE is
Ġeinz igar
Ġvor ge
Ġjewei l
ĠS ommer
ĠK n
ĠMet ho
Ġgen ieÃŁen
Ġ4 0
ĠW ohl
Ġ Ã¶
Ġein schlieÃŁlich
ĠA gr
Ġf rÃ¼
ĠP reise
ungs f
sch nitt
um an
Ġver treten
rÃ¤ fte
ĠEntscheid ungen
en k
ĠInform ations
Ġ Ã¤ndern
in es
ab kommen
ĠT r
ĠB ad
rÃ¤ um
us e
u le
Ġk ri
at h
ĠBild ung
ne ut
W Ã¤hrend
ĠO kt
Ġkein er
am erik
inde st
b Ã¼r
ĠH e
ĠUn d
ĠAn forderungen
ĠPerson al
pl an
ĠG ruppen
ĠD el
Ġer fahren
Ġkon zentr
ĠT od
Ġm orgen
ĠB i
ĠGÃ¤ste bewertungen
ie g
alt ungs
Ġj Ã¼n
en ken
ĠVorsch riften
Ġs u
Ġb eschÃ¤f
Ġl eg
alis iert
ennt nis
ĠKÃ¼ che
Ġl in
Ġgrund legen
Ġeff ek
rit erien
Ġfor der
ast rop
Ġeigen tlich
in s
ier ter
ĠIn nov
wend ungen
l ass
ĠBe w
ĠA ust
rie d
i zi
B itte
f alt
ĠMus e
ĠSol id
ĠBereich e
ĠP r
er g
t o
Ġerwar ten
l Ã¤nd
Ġl eisten
ĠT est
ĠÃĸffent lichkeit
Ġkon nten
ĠG ipf
Ġein gesetzt
ĠT rans
ge t
og ra
ĠFil m
ĠL ehr
sp rÃ¼
G en
ĠP rÃ¤sidenten
ĠhÃ¤uf ig
ĠArbeit nehmer
ĠGren zen
Ġge k
Ġl eider
Ð ½
te ten
Ã¼h ungen
Ġwen ige
ĠRat sprÃ¤sident
f ik
w Ã¼rd
spro zess
ĠRe publik
u ll
b ien
Ġauf zu
ĠInstr ument
Ġgen ommen
A D
ĠSt Ã¤d
ĠD ien
ĠS c
Ġdurchge fÃ¼hrt
A L
d am
ĠMÃ¤r z
ĠN ationen
Ġgew orden
ĠB ro
ĠTransp arenz
l Ã¶s
ĠAut o
Ã¼t zt
Ã¤n gt
ĠAn satz
Ġber Ã¼hm
ĠP e
ung e
ti t
Ġde fin
ĠBericht s
ĠSt Ã¤r
Ġbet reffen
ĠC ar
s Ã¤tze
ĠP rÃ¼
ĠÃ¼ber w
ĠTages ordnung
ĠP rinzip
ĠbenÃ¶ tigen
ie te
r ang
ĠS inne
icher ung
k an
lich keiten
ĠB rÃ¼
Ġun mittel
Ġm ed
ĠProgramm e
Ġk or
ĠVerkehr s
l es
Ġs uchen
forder ung
ĠHo st
ĠSt re
Ġm in
ĠSe e
Ã¼ ge
Ġihr es
ĠeuropÃ¤ ischer
â Ĥ
ĠP ass
ĠStra ÃŁen
ĠGrÃ¼n den
ĠK ri
ĠW ider
il e
drÃ¼ck lich
âĤ ¬
U S
f reund
Ġt reffen
tier ung
t rem
Ġbe zÃ¼glich
Ġk ennen
ill a
ĠLi ber
Ġkann st
ie ht
for dern
ĠOkt ober
ĠK an
ĠAuf trag
Ġwichtig er
Ġgef unden
zeich nung
ĠWir k
Ġaktu ellen
on g
zus etzen
ĠSchw ier
ĠB ilder
hin dern
ĠG ed
ĠGem einsam
ĠAuf fassung
iz in
stell ten
ĠUnter such
ĠVertre ter
ieren den
c el
Ġz unehmen
lei tet
Ġanges ichts
Ġbe ein
a f
n ungen
k raft
ĠSt at
Ġwe der
ĠRe d
Ġur sprÃ¼n
Ġh alte
om en
og raf
ĠEmpf eh
ĠNation al
ech sel
Ġ it
Ġer neut
Ġgesch affen
ĠD ar
Ġhin zu
amm lung
ĠFrÃ¼h stÃ¼ck
ĠFir ma
ĠBed Ã¼rf
rei g
ĠS ache
ĠVer Ã¤nder
ĠPriv at
mb H
Ġson st
Ġso fort
Ġ200 5
wor tern
ĠA part
ĠIn nen
o y
m ann
gel t
ĠM ont
I P
ĠInvest itionen
Ġvor zu
ĠSp anien
ĠGem ein
ĠÃ¼b rigen
ĠRe de
ĠJan uar
mo sphÃ¤re
acht ung
ar s
ĠbegrÃ¼ ÃŁe
ei sen
Ġsie ht
Ġen g
ri b
ĠProj ekte
Ã¶r en
ĠÃ¼ber prÃ¼
Ġf reund
s etzt
Ġeh er
Ġdie jenigen
ĠS ektor
Ġb ringt
l d
âĢľ ,
ĠA G
Ġentsprechen den
Ġzu ge
ĠN or
ad a
Ġwieder hol
ĠRegel n
ĠT em
lo sen
Ġver gessen
Ġs erv
u k
ĠK re
a at
ho w
m Ã¶
ĠAuf gaben
d at
Ġzie hen
sch ung
Z ur
ĠMar k
ĠE reig
Ġwissen schaft
eh e
Ġbeit ragen
Ã¼nst ler
an c
Ġl Ã¤nger
ĠSchlussel wortern
Ġbelie b
it or
a ce
ĠG mbH
Ġmo der
ĠÃĦnder ung
i den
ig ur
ĠÃ¶ffent liche
ĠFÃ¤ llen
ĠB undes
ĠN r
ĠBet eil
ĠS itz
ĠW unsch
A P
ĠP o
ĠSolid aritÃ¤t
Ġk ur
Ġentsp rechend
ĠLin ie
Ġmit t
ĠZ w
ĠD ritt
ĠMon aten
fri ka
ĠE le
schein lich
D abei
k ur
er a
st ein
Ġb y
ĠBem Ã¼hungen
ĠL og
ho ben
ĠJul i
Ġausge zeich
Ġget an
le b
ot or
ĠFol ge
ĠAgr ar
ĠIn stall
k omm
ĠNach bar
as h
u mmer
ĠF e
ha fte
Ho tel
ĠS itzung
ĠBÃ¼r gern
sch lagen
ĠAn w
ĠAmer ik
f ter
Ġin stall
Ġver hindern
a i
Ġgen annten
Ġ200 4
ĠhÃ¤t ten
Ġbeh andelt
fra struktur
alis mus
Ġz eit
ive au
ĠR essourcen
Ã¼n sche
Ġh il
Ġlang frist
ĠAr mut
Ġander em
Ġer folgt
ĠBer uf
Ġbe ant
z eiten
ĠGemeinschaft s
un k
s si
ĠT agen
tig es
Ġso zial
ĠBeh andlung
S ystem
Ñ Ģ
recht s
Ġvor her
or k
O R
ĠS en
b ol
ĠbegrÃ¼ ÃŁen
o x
lle g
ĠAl t
Ġn immt
ĠPro zent
s es
am ent
pr il
Ġversuch t
ĠerklÃ¤r t
eh nt
Ġd rin
ri st
ĠK oh
ell schaften
ĠW est
Ġger ing
Ġbes ondere
setz ungen
Ġgew esen
ĠUnternehmen s
ĠG r
ĠOrganis ation
ĠA gen
Ñ ģ
Ġfor dern
Ġp aar
ĠBÃ¼rger innen
ĠEr w
ern er
bau en
Ġa d
ĠDie se
o ut
in dern
ĠVertrag s
o der
T e
ĠAt mosphÃ¤re
ĠSch la
ĠB ahn
ĠAn aly
v el
Ġver h
ĠGer ichts
ĠÃ¼ber haupt
ĠZ us
ĠI r
Ġsech s
et ail
dr esse
schrift lich
Ġbe ste
Ġunter b
ĠerfÃ¼ llen
ĠFinanz ierung
1 3
Ġc om
st Ã¤nde
ĠG arten
ĠErfahr ungen
ĠGeb Ã¤ude
N ur
Ġus w
leist ung
ĠG ott
Ġzahl reichen
ha ben
ĠBeg inn
Ġop tim
ĠberÃ¼cks ichtigt
Ġz ehn
ĠT ab
Ã¼t z
ĠProt okoll
ĠM inder
ital ien
ĠKo ordin
ĠG lob
Ġwar um
Ġs Ã¤m
ver fahren
z ur
au en
ĠVer gangen
ĠRestaurant s
Ġk am
we ch
ĠNov ember
ĠVert eid
Ġstimm en
1 5
ot he
Ġg Ã¼nst
ĠgrÃ¶ÃŁ er
ĠWer te
scha u
Ġmen sch
Ġgere cht
Ġk o
Ġo ffiz
ĠAsp ekte
ro ll
Ġr ichtige
Ġwel ches
w asser
ĠWind ows
B es
b y
Ġw Ã¼nschen
a j
Ġver y
los igkeit
Ð¾ Ð
alt ungen
inn ern
Ġsch Ã¼tzen
ĠB ot
in ess
h eim
Ġf al
ĠPra xis
yn am
ĠVergangen heit
ei tet
ĠK ur
Ġt yp
Ġar bei
ra h
Ġjeweil igen
Ã¤n ge
Ġget roffen
Ġein heit
t ag
ĠgrÃ¶ÃŁ te
ffizien z
Ġver z
Ġ2 3
ĠP ap
ĠVertra uen
Ġ Ã¤l
Ġst ets
weiten s
m Ã¤r
Ġper f
ĠTerror ismus
Ġverpflich tet
Ġw Ã¤hlen
ti l
em al
il itÃ¤t
ĠGol f
ĠEU R
umen ten
e e
d lich
Ġun er
Ġhistor ischen
o us
g ruppe
ĠVer such
Ġsein es
ĠjÃ¼n g
rÃ¤n kt
be zogen
ti ver
Ġa re
v ollen
Ġzu stÃ¤nd
D E
ĠH ome
ĠR el
ĠAn frage
Ġver tra
ĠA pril
ig in
sf Ã¤higkeit
a ger
Ġbef Ã¼r
ter t
ĠauÃŁer halb
leg ten
d ingt
Ġ2 2
c on
de te
Ġein geb
ri d
ĠSch ritte
s itzen
c tion
ĠO pfer
ĠI I
Ġbeg innen
ge st
flÃ¤ che
Ġverantwort lich
Ġmoder nen
ĠRechts vorschriften
Ġneu es
w enden
ĠT ur
ĠW aren
own lo
Ġzum indest
or gt
ĠTele fon
f ert
Ġfol gt
ĠAngelegen heit
Ġstra teg
Ġver k
ĠTransp ort
ĠF isch
ĠZ ivil
hil fen
Ġspezie ll
Ġver kauf
Ġst aat
ĠGe f
Ġver ab
ĠBe stand
Ġber u
er dings
M eine
Ġb ald
al b
ĠvollstÃ¤nd ig
Ġheu tigen
ĠPart eien
ĠK redit
bar er
ĠAngelegen heiten
ĠTechnolog ie
Ġgen ug
ĠWissen schaft
Z weitens
ach tet
Ġf rÃ¼h
g Ã¼l
Ġfor m
ak te
ĠFir men
ĠG el
emen te
Ġg rÃ¼n
ĠpersÃ¶n lichen
ĠD oppel
ĠPar is
ĠP ost
li kt
Ã¶r t
Ġer innern
erk ennung
Ġp rÃ¼
Ġk Ã¼r
ĠW inter
ĠDat ei
Ġtechn ischen
f onds
ĠB Ã¼
ĠVer gleich
Ġ ehr
ĠW enn
Ġfol genden
ĠM ann
uf f
ĠSchwier igkeiten
Ġ6 0
ĠAn nahme
Ġet c
Ġerlau bt
me er
Ã¤mpf en
Ġan erk
wer te
Ġ )
am b
ut t
Ġaus schlieÃŁlich
ĠHin sicht
ĠEinw ander
t ritt
ĠÃĸ st
ĠO st
b ieten
Ġspe zif
ĠHeraus forderungen
ĠstÃ¤r ker
Ġbesser e
Ġ ter
Ġkonk re
s sen
l ow
Ġerwar tet
Ġin nov
Ġ reich
s eh
re ut
ĠD a
ist an
ĠO l
Ġdeut schen
Ġautomati sch
an o
etz ung
u hr
ĠIhr es
ieren de
N atÃ¼rlich
z ut
ge hend
ĠSpiel er
6 0
an ach
Ġ200 3
ĠZ entral
g ruppen
Ġallgem einen
ĠUnter k
n ungs
ĠVerw altung
Ġver urs
ĠÃ¼ber nehmen
iar den
Ġhervor ragen
Ġ italien
ĠL eit
iti eren
ind ungen
u ell
Ġi lleg
Ġ rie
Ġf rom
ger ungen
ĠPart ei
ĠEin richtung
Ġn ot
Ġges ehen
reng ungen
Ġent gegen
Ġzu kÃ¼nf
ĠGes prÃ¤
ĠprÃ¤ sen
Ġan gen
H eute
Ġges etz
Ġj Ã¤hr
ĠMode ll
olog ie
ĠA ug
l ing
O S
E n
Ġdar stellt
kon om
ĠEr d
or ganis
he ben
i ÃŁ
u ellen
ru g
Ġeh emal
ĠEigen t
f ass
ĠReg ierungs
Ã¶rder t
it es
imm ern
Ġr en
Ġb itten
ĠVer fassung
Ġun ten
Ġpriv aten
lo ck
zeu gung
Ġend lich
K on
W eiter
lie genden
Ġzu dem
Ġangeb oten
Ġs etzt
ar ch
Ġer weiter
G leich
we der
ĠBer at
Ã¤n gen
inn t
ĠArbeitspl Ã¤tze
ĠSer ver
ĠSch lÃ¼ssel
Ġn atÃ¼r
zeich en
Ġdrin gend
Ġeindeu tig
i pp
f rieden
ild et
an er
Ġletz te
Ġl Ã¤nd
s ser
am a
sp e
ar y
. )
Ġbestimm t
ĠEx per
O M
Ġd eine
ic a
ĠVer sch
Ġqu e
h op
Ġy ou
ĠBerichterstatter in
zeich nen
c i
and id
ĠBe griff
ĠK os
geb iet
Ġun tern
Ġd ra
ĠT ier
ĠM il
Ġm al
Ġt ransp
ĠZ eichen
Ġbem Ã¼
de ten
1 8
h an
ĠS onder
ĠAn trag
ĠSch wer
Ġvor aus
Ġp erson
ĠF alle
end et
Ġbei de
i me
Ġj em
Ġo ben
ĠEinf luss
ĠL eute
ĠZu stimmung
ĠVerpflicht ungen
p tion
ĠAussch uÃŁ
ĠAnst rengungen
ĠÃ ł
ĠMan agement
p reis
ĠT Ã¤tigkeit
Ġst and
ĠB ade
sch reiten
k ra
ĠHaus e
ĠgrÃ¶ÃŁ ere
ĠS ym
Ġpro duz
w ind
in k
Ġgen annt
ft ung
ĠGesundheit s
rei te
Ġben utzt
lich ung
ter s
ĠTe chnik
Ġbesch lossen
ĠK rank
ĠSpe zial
Ġ âĤ¬
inde stens
Ġk aum
Ġumf ang
ungsant rag
Ġs inn
zen z
Ġgen utzt
ĠAn erkennung
Ġkom fort
Ġunbe dingt
Ġbil den
e x
j e
fÃ¼ hl
Ġp h
ĠÃĸst erreich
ĠVer halten
ĠForsch ungs
ri en
fÃ¤ lle
ĠzusÃ¤tz liche
Ġh ei
ĠOrganis ationen
z eigen
ĠW ar
Ġeinge hen
ĠC as
zÃ¼ g
ĠH eim
ach te
Ġbe zahl
L assen
ĠL ux
ĠAus gang
ĠOr d
ĠR ot
ĠG o
Ġvor gelegt
ĠKl ein
p oliti
ehr te
Ġprof ession
I C
ĠÃ¼ber zeugt
âĢ ĵ
Ġre ag
w ill
Pro gramm
Ġentsp richt
ĠBe weg
S E
Ġselbst verstÃ¤ndlich
ul ieren
ĠBeschÃ¤f tig
Ġs el
ĠE ind
Ġaus ger
ĠVer kauf
ĠS ign
ĠIde e
ĠV Ã¶lker
oh nung
ĠD is
ĠVide o
Ġent schieden
Ġent stehen
Ġin tensi
ro so
ĠH il
Ġin d
op h
s Ã¤tz
ĠEin sch
ĠÃľber wach
ĠKon s
Ġges etzt
ter e
rei ber
Ġer kennen
Ġpoliti sch
ĠM ag
b as
p age
l ern
N eben
ge wiesen
ĠberÃ¼cks ichtigen
ĠMit te
ĠKommunik ation
ĠArch ite
Ġex ist
st Ã¤nden
Ġmodern e
an lagen
it zt
o ben
Ġzu frieden
m and
Ġ19 7
sp unkt
Ġwesent lich
os s
ĠWahl en
ĠDurch fÃ¼hrung
ĠP an
ĠW ei
Ġelekt ron
Ġ2 7
oll ten
Ġunterschied lichen
ĠVereinbar ung
ec t
Ã¤n e
ĠAgen tur
be w
wach sen
t t
lÃ¤ uf
ĠK riterien
statt ung
âĢ ŀ
All erdings
E G
ti c
ĠD etail
Ġm ilitÃ¤r
Ġn eg
Ġange geben
k o
ĠKon zept
ĠW affen
Ġmehr eren
Ġnach dem
sch ine
ik en
wir ken
Ġge zeigt
ha ften
ĠProdu kten
Ġm indestens
ig te
ar tige
cht ung
Ġe ffizien
Ġbew usst
Ġher unter
b all
ĠIs rael
Ġmit tel
i f
ard s
r uf
ĠG rie
Ġdank e
en der
Ġhin weisen
rÃ¤ ger
ĠMitglied staat
Ġdemokra tischen
ĠD ro
iz ei
ĠverfÃ¼g bar
ĠChar akter
ĠL icht
Ġhoch wer
Ġre duz
ĠBo den
Ġentsprechen de
or s
Ġm ag
gew Ã¶hn
ĠJ ap
V iele
geb ote
ĠW ie
Ġglau ben
ol d
ir e
rÃ¤n k
al it
ĠK arte
ĠL eg
lie fer
Ġd am
ĠV oll
Ġex trem
ĠAus bildung
ĠO sten
Ġn Ã¶
Ġges prochen
ĠerwÃ¤h nt
ĠMit teilung
s eite
ĠAn spruch
in i
Ġer reich
zep tion
ĠC lub
k arte
ot s
ĠAb schluss
Ġ8 0
tisch er
ĠKomprom iss
ĠG et
au ern
Ġge grÃ¼n
qu em
ĠK auf
rÃ¶ÃŁ e
ĠWÃ¤hr ung
Ġanges prochen
Ġe uch
Ġwer t
a fft
ei z
ĠEr k
ri pt
ĠSp rachen
Ein ige
zie ht
ownlo ad
ma ck
Mit glied
rei bt
p ft
Ġbesonder en
Ġaktu elle
Ġkont roll
ĠS Ã¼
ĠSystem s
st offe
lan gt
ĠFl Ã¼
Ġakzep tieren
ĠK Ã¶rper
p ack
oll ar
fÃ¼hr er
m el
Ġer greifen
reich end
min ist
Ġsicher zustellen
al k
un kten
Ġzu g
ĠVort eile
Ġben utzen
Ġnation ale
Ġder zei
E T
W ann
ĠC or
serv ice
ĠL ond
ĠAus gaben
ak tiv
ĠD on
ĠTer min
ic es
is e
ĠEng agement
ĠG ro
ĠP ati
Ġeinger ichtet
Ġh uman
ig it
N G
olog ischen
Ġerz ielt
ĠHinter grund
s se
ĠSch aden
1 7
D en
i j
s wert
l etzt
ĠZeit raum
rÃ¼ cken
Ġbestehen den
Ġgeeig net
s icherheit
w andel
ĠLebens mittel
la ufen
r ig
ogra ph
ĠH olz
Ġon line
an cen
pp en
lieÃŁ lich
j ekte
ĠIn halte
Ġwahr scheinlich
N un
Ġw achsen
ĠAuf nahme
de st
ĠE d
isch em
ĠKap ital
s ichten
ichtig ung
ĠHo ff
Ġfest gelegt
ĠF er
Ġ 000
ier tel
ĠH altung
sp iele
ĠAn p
Ġf eh
l u
ĠI rak
ĠK enntnis
ak e
is sionen
ĠN ahr
Ġfreu en
Ġm ax
ien s
ĠprÃ¼ fen
Ġnotwend igen
ĠMen sch
ĠKo oper
ger t
te st
ĠD om
rit ann
ĠMill iarden
Ġho ffen
Ġum gesetzt
Ġzu letzt
ati k
Ġwunder sch
ĠBem erk
wer ten
Ġ200 2
Ġander es
ĠKonf likt
se e
ĠmÃ¶glich erweise
chnolog ie
wer ke
Ġfinanz iellen
Ġge Ã¤ndert
ĠVor ber
Ġglob alen
la us
Ã¤r m
ĠUnterk ategorien
Ob wohl
Ġl Ã¶sen
ĠM io
Ġjen e
ĠS ite
ĠRe formen
Ã¶ pf
ĠerfÃ¼ llt
ĠV i
s ein
au p
Ġl eich
Ġd ienen
tier te
ĠKri tik
ĠB ur
Ã¤ den
Ġposi tiv
et a
Ġl and
Ġfrei en
Ġp ass
Ġsch rift
Ã¼n sch
ĠRicht linien
tier ten
Ġbe ziehen
Ã¤us er
ĠMon ate
ĠEin kauf
ran ken
b ad
Ġge d
Ġs Ã¼d
Ġf Ã¼h
ĠHome page
eb ru
ĠÃĸ l
ir m
ĠWettbewerb sfÃ¤higkeit
etz ungen
obil ien
ohl en
Ġel eg
ĠFortsch ritt
ĠCh ance
ĠAug ust
ĠTechnolog ien
land s
ĠFunktion en
ĠK ind
Ġverm eiden
el che
G e
Ġf ahren
Ġschwier ig
ĠBesuch er
ĠB anken
Ġander s
p o
Ġgleich e
ĠS w
ar a
ĠSte llen
ul ierung
Ġgen er
ĠIn frastruktur
v in
Ġl oc
ĠKom fort
Ã³ n
au st
A M
fl ug
ĠPartner schaft
tig keiten
Ġl esen
ĠEle kt
T h
est er
ĠGrie chen
ha ber
Ġjeder zeit
T rotz
ĠEn gl
f il
Ġ200 1
ĠB ud
Â Ń
rah men
D e
f achen
dem okra
Ġbrauch t
ĠK indern
ĠAr ten
oh ner
Ġverbesser t
âĢľ .
Ġstattf inden
ĠViel falt
ĠZwe ck
Ġn Ã¤h
Ġverein bar
Ġsicher lich
ĠF akt
1 4
lei sch
fol gend
ĠS onnen
Ġs agt
rÃ¤ f
ĠM Ã¼n
un a
' '
ĠKon z
ĠLond on
system e
ĠEr n
ĠOr gan
Sch lieÃŁlich
ĠS ehen
ĠDat eien
ĠT re
ĠRes erv
u ern
Ġa s
sp oliti
Ġn o
b ritann
Ġf e
ĠGrund satz
ĠMe ter
ĠSchla f
m eld
Ġgem Ã¼t
ss el
inder t
ri k
ĠStra ÃŁe
D ann
Ihr e
ĠEin richtungen
ĠM od
ĠAl tern
ĠP C
rÃ¤um e
ĠF Ã¼r
Ġge langen
A C
ebru ar
Ġd o
Ġdar unter
ov o
ĠMen ge
Ġange zeigt
ĠBar cel
Ġjewei ls
ĠForder ung
n ach
s weise
ĠStimm e
Ġerz ielen
Ġl au
ali fiz
W ar
l uÃŁ
or mal
Ġent weder
I D
ĠWe ge
ĠSuch e
verkehr s
ĠÃ¼bern achten
ati st
z one
F alls
ĠVerein ten
b ruch
ch mal
ĠV en
ig h
ust iz
Ġempf ehlen
sw Ã¼rd
Ġer gÃ¤n
sche ch
ĠC D
Ġge kommen
l eiten
ĠAn ti
ech an
Ġaus drÃ¼cklich
Ã¤h ig
Ġbes uchen
Ġw ollte
ĠGe st
ĠF rem
pl Ã¤tze
ĠHer z
Ã¤ llt
ĠSti l
E C
at oren
ĠVor gehen
ĠerhÃ¶ hen
ĠT el
M ein
is h
ĠN ah
Ġp ol
ei ls
Ġwel cher
Ġn ieder
Ġtechn ische
Ab schlieÃŁend
ĠstÃ¤nd ig
ĠstÃ¤r k
Ġstimm e
ĠNetz werk
Ġw Ã¤ren
such en
ĠI den
ati sch
A l
Ġteil weise
Da zu
Ã Ħ
Ġbet onen
Ġg ing
Ġkommen den
Ġth at
Ġauf merksam
s h
Ġabsol ut
f allen
D at
Ġer stellt
ĠAr beiten
qu alitÃ¤t
ĠS y
per atur
ĠEnt wurf
licher weise
ungsver fahren
ĠM or
Ġinform ieren
Ġin stitution
Ġein iger
ĠHa fen
ĠKlima wandel
ĠRisik o
ĠL u
Ġh andeln
Ġf ragen
Ġkomp lex
Ġl ernen
alis ieren
ĠU p
ĠSt art
av a
en ter
Ġfunktion iert
Ġzu vor
men sion
eich er
prÃ¼ fung
ĠInstr umente
Er stens
z iel
ĠBer eit
ĠPh il
Ġdar stellen
ĠM ad
ĠAbgeord nete
ĠIniti ativen
b il
Ã¶r de
Ġkonkre te
Ġge fordert
Ġ199 9
ĠBer ichte
ĠIn st
ĠP len
ĠWebs eite
ĠS inn
Ġo ber
k osten
ĠVer z
ĠAl b
lan zen
ĠLeist ungen
ĠDien ste
Ġda gegen
ĠSchwei z
ĠVerÃ¤nder ungen
. ,
w agen
ĠAn griff
ĠGipf el
in t
wei te
ĠAr g
rach tet
ĠT V
Ã¶ff nen
es si
it t
ro h
ĠT itel
st eht
Ġwen igen
ĠH ier
ĠAb satz
fri k
Ġun ternehmen
ti ken
1 6
ĠAll gem
N icht
ĠRat svor
p ool
ĠM otor
ĠRu he
Ã¼s se
p unkte
Ġer leben
be d
Ġdurch aus
Ġs org
ĠF ebruar
B is
Ġw est
ĠS il
in ent
de ck
ĠO per
ĠgewÃ¤hr leistet
V D
it ze
ĠVer stÃ¤nd
ĠstÃ¤r ken
n Ã¼
pp e
ĠZ eiten
Ġer folgen
ĠEn d
Ġkl are
ĠA ss
ĠHer stellung
A nder
ĠC amp
ĠW ell
ĠHaus es
ĠT eile
Ġch ines
ĠFor men
fÃ¼hr ten
Ġver ring
Ġkompl ett
ĠSt r
ĠChr ist
ĠEin igung
an en
Ġverl oren
Ġfreu e
Ġlok alen
ĠÃľber gang
ma ÃŁen
ĠGeb ieten
Ġverw ende
S elbst
Ġs auber
ter en
ĠGroÃŁ britann
ĠT ro
sp r
Ġhin zuf
ul en
Ġver ur
Ġt rÃ¤gt
Ġlie be
ĠAn g
Ġver d
ĠAn gaben
Ġab geschlossen
gew icht
ĠerklÃ¤r en
as en
ĠT or
Ġh Ã¤lt
et ing
ĠverÃ¶ffent licht
ĠPrior itÃ¤ten
ĠSystem e
u mm
ster dam
E D
ĠRegel ung
ĠÃ ľ
ĠUnivers itÃ¤t
ĠKÃ¶nig reich
ĠEnt sch
o om
ber icht
ĠWor te
ĠBus iness
ĠbenÃ¶ tigt
vers or
Ġ +
ĠStellung nahme
ĠI S
ĠAut om
ĠH eil
Ġkosten los
z in
ĠLeist ung
ĠB ran
ĠZwei fel
t es
Ġersch eint
n etz
sp ek
lÃ¤ gen
ook ing
Ġl i
Ġallgem ein
rie be
ĠB and
Ġber ech
ĠRechn ung
ig ungen
be f
ge geben
ĠMa schinen
al og
ab l
ĠDie s
rei tet
ĠM y
Ġdenn och
ĠF onds
vol ution
ĠGren z
4 0
Ġ Ã¶st
I st
ĠAuf bau
ĠmÃ¶glich st
ĠEin haltung
Ġgegen sei
ĠEis en
Ġal te
ĠG eist
ĠHeraus forderung
an e
it er
glie der
ĠStat us
zw ischen
geb aut
Ġr uss
ĠÃ¼ber tragen
D ank
Ġer stellen
ĠSehen swÃ¼rd
Ġkonzentr ieren
ĠAn d
ĠInnov ation
ĠF reund
ĠForder ungen
u elle
Ġkl icken
um Ã¤n
Ġl os
Ġfinanz ielle
ĠT her
ĠnÃ¤ch ste
v a
oh nen
ĠF lexib
ĠA lle
ĠGew Ã¤hr
Ġvor an
âĢ ¦
a ben
ate d
ĠMeer es
19 9
j a
m ode
Ġun ge
re ak
o o
Ġ !
ll igen
Ġz erst
ot o
ĠMenschen recht
ĠH am
ĠS and
ĠM iss
Ã¤ ck
ĠBrÃ¼ ssel
ĠMittel meer
ĠAsp ekt
Ġge h
Nach folgend
ĠpersÃ¶n lich
z esse
Ġver folgen
ig ungs
ĠVerw altungs
ĠM oment
un ion
ĠW ander
Ġl eist
ĠGemeinsam en
Ġunterschied liche
Ġn ennen
ĠF in
ra chte
ĠKir che
ĠEntschlieÃŁ ungsantrag
ĠAnaly se
Ġge leistet
Ġbe quem
ĠLes ung
rÃ¼ st
Ġend gÃ¼l
Ġdisku tieren
ĠBes itz
Ġle gen
ĠVer k
ĠAm sterdam
ĠA sy
Ġsch l
Ġverl assen
ĠgegrÃ¼n det
ĠFlÃ¼ cht
ar ischen
ĠLand wir
Ġumf asst
Ġsp ielt
Ġ5 00
Ġaus reichend
Ġamerik anischen
ĠVerpflicht ung
ĠF ran
Ġge pl
Ġhuman it
ll er
ang s
ĠI ran
rÃ¤n ken
st euer
Ġbet rachtet
Ġden ken
ĠtÃ¤ glich
O L
ĠE ff
man agement
Ġ9 0
lÃ¼s se
Zu dem
ĠS am
I M
se quen
iv en
ĠKat astrop
abhÃ¤ng igkeit
ĠunabhÃ¤ng ig
E ben
Ġbeh aup
Ġ2 8
ĠJap an
e ck
ĠM ig
ĠI T
ĠTerr asse
Ġsch Ã¶nen
p ark
Ġfest stellen
Ġposi tive
ĠhÃ¶ her
Ġerforder lichen
ĠF el
w ay
re gel
Ã ĥ
ĠG rÃ¼
In s
j ek
Ġb l
L eider
Ġp ri
In nen
2 5
Ġh Ã¶ren
ick t
ĠTra dition
J ed
Ġer leich
ma il
Ġgaran tiert
ĠZ er
Ġarbei tet
G er
g o
Ġf er
our n
ĠIde en
te sten
teg ien
ĠTex te
ĠP rem
ĠB on
ĠF en
ĠPort ug
ĠAus sicht
ĠJahrhunder ts
ĠPati enten
ĠÃ¼berprÃ¼ fen
sch lÃ¤ge
ĠViel zahl
p assen
ĠPak et
ĠSehenswÃ¼rd igkeiten
ĠKomp eten
r um
ier end
Ð ĵ
ĠStÃ¤r kung
ĠVerb rauch
Ġkultur ellen
Ġd igit
ĠU kra
in str
Ġw or
jÃ¤hr igen
Ġres p
Ġhin gewiesen
Ġausge wÃ¤h
ĠtÃ¤ tig
ĠStandard s
in u
ĠBarcel ona
ĠSor ge
versor gung
Ġnie dr
ĠUnter kunft
2 4
ĠInstall ation
ent wicklung
sp ort
auf trag
Ġd ritten
ĠAn wendungen
ĠC omm
Ġs eiten
ĠT o
Ġw ei
Ġst abil
ĠHer steller
ĠN utzen
ĠG as
lÃ¶s ung
b ett
ir t
ĠM ess
olog ische
ag n
z y
Ġmit einander
Ġg rat
b indung
Ġer inner
g ibt
ĠH y
bie ter
ĠW illen
ĠAb sch
k Ã¼nd
ĠP la
Ġlin ks
u pt
Ã¼ ter
ĠSu per
Ġbe zeichnet
p s
ĠÃľberwach ung
fÃ¼hr ungen
ĠK il
ĠZug riff
ĠIn d
ĠStra f
wei st
Ġr ichtigen
bl i
kon ferenz
Ġweiter er
los s
ĠW ien
Ġin vest
ĠEr zeug
ĠEntwick lungen
p reise
ĠD orf
hal tet
ĠEin e
ĠD ownload
ra gt
Ġp assen
ĠH armon
form ationen
ĠP lay
Ġunter sch
ĠBed arf
Ġvern Ã¼nf
Ã¶ se
bl eh
ĠLand schaft
i ma
f ast
ĠA c
ĠUm fang
Ġeinge fÃ¼hrt
Ġa u
leist ungs
ĠZust Ã¤nd
ĠN ot
Ġge lin
Ġzahl en
ĠSt Ã¼ck
Ġkon f
Ġha upt
Ġ7 0
ĠW as
Ġg renz
ho tel
ĠArbeits losigkeit
Ġzwei f
ber t
ĠIn dien
en te
ĠE hr
is iert
ĠHeim at
Ã¼ ben
ĠM esse
R eg
s eits
ĠBedÃ¼rf nisse
Ġvor ber
ĠG eschÃ¤
ĠProblem en
ĠP aten
Ġgew innen
k omp
lie gt
Ġprof itieren
ĠDro gen
ĠSch n
ra b
chn et
ĠVerteid igung
ĠGeschÃ¤fts ordnung
andid aten
ĠA chtung
Ġgesch ehen
ab s
beh alten
b rauch
Ġkon stru
ĠInvest ition
Ġfest ge
el te
gem Ã¤ÃŁ
wind igkeit
ĠK ol
k am
Ġd anach
Ġl es
g ien
uff et
Ġvor liegenden
Ġen gl
ĠPrior itÃ¤t
f g
ĠRatsvor sitz
Ġein setzen
Ġver gleich
ĠJ e
ĠbestÃ¤ tigt
ĠunterstÃ¼t ze
J etzt
R E
ĠFlexib ilitÃ¤t
ĠTour ismus
rimin ierung
ĠK Ã¼nstler
v o
ĠC he
ĠsÃ¤m tliche
ĠÃ¼ber all
Ġaus fÃ¼hr
Ġent standen
ĠGroÃŁbritann ien
di ent
Ġbes itzt
Ġer le
D em
Ġregion alen
Ġzu ver
Ġbeg innt
Ġa pp
Ġkeiner lei
a sch
ĠJahr z
S T
Ġf air
Ġver folgt
2 3
ig i
ĠM utter
ist isch
ĠGerichts hof
wech sel
Ġrie si
w ogen
ome ter
ĠgegenwÃ¤r tig
ausschuss es
ĠP en
ik e
or te
ĠB il
Ã¼r k
hÃ¶r en
S tra
ĠPol izei
Ġbeteil igt
Ġoffen sichtlich
r eitung
ĠfranzÃ¶s ischen
ĠPol en
ĠN ame
ĠRechn ungs
Denn och
ro chen
w esen
ĠM ass
wor tet
Ġaus ges
ĠJ ustiz
b us
Ġm ar
ĠM ich
ĠPr esse
Ġkl ass
Ġgrenz Ã¼ber
Ġvoll kommen
Ġfolgen de
ĠT al
lei hen
ĠEl emente
ĠVer hÃ¤ltnis
tig ten
H in
nah m
ĠÃ¶ k
c es
ĠHost els
ĠGener al
Ġc omp
ĠDel eg
Ġgest alten
hÃ¶ hung
ben en
ges ichts
Ġst ren
os k
Ġgesch Ã¼tzt
Ġspezie lle
o sen
Ġso b
ĠAn lagen
ĠWor ten
ĠEuropÃ¤ er
ĠCh ancen
Ġer h
ĠC an
frei heit
ĠgroÃŁ es
Ġ ti
sel ben
ĠgrÃ¶ÃŁ eren
Ġzentr ale
mitt ag
ĠAlt stadt
I L
Ġhaupt s
a ktionen
Ġf alls
ĠAn teil
sp rach
pp ort
Ġeinfach e
ĠFÃ¼hr ung
ell a
ĠGlob alisierung
ĠVerstÃ¤nd nis
ĠA frika
ver standen
Ġpoliti scher
Ġer geben
ul gar
st Ã¼cks
Ġw ww
Ġgaran tieren
eh mer
ĠgegenwÃ¤r tigen
Ġwar ten
ĠImm obilien
Ã¤ sion
ĠAus s
ag ne
ele v
stell te
v iel
Ġf allen
ĠMa il
ĠDeb ian
Ġ2 6
Ġ3 00
w ser
ĠRegel ungen
ĠKos ovo
ate ll
Ġver f
Ġsol cher
I E
k rieg
ĠBe wertung
ĠWell ness
ĠL o
sp rech
ĠTeil nehmer
schie de
Ġverbunden en
ĠMuse um
ĠW TO
Ġa cht
Ġbein haltet
ĠG ut
ĠM and
ĠMaÃŁ e
ĠIr land
ĠBeteil igung
ĠAus land
utz er
sp ann
ĠM ic
Z immer
ĠF reu
lÃ¼ck w
Ġide al
w Ã¤
ĠD ist
Ġda uer
ĠVor sitzen
mÃ¶ gen
Ġumfassen de
ĠUkra ine
Ġinternation aler
ĠzusÃ¤tz lich
ĠSt ein
att form
Ġgut es
a uch
as il
ust er
ĠEn erg
ĠEind ruck
Ã ´
ĠM echan
wor fen
Ġst eigen
ĠNahr ungs
Ġgrund sÃ¤tz
Ġrel ativ
ĠMon at
Ġwesent lichen
Ã¤ fen
ern e
t lichen
Ġso gen
lÃ¤ gt
al a
Ġ19 6
Ġl etzt
ĠW echsel
ĠL ab
ĠT isch
ol e
ter p
S terne
Ġinternation al
scha ffen
ie gel
ĠS ek
eich ert
Ġt ief
ĠW ald
ĠT reffen
ktiv e
ĠStadt zentrum
ĠD r
Ġteil nehmen
Ã© s
ĠM er
ell os
handel s
art a
ĠÃ¤ uÃŁ
I CH
ĠS ach
klus ive
Ġm eist
ĠTod es
P l
Ġn ormal
ĠH el
e y
ĠK arten
ĠSt ock
Ġvor liegen
Ġbeg lÃ¼ckw
ĠGeb rauch
War um
C h
Ġb i
Ġk ost
M ehr
ĠM ilitÃ¤r
mittel t
ĠRe alitÃ¤t
Ã¶ t
Ġa v
ver t
ennt nisse
ĠSch we
lin ge
Ġat tra
Ġgem einschaft
ĠFot o
ĠVerb rechen
ĠSch Ã¶n
ĠG rÃ¶ÃŁe
ĠGrÃ¼n de
ĠfrÃ¼ her
Ã¤uf er
hol ung
ĠMar ken
ĠVer mitt
Ġspezie llen
ĠS ant
Ġausge wogen
is ieren
Ġo ff
Ã¤l fte
ĠGriechen land
Ġbet rachten
Ġren ov
Ġwer e
Ġprak tisch
ĠGegen satz
geb racht
p e
n o
ĠUn abhÃ¤ngigkeit
ter nen
.. ..
ĠGl Ã¼ck
ĠKoh Ã¤sion
it ut
ĠMÃ¤r kte
Ġum welt
onen ten
Ġdi ent
at o
kl ang
B en
ĠA ls
Ġe vent
Ġ Q
ĠA ktionen
Ġen or
ichte te
Ġl angen
ĠNutz er
d essen
Ġge lungen
Ġf l
ĠErklÃ¤r ungen
ĠÃľberein kommen
ris en
bli othe
ĠKom bin
Ġst e
ĠGed anken
ak et
Ġkor re
ĠK enn
ri ge
Ġth is
den ten
ĠBot schaft
Ġm on
laub wÃ¼rd
ĠPal Ã¤st
Ġm obil
ĠEr de
ĠLi zenz
ĠerhÃ¶ ht
Ġbe achten
ges ellschaften
M einer
ant ie
ĠS im
iert es
ĠStÃ¤d te
ĠRe aktion
Kl icken
ik ro
ĠEreig nisse
ĠR ein
S c
Ġge Ã¶ffnet
i mal
ing er
Ġch ar
Ġinform iert
E x
w issen
an ger
ĠZw ischen
te chnik
ĠV illa
ĠAn lage
gef Ã¤hr
T V
ĠMittel n
ĠNew s
ĠSÃ¼ den
h y
ĠN iveau
ĠD ollar
ent lich
erv ice
sp ar
Ġdar aus
ĠFra ktionen
ĠKop f
Ġt rans
ĠE t
ym p
ĠFot os
utz ung
ĠEmpfeh lungen
Ġstar ke
le un
Ġbri tischen
ĠÃ¼ber ein
Ġr ein
ĠGr unde
aus o
richt linie
em in
ĠBesch luss
W e
Ġein sch
Ġein verstanden
ĠWir kung
u ert
ro ati
C O
ĠschÃ¶n e
E M
ĠFar ben
L e
ĠArchite ktur
S S
ĠUr s
Ġsorg fÃ¤l
produ ktion
z ellen
ĠZahl en
Ġallgem eine
Ġmitt l
Ġg uter
y r
Ġge halten
Ġt reten
Ġhaupts Ã¤chlich
at es
Ġgesch ieht
An gesichts
ĠauÃŁer orden
bÃ¼r ger
Ġfest gestellt
B ooking
uch ten
ĠGeb iete
ĠBei hilfen
Ġnie mand
Ã¤ umen
ĠMin dest
ategor ie
L AN
Ã¶ der
Ġeinz igen
ĠGesetz gebung
M ar
ĠDe fin
ĠProgramm s
ĠmÃ¶ glichen
ul ation
Gleich zeitig
Ġnachhal tige
ĠHoff nung
ĠLiber alisierung
Ġmit tels
sy ch
Ġman chmal
Ġher zlich
it ter
ĠKontro ll
Ġm e
Ð »
Ġ199 8
ĠFern seh
i lle
ĠA si
Ġt Ã¼rk
B ahn
ĠVoraus setzungen
Ġide ale
Ġvorgeschlagen en
Ġuntern ommen
ĠDaten schutz
gend a
Ġsob ald
Ġsp richt
ĠTra in
ĠWieder auf
ĠStud ien
ĠGrund rechte
lich em
such t
Ġl ux
iel ten
S er
Ġk aufen
tig te
ĠY ork
F R
ĠK u
Ġz Ã¤hlen
Ġkosten frei
ĠOp tion
Ġ2 9
Ã ±
ĠL ang
Ġj ungen
reak fast
au l
ĠGegen teil
ĠGol d
stand s
a pp
ten t
Ġpro blem
ĠÃ¼bern ommen
Ġschnell er
ag es
str ich
Ġaus lÃ¤nd
S te
ap ital
8 0
ĠjÃ¼ng sten
pro blem
Ġl auf
ĠArbeits markt
ĠMinder heiten
Ġre al
Ġe st
ha f
l eitung
Ġs age
Ġteil en
ĠBahn hof
ĠSt rom
Ġunter st
Ġs elten
ĠErw art
ĠRei sen
Ġdam als
G em
ĠIn n
ĠF it
Ġnation aler
Ġerforder t
ĠZust and
Ġsie ben
P S
re e
am es
ĠInternation al
or ien
is men
Ġw eg
ĠpersÃ¶n liche
rÃ¤ ch
f unktion
B et
r d
ĠHaupt stadt
Ġbetroffen en
gen de
ĠA ber
ĠEin kommen
an gebot
Ġan bieten
Ġbe ob
Ġrecht s
Ġregel mÃ¤ÃŁig
H er
Ġander erseits
Ġviel er
ĠMitglie dern
ok er
ĠZ oll
stat ten
z n
Ġab hÃ¤ng
ĠExper ten
k arten
Ġvor schlagen
gend es
aus ende
ĠPrÃ¼ fung
ĠAl ter
ĠAsy l
fÃ¼ gt
rie ch
all y
ĠR and
rÃ¤nk ungen
Ġmed izin
terp rise
le ge
ĠVort eil
* *
ĠRisik en
V ielen
wend ungs
ktiv en
Ġzu gleich
Ã¼ st
ĠÂ »
ĠBe ob
ĠTour isten
a be
es halb
Ġgew Ã¼nsch
re en
es e
osi tionen
d o
ch em
ĠPf licht
ĠbeschÃ¤f tigt
Ġwo durch
ĠMÃ¤n ner
ĠNieder lan
Ġa g
ĠBestand teil
gr ess
c ia
ĠKoordin ierung
ĠF eld
Ġgew Ã¤hlt
Ġbek annte
! !
ĠTeil nahme
g barkeit
m lich
Ġges ellschaft
ĠÃľber prÃ¼fung
fl ik
Ġ =
Ġs ystem
ĠT ri
ĠEr hÃ¶hung
Ġsie he
iv al
Ġf amil
Ġge be
io de
Ġha ve
ĠK urs
he bung
Ġtradition ellen
Ġsich ern
Ġe chte
Ã ĸ
ell es
ĠC O
P L
ĠN A
ĠA uch
is on
met ho
gel assen
Ġkl einer
leb nis
zw ungen
al ys
Ġf ehlen
b le
Ġreg istr
ĠWor ld
... "
Ġern euer
ĠNicht raucher
ĠI N
ĠK aff
Je der
ungs st
ad em
ĠH Ã¤lfte
Ġab gel
ver se
Ġdisku tiert
Ġseiten s
w a
Ġbeein fl
ĠE ffizienz
ĠLauf e
Ġbesser en
ĠAb sicht
di um
ĠAnp assung
ĠAust ausch
weg s
ab len
ĠFrÃ¼h stÃ¼cks
Ġher gestellt
Ġwichtig ste
) :
Ġspe zi
Ġf Ã¤llt
ĠWettbewerb s
ĠSp rach
tit Ã¤t
Ġqu alifiz
ĠT yp
lau ben
it s
ĠVorber eitung
gÃ¤n glich
ĠZ immern
sprÃ¼ che
ĠZ iels
Ġweiter es
ĠInternation alen
Ġkon text
ol f
ĠgrenzÃ¼ber schreiten
Ġc o
Ġjem and
z ig
ĠP ublik
Ġbei ge
ĠA kte
Ġersch einen
ĠS low
sen s
ĠAus nahme
Ġvert eid
is la
ium s
ĠR oh
P E
v al
sk i
ĠKlima anlage
Å ¡
ĠTeil en
Ġviel fÃ¤l
Ġbeg ann
ĠGesetz e
ze ÃŁ
I I
Ġbem er
ĠMitglied s
Ġte chnolog
ĠDisk riminierung
ĠMetho de
spart ner
in ens
Ġb Ã¼r
ĠkÃ¼r zlich
Ġbe wegen
ĠLin ux
ol a
ĠInsel n
bereich e
Ġpriv ate
k or
Ġakzep tiert
ĠOrd nung
Ġreag ieren
Ġwill kommen
Ġf inde
re ff
oh nt
ĠGÃ¤ sten
ĠPolitik er
ĠN orden
eich ern
ĠP at
sicht s
Ġirgend w
ĠMetho den
Ġj unge
ie gen
ĠP oten
ĠLin ks
Ġeinzel ne
ĠP a
og le
lieÃŁ en
Ġ x
Ġdemokra tische
ĠVeranst altungen
Ġbet ont
om it
Ġj eg
zahl ung
ĠDi mension
Ġdeut sche
ĠPh ase
Ġdies be
heit s
S ol
ĠEl tern
ĠlÃ¤nd lichen
Ġange p
ord nungs
Ġsinn voll
h len
ĠT on
fiz ierung
ĠMo dern
ein richtungen
Ġb ill
Ġbeh andeln
ĠV ater
ĠBe weis
ĠnÃ¤h er
Ġ reichen
Ġp oten
or i
ĠPf lanzen
ge ht
jÃ¤hr ige
ĠberÃ¼hm ten
ĠH aut
Ġgen Ã¼
Ġange ht
ri end
Ġnoch mals
un e
Ġ3 5
ĠVer st
Ġt ut
Ġposi tiven
un sten
ekt oren
li ste
ig ital
roso ft
Ġd ah
Ġanerk annt
Ġum geben
ĠZ iff
Ġn orm
ĠAn liegen
Ã¼cks ichtigung
om in
Ã¼ ch
Ġs ub
ĠFrei zeit
Â »
Ġbeg onnen
ĠR eich
ĠEin klang
ĠZ uf
ĠWÃ¤hr ungs
ĠRel ig
Ġfrei e
ourn al
ĠT iere
ĠverstÃ¤r kt
ah nen
ĠfÃ¼hr enden
ĠF Ã¤higkeit
Ġsicher stellen
ĠR en
Ġviel mehr
grund lage
ĠFen ster
ma terial
ĠUm stÃ¤nden
mm en
ĠBer Ã¼cksichtigung
ĠProduktion s
M U
Ã §
Ã ľ
Ġd ynam
c y
Ġlang sam
ĠVert rieb
ĠFÃ¤ lle
Ġg riech
ĠVer Ã¶ffent
le chter
p erson
eh l
Ġs en
ĠP il
fol gerungen
ĠKooper ation
ĠOp en
ĠSt unde
ĠÃľber n
ĠUntersuch ung
Ġst aff
stehen den
ent wick
ĠÃ¼ber ra
ĠOr igin
os oph
Ġber uf
w es
ĠMehr wert
fl Ã¼ge
Ġbeein druck
ĠM art
ĠGe fÃ¼hl
Ġehemal igen
fer tigt
Ġer griffen
zahl t
Ã¼ ste
Ġl eiden
Ġverl ieren
ĠO ff
Ġra sch
ĠApart ments
war z
Ġentsp annen
nehm ern
g Ã¼nst
Ġbef assen
Ġvor genommen
Ġf and
Ġderzei tigen
S ehr
pr ess
ontro lle
ĠR umÃ¤n
Ġgew isse
org nis
ĠFit ness
ĠRe st
Ġs eien
ad urch
b a
m es
lich ten
at ein
Ġforder t
ĠJ ava
Ġ rei
Ã¼ mm
ĠGener ation
meld ung
d a
Ġs ur
ĠEinwander ung
ĠUnter schiede
ge g
ĠPer spek
ĠF lÃ¤
ĠD VD
st Ã¤
Ġzu stimmen
ĠFreu de
0 3
A G
Ġwieder um
ĠA genda
Ġbed arf
bien te
E uropa
ĠBe k
on om
Ã¤ sser
ĠSt ar
ĠGren ze
Ġglob ale
ĠDiskus sionen
ei er
ĠNach richten
Ġkonk reten
Ġan t
ĠB ra
Ġstar ken
ĠKombin ation
Â ²
Ġw h
uropÃ¤ ischen
leg te
ĠÂ «
ĠD o
ĠnÃ¶ tig
fg han
ak ten
me ch
ĠSch Ã¤den
ĠFl uss
ĠHaushalt splan
uf e
ĠK Ã¼r
Ġ3 1
f r
gen er
ĠHandel n
rÃ¤ umen
Ġland wirtschaft
ma schinen
Ġein gesch
Ġwel chen
Ġgest ern
Ġunterschied lich
ĠAut or
Ġb ildet
ĠP rak
k rise
k at
ein d
Ã ł
iz iert
ĠBild ungs
g rÃ¶ÃŁ
ĠForm ular
sch n
ĠschlieÃŁ en
ĠlÃ¤ uft
Ġst ruktur
Ġkein es
fÃ¼ llung
ĠVerfÃ¼ gbarkeit
Ġschle cht
Nach dem
g eiz
end es
ĠPro vin
Ġvor s
Ġs er
ĠC ity
ik o
ĠhÃ¶ch ste
uch e
he ber
ĠK unde
ĠGrund sÃ¤tze
us sen
Ġ199 7
Ġer b
Ġbas iert
U R
f angen
ĠA dresse
gren zen
ich ern
ĠB u
rÃ¼st ung
ĠFre unde
st u
Ã¤hr t
ur i
Ġeng ag
2 2
ĠK ranken
ĠC l
ĠSchwe den
Ġm ulti
z te
mÃ¤r kte
Ġgen auso
Ġsp rach
ĠKolle ge
re chten
beh Ã¶rden
bl ei
g al
ĠA K
ĠEr wachsen
ĠWe sten
st es
Ġv an
ul iert
r enn
ĠEigen schaften
B esch
Ġf ried
Ġbe zieht
Ġresp ek
Ġun ein
ber ech
ĠAllgem einen
ĠBeschÃ¤ftig ungs
m acht
Ġd einer
p Ã¤ck
el be
ĠPortug al
Ġent lang
te d
Bei m
Ã¤um e
ĠApp arte
Ġver langen
oh en
ĠGl as
ĠMa c
- -
Ġunmittel bar
k oh
l og
ĠSym bol
Ġb ut
isch ung
ĠW h
Ġh and
ĠL ob
O r
ol er
ĠAn gebote
ĠMaÃŁ nahme
ĠLeit linien
Ġwichtig es
Ġl aut
ĠDok umente
d ass
Ġz eich
ĠH erk
Z unÃ¤chst
tra gung
re ck
ĠabhÃ¤ng ig
Ġitalien ischen
w ander
Ġl aufen
Ð º
lÃ¤ ssi
Ġ reicht
ĠBeweg ung
ĠG raf
ĠUnter schied
ĠM ulti
ĠH ol
Ġlie fern
Ġm aÃŁ
reu ung
zu legen
Ã¤h igkeiten
ĠfÃ¼hr te
Ġg eist
ichte ten
f est
ent re
v iew
ĠKÃ¼ ste
ĠT op
ĠGes icht
on es
ĠDaten bank
Ġumfassen den
sto ffen
ĠAnt worten
eta ill
Ġs enden
ĠWahr heit
be ziehung
Ġbek annten
Ġal t
mech an
aÃŁ t
Ġh al
I A
Ġhoh er
Ġw enden
Ġzie mlich
Ġtrotz dem
n ummer
ĠBe denken
Ġm y
ĠauÃŁer gewÃ¶hn
u al
z o
Ġinteress ante
ĠM assen
hand lungen
g ut
m ed
ĠEl ement
ĠStruktur fonds
ĠH ei
ĠEngl isch
ĠSchwer punkt
a der
ĠSp iele
ĠFrem den
ĠAut ob
Ġse x
Ġregion ale
lÃ¤ss ig
ĠerhÃ¤lt lich
Ġi den
ĠUn tern
Ñ ĥ
ĠG ran
ĠMin i
nit ten
Ã¤t zung
ĠZus atz
Ġhistor ische
m s
r ichtet
ĠA fghan
ĠVer m
ĠC ap
ĠG al
az itÃ¤t
ĠThe ater
Ġ $
Ġ eig
o zi
Ġrel igi
Ã¼ gel
d as
ĠVert rÃ¤ge
ĠSan ktionen
itu ationen
Ġal tern
g as
ĠPap ier
ĠB io
ĠF arb
ĠP ool
Ġbesch rieben
u la
och en
4 5
vis ion
icher ungs
dien ste
Ġer Ã¶ffnet
ĠKon sequen
ĠkÃ¼nf tig
amerik a
D F
Ġbet rÃ¤gt
Ġfal sch
ĠLin k
Eben so
ĠA p
ĠH ard
fÃ¤ llen
Weiter e
Pro du
ĠLandwir te
ĠUmwelt schutz
ĠDienst leistungs
Ġentde cken
ĠK risen
ĠÃ¼ber zeugen
Ġg Ã¼l
Ġbeg ren
Ġqu alit
qu ellen
Ġkomm un
ĠD ol
ĠLa ger
ĠzusÃ¤tz lichen
Ġko ordin
M L
Ġo per
Ġgef Ã¶rdert
C D
ĠT ool
part ner
ĠP oliti
ber eit
u ver
Ġs icht
komm t
ĠDefin ition
Ġan s
S eine
eu ern
Ġkurz em
ĠFrank f
ĠHerk unft
gÃ¤n ge
un n
or al
ichtig keit
Ġdir ekte
Ġzu gÃ¤nglich
Ġbes itzen
stra ÃŁe
Ġz er
Ġber aten
ĠSal z
at a
ĠZ yp
ati schen
Ġgleich er
spruch s
i ent
Ġzunehmen d
Ġgrundlegen den
ĠN eben
Ġp al
ne ter
M S
Ġge prÃ¼
ĠSch ule
Ġt ie
Ġschwier igen
and a
ĠÃ ©
Ġvoll er
m eister
Ã¼r en
Ġinteress iert
kÃ¼nf te
ĠhÃ¶ here
ĠSign al
ĠStra tegien
Ġver Ã¤ndert
Ġt our
ĠWirk lichkeit
ĠVer h
Ġwesent liche
ĠStu denten
sch irm
ĠMaterial ien
ĠschÃ¶n sten
ĠInstitu tion
Ġa cc
Ġg ood
ck s
Ġgesch rieben
Ġw eshalb
Ġ Ã¶ffnen
Ġg rÃ¼
ĠErwart ungen
Ġeigen es
ĠMittel punkt
Ġnie mals
ĠD rit
an gt
ĠVor sitz
Ġhil ft
ĠH ar
ĠRegion al
sch iff
Ã¤nd ler
flÃ¤ chen
Ġso fern
Ġp r
Ġentsch lossen
Ġzweif ellos
lie fert
Ġeiner seits
ĠBl ut
ĠB ulgar
ĠEmpfeh lung
Auf grund
ĠFahr zeug
ĠQualitÃ¤t s
a fe
war d
Ġwelt weiten
ĠW eiÃŁ
sam keit
Ġhervorragen de
ĠHin dern
I G
as er
lie ben
ĠTem peratur
ĠL Ã¶
ĠP H
ĠD auer
ot h
Ġausgezeich nete
ĠEin heit
ĠUm gang
ĠStud ie
ĠAgrar politik
K omm
V om
ein bar
Ġa uÃŁen
ĠK andidaten
ĠBade zimmer
Ġkom bin
ĠFrieden s
ahr t
rÃ¤ cht
Ġzu erst
ĠL ei
pp osition
mit ten
ges undheit
ĠCh in
ĠFerien w
ĠBerat ung
Ġneue sten
ĠjÃ¤hr lich
ĠnatÃ¼r lichen
ĠM orgen
ĠBed ien
Ġsp anischen
T ats
ver w
ti tion
ĠKom pl
mode ll
Th is
rÃ¤ ften
ven tionen
Ġerweiter t
t eile
st ieg
Ġb reite
ĠK ategorie
na pp
Ġsch reiben
weis ung
ich ert
ĠAmerik a
ĠD ach
ĠKon flik
ĠEr inner
ĠNach frage
ĠbemÃ¼ ht
ĠÃľber setzung
N eu
ĠB la
Ġre den
t Ã¤u
Ġausgezeich neten
Ġbetreffen den
Ġruh igen
ĠServ ices
g yp
ĠBef ug
ĠSp ann
ar ian
Ġp ort
Ġin zwischen
ĠSch m
ĠfÃ¼h len
ĠKont inent
ĠKÃ¼ sten
ĠSchul den
T E
ĠM ikro
eh me
9 8
de cken
ĠUn gleich
gem einschaft
ĠZu ge
ĠAm biente
er o
Ġd is
Ã¶r ung
I V
ĠK rie
ĠM c
Ġmo di
st eh
ĠEin stellung
ĠEs sen
ra te
Ġge legt
eu ten
ĠUn ser
em m
ĠEntwicklungs lÃ¤ndern
z wei
ĠVoraus setzung
ĠVeranst altung
p el
ĠursprÃ¼n glichen
W elche
t rÃ¤ge
ĠVer fass
ĠSch rift
Ġf Ã¼
wirk ung
Ġinstall iert
ĠEisen bahn
p a
wer ber
rÃ¼ck e
Ġoffen en
Ġr ichten
ĠDetail s
ĠMÃ¼n chen
ĠPar lam
A dresse
f o
onder s
ĠÃľber zeugung
beh Ã¶rde
Ġgew Ã¤hl
ĠW ill
Ġbet rÃ¤cht
Ã© e
Ġmus ste
leg ungen
Ġein fachen
ĠVerbesser ungen
ĠNor men
Ġver Ã¤ndern
isten z
Ġnach zu
u h
ac t
V ielleicht
ĠE C
aus end
Ġauf zunehmen
ĠBal kon
zeich nis
ĠM Ã¼
euer ung
p on
ehm igung
Ġmensch lichen
Ġw id
ĠA g
ĠMein ungs
Ġgrundlegen de
Ġa chten
ĠKomm ent
Ã¤l tigen
â Ħ
Ġs orgt
stre ben
Ġkomm er
ĠprÃ¤sen tiert
ĠH igh
Ġabgel ehnt
Ġd etaill
Ġst immt
Q L
ĠGar antie
Ġt rifft
ren nen
spe zif
Ġentscheiden d
organis ationen
Ġst arten
Ġfunktion ieren
Ġge zogen
hol en
system s
ĠÃľ b
Ġv is
ar tigen
bahn hof
ar tet
ĠF und
ĠStand ort
Ġw ettbewerb
ĠBau ern
z um
qu is
Ġh armon
ĠWirtschaft sw
ĠMic rosoft
ĠIden titÃ¤t
Ġin dustrie
Ġorganis iert
ĠkÃ¼nf tigen
am s
P ar
Ġm Ã¼nd
ĠTag ung
Ġkultur elle
ĠK rimin
ĠBl og
Ġm ark
zie le
ĠhÃ¶ch sten
0 1
Ġ' '
Ġla den
ĠÃľberein stimmung
ot te
ĠT schech
li ent
Ġeffek tiv
ĠHarmon isierung
b an
Ġausges prochen
ĠP unkten
r ufen
Ġd ritte
ad o
pf en
or a
Ġgrat ulieren
Ġum zusetzen
wir t
Ġch em
last ung
sch uld
Ġver an
z we
ĠJahrz eh
Ä į
ĠM erk
iff eren
Ġriesi gen
I F
Ġerlau ben
ĠStruktur en
. -
mÃ¤ÃŁ ige
Ġ199 6
n immt
reich ung
Ġverschieden er
Ġdurch zufÃ¼hren
ĠMark eting
Ġkur ze
Ġgew onnen
L A
Ġaus geschlossen
G es
Ġun gefÃ¤hr
ĠBro wser
arbei tern
ĠEinkauf s
feren zen
ĠFest legung
âĦ ¢
mm e
Ġverurs acht
J a
D u
ĠC om
hand elt
Ġy our
por te
Ġvor ange
Ġniedr ig
/ /
ĠMobil itÃ¤t
z ehn
inu ier
for schung
ĠGer Ã¤te
m ischen
scha ff
ĠD re
d orf
on n
Ġver langt
ĠÃ¼bern immt
Ġauf treten
an gem
ĠUn gar
Ġbek Ã¤mpfen
Ġso weit
ĠAt om
Ġgel Ã¶st
ĠReg istr
gesch rieben
7 0
Ġt ot
Ġanges ehen
ĠÃĦnderungsant rÃ¤gen
stand ards
Ġz Ã¤hlt
Ġbe zug
ĠNA TO
and o
Ġunein gesch
Ġforder e
ĠDritt lÃ¤ndern
L a
Ġan statt
ĠAn fragen
ĠSk i
ĠmÃ¶ gliche
ĠVorsch lÃ¤gen
ĠZustÃ¤nd igkeit
ant ast
ĠNah en
Ġlau tet
Ġkommer zie
sp ir
zÃ¼ ge
i ste
p al
ie h
Ġan nehmen
Ġgeb oren
Ġb uchen
kehr en
Ġaufge fordert
ehr t
Ġeinzigar tige
ĠW ik
ĠC ol
Ġhervor heben
Â ¤
Ġsch afft
Ġbes ei
sch ule
zip lin
ĠRom a
ĠAutom obil
Ġ rÃ¼ck
Ġan wes
ĠV o
ĠUN O
Ġf ra
ĠGer man
az ier
fÃ¼hr te
Ã¶ h
Ġer Ã¶r
Ġzug unsten
ĠGe gend
Ġs ehe
ĠAus stattung
si di
ĠKam p
Ġperf ekt
ĠGo ogle
ĠGest altung
ĠAb schnitt
ĠS atell
ĠC ode
ĠO ffen
re at
ĠGesch mack
ĠAr me
Ġwissenschaft lichen
Ġeinz us
or y
ĠSch atten
Ã¼s sen
ĠF Ã¼
ĠBeh inder
t Ã¤
Ġzentr alen
bet rieb
Ġs h
Ġzu folge
em a
ĠS zen
Ġver stÃ¤nd
ĠAm ts
ĠPlan ung
ĠM Ã¶
Ġbe abs
ĠPrÃ¼ f
ber ge
Ber icht
ĠbeglÃ¼ckw Ã¼nschen
Ġl og
y l
ĠKil ometer
E m
ĠB aum
ĠSt rÃ¤n
ĠSte uern
ĠSp a
ĠFar be
ĠzustÃ¤nd igen
T ra
Ġzu zu
ĠAus fÃ¼hrungen
ĠE p
Ġkur zen
op f
reff end
Ġger Ã¤um
F erner
ĠW Ã¼r
ma schine
ĠprÃ¤ z
is ser
Ġge prÃ¤
Ġer lÃ¤
on i
ĠRatsprÃ¤sident schaft
ĠbestÃ¤ tigen
Ġerheb lich
le fon
Ã¤st inens
la w
Ġbek omm
ĠA ktu
ĠB ay
Ã¤hr ung
lie b
Ġverst anden
Ã¶n e
Ġdurch fÃ¼hren
ĠzurÃ¼ck ge
ĠB ri
ro ht
ĠKrank heiten
ĠSt atist
schied et
Ġmit ten
ug h
Ġschw ed
ĠZahl ungs
- /
Ġschn elle
Ġf lexib
ĠSt ahl
Ġverb ringen
Ġverab schiedet
ĠDeleg ation
r ischen
ĠfrÃ¼h eren
ĠH alb
Ġpar lament
Ã¡ n
ĠBe stellung
Ġkont inuier
Ġzentr al
g Ã¤
ĠF Ã¤higkeiten
Ġso dass
ĠEurop e
min uten
ring erung
Ġnachhal tigen
Z wei
lÃ¤ss lich
ĠAusgang spunkt
ag s
di tionen
Ã¼n scht
haus halt
ĠAus fÃ¼hrung
ritten s
ĠRelig ion
ĠR und
ĠzurÃ¼ck zu
ĠO pposition
ĠAng st
Ġnotwend ige
Ġ15 0
Ġa c
Ġehr geiz
en kt
ti fik
ĠKon text
Ġs k
Ġausge stat
Ġm m
ĠUr spr
Ġun ent
ĠGleich gewicht
ĠProj ekten
ĠT ick
f Ã¤higkeit
u gen
Ġz ivil
9 7
ĠB ett
ĠArbeitspl Ã¤tzen
F l
ĠJ ournal
ĠUm feld
vent s
ĠL ast
ist ik
st ation
ĠG rand
ĠAus gabe
ĠBei spiele
hÃ¶ rigen
sor gung
mÃ¤ÃŁ igen
R at
0 2
k ultur
os sen
Ã¤h ler
{ {
Ġp re
ion e
Ġv olle
P T
Ġeinz uf
ĠB ill
S P
p ekt
Ġ19 5
l ik
ĠRegierungs konferenz
ĠC enter
Ġgew issen
Ġpro du
s c
ger Ã¤te
Ġan spruchs
usst sein
Ã¼h l
a el
f inanz
ĠAus stellung
stell ungs
h ei
Ġbezahl en
ĠF la
ĠGe pÃ¤ck
ĠLie be
eint rÃ¤ch
ĠEntwicklungs lÃ¤nder
ĠAn wendungs
a al
eu gen
Ġj etz
ĠÃ¶ffent lich
ĠRed ner
ĠPlen um
er kennen
ĠEn terprise
ĠFor um
ger ufen
Ġm assi
ĠVerb ot
Ġm et
etz ten
ĠAk tien
Ġd ich
ĠEx port
ĠGew icht
Ġver leihen
Ġerm u
izi ent
ĠAn n
be auftrag
ĠDu sche
ĠArbeitspl atz
Ġloc ation
ĠV ir
ĠKomm un
ĠReg ime
Ġbesch rÃ¤nkt
ĠEin beziehung
Ġserv iert
ĠF euer
amm er
iti m
ĠgeprÃ¼ ft
k om
sch m
ĠAn bieter
Ġfrei will
Ġauf nehmen
ĠPrinzip ien
ĠBuch ung
ĠGew inn
Ġproduz iert
ĠÃ¶st erreich
D rittens
ĠK MU
her ap
Ġentde ck
ĠAfghan istan
Ã¼ ler
ik er
ĠFrei heiten
ĠPart nern
Ġverh indert
Ġh Ã¤ngt
m achen
ĠK roati
Ġgeb oten
ĠvollstÃ¤nd ige
ĠCh em
ĠGeschÃ¤ fte
ĠRumÃ¤n ien
ĠZusammen halt
Ġausge zeichnet
Ġw echsel
le y
ĠZentral bank
b anken
Ġaus gesetzt
bliothe k
ĠG rad
ĠSt reit
Ġb ar
ĠVer ringerung
lÃ¤ss igkeit
ic o
Ġun mÃ¶glich
Ġge Ã¤
ru ption
Ġversch w
u ens
st eigen
Ġder artige
Ġk re
Ġent steht
ĠSchlaf zimmer
ĠH imm
op ul
b and
u a
Ġwel chem
Ġentwick elten
ĠH ohen
Ġdir ekten
Ġnie d
Ġabge stimmt
g rei
Ð ²
ĠBe ziehung
reu z
tifiz iert
sp rachen
koh ol
och ter
ĠSon ne
Ġw ollten
ĠV iertel
sor ge
Ġmit ge
w affen
Â «
under t
ĠG anz
ĠEr satz
Ġpass iert
ag o
spann ung
produ kte
ĠAltern ative
ĠSch en
ol i
Ġgelten den
h eren
Ġerreich bar
ĠF Ã¶rder
ĠS n
ĠFakt oren
w art
ĠHa ft
scheid et
ro hung
Ġhervor ge
ĠsorgfÃ¤l tig
ĠN o
Ġ che
ĠB ru
ĠK urz
ĠBeruf s
aussch uÃŁ
Ġge zwungen
Ġp lan
prÃ¤ sent
Ġbeg rÃ¼n
ĠGemein de
Ġf erner
ĠAn rei
Ġgeb aut
b s
ĠD av
Ġtats Ã¤ch
Ġb reit
sp f
ĠHa ftung
ĠT rag
Ġausge fÃ¼hrt
it a
ĠBemerk ungen
Ġle gt
ĠGer ichte
Ġstaat lichen
Ġerleich tern
ĠM ut
h i
b i
c l
d ate
ĠTr end
ĠCo sta
L in
y si
ĠbegrÃ¼ ÃŁt
Ġkost et
O hne
ar ische
Ġdefin iert
wei le
ĠVorschlag s
Ġnahe zu
Ġhinzuf Ã¼gen
Ġvor legen
ĠKam era
ĠFÃ¼hr er
Ġ ).
Ġheu tige
Ġintensi v
Ġkurz frist
ĠK rÃ¤fte
Ġver ehrte
ĠW Ã¼nsche
Ġp reis
ĠPan or
ari f
ĠMen Ã¼
ĠKap itel
ĠWachstum s
z onen
ĠD en
Ġwest lichen
ĠNahrungs mittel
Ġw eite
ic al
ati s
Ġ ordnungs
en ha
ick s
d auer
gen t
Ġh off
Stra tegie
Ġ4 5
g s
ĠSchw imm
Ġv iew
ĠGeh eim
ĠÃĦ r
Ġjeg liche
Ġc an
ĠGrÃ¼n dung
rie f
n Ã¶
ĠAktion splan
amm eln
D aten
p ap
wer tet
: //
ri c
ĠEinw ohner
ĠVer mÃ¶gen
sp er
iel te
Ġerinner t
w Ã¼r
Ġsol ange
20 10
ĠVereinbar ungen
b uffet
Ñ ı
Ġk Ã¤mpfen
ĠEr holung
Ġspezif ischen
c lub
aust ausch
Ġvor bei
Ġe chten
zent ren
ĠDeut schen
ame ter
b r
den k
iel er
hr en
zn ei
ĠF leisch
d ik
ĠRechts staat
ĠBeit rÃ¤ge
ĠZyp ern
ĠbemÃ¼ hen
gn or
Ġangemessen e
te ste
rib ution
ĠMil ch
Ġfer tig
ent wurf
ĠÃ¼brigen s
Ġgesp eichert
ĠKon sens
Ġbesch leun
ti mal
Ġo ut
wer ben
ĠhÃ¶ heren
fahr er
ktiv itÃ¤t
ak tieren
ĠVerl ust
sidi aritÃ¤t
ĠSp azier
Ġp art
sam en
de d
ĠRe zeption
ĠV al
ĠZiff er
Ġex klus
ĠPrem ier
Ġar ch
ĠAm t
ĠT Ã¤
ĠM el
Ġo ur
ĠAn kunft
duz ierung
eit ungen
ĠVerÃ¶ffent lichung
M ill
r ess
le an
Ġp o
ĠSch nitt
chn ung
yp e
Ġ *
schaff ung
ĠVerb indungen
al itÃ¤ten
ĠGesetz es
s Ã¤tzen
ĠWebs eiten
r or
all el
zept abel
or ten
ĠG lauben
id a
ĠSch uld
Ġn utz
Ġpal Ã¤stinens
ĠBe am
ĠProblem s
Ġbestehen de
Ġaus reichen
lin gen
Ġs ah
Ġverring ern
ĠGes ellschaften
g Ã¤nger
ĠGe fahren
stra tegie
in er
Ġf ac
ĠKompeten z
ĠAuÃŁen politik
2 000
ĠZ ur
Ġverb ind
9 9
ĠWer bung
Ġbil ater
Ð ¼
ar n
ĠR i
ĠCas ino
Ġgegeben en
Â °
Ġverur teilt
ĠUngar n
Ġw ann
ĠSo und
ĠSa una
ol o
Ġm u
Ġbeh alten
ĠWebs ites
os a
Ġne un
Ġg l
ĠâĢ ¦
ĠauÃŁerorden tlich
Ġk Ã¼mm
ach er
stru ktion
s ie
} }
g i
D adurch
ĠMa x
we ge
ĠBÃ¼r o
ĠN et
pl emen
ĠgewÃ¤hr t
ĠSub sidiaritÃ¤t
Ġruh ig
ĠProvin z
Ã¤t ten
ĠbeschÃ¤f tigen
ĠZwe cke
3 5
ti f
Ġnun mehr
ĠG i
klÃ¤r ung
Ġ20 20
Ġver dient
ĠgrundsÃ¤tz lich
ra ten
Ġeinfach er
Ġverb inden
ĠBes onder
sp akt
ain t
Ġeinheit lichen
Ġet hn
teil ungen
ĠGesprÃ¤ che
Ġberech tigt
ĠF ax
ĠMarkt es
Ġgesp ielt
Ġorganis ieren
ĠPoliti ken
s ur
ĠVor haben
Ġrecht lichen
Ġmitt ler
Ġinteress ant
ssystem e
ĠGe org
Ġm oment
Ġp e
ĠZiel en
Ġbestimm en
ĠF reit
Ġab gesch
ĠBr asil
g ten
ĠVerb reitung
ĠKomp onenten
ĠWirtschaftsw achstum
Ġer setzt
Ġchines ischen
h Ã¤user
k reis
Ġletzt lich
w an
Ġm iss
Ġvor stellen
Ġbek rÃ¤f
Bei fall
Ġjen en
ĠJ ohn
Tats Ã¤chlich
ĠA L
riend ly
ĠP oker
S ow
m od
zÃ¼g igkeit
st ande
Ġt rag
ĠBo ot
Ġaktu ell
ĠP reisen
beh andlung
Jed es
ĠP rin
ĠE G
ati ver
ĠS orgen
ĠBet rug
ĠStra ÃŁ
Ġmax im
U NG
em burg
St a
ĠhÃ¶ch st
I t
us ion
Ġvorhanden en
Ġd est
ĠKor ruption
Ġd ein
ĠGer icht
Ġst re
ĠAn schluss
ĠâĢ Ķ
I R
ĠB an
Ã¶r ter
Ġinstall ieren
ĠMig ration
Ġgest altet
Ġbemer ken
ĠW are
ĠEnerg ien
r ich
Ġzusammen arbeiten
Ġentscheiden de
d igen
r as
ĠK y
o f
ir k
ĠBes orgnis
2 6
Ġan alys
ĠLux us
ĠR enten
ĠGro up
ier s
ĠWe gen
ĠMed ik
Ġerfolg reiche
g te
el a
av ig
is ion
Ġver wirk
Ġstehen den
eh nen
Ġindividu ellen
ĠBetrieb s
Ġunver zÃ¼glich
p rinzip
ĠB ab
ĠI P
Ġindividu elle
ĠArbeit sk
ges s
ĠW art
uk le
ĠRechnungs hof
Ġis rael
Ġberu ht
b ran
ic s
S e
ĠVers and
ĠFre unden
Ġaus sprechen
Ġkl aren
9 0
N och
le cht
etz te
ĠMan gel
ĠSchwei zer
w o
ĠursprÃ¼n glich
l etter
or iz
Ġk amen
Ġsch lÃ¤gt
ĠBet rag
ĠdÃ¼r fte
ontro ll
Dat ei
Ġaus geb
ock t
Ġjen er
sor ganis
reu en
ĠErzeug nisse
ĠAsi en
Ġwiederhol en
9 6
Ġver dien
ĠSozial demokra
Ġm Ã¼
Ġi P
ĠG rÃ¶
wÃ¤h len
Ġ199 5
cen ter
ĠB ord
Ġbestimm ter
ĠStÃ¤d ten
ĠS ektoren
ĠVer pack
ĠL ive
Ġfeh lt
Ġlux uri
Ġ4 00
ĠF o
scheid ung
ĠG ere
ĠAbkommen s
Ġreduz ieren
ĠVer lauf
Ġop timal
ĠverstÃ¤r ken
Ġange wand
ch tigkeit
Ġbet reffend
Ġangegeben en
ĠMit arbeitern
Ġeinger eicht
zeu ger
Ġu p
ĠKrank heit
e te
ĠWerk e
ĠEigent um
Ġbri tische
ĠUntersuch ungen
Ġp la
ĠMe x
ĠSer ie
ĠWerk zeug
Ġinnov ative
ĠHin weis
y a
wir kt
ĠBet racht
Ġwider sp
Ġ3 2
Ġverkauf en
k ret
ĠVor stellung
ohn ungen
an w
be k
usÃ¤tz lich
Ġam tieren
ruch t
ĠergÃ¤n zen
frik anischen
ĠOp tionen
ĠÃ¤uÃŁ ern
in formationen
Ġr elev
AD S
ĠTab ak
wer ken
ĠKontro llen
W eb
Ġzw eit
ĠMÃ¤n nern
Ã¤ ss
ĠT ochter
ĠS ing
ner stag
Ġse par
ĠgroÃŁ zÃ¼g
Ġb r
ĠSp aÃŁ
ĠAb hÃ¤ng
ĠUr heber
ĠAu ge
ĠSchluss folgerungen
Ġerh ielt
ĠP in
ĠBemerk ung
Ġvorber eitet
ĠD ek
ĠKop enha
Ġruss ischen
um p
re geln
i bl
ĠCh arta
trag s
ĠMit t
ĠProgramm en
ĠGer Ã¤t
ĠD am
bur ger
v ern
ĠAus maÃŁ
kehr t
ĠW etter
ann e
Ġempf ohlen
sver l
Ġnah m
K ann
m on
ur a
Ġhil f
qu es
Ġerfolg reichen
reg ion
M o
ar r
ĠM P
ĠBereit stellung
sk rise
ĠS emin
Ġviel es
M en
Ġp age
ĠB Ã¶r
alis ierten
Ġindividu ell
ĠRad io
ĠW esent
at ch
ĠSe c
ĠWohl stand
ĠM rd
Ġver mitteln
Ġt ro
l assung
ĠRechts grundlage
ĠVerbraucher schutz
Ġaus einander
Ġein ig
sche fs
Ġeinge halten
z usammen
Ġkri tis
Ġpol n
de ckt
F or
ĠZahl ung
geb iete
k ern
as zin
Ġerheb liche
ĠS atz
ĠausgewÃ¤h l
ĠRe gen
Ġanwes end
Ġempf angen
ĠKon kur
Ġtransp aren
Ġbeige tragen
ver y
ĠOrigin al
vor schlag
ro s
ĠP re
ĠgroÃŁ em
ĠErw Ã¤
e ffizienz
Ġverantwort ungs
sp rechend
E W
f ar
ĠR h
ra u
ed ia
Ġbeteil igen
Ġ ru
ĠT raum
St and
Ã¤um t
Ġi gnor
ehr en
Ġst il
amen te
ĠSchl uÃŁ
R A
ĠAn merk
ol en
ik a
ĠBr enn
Ġwundersch Ã¶nen
wer ks
ĠSatell iten
O T
h Ã¤ngen
ĠVor der
on ien
Ġst amm
Ġ ?
Ġelektron ischen
ĠZ in
Ġ Å
Als o
ĠKons ult
Ġsen si
zahl en
ĠSchul en
Ġbeob achten
am in
ĠBel ast
F orm
ĠKl ar
Ġbed auer
v an
Ġf uer
Ġp our
Ġwettbewerb sf
fÃ¤ llig
ĠVis ion
ĠMitglied schaft
o ÃŁen
ĠVer d
ĠKn ow
Ġl ast
ĠKommunik ations
E U
Ġst olz
Ġvor rang
mar k
ĠSu pport
ore a
ĠGegen stand
or ie
ĠFrankf urt
Ġpro p
Ġverb oten
ĠSchÃ¶n heit
Ñ Į
Ġunver gess
ĠSch ne
laubwÃ¼rd igkeit
ie gelt
ĠB IP
Ġeinzigar tigen
Ġstrateg ischen
Ġan bel
ĠIn fl
Ġbis lang
Ġkomm e
ĠStu dio
Ġge arbeitet
Ġgek enn
Ġausger ichtet
Ġlok ale
Ġtradition elle
ĠStimm en
A d
k und
Ġgen annte
Ã¶ konom
Z B
sen z
Ġamerik anische
Ã¼ bt
ĠVerfahren s
ĠNach richt
sst ra
spart ei
Besch reibung
ti z
ĠBed rohung
Ã¤us ern
ehr ten
Ġsol ches
Ġentscheiden der
Ġaktiv ieren
2 1
ĠAr znei
S h
Ġanbel angt
I B
im es
Ġintegr iert
ym bol
politi schen
ur teilung
ĠBar s
ĠS icherung
bereich en
ĠDir ekt
k Ã¼r
Ġl o
ĠzustÃ¤nd ig
ĠGewÃ¤hr leistung
ĠStaat es
Ġverkauf t
ĠW andel
aus e
Ġhochwer tige
ur m
ĠEr stellung
Ġverb indet
Ġer zeugt
ĠOl ymp
Ġbereit gestellt
w ald
ĠSp eicher
ĠKonsequen zen
n ien
ĠIS O
ĠfranzÃ¶s ische
ĠWider stand
mit tels
Ġlie fert
Ġklein es
ĠB lock
ĠP ack
Ġre st
eig ern
ĠKaff ee
s werte
ĠG laubwÃ¼rdigkeit
ĠAn sichten
ei gerung
Des wegen
S ervice
zen ten
Ġsch icken
ss icherheit
r asse
ĠD rei
wor k
uch te
Bes onders
stra fe
ĠTel ek
c or
pl om
Ġeff izient
ĠÃľber legungen
j ekten
ĠPark platz
Ġverteid igen
ĠAl pen
ĠS ohn
wer den
fol gung
re che
gesch ichte
Ġletzten dlich
0 4
ie den
Ġw eist
Ġbeant worten
as y
at ter
Ġst ud
Ġst ammen
0 5
Ġ one
Ġin klusive
n iveau
ver sion
ĠVerl etzung
ĠÃ¶ konom
eu ert
ĠRes ort
Ġwiederhol t
sch reiben
Ġha d
ĠLeist ungs
Ġsozial er
lie hen
ĠBus h
ord nungen
en bezogen
ei ra
ĠÃľber setz
ĠAK P
S L
Selbst verstÃ¤ndlich
Ã¤r kt
ch ner
ro lle
men te
ĠSp itzen
Ġv irt
Ġmittl eren
ĠVer arbeitung
Ġoffen bar
ĠFahr t
Ġro man
n icht
Ġm achte
ĠC ha
ĠLiefer ung
and t
sk on
ĠKolleg in
wei len
ĠAll i
ĠAr b
ĠZivil gesellschaft
ĠD igital
ĠSch loss
ĠTa uch
ĠFuÃŁ ball
Ġoffiz iellen
ĠVer f
hÃ¤lt nisse
ĠFreit ag
ĠgenÃ¼ gend
spro blem
rech ter
200 1
ĠÃ¼berprÃ¼ ft
Ġkonf ron
ĠP ositionen
ĠDon nerstag
sch ul
ar ia
Ġherr scht
w eich
Ġn Ã¶r
ĠGesch windigkeit
Ġw ohnen
Ġin mitten
Ġmus sten
R es
S ollte
Z usammen
ĠEr fÃ¼llung
Ġweit gehend
ies sen
tisch es
agen tur
gar ten
ĠG ang
Ġhin weg
Ġm oral
ĠO ut
ĠAugen blick
Ġvorzu legen
Ġ199 0
Ġall zu
Ġfinanz iell
T A
ĠR ub
ĠAnst ieg
ĠEnt lastung
ĠB ack
organis ation
ĠG Ã¼ter
ĠFest pl
Ġkonk ret
Ġv ous
ĠOp tim
Ġa rab
Ġb reiten
ĠEing ang
ĠH al
Ins besondere
ben te
Ġeinz ur
ch st
ĠRes pekt
Ġerle bt
Ġbet reiben
rÃ¤n kung
ĠW Ã¤l
ĠE mail
l Ã¶sen
strich en
ĠKont o
k rÃ¤fte
ei ert
Ġg lÃ¼ck
a w
Ġge pf
hÃ¶r t
ĠGrÃ¼ nen
m ung
ĠOr te
ĠBesch lÃ¼sse
wie gend
Ġ19 4
ĠP fer
ĠK abel
Ġerst mals
ĠIm p
ĠR ati
ste chnik
ĠHil fs
r al
ĠEin stellungen
ĠEr m
ati sche
ĠBulgar ien
Mitglied staaten
ĠR ob
Ġl ag
Ġentwick elte
ĠPo wer
ĠgÃ¼nst ig
Wir d
Ġstell te
C C
Ã º
Ġernst haft
Ġt ritt
ĠPH P
S ollten
ĠAn lass
ĠRe duzierung
Ġh art
gra d
rÃ¤n ke
ĠC af
ran ten
ĠGeh minuten
ĠAutob ahn
Ġaktiv e
Ġgelin gt
ĠSt offe
Ġj ahr
Ġor igin
L E
f luss
ri a
ĠMinister p
ĠF inn
Ġinvest ieren
p ol
ĠÃ¤hn lich
ĠVerz Ã¶
Ġ ;
Ġhier bei
Ġb ele
all er
ĠPrak tiken
weis ungen
mit glied
ĠerwÃ¤h nen
âĢĿ .
Ġan schlieÃŁen
ĠDie ser
P A
Ġroom s
ĠMad rid
3 3
hal tigkeit
os si
Ã¤ng st
Ġbekomm t
B ar
v iertel
Ġj ur
ĠS terne
acht eil
zep te
ipf el
Je de
u tern
ĠSch Ã¼ler
ĠSon nt
ĠD enn
Ġz us
ĠB itte
ĠGott es
Ġh tt
Ġilleg alen
ĠzukÃ¼nf tigen
Ġhervor ra
Ġvers ichern
Ġb reakfast
Ġuntersch eiden
2 7
200 9
ĠMed izin
Ġein bezogen
ĠEr lebnis
ste uropa
Ġletz ter
ĠKonf igur
ĠW Ã¤hler
ĠfÃ¼hr ende
Ġangep asst
ĠGere chtigkeit
ĠKatastrop he
Ġvorgesehen en
Ġinstitution ellen
st rÃ¤ger
ur o
Ġdes wegen
ont o
So ftware
Ã¤h igen
Ġoptim ale
uver Ã¤n
Sp e
Ġreduz iert
ĠS Ã¤
b rechen
Ġkompl iz
Ġunterst reichen
la ger
Ġbegren zt
ĠGleich stellung
2 8
ar us
ĠI st
Ã¤n glich
ab t
ĠKont akte
Ġer setzen
Ġeinzus etzen
Ġein st
ĠÃľbern achtung
ĠTÃ¤ tigkeiten
ĠRe volution
Ġdeut sch
Sc ript
Ġge stattet
ĠQu ellen
osoph ie
Ã¤t zt
Ġbe endet
D ort
Ġbehaup ten
Ġsu per
Ġge tragen
okra tie
Ġwirtschaft licher
ĠPlan eten
Ġver teilt
L ie
ĠSt amm
Ġkont aktieren
ĠverfÃ¼g baren
s eiten
Ġgef allen
ĠTex til
sp rinzip
ug ang
ĠKultur en
sol id
Ġan schlieÃŁend
ww w
Ġbe geg
ĠKon gress
sf onds
ĠkÃ¼nf tige
ĠSt ation
Ã¶ff nung
as k
staat lichen
k urs
ĠSchiff e
u ls
Ġmit teilen
Ġher um
w och
ĠMar ke
ĠAll tag
ung er
ĠP ersÃ¶n
Ġbedeuten de
I ON
bild ungs
ĠInst itut
i or
Ġv ollen
Ġan sprechen
Ġerst re
Ġk at
ĠW ohnung
r ennt
ĠSa ison
P art
ekt rum
ĠEx istenz
Ġspezif ische
J ahr
um in
ug os
sto ÃŁ
ĠS ituationen
ĠEnt fern
ĠP rag
ĠL iter
ist ischer
ig ner
ĠE benen
ĠV on
W ill
z ungen
b Ã¼
bet ten
ĠB ou
Ġbe eintrÃ¤ch
ĠPro zesse
amm elt
ĠS achen
ĠW all
b ring
Ã¼hr t
ight s
W o
Ġf und
ger Ã¤t
Ġhervorge hoben
Ġbisher igen
Ġkonzentr iert
ĠgrÃ¶ÃŁer es
Ġab stimmen
spiel en
lex ibl
bleh nung
k ap
ĠF rist
ĠWeiter en
Ġt eile
ĠPl attform
blei ben
gel Ã¶st
iz za
fer nen
Er st
ĠAnw ender
F ol
Ġgew al
Ġwissenschaft liche
her stellung
ĠHer bst
ĠWider spruch
bed arf
ĠAb fall
ĠL eiden
ĠUm satz
Ġunter zeichnet
ar ma
ĠVerÃ¤nder ung
Ġlangfrist ige
ĠGef Ã¤ng
Ġkonfron tiert
Ġsch m
Ã¤r ten
S u
Ġunter liegen
Ġoffen e
ĠA blehnung
Ġman che
Ġpoten zie
ĠFrei zÃ¼gigkeit
ĠD enk
Ġwh ich
lei ste
Ġger aten
el den
Ġvorgeschlagen e
ĠKrimin alitÃ¤t
e ff
Ġlie ber
Ge gen
ĠB os
uÃŁ t
ĠDok umenten
c ell
ĠKl asse
All es
ĠRes iden
ĠApart ment
ĠÃľbergang s
Ġh eim
ri p
ĠBur g
Ġgeb rauch
ĠKroati en
Ġh as
Ġ20 11
jek tiv
Ġl eb
Ã¶r p
ĠkÃ¶n nt
ach ter
Ġum ge
ĠSch ei
ĠBet ten
az itÃ¤ten
in iti
ĠPerspek tive
Ġordnungs gemÃ¤ÃŁ
H aus
Ñ ĭ
ĠMit tag
Ġumfassen d
drÃ¼ck t
ais on
ugos law
lei dung
U N
anz ig
programm e
ĠVide os
ĠCamp ing
Ã¤ÃŁ t
Ġind ir
ÃŃ a
Ġhtt p
Ġab z
Ġfreund lich
ĠK reis
id es
Ġs ign
ĠPass wort
Ġherunter laden
Ġdra ma
Ġ ï¿½
ĠArg ument
d y
i as
an isch
ĠAb schaffung
Ġj ap
Ġer gibt
yp en
D A
Ġperson enbezogen
aus p
ĠForm at
ĠRÃ¼ck kehr
ĠDeut sche
d is
un ruh
la v
Ġeinge gangen
e f
ĠK al
ĠVolk es
Ġinter nen
ĠAu dio
wech s
fach ung
Ġfinanz iert
ur n
ut sch
Ġun zur
ann ter
Ġmodi f
E l
ĠFahr zeuge
ĠBel gien
ĠgeprÃ¤ gt
enn e
ei tigung
ĠSant a
Ġausge hen
Ġenthalten en
Ġbeh oben
Ġoffiz iell
Ġanzu zeigen
ĠVolks gesundheit
ĠE ADS
la ter
Ġsch lagen
an tien
ĠAus flÃ¼ge
Ġsogen annten
Ð ´
an ischer
Ġin folge
ĠM iÃŁ
Ġger ichtet
Ġfest zulegen
ĠArme e
Ġp f
dienst leistungen
Ġb lo
ĠL atein
ICH T
r ieren
Ġre chten
Ġmensch liche
Ġumfang reiche
Sta aten
mit glieder
ĠBal kan
sprogramm e
Ġd Ã©
ĠBe gl
ĠPro p
Ġangen ehm
enn is
ĠOb jekt
sprozess es
ĠzukÃ¼nf tige
Ġschrift lich
ĠM ul
Ġl Ã¤ÃŁt
Ġgebe ten
ĠFlug zeug
ĠNachbar schaft
h Ã¤fen
ĠBeitritt s
Ġbesonder er
ĠRe al
Ġange kÃ¼nd
ĠGeb urt
ĠKommission s
ĠBereit schaft
Ġw on
ĠS ammlung
besch reibung
ĠprÃ¤sen tieren
Ġf rag
Ġan hand
be ziehen
Ġdank bar
Ã¤d chen
3 4
form ation
ĠEm ission
c u
Ġg rÃ¶
ĠSu iten
ĠmilitÃ¤r ischen
an spruch
rin k
Ġlangfrist ig
ĠKatastrop hen
ler nen
Ġprak tische
omm unik
Ġvereinbar t
d lichen
Ġhin gegen
Ġhervorragen den
wei tern
ĠW ild
Ġor ien
ĠVoraus schau
lÃ¶s ungen
Z usÃ¤tzlich
Ġjetz igen
ĠS ow
ĠK ub
Ġp sych
Ã¤m pft
ĠRegierung schefs
Ġvorliegen de
z Ã¤hl
re ktur
ĠL eitung
Ġsich ere
ode x
ĠBefug nisse
7 5
ĠZu ver
ĠBest Ã¤
ir men
Ġli ber
ĠErinner ung
Ġa bend
ĠD ritten
ĠZu cker
Ġd ans
ĠZ ul
Ġsch Ã¤d
Ġet abl
alen der
Ġinte lligen
Ġgemeinschaft lichen
b ungen
3 6
m as
Ġdar gestellt
ĠÃĦ gyp
gr unde
c ode
ĠJ oh
Ġzie ht
Ġgepl ant
ĠPen sion
ĠCo ok
u z
ĠMenschen rechts
h le
Ġnach drÃ¼cklich
fiz it
ut h
ĠNachbar n
Ġverdien en
ra ts
Ġe d
Ã¶ ch
Ġres erv
Ġperf ekte
ĠM eister
ĠPl Ã¤ne
au ben
gren zung
ĠAbhÃ¤ng igkeit
ĠB rand
ĠVer sionen
ot os
ĠPrÃ¤ sent
ĠBrasil ien
G anz
Ġf antast
gef unden
Ġun e
ĠE ZB
Ġl as
atur en
Ġben ach
uÃŁ ert
p lay
jahr es
Ġkontroll ieren
Ġgro sse
Ã¤h ige
Ġerf reut
ĠGesprÃ¤ ch
Ġ3 6
ĠunabhÃ¤ng igen
ĠBinnenmarkt es
au b
ĠEx p
Ġ7 5
te chnologie
ĠB ern
rÃ¤ glich
ĠgewÃ¤hr en
gem ein
ĠBeteil igten
ĠF ein
Ġk napp
ĠR uf
ĠL ok
ĠGen ehmigung
ĠAbend essen
ĠgewÃ¼nsch ten
ĠNews letter
h el
p re
eil er
ĠDem on
Ã¼s s
ĠmilitÃ¤r ische
ĠS how
Ġf lexibl
Ġzu grunde
ĠJ a
ĠMÃ¤r kten
0 9
Z iel
u ck
au schen
Ġg o
ĠL ist
Ġeig net
ĠL eiter
2 9
de h
E A
Ġer hoben
Ġbe ur
Ġl Ã¶
Ġbet rieben
Ġhoh em
mitt lung
ĠOl iven
ĠPaten t
c ial
be weg
wer fen
gr essi
ĠDi kt
ut age
ĠAnw esen
Ġun g
ĠGe werk
ĠEnt spannung
utz utage
qu ent
f leisch
p la
sen den
Ġbesch rÃ¤nken
Ġver sp
tifiz ierung
) ;
ti al
an aly
ĠBet reiber
ĠÃ¤hn liche
S V
end ung
ad or
Ġen ger
ĠKir chen
ĠFinanz ierungs
du le
Ġwirtschaft lich
ĠHimm el
ĠHam burg
Ġbeh inder
org ungs
ug ies
D R
j et
Ġsch einen
chnolog ien
Ġleich ter
K Ã¶n
ĠÃ¼ber t
ĠNach haltigkeit
g eschÃ¤ft
scha uen
Ġsicht bar
ein igung
opp elt
Ġstrateg ische
Ġfestge legten
Ġs an
fÃ¼hr ungs
ĠH Ã¤user
ĠVer teilung
ĠN ummer
3 8
ur laub
Pro jekt
gere cht
ĠD ynam
ĠAn der
Ġbed anken
ĠO S
Ġexist iert
ĠOrgan e
Ġunter sucht
ĠPl ug
Ġstaat liche
f uhr
ĠBer ichten
ĠnatÃ¼r liche
ĠAlli anz
Ġk Ã¼nstler
Ã¼t zlich
ĠMan ager
er er
ĠGrund lagen
ov e
ĠFlÃ¼cht linge
i Ã³n
ĠW LAN
ah e
it ar
Ġn Ã¼tz
Ġkompl ette
Ġeinheit liche
Ã ¢
Ġaus ser
Ġbeg renz
Ġbedeuten d
Ġkorre kt
ĠÃ¼ber aus
ĠBar roso
ĠUrs achen
ĠFrÃ¼hstÃ¼cks buffet
an ter
Ã¤n omen
l esen
Ġex ternen
ĠC a
Ġschl imm
ĠArb eiter
ĠInnen stadt
k i
ĠIn tern
Ġsp eichern
ĠStre et
ĠSchl acht
ĠP DF
ĠRe chten
ĠJ o
ett o
Ġf Ã¶rdert
ĠK ab
ĠRe f
ĠE uch
Ġpl us
ĠRe fer
Ġgen ie
aler ie
Ã¤nder ungen
alis ierte
Ġis lam
Ġwirksam e
spoliti schen
it err
ĠKon ver
ĠPoten zial
C hr
Ġerst kl
ĠWiederauf bau
st anz
on ym
ĠBe arbeitung
Ġrecht zeitig
Ġkor rig
Ġunzur eich
reich er
0 8
3 2
t he
n am
ĠSie d
gest altung
Ġd ist
Ã¼ mer
sam e
pro zess
rieden heit
ĠWochen ende
Ġhoff entlich
G eb
in stitu
Ġauf gebaut
ĠLob by
Ġun a
ĠGener ationen
zent ration
yn ch
ll a
C on
z ed
ĠG N
Ġer weitern
Ġport ugies
Ġwon ach
Ġn ord
ĠzurÃ¼ck zufÃ¼hren
ĠAt tra
Ġhumanit Ã¤re
instr ument
Trotz dem
Ġnieder lÃ¤nd
Ġs i
ĠR a
ĠÃĸff nung
Ġum setzen
Ã¤ch er
ĠMet all
Ġc lean
Ġex pl
200 8
ĠGroÃŁ teil
ĠÐ ¿
Ġlauf enden
Ġs in
ge fÃ¼gt
Ġn Ã¼tzlich
ĠunabhÃ¤ng ige
iet ung
ĠHo f
ro und
Ġkomfort able
Ger ade
Ġh andel
ubl ic
Ġant worten
a frika
ĠBe fÃ¼r
metho den
ĠKonflik te
Ã £
ĠBevÃ¶lker ungs
Ġgenau e
D ER
Ġst ay
Ġhier fÃ¼r
W F
ĠU l
Ġgen ehm
Ġbeg leitet
Ġange wendet
ĠKan ada
ĠMont ag
ĠRechtsstaat lichkeit
g ner
Ã¼n ften
Ġstattf indet
Ġnormal erweise
P C
Ġf roh
ĠPar ad
Ġm ak
Ġw Ã¼nsche
ma te
ĠUS B
Ġpar a
Ã¤ le
Ġzu gelassen
ĠC ast
Ġlie ÃŁ
ĠMode lle
tig ungen
ret ung
ĠA lex
ali fik
0 6
Z w
ĠM ission
Ġvor nehmen
Ġsp Ã¤t
ĠLehr er
onom ie
Ġqualit ativ
b at
ĠL am
Ġeinzuf Ã¼hren
Ã ¥
ĠD ra
ĠVerhand lungs
Ser ver
M ir
ern t
ĠBÃ¼rger beauftrag
ĠKredit karte
hop s
ĠH T
Ġr ufen
Ġ199 4
Ġwahr en
ĠAus einander
ĠAuf sichts
ir ma
zahl ungen
Ġkein em
av e
Ġhei ÃŁen
ĠHei zung
ĠgeÃ¤ uÃŁert
ĠGef angen
j unkt
Ġgro ssen
ĠFern sehen
ges p
iten t
ĠMuse en
Ġver Ã¤nder
Ġsp ort
ĠUrlaub s
Ġnorm alen
Ġges undheit
S QL
Ġer fordern
Ġmehr fach
Ġa bleh
p os
Ġsich eren
Ġj ust
inen ser
S ein
b aus
sch nit
ĠÃ¼ber sch
freund liche
sp rÃ¤sidenten
Ġschn ellen
ĠDeb atten
Ġangeb racht
p ass
ĠPass ag
ast er
ĠHand lungs
A ut
Ġent tÃ¤u
Ġstand ard
w as
ĠAus blick
Ġex tra
Ġgest Ã¤rkt
Ġbew Ã¤ltigen
ĠDar stellung
m ale
ĠDe f
Ġentde ckt
ĠAl p
ĠWei hn
an y
le ute
Ġsel ben
z ten
un es
ĠS m
ur y
ĠZ unÃ¤chst
Re staurant
Ġan halten
Ġber e
k el
R icht
ann es
Ġre c
zus ehen
Ã¼r zt
ĠSer bien
ĠRegistr ierung
ĠZeit ung
ĠVerein fachung
Ġzerst Ã¶rt
Ġunent gel
i os
In ter
ĠAl kohol
b eu
ge d
hr e
ĠSol ar
Ġschwer en
ĠR Ã¶
ĠPalÃ¤st inenser
r iere
et o
ĠEin tritt
ĠNiederlan den
Ġmittler weile
Ġeinge stellt
ĠFinanz krise
W Ã¤hlen
ĠS l
zeich nungen
Ġsicher gestellt
ĠEr haltung
Ġmodif ied
son sten
Ġklass ischen
B est
ĠÃľber blick
ĠDie ses
Ġf aszin
Ġl eiten
Ġsel ber
Ġbes orgt
ĠSteuer ung
ĠfrÃ¼ hen
Ġgesetz lichen
. âĢľ
schie ben
ĠBerichterstatter s
or ge
Ġgef ragt
u ste
Ġb auen
et h
eschÃ¤ d
our ce
ĠStraÃŁ burg
ov ern
zus p
S ti
geb nis
ĠtÃ¼rk ischen
t on
se kret
ĠÃ¼ber lassen
ĠKopenha gen
ĠBe stimmung
ul in
ĠFest ival
ĠerklÃ¤r te
ĠStÃ¤r ke
ĠChin as
Ġfra ge
ĠK ais
ĠZ ut
ĠFakt or
ĠT ax
u el
ĠVer sorgung
ĠÃ¼berw inden
in stitution
ro ss
de x
imm ing
Ġs m
ĠV e
Ġgeeig nete
ĠAss ozi
ĠD Ã¤n
ĠSlow ak
ĠEr gÃ¤n
y d
Ġm Ã¤ch
geb ieten
verb rauch
ĠKonz ert
ĠHard ware
ber gen
ĠC re
as i
Ġbe stellen
ĠZahl ungen
ĠBran che
Ã¤ chte
ei ger
Ġhier zu
Mein es
ĠK ategorien
Ñģ ÑĤ
ĠergÃ¤n zt
Ã ®
ĠSch ausp
um b
ĠBer ichterstat
wirt schaften
Ġ 00
ĠD ritte
Ġun gar
ha fter
Ġkomp eten
6 4
T ER
ĠA qu
Ġgew Ã¶hn
ĠRei hen
ir d
ein kommen
ĠParlam ente
ĠHaupt bahnhof
Ġherr lichen
Ġav ec
Ġdiesbe zÃ¼glich
Ġdigit alen
t eils
ĠÃĦ uÃŁer
ĠFr anz
ĠWesent lichen
e p
ge stellten
ĠF Ã¶der
ĠArbeit geber
Ġunmittel barer
or men
Ġver weisen
Ġha st
ĠWÃ¤hrungs union
in ation
ĠB all
ĠF ab
ĠT om
such e
ĠWirtschaft skrise
ĠIs lam
ĠPak ete
ĠD ingen
ĠT sch
ĠZ Ã¼r
rech er
ĠFahr rad
Ġb lock
ver l
in os
ĠAr men
ik al
ink el
ĠLux emburg
ĠK er
sta ats
ĠgegenwÃ¤r tige
ĠProf il
Ġanzu bieten
ĠKomp lex
em ark
bar es
Ġspezi alisiert
St unden
ĠMÃ¤n gel
ĠUp date
Ġsp reche
ĠF a
gang s
Ã ª
Ġes sen
F il
ĠSp eisen
Ġbes ucht
Ġkl ima
Ġgleicher maÃŁen
on y
wÃ¤r ts
ĠJugend lichen
Ġbe enden
ĠC am
pl omati
Ġauf fordern
ĠZ erst
IN G
Ġs im
Ġm aler
ot ten
K urz
ĠlÃ¤nd liche
d rÃ¼cken
id o
ar io
Ġzu lassen
rei ter
Ġje glich
ĠBes eitigung
Ġgriech ischen
kl ar
T S
ige m
Ġintegr ierten
ĠP PE
ĠL ohn
ver anst
ne y
Ġrecht liche
wirk lichung
ĠBerlin er
deck ung
O der
st Ã¤d
Ġzweiten s
ĠFr anzÃ¶s
Ġ Ã¤rm
Ġp ost
Ġb us
Ġkon se
rat es
ifferen z
oriz ont
3 9
Ġ reisen
Ġbe z
oren z
Ġres ul
ank e
Ã¨ s
ĠC al
Ġunter suchen
ĠLin ien
Ġwir ken
1 00
Ġn a
ĠJahrzeh nten
ĠVor lage
kam pf
at lan
ĠFot ograf
ĠBew usstsein
verw altung
" ...
arbeit ungs
ĠBild schirm
ĠTelek ommunik
reib ungen
Ġle bt
Ġstamm t
ĠS ar
Ġberu hen
ĠTodes strafe
ĠEr f
ĠPf lege
ĠKonz ern
G est
ĠP or
lossen heit
ĠEnergie effizienz
T P
Ġderzei tige
Ġsch war
Ã¤r me
ĠSicherheit spolitik
ĠVerhand lung
val u
Ġer sta
5 00
B Ã¼r
Ġer richtet
ĠAut os
ah me
aktiv itÃ¤ten
Ġden jenigen
ĠWelt krieg
Ġ4 8
ĠEuro zone
200 6
ĠL Ã¤nge
t or
hr ase
Ar tikel
Ġauf s
gn Ã¼gen
Ġverl etzt
ĠWissen s
ĠIn f
ĠGel der
junkt ur
w n
ob ald
laus el
ĠUmwelt fragen
ĠstÃ¤rk ere
Ġsch Ã¤tzen
ĠMa schine
Ġth em
ĠMar ia
ĠStre cke
bl ig
ĠBedÃ¼rf nissen
Ġenor me
er as
vÃ¶lker ung
ĠBenutz ung
ĠVertra ges
ĠGemeinsam e
Ġgekenn zeichnet
ĠN a
ĠSch lag
ha lle
hol t
Ġunentgel tlich
b em
ĠA v
zep rÃ¤sident
Ġvor gestellt
ĠSo ft
Ġermu tigen
Ġbeg eist
u be
er al
ĠPe ter
ĠÃĦgyp ten
handel n
ĠEng land
ĠElekt ro
A B
Mit tel
Ber eich
ĠMich ael
Ġin t
ĠAus gleich
Ġbein halten
ĠR ock
an forderungen
ĠIn ner
Sch on
Ġged acht
ĠSonnt ag
Ġv ot
Ġgra mm
Ġv ia
ĠA s
Ġer wor
Ġer zeugen
ĠPar ameter
ĠQu elle
( )
Ġv ari
Ġneg ativen
ĠausgewÃ¤h lt
Ġbest and
ie ÃŁ
geb oten
Ġbe deut
Ġp or
ĠFahr er
Dar um
ĠBel arus
ĠBÃ¼ cher
ĠAt lan
ĠDialog s
ĠAn hÃ¶r
iti ert
Ġmax imal
p aket
ĠT onnen
ĠRe vision
ĠFrÃ¼h jahr
W elt
ĠPark plÃ¤tze
ĠBran chen
n i
sch ritt
ĠP ic
ĠmÃ¼s ste
ĠInter vention
ĠmÃ¼ ÃŁ
is ation
op ol
ĠAb lauf
ĠRati fizierung
E F
Ġan zunehmen
ĠmÃ¶ gen
Ġhin ein
Ġfest zustellen
Ġbedeuten den
Ġevent uell
ĠT ennis
Ġkontroll iert
eld et
ĠMechan ismen
ĠSch reiben
ag d
reg ionen
ĠEreig nis
Ġb o
ĠTerr itor
ĠAlb um
ĠB ucht
ĠSch icks
Ġra dik
u c
vers ammlung
ĠDrit tel
Ġun nÃ¶
gel d
ĠInvest oren
Ġ" ...
fort able
ĠkÃ¼mm ern
o ver
Ġb rachte
Ġst euer
N ein
ĠG ri
ĠBe achtung
ian o
b eln
Ġt here
Ġentscheiden den
ĠHo use
Ġgew id
sw esen
Ġbef asst
ĠWer be
ir l
ĠK Ã¤ufer
Ġeigen er
lÃ¤uf ig
ĠAb s
ĠTur n
k la
ei ern
ĠVertre tern
regel ung
Ġn ew
ĠVer wirklichung
ĠBer ge
system en
Ġprak tischen
om as
ot oren
ĠSo uverÃ¤n
Ġproduz ieren
ĠHindern isse
ĠD an
Ġs enken
Ġre aler
Ġangemessen en
Ander erseits
Ġbew Ã¤hr
ĠÃľb rigen
200 3
Ã¶ hnen
ĠP aul
Ġz eig
tis ierung
ĠPak istan
3 7
ĠEin fl
Da fÃ¼r
V iel
Ġin ak
Ġbe we
ĠZ auber
ĠN ik
ĠSystem en
ut es
Ġgew iss
bente uer
ĠBer e
Ġtyp ischen
ĠSam stag
ĠModern isierung
ste ck
Ġgew isser
Ġbezahl t
ĠErgebnis sen
ĠSch warz
ĠFlÃ¤ che
n amen
ĠM at
ĠM itent
ĠAufenthalt s
Ġwieder her
9 5
Ġ( "
Ġangewand t
Ġbe unruh
ĠFl ash
gehen de
le ger
Ġgere gelt
mÃ¤r kten
ĠSchen gen
Ġversch Ã¤r
Ġr ichtet
Ġir ischen
ĠM Ã¤dchen
Ġso eben
Ġt Ã¶
ĠÃľber tragung
ĠSen kung
Ã¤ cht
form ance
s um
Ġein stimm
ĠT ausende
Ġoffiz ielle
ĠM ir
ann er
mer z
ĠRo y
ĠV an
Ver sion
Ġreich hal
Ġbere chnet
ĠAus bau
Pro zess
Ġdi plomati
ott o
ĠÃ¤l teren
tig ungs
ĠmÃ¼s sten
Ġrenov iert
ĠJournal isten
st he
Ġst er
ĠWirk samkeit
Ġum zu
ĠMer c
ĠK reuz
ĠProdu ktivitÃ¤t
ron ik
Ġaus Ã¼ben
ĠDi plom
" )
Ġanzu wenden
ĠAuss age
p le
sch ulen
Ġge z
ĠT arif
Ġs c
erk l
ĠCor por
Ġc m
ĠF uss
Ġausge geben
ĠEr richtung
Ġpolitisch es
eu g
ron om
Ġjeden falls
ĠE N
Ġh alb
Ġver ank
ĠKon zer
beh alt
Ġwesent licher
ĠHÃ¶ chst
Ġilleg ale
ro ck
ĠMand at
ynch ron
ĠL os
ĠKat alog
e z
ĠUntern ehmer
L Ã¶s
vor schlÃ¤ge
ĠMex iko
E O
N L
al em
ĠB rief
ĠZuver lÃ¤ssigkeit
Ġw eisen
Ġg u
Ã¼t ung
el y
Ġst elle
Ġaktiv en
ĠS amm
Ġr Ã¶
Ġbeh err
ĠProzess es
ĠPrÃ¤ senz
Ġst reng
gra ben
y le
ĠV ari
Ã¤t te
Ġf ach
ĠVers ammlung
Ġintegr ierte
frei e
Ġgro ss
Ġbeeinfl ussen
ekt ak
200 2
ĠII I
M A
Ġt a
Ã¤hr ungs
ĠSie g
ĠInvestition s
gÃ¤ ste
L eist
en a
Ã¼ hen
ĠU ser
od es
ĠComm un
ĠgefÃ¤hr det
ĠOber flÃ¤che
ĠT ruppen
ut ung
Ġda uert
ĠBet reuung
Ġhumanit Ã¤ren
bran che
te chn
ĠL it
ĠO bst
bet racht
Ġung laub
f le
h err
Ġbe zeichnen
ĠBesch reibung
Ġeffizien te
r ische
den kt
Ġf rem
ĠAuf zug
Ġwirk liche
Ġeffek tive
ar ier
Ġfest legen
Ġapp ell
Ġwir kt
be g
W or
b it
Ġin c
Ġabge geben
ĠFil ter
ĠSpezial itÃ¤ten
gen z
Ġvor zunehmen
Ġwachsen den
Ã´ tel
Ben utzer
ĠT reib
mittels icherheit
ĠKohÃ¤sion spolitik
Ã¼ bung
Ġn atur
ĠVor stellungen
ite d
stÃ¤nd igkeit
Re cht
ĠVen edig
Ġwechsel n
g u
ov a
Ġbed au
sorganis ation
ĠReg ulierung
ĠRefer end
i que
Ġf reut
Ġschwier ige
Ġverk nÃ¼
umin ium
ig a
ĠNach mittag
Ġ25 0
al on
Ġe gal
ĠAus arbeitung
stehen de
iz ieren
ĠAir port
ĠAmerik aner
Ã¼h len
Ġschle chte
il eg
Ġan sehen
Ã© es
ĠUr teil
Å ¾
ĠAn nehm
Ã¶l f
Ðĵ Ñ
Ġk op
stell ern
ĠMin ute
Ġbel g
ĠSh op
sch uss
ĠG az
ĠEr fordern
Ġex zellen
Ġw eb
be cken
ĠL ernen
Ġoft mals
izi te
ĠStrÃ¤n de
y er
Ġd ringen
st ab
S ind
Ġhervorra gend
M Ã¶
f inden
s b
Ġd re
Ġgering er
ĠVermitt lungs
mÃ¶ gliche
Ġlangfrist igen
= =
ĠRes ult
F unktion
gen ie
Ġo t
ĠPremier minister
ĠF ang
ĠAn sprÃ¼che
ĠeuropÃ¤ isches
Ã¶r ungen
ĠWirtschaft spolitik
ĠDat um
ĠLiefer anten
Ġm ater
ĠKommission svor
ĠWeiter entwicklung
Ġzeich net
f re
Ġitalien ische
ĠC lient
ĠKon vent
Ġzw eck
eid ung
ĠPh Ã¤nomen
ĠA dr
Ġkon zip
bo den
ĠBe ach
ĠIn dividu
ĠerhÃ¶ h
amerik anischen
ĠDre h
Ġk ennt
Ġha us
Ġent fernen
Ġhel pf
0 7
B S
Ġer wiesen
ĠTra ditionen
Ã£ o
ein igt
ĠMed ia
ĠSouverÃ¤n itÃ¤t
ĠAn gel
ĠBesch luÃŁ
em pf
ĠDe ck
Ġan geschlossen
aus gaben
Ã¼n den
l Ã¶
Ġt schech
Ġbei zut
ĠHin weise
emen ten
ĠEntfern ung
Ġs ammeln
ĠT ieren
F inde
Ġst eigern
Ã¤r er
ĠArbeit nehmern
ĠBi bliothek
cell ent
ĠZugang s
ĠÐ ²
ĠGemein schaften
Ġangen ehmen
ĠD Ã¶r
ĠWohn zimmer
Ġk lin
ĠG ent
re al
ĠVer zeichnis
ĠBet riebe
ĠLuft fahrt
d ungen
an i
ĠK Ã¶l
ĠGeb Ã¼hren
bo x
Gen ieÃŁen
' ,
ant es
ĠS eg
zei ge
Ġerk annt
ĠgewÃ¤hl ten
Ġder er
ĠAn reise
ĠR Ã¤ume
ĠC H
Ġeleg ante
ĠMart in
B o
ungsf Ã¤higkeit
ĠPublik um
' t
h am
R oom
ie geln
Ġst ri
ĠA R
for d
Ġverst eht
reg ierung
s inn
Ġer teilt
ĠFlug hÃ¤fen
B us
b ieren
ĠAn meldung
inder ung
Ġbeh Ã¤lt
Ġsch wei
ĠApparte ments
Ġbeabs ichtigt
t ung
il i
ĠOr ten
an gebote
ĠM aus
it o
den t
ĠÃ¼berw achen
kat astrop
St att
ĠPr ess
ĠJ ack
ĠEigent ums
Dat eien
ge fÃ¼hrt
Ġm od
ĠtÃ¤ glichen
ĠWissenschaft ler
Ġh undert
Ġvorge legten
b ind
Ġprofession elle
ĠE he
ĠK Ã¼hl
ĠW C
ĠBenutz ern
ĠvollstÃ¤nd igen
Ġan wenden
etz ugang
geb nisse
ĠQu alifik
l as
Ġbe werten
Ã¤r ung
ĠVor rang
Ġpl Ã¶t
Ġa bl
ĠVolk spartei
tifiz ieren
ĠKompl ett
ĠD abei
Ġber eitet
p g
Ġd ur
Ġview s
r alien
ĠE st
sver fahren
quen z
ĠVorder grund
ĠI ll
ĠG AP
Ġum gehen
ĠEC U
ĠD ring
ĠJ ob
spro du
gl Ã¼ck
zif ik
ĠKonkur renz
h ard
k re
T R
ort s
weit ung
ĠJava Script
Ġent halt
ĠgefÃ¤hr lich
ĠsÃ¼d lichen
ĠS P
ur ity
ĠSp itze
Ġ ..
ĠF ass
ĠFl orenz
Ġgen iessen
antwort ung
Ġeingeb racht
Ġehemal ige
Ġmulti later
Â ¼
Ġ >
gent in
Zw ischen
Ġmoment an
Ġd rÃ¤n
sch es
ar ent
ĠA cc
Ġent stand
ĠSp ielen
Ġ199 2
ĠVeranst altungs
Ġbesei tigen
ĠRe chen
gleich heit
recht lichen
ĠEm issionen
4 8
S A
Ġein sei
ĠKon struktion
co unt
Ġin halt
all or
ay s
ake te
ĠAn betracht
Ã¤d t
ĠAuÃŁen minister
gesetz ten
Ġlin ken
ĠBil dern
3 1
O n
ĠK a
ĠRe par
unt ain
Ġentdeck st
un dern
au te
Ġkontext uellen
Ġin spir
Ġeinge leitet
ĠApp lik
Ġserv ice
instr umente
Ġchar akter
ohn ern
Ġleg isla
f unk
st ern
ĠschlieÃŁ t
ĠAnnehm lichkeiten
ti ere
ĠI C
Ġvor n
ĠHand y
fÃ¤ ll
ĠAl ters
Ġbe arbeiten
Ã© n
ĠDokument ation
ĠPhil osophie
ĠFremden verkehr
ĠKamp agne
ĠFinn land
ĠD ubl
bo ok
ĠList ings
Ġgewid met
b ack
ein heit
Ġverb reitet
Ġben achteil
Ġverring ert
ĠSchn ell
ess or
p hrase
Ġun ber
az z
ĠArg umente
Ġhinzuf ugen
Ġkontext uell
Ġgramm atisch
ĠT enden
sp annen
Ġr Ã©
ĠInnov ationen
ĠTrain ing
, /
Ġfinanz ieren
Ġverwende ten
ĠR ichter
zu bringen
ĠFeh l
Ġi l
Ġgemeinsam es
Ġverst ehe
Ġwelt weite
ĠSteuer zahl
ĠVorsitzen den
Ã¼ck en
ĠâĢ¦ ..
Ġ8 00
ĠSek unden
ĠW ett
ĠSch alt
w in
uch s
Ġ( *
kl asse
ĠFre e
Ġexist ieren
ĠMechan ismus
ĠV arian
ĠSchlussel wort
ĠSektor s
Rat schlag
Ġc ont
ĠSchlussel phrase
âĢ¦ "...
Ġaufge zahlt
ĠH under
Ġbeant wortet
Ġh eil
person en
Ġgegebenen falls
ĠK och
Ġsch reck
ĠEr zeuger
ĠverÃ¶ffent lichen
ĠÃľber nahme
ĠWohn ungen
Ġkeines wegs
Ã¤ der
ber n
Ġsch ritt
ĠnÃ¤ch ster
dat es
k unden
Ġman chen
Bei de
ĠTest s
ĠReserv ierung
ĠT ha
Ġver wei
ĠJ ung
wÃ¤r tige
ĠMa in
Ġet h
Ġschwer e
g Ã¤ng
ĠDemokra ten
ĠVerfass ungs
Å Ĥ
ĠUnter kÃ¼nfte
ĠEntwicklungs hilfe
Ġaufzu bauen
ĠPro di
ĠVerteid igungs
Ġlandwirtschaft lichen
H aben
isch t
on ie
ĠAn h
Ġgel esen
Ġreag iert
Ġhinzu gefÃ¼gt
Ġver anst
Ġstatt gefunden
Ġverpflich ten
dat um
ĠVer ab
ĠC at
be griffen
ĠJ ose
Ġ1 000
sch Ã¶pf
ĠS aint
Ġkosten lose
ĠEhr e
m ess
st ritten
gesch windigkeit
ei ge
ĠF assung
ĠN izza
ĠEr st
Ġen ge
ĠB ier
Ġauf bauen
Ġa ust
Ġb lau
ĠE li
ĠAus weitung
ia z
Ġdefin ieren
ĠAgentur en
Ġhochwer tigen
Ġda uern
Ġdi ver
sie he
st rÃ¶
Ġb it
wahl en
ĠUnser e
ĠPro zeÃŁ
ĠEinf uhr
ĠSpazier gang
Ġhilf reich
ĠBe zeichnung
ĠAkte ure
Ã¤ chen
Ġg reat
ĠN ICHT
il de
Ġre staurant
z ern
z immern
ge fÃ¼hl
Ġi mm
I mmer
ĠR ab
Ġher z
Ã¤u den
ĠBestÃ¤ tigung
sph ase
ĠstÃ¤nd igen
qu ip
ĠZÃ¼r ich
Ġs itzen
Ġl Ã¤dt
Ab kommen
Ġ6 00
200 5
h lung
te x
fer tigen
ĠUm struktur
Ġbesonder es
iels ei
Ġe uropa
Ġf riendly
Ġher zustellen
ĠBeg rÃ¼n
Ġ ),
Ġin nen
Ġ1 20
Ġfe sten
ĠbÃ¼r ger
Ġw oh
Ġf assen
re publik
Ġter rit
ĠK Ã¤
Das s
Ġerhe ben
i ffen
o ffen
et tet
Ġgener ell
ĠB or
ĠE tik
Ġan erkennen
sekret Ã¤r
ktion s
ĠSu ite
M O
ĠEr reichung
ĠGe gner
ĠAsp ekten
Ġerk unden
ĠpalÃ¤stinens ischen
Ġinnov ativen
Ġableh nen
D S
Ġzu stande
ĠW esen
kauf t
ide o
ĠR ett
ĠC op
ok ument
Ġher bei
opp ing
Ġber ichtet
ek tiv
sk ontrolle
mus e
Ent wick
ant s
ĠEx trem
E t
ĠEx pl
ĠVerbrauch ern
as ien
im um
Ġaktiv iert
G ew
S obald
ĠIn kraft
ĠE cht
ĠR am
ĠEr halt
lÃ¤ssi gen
ĠB M
Ġan ti
Ġon ly
ĠDoppel zimmer
Ġl anger
iel d
olog isch
ĠKap azitÃ¤t
ĠPlay er
ĠProjekt s
kt op
ĠWer ten
Ġprofession ellen
ge laden
ĠK as
ĠKon zentration
Ã¼ g
Ġn ice
ĠW in
fÃ¼ llt
Ġge statten
politi sche
Ġa tember
ĠMod ul
ĠS icher
ĠSti ftung
ĠEntsch lossenheit
ĠÃ¶k ologischen
z essen
ĠM osk
Ġre ch
ĠErwachsen e
auf nahme
druck s
ĠB a
ĠAuf lÃ¶sung
Ġdigit ale
ĠDring lichkeit
Ġst ill
por tieren
Ġdah in
str and
sektor s
ĠG reen
ĠberÃ¼hm te
ĠKompeten zen
Ġdest o
f igur
Ġun zÃ¤hl
ar at
frei en
ĠFr ont
Ġruh ige
ĠTeam s
Ġzu ges
ĠSol daten
ĠProf ession
blig ator
ĠV ia
ĠW asch
ĠKre ativ
ĠbefÃ¼r worten
ĠS ur
Ġn utzt
ĠKap it
Ġhelpf ul
is ierten
ĠInternation ale
Ander e
ĠC ard
ĠKrieg s
ĠLeg itim
Ġge liefert
ĠWest ern
f a
r t
ĠG rem
ĠAust ralien
Ġer werben
ĠgrenzÃ¼berschreiten den
st Ã¤r
Ġk n
Ġm ore
ien ce
Ġgen e
ĠÃĸ k
ĠDÃ¤n emark
Ġkonse quent
amil ie
ĠTre k
s a
Ġ orden
our en
lo ser
ĠRein igung
6 8
ĠB rem
ĠR ich
ĠR oll
verb indung
ĠAnd re
Ġsch auen
ĠMon te
Ġuneingesch rÃ¤nkt
ch ester
ĠT u
ĠZ um
Ġt ran
ĠRahmen programm
Ã¤ nen
ĠAus richtung
ĠUnivers itÃ¤ten
ĠKy oto
ĠC ont
lÃ¤ uft
Ġgesellschaft lichen
Ġge gangen
Ġgenau er
hÃ¶ rige
ĠEmpf Ã¤nger
ĠS at
ĠAb bau
r ent
io us
Ber eits
k ul
Ġs ucht
ĠM uster
Ġbei behalten
ĠFerienw ohnung
ĠEr folge
ĠCh amp
reib ungs
Ġbew ahren
Ġverur teilen
ei ste
ĠB ol
Ã¶ mm
be stimmungen
Ġc omm
wor te
ĠNiederlan de
form ular
Ġumfassen der
ĠEff ekt
Ġwid men
Ġschwed ischen
. "
Ġaus wÃ¤hlen
ĠSlowak ei
ĠZ un
ĠgrÃ¼ nen
z ession
ĠM em
el en
Ġvor Ã¼ber
Ġerst es
Ġun ab
lÃ¤ sst
Ġent f
ĠBeam ten
voll er
V O
Z ahl
Ġber eiten
ĠG elt
ĠGar antien
r ung
Ġauf recht
ĠN avig
ĠHo ll
ĠBetrieb ssystem
ĠBon us
f assen
Ã¶ ss
gt on
Ġbevor zu
Ġmittel alter
Ġw ork
ĠDurch setzung
ograph ie
m Ã¤ch
à ¸
ĠJ es
Ġsp annen
Ġeffizien ter
ĠGefÃ¤ng nis
eh le
ĠgemÃ¼t liche
" -
ĠB Ã¶
Ġbeg leiten
ou v
w est
ĠauslÃ¤nd ischen
de b
Ġzwei ter
ĠÃľber sicht
ĠAnmerk ungen
ĠF rÃ¼
ĠO rien
ĠZeit plan
C S
ĠS D
Ġer lassen
Ġkosten losen
S omit
b ab
z iger
ĠK art
ger ichts
ag nen
ĠOb jekte
lich te
Ġk olle
Ġst raf
qu elle
Ġbed roht
Ġneg ative
Ġk Ã¶rper
Ġ3 7
ĠGew Ã¤sser
ie ts
Ġsp anische
Ã¨ re
ĠZ eich
Ġhoh es
er te
an dern
ĠMont age
G B
ti ro
ĠWÃ¼r de
Ġein s
Ġein laden
Ġdem on
Ġ- -
Ġte m
U r
G ruppe
ti ment
Ġin n
Ġer teilen
scha fter
ĠKlar heit
ĠDynam ik
Ġw ell
ĠM iet
ĠZ weiten
Ġg rei
ab sch
war en
Ġenor men
M od
Ġl eid
Ġsp aren
uropÃ¤ ische
ĠW and
Ġeffek tiver
Ġs itu
Ġa ir
Ġsol ch
ĠSe ele
rank ungen
Ã¼st et
Ġo u
Ġst Ã¤d
ĠReg ul
Ã¤nger ung
H e
st itut
Ġ199 3
i am
un en
Ġer arbeitet
ĠNutz ungs
ĠEmpf ang
Ġvert ritt
Gen au
Ġschrift liche
ĠmaÃŁ geb
U M
zug reifen
Ġgeb lieben
ĠVerein igte
Jed och
ĠIn dust
ri m
liefer ung
f tet
ra m
ver trag
Ġumfang reich
Ġd Ã¤n
Ġo ver
Ġklein ere
ĠArch iv
ĠGemein den
m Ã¤h
ĠRe chner
rit er
Ġkurz er
sverl etzungen
4 9
P ort
ĠâĢĵ ,
minist ra
ce ption
P er
ĠH Ã¤nde
ĠNichtraucher zimmer
w ahr
om et
rÃ¤n kte
ĠAuss agen
wander ung
c le
Ġfamil i
c s
y e
ĠA N
am ing
schaft s
ĠBeh Ã¶rde
Ġunterschied licher
ĠP op
ĠJ er
Ġman geln
Ġaktu alisiert
geb Ã¤ude
ud es
ĠFunktion ieren
Ã¤uf e
ĠR unde
Ġte uer
Ġersten s
Ġver mittelt
c al
Ġa si
pr et
ĠTher ap
n ormen
Ã¤l tigung
Ġbehaup tet
Ġver eint
Ġum gehend
ĠAus rÃ¼stung
Ġ3 8
ĠBÃ¼r okratie
Ġerk ennt
ĠHil f
ĠR uÃŁ
Ġbe weisen
Ġinner e
gehen den
ĠLiber alen
ĠSchicks al
ĠW ichtigkeit
ĠSp ar
ĠGrÃ¼n buch
ĠFund ament
ĠMa ster
ĠNach druck
ĠWahr ung
ĠM eilen
Ã¶ gern
ver tre
ĠKrie ges
ĠTick et
Ġanzu passen
Ġst ation
ĠBeh and
Ġverurs achen
S icherheit
m ir
Ġwirk lichen
Ġelektron ische
Ã¼ se
ĠEr schein
ĠMensch heit
Ġrespek tieren
ĠH Ã¤fen
ĠI WF
ĠEr werb
ĠUnter richt
verstÃ¤nd nis
ĠPla za
L Ã¤nder
u is
st Ã¤tigkeit
ysi k
t op
hr t
ĠEntwick ler
ĠLebens mittelsicherheit
ĠEmission s
g ast
produ kten
Ġgra v
ĠK Ã¼nst
ĠT anz
stÃ¤nd igen
ĠÃ¼berra scht
K OM
zuf Ã¼gen
ip s
ĠW urz
Ġc ity
ystem e
ĠÃľber leben
ĠBes atz
l ings
ĠW eine
ĠZ y
ĠJ ac
ĠQu oten
ĠMiss brauch
se bene
umm ern
Ġvor sch
ĠD amit
Ġaus wirken
ĠSt abil
lin es
oler anz
Ġerstkl assi
Ġd omin
Ġein her
ut lich
gen Ã¶ss
fahr zeuge
fer tigung
V P
ti st
ĠTe chn
Ġver sehen
ĠInkraft treten
d ungs
ĠKommission sprÃ¤sident
ek ter
ĠUnion s
Ġreg ul
Ġumfang reichen
ĠLo unge
f Ã¤hig
Ġge ehrte
ĠkÃ¶n ne
Ġch rist
Ġeinge tragen
ĠPol y
ĠVorgehen sweise
Ġkombin iert
W eil
Ġvor liegt
ĠendgÃ¼l tige
sch rank
ĠT aten
Ġver geben
Ġunterb rochen
A u
ĠBet roffen
Ġget rennt
Ġchines ische
ĠKÃ¼r ze
bring ung
Â ´
Ġf ein
âĢ ¢
ĠVor red
spro zesse
ieh lt
D ir
ĠR eicht
ĠBe stell
ĠAuf hebung
Ġar men
Ġbei der
ungsant rÃ¤ge
Ġgrund le
Ġl enken
plan ung
Ġfal sche
Z war
Ġgel ang
Ġger ingen
Ġper man
P rÃ¤sident
Ġein heim
ĠM as
ontro l
ĠW Ã¤
Ġp opul
Ġb at
ter rasse
ĠMar ok
ĠFil me
ĠPrÃ¤ vention
ĠMitt woch
A pp
ĠangekÃ¼nd igt
I K
Ġ ten
Ġv o
ĠR ent
tik er
ĠDienst leistung
mÃ¶glich keit
wÃ¤ sche
Ä ±
ĠI D
ĠLog istik
ur er
ĠV ill
ĠAr m
Ġtyp isch
ĠS Ã¤u
Ġda vor
ĠgÃ¼nst igen
w ehr
ĠL as
g ing
Ġder selben
ĠR ie
ĠW Ã¤rme
ĠZiels etzungen
d el
ĠA st
elt reffen
ord s
N ew
ĠB om
ĠGe fÃ¼
qu ote
Ġangenommen en
ĠGet rÃ¤nke
Ġti me
k u
ĠA uÃŁerdem
ĠW ol
ĠDeutschland s
wissen schaft
Ġvors ieht
W ichtig
ĠF utter
ĠÃ¼ber mitteln
ĠAir bus
Ġausgestat tete
k ir
ho d
prÃ¤ sen
au lt
Ġzw Ã¶lf
Pro f
ĠMittelmeer raum
sch lie
ĠÃ¶ffent licher
Ġbewe gt
ĠPl Ã¤tze
ĠWor ks
ĠgemÃ¼t lichen
Ġm er
ĠH ong
Ġverab schieden
ĠSw imming
ĠG a
ĠH om
be utung
ag ra
ĠtatsÃ¤ch lichen
ĠH Ã¤nden
ĠQu ad
Ġerleich tert
Ġbegeg nen
Mill ionen
Ġerforder liche
u tive
ĠUnter haltung
ĠAut onomie
Zimmer beschreibung
P lan
ĠD iv
ĠSp eich
geb Ã¼hren
s u
ĠAm b
Ġinstitution elle
Ġbehinder ten
K inder
Ġg eschÃ¤ft
ĠKon junktur
ĠHo he
ĠKor rektur
Ġplan en
P o
ĠUrs ache
B as
n ers
Ġder art
ĠRom an
per i
ĠJe an
ĠFestpl atte
on te
ver arbeitung
Ġre alisiert
schlieÃŁ t
auber n
ĠerwÃ¤h nten
Ġparlament arischen
ĠInfl ation
di os
ub le
Ġmed iterr
ier er
ĠServ ic
ĠEntsch Ã¤d
T EN
Ġin terne
Ġdies el
ĠSk ype
Ġfort setzen
ĠM eg
Ġc ar
sbe dingungen
ĠTrag Ã¶
du str
Ġtechn isch
5 5
ĠEr arbeitung
wer be
Ġverz ichten
ĠChancen gleichheit
d re
Ġzu kommen
Ġst atist
Ġbew uÃŁt
Ġeleg anten
Ġc entre
ud an
Ġfreund liche
ĠH uman
ĠVer sprechen
Ġsp Ã¤te
ran ge
hol z
âĢĿ ,
Ġherr schen
Ġdiesbe zÃ¼
d liche
ĠN orm
ĠBla ck
ĠS O
ĠM alt
Ġber ichten
Ġgest artet
b sp
ver halten
ĠWelt handel
bet riebe
ĠVers icherungs
Ġzuge stimmt
ĠGrÃ¶ ÃŁen
ĠArznei mittel
Ã¤ uÃŁer
ed es
Ġflexib el
S k
Ġempf Ã¤ngt
ĠBuch sta
ĠAd minist
Â ¶
ĠVer n
gel ung
ĠAltern ativen
ĠFel der
ĠM ischung
ĠH all
eil ung
Ġnachhal tig
ĠGN U
spro zeÃŁ
Ġdam al
Ġwundersch Ã¶ne
d isk
ro hen
Ã¤nder ung
ĠHostels club
Ġer arbeiten
Ġso for
ĠAn zeige
herap ie
ĠTreib haus
k Ã¼ste
aff e
Ġp ra
her steller
ĠGesch lechter
sf rei
Ġschwer wie
au x
Ġlie ben
ĠGesch enk
ĠZerst Ã¶rung
ĠT ie
ĠAl uminium
Ã¤tz ungen
ĠNetz e
Ñ ĩ
ĠK enntnisse
Ġan y
ĠAr zt
ĠEin nahmen
itz er
Ġdeut liche
ektak ul
P olitik
h ab
ĠHa ar
v es
Ġer Ã¶ffnen
ĠAn k
Un ternehmen
ĠTrans fer
Ġerstre ckt
ĠR iv
ĠDav id
ĠKern el
ot ograf
ĠAnp ass
Ġnation al
stÃ¼ck e
Ġeindeu tige
Ġs ymbol
ill igt
Ġerheb lichen
ĠausfÃ¼hr lich
u es
ĠK lo
ĠRe ferenz
Ġmo tiv
m t
Ġab gesehen
land schaft
Ġar beit
ĠT ief
ĠL ate
sen dung
Ġo bligator
res erv
Ġgeh abt
ĠLatein amerika
s elt
sch lÃ¤gen
ĠR ennen
rie bene
ĠMen gen
Ġbeteil igten
ĠursprÃ¼n gliche
Ġwo uld
Ġleben s
ĠBe ste
Ġgeb unden
ĠÃ¼b lichen
ĠRot ary
Ġsogen annte
Ġl angem
ver schm
ĠArbeits losen
ĠMinder heit
ĠKenn zeichnung
i us
Ġs ho
eist ungen
ĠEinzel heiten
bas is
ĠSt eigerung
he dr
klÃ¤r t
ĠBesch rÃ¤nkungen
Ġs a
Ġg reifen
ĠL Ã¤rm
le bt
be vÃ¶lkerung
ak u
Ġinteress anten
ĠBos nien
hin gton
ĠSchw ellen
Bet rifft
ĠAus grenzung
ri ck
ian ischen
ĠstÃ¤rk sten
ĠRe k
bl att
ĠForm ulierung
ĠRes ol
lÃ¤ssi ge
B ed
S C
Ġ Î
pl Ã¤tzen
ĠPe tition
Ġkonf igur
Ġgenie ÃŁt
at in
ĠÐ ½
Ġgemeinsam er
A V
B eg
Ġz un
ĠIn halten
Ġeigen tliche
L i
s m
ur es
ĠAb t
di te
ĠPl atten
Ġad ministra
Ġkomfort ablen
G rund
Ġan passen
zeich nete
atur es
ĠgrÃ¶ÃŁ ter
Hin weis
ĠOffen heit
ĠFrei handels
mechan ismen
4 7
lass ungen
ir n
ĠAus beutung
tre ffen
Ġch amb
ĠDes igner
Ġchem ische
ĠBab y
ĠDam pf
M ode
Ġd ien
Ġleist et
ĠInd ik
it ies
ĠR enn
ver m
Ġc lose
Ã¼h le
Ġt r
pf ern
ungs bereich
Ġdies elbe
gesch nitten
ĠProblem atik
Ġter ror
ĠA ward
Ġver liehen
be stand
Ġeinge laden
Ġverm ieden
Ġdiesel ben
ĠB SE
ĠU fer
iz z
Ġw alk
ĠMy SQL
Ġjeglich er
f lich
Ġer weisen
la ut
ĠUm stÃ¤nde
200 4
ĠPrivat sphÃ¤re
Ġzug ute
ĠBud get
ber eiten
ĠL ag
Ġver wiesen
bl en
ĠSow jet
b is
ei r
ĠWelt wirtschaft
Ġbas ieren
8 6
K W
ĠSe x
gleich en
ĠKl assen
Ġform uliert
Ġgegensei tigen
Ġein iges
kl en
schied ung
Ġkomplex e
Ġnied rigen
Ġrech nen
Z ug
our s
ĠPal ette
ĠVis um
ĠbefÃ¼r wortet
ĠStatist iken
ĠBegrÃ¼n dung
M us
ĠS au
Ã¼s sel
ĠStra ft
Ġheraus ragen
ĠKais er
ĠN RO
ĠVolks wirtschaften
g igen
Ġw Ã¤chst
ĠF rie
Ġum so
ĠMass age
st ock
as ste
ĠR os
ĠW Ã¼nschen
ac ion
ĠLiter atur
Ġein treten
Ġst eigt
ĠÃ¶sterreich ischen
Ġa frikanischen
ĠS ternen
Ġaus s
Ġgesch mack
mechan ismus
P lay
Ã¼r e
Ġzur zeit
Ã¤l te
Ġintegr ieren
ĠB ug
Ġge langt
ĠBew ohner
ĠprÃ¤z ise
ĠIn genie
zug s
Ã¶r m
ĠVerab schiedung
k m
or es
au ten
ĠApparte ment
G roÃŁ
n eu
is ierte
ĠAut omati
un ch
Ein er
ĠHand lungen
gren ze
ĠMill ion
ĠerlÃ¤ uter
al o
m Ã¶glichen
in ing
ĠZ ahn
Ġkomplex en
ĠKonver genz
er ing
ĠL ad
eh ler
ding ung
ĠNichtraucher zonen
ĠVerst Ã¤r
ĠUnter drÃ¼ck
ĠPf lichten
Ġregion aler
ĠgÃ¼nst ige
Ġren omm
ĠgewÃ¼nsch te
ĠE ss
ĠE th
ĠP rÃ¤si
acht ungs
ĠLie bl
Ġzentr aler
b ten
Ġver schaffen
Ã¤n n
ĠWieder herstellung
Ġdes ign
ĠLa sten
Ġgeeig neten
ĠGipf eltreffen
ĠEd el
ĠT ran
ut in
ĠVis a
S chn
Ġdass elbe
ick e
ĠImm un
r us
Ġ #
ĠB Ã¼nd
Ġver gangen
Ġeinz ig
Ġen orm
Ġverm utlich
ĠTerror isten
Ġmus ikal
ĠGraf ik
Ġarab ischen
Ġm ult
tik eln
Ġpar allel
ĠLog ik
ĠKomment are
ĠMinisterp rÃ¤sident
ĠE dition
stÃ¤nd ig
Ġbeh er
200 7
zus agen
Ġ198 9
Ġsonst ige
ĠMenschenrecht sverletzungen
Ġab geben
opp en
US S
Ġbedauer lich
as on
N etz
ĠP uert
ĠF ri
Ġzusammen ge
ĠDes halb
Ġaus sehen
la dung
ĠverstÃ¤r kte
Ġauf gestellt
ĠBÃ¼rgerbeauftrag ten
ĠA benteuer
ĠF akten
ĠI M
ĠGeorg ien
zusammen arbeit
te lefon
Ġweiter zu
Ġvertra ut
Ġproblem los
ĠKommissionsvor schlag
en e
ĠKl ang
pr ession
Ġster ben
Ġk oh
ĠVer folgung
ĠVer ordnungen
ĠspÃ¤ter en
Ġauf r
ĠBe stellungen
Ġdurch zusetzen
ransp ort
Ġunbe k
v ir
Ġdra st
ĠH Ã¤ndler
ĠRe prÃ¤sent
ian ce
ĠLeg isla
fahr ten
av i
F rei
ĠDemon stra
w ider
ĠG U
Ġbis schen
ĠSo zi
Be vor
Ġhe utzutage
ĠendgÃ¼l tigen
K ein
z irk
ĠE vent
Ġh erk
ĠP ir
amen s
Ġmodern er
Ġberu h
ĠIn s
Ġt rat
Ġab out
Ġteil t
ĠZun ahme
D ist
Ġbe zogen
ĠJ ugoslaw
pf ung
Ein es
Ġdemokra tisch
sbe kÃ¤mpfung
ĠDritt staaten
st unde
ĠG overn
Ein en
Ġtransp arent
ĠMÃ¶ bel
u j
Ñ ĸ
Ġex p
Ġ6 5
ĠAbgeord neter
Ġabsol ute
Te chnologie
Ġbe wertet
be ziehungen
metho de
Ġklein eren
Ð½ Ð¸
Ġmedizin ische
Sow ohl
Ġein stellen
ĠC olle
te ktion
Ġgew alt
Ġcom fortable
Ġneg ativ
ĠlÃ¶ schen
akt or
Ġleich te
G ibt
b ahnen
p unkten
ĠBl umen
par ks
ĠFin anzen
zeit raum
it ra
6 5
Ġver tie
Ġf ree
ation al
Ġt reiben
Ġsp ielte
eb ung
zeich neten
vers icherung
Ġorganis ierten
h eil
ĠZ one
fÃ¤ llt
ĠStabilitÃ¤t s
j pg
Ġf in
Ġgerecht fertigt
Ġatember auben
Ã¼ m
ĠAus nahmen
fÃ¼ ll
ĠThe orie
ĠFischerei politik
ig hl
r essourcen
Ġi ran
ste ckt
Ġ3 4
ĠChe ck
ro w
ĠMa ast
ĠDir ektor
adem ie
ĠHerkunft s
ĠM allor
ĠKon serv
ĠArbeits zeit
Ġorganis ierte
ried igen
b rech
f eind
Ġun gewÃ¶hn
sel n
al ity
Ġf inn
ber eitung
ĠKl assi
ĠSu mme
ĠDir ect
ĠDubl in
P reis
Ġb lieb
Ġver arbeitet
Ġre form
ĠWerk zeuge
Ġmittl ere
ĠS ens
ĠL im
ĠZ ub
ĠMar ina
Ġ9 5
ĠH ekt
and al
sp unkte
Ġ9 00
ĠjÃ¼ng ste
ĠHeil igen
i verse
men ge
air e
ĠFrem d
ĠGeb Ã¤uden
Bes uchen
S eite
ar ge
Ġger inge
ĠFort setzung
Ġo hn
ĠMini bar
ĠS tern
ĠL ay
ĠTa i
l eiter
ĠV ul
Ġauf einander
ion s
ĠTÃ¼r en
Ġangeboten en
Ġunter scheidet
ĠhÃ¶ch ster
Ho tels
ĠJugend liche
Ġeinstimm ig
ĠKÃ¶l n
Ġdar gelegt
ĠMenschen rechten
akt oren
Ġempf iehlt
Ġpass ieren
K omp
ĠA B
ĠE R
ass ismus
g renz
ĠW il
si de
be stÃ¤nde
Ġgest iegen
ĠChar me
ĠKub a
6 7
ĠW i
ĠInter view
ĠKlimawandel s
Ġab sch
ĠMein ungen
Ġsag ten
e ber
Ġge he
ĠVerl Ã¤ngerung
et schen
Ġbesch reibt
E bene
ĠV ic
ĠAus Ã¼bung
ger icht
ĠAnwesen heit
st ant
Ġzw ingen
ĠSe en
Ġaufge fÃ¼hrt
ĠFest stellung
ĠSa al
ĠUrspr ungs
ra y
Ġ199 1
Ġwahr e
ĠKern kraft
mes ser
ĠWÃ¤l der
Ã ½
ad r
Re zeption
Ġgegensei tige
den s
ĠB rÃ¼cke
ĠC entre
ĠRo llen
ĠFÃ¼hr ungs
Ġschle chter
Ġwert volle
Ins gesamt
Ġs ec
Ġf anden
ĠKon vention
leich ter
Ġr etten
ĠStat ut
ĠBil anz
Ġreligi Ã¶sen
ĠfÃ¼ llen
ĠBe urteilung
ĠEr zeugung
ĠKÃ¼ chen
ĠErd be
ĠVermitt lung
ter min
Ġk Ã¼nst
Ġ5 5
ĠSÃ¼d afrika
Ġbeschleun igen
Ġgew innt
ĠBer gen
ic ation
ĠUnivers ity
ĠauslÃ¤nd ische
ĠBelast ung
o be
oh ne
Ġges ichert
ĠGem Ã¼se
ĠvernÃ¼nf tig
u he
Ġs ach
der s
ĠRussland s
Ġf il
ĠAn f
ĠSchutz es
Ġis ol
Ġersch ienen
ĠEinwander er
Ġfeh l
an ia
ĠGen uss
Ġso me
ĠSt rei
Un s
k orea
Ġzusammen zu
Te am
Ġgel assen
ĠA kt
fen ster
c is
ĠKar riere
Ġgepl anten
ĠAn gabe
Ġeigen tlichen
ĠBud ap
P rot
ger Ã¤ten
ĠSlow en
ĠBÃ¶r se
v ort
ĠGroÃŁ en
ĠBÃ¼ hne
I s
f acht
Ġge ograf
ĠAnt rÃ¤ge
ix el
Ã¤us e
ĠErwÃ¤ gung
ĠD enken
ĠBe werber
m ach
ĠÃ¼ber geben
ĠSp ektrum
ĠMet ro
reisen de
Ġmaxim ale
ĠM B
stÃ¤nd ige
bil den
Ġs low
Ġn ehme
Ġsp ektakul
ĠSa fe
ockt ail
ĠAbsch luÃŁ
ĠErgÃ¤n zung
Ġterrit ori
A F
R aum
Ġ Ã¶rt
ĠM S
Ã¶ tet
ĠW under
ak er
sk a
ĠRo bert
Ġv ol
ĠÃ¼berw acht
Ġvereinbar ten
ĠGlÃ¼ck w
Ġweiter entwick
pr es
k apital
n bsp
r ungen
Ã¼ ten
ri z
ĠAus bildungs
Ġleist ungsf
finanz ierung
ĠA ssi
ĠO steuropa
sprÃ¼ chen
ĠDa fÃ¼r
Ġengl ischen
Form at
Ġzw anzig
Wer den
Ġwachsen de
4 4
8 8
C hin
Ġein nehmen
In ternet
Ġthe y
ĠBerat ungen
Ġ Ã¤ndert
Die sen
Ġlie genden
Ġtechn ischer
ĠFranzÃ¶s isch
Ġ reibungs
ĠSt ufe
wei l
Ġex cellent
ĠIm age
ĠGast freund
ĠOper ation
Ġausreichen de
Ġb al
Ġge leitet
mel den
ĠRoy al
st ige
Ġdurch schnitt
stand ard
ĠAut oren
ĠEnergie quellen
Ġehr lich
ĠS ter
Ġbed ienen
ĠOb ama
ĠSteuerzahl er
O P
ĠAus flug
ĠRÃ¼ck gang
dr ing
ĠMo untain
ĠClub s
N S
Ġein fÃ¼hren
ĠH Ã¼gel
ĠFe der
Ġum s
Ġre geln
Ġgelin gen
ĠWas hington
Ġer hol
ĠÃ¼ber legen
li sten
ĠEng ine
bÃ¼r o
vel op
199 9
ĠCook ies
ĠHost el
D anach
Ġv ielsei
ĠW al
Ġgelegen en
dat ei
ĠFÃ¶der ation
ac iÃ³n
Ġeinger eich
Ġbein ahe
am o
auf wand
ĠDi agn
ĠBr un
ĠbÃ¼r okra
ĠOff ice
Ġver zeichnen
ĠVerl etzungen
b ro
uch er
ĠIn haber
ĠGeb Ã¼hr
Ġsonst igen
ĠAnrei ze
analy se
Ġvor behalten
ĠVor stand
L T
Ġder jenigen
Ġver bleiben
mÃ¤ÃŁ igkeit
Ġmin im
Neu e
Ġverwirk lichen
ĠReferend um
ch tet
sch end
Ġin tern
re form
ver teilung
Ġeinger Ã¤umt
ĠS T
halt ungs
ĠMarok ko
ge legen
Ġp asst
Ġange legt
ĠHeimat land
ĠAktiv itÃ¤t
ĠFerienw ohnungen
B l
T ag
ĠL eid
li m
hÃ¶ he
Ġteil zunehmen
id ad
voll es
ĠB aut
Ġauf gerufen
ĠSp iegel
Ġins o
Ġ Ñģ
eh er
Ġgem ein
per iode
ĠGeschÃ¤ ften
Ġdemon str
ĠL euten
Ġaus drÃ¼ck
ĠSch reib
ĠVerkauf s
fol genden
Ã¤l ter
pro jekte
Ġinso fern
iti v
Ġinn eren
er es
Ġbe wiesen
ĠGrund sÃ¤tzen
ĠRahmen bedingungen
Ġkomfort abel
ĠF ans
Ġbeg Ã¼nst
Ġeigen em
ĠVerb ind
ĠÃĦnder ungs
Ġberuf lichen
un ken
us ste
Ã¼t ter
ĠZu stell
ĠstÃ¤nd ige
ĠV in
ĠH Ã¼
la gerung
Chr ist
p osition
Ð ·
ĠBesch werden
sver handlungen
Ġmedizin ischen
ĠM os
tion s
Ġunter wegs
ĠDes ktop
ĠVerteidigung spolitik
Ġpoln ischen
Ġver grÃ¶ÃŁ
Ġsch uld
Ġsp Ã¼r
Ġbesch lieÃŁen
Ġph ys
ĠRh ein
ĠspÃ¤te stens
Ġt hr
Ġvor gehen
Ġstatt dessen
ĠPil ot
ĠPrÃ¤sent ation
Ġk an
j o
ic an
Der zeit
ner gie
Ġschwier iger
Ġernst hafte
produ kt
Weiter hin
h Ã¤ndler
ie tet
A U
er zeug
ĠS eit
em pl
ort h
ĠÃ¤hn lichen
N ie
ĠFlÃ¤ chen
wirtschaft ung
ĠjÃ¤hr lichen
ĠVerf asser
b reite
Ġgeist igen
och e
und ation
abkommen s
l eitungen
ĠVert retung
ĠKunst stoff
Ġzeit genÃ¶ss
ĠEinsch Ã¤tzung
Ġinak zeptabel
Ġan n
Ġall mÃ¤h
Ġindustrie llen
n es
ĠVi zeprÃ¤sident
ĠI sol
tel n
7 7
st il
ĠM old
ĠF an
men ade
Ġen gen
Ver trag
Ġt raum
ĠSti ll
ĠKooper ations
' .
ĠEinsch rÃ¤nkungen
ĠBer ater
fe ktion
Ġlok aler
ÑĢ Ð°
dis ziplin
ĠAnhÃ¶r ung
t ain
w ig
Ġge ograph
ĠIn dustr
ĠBeschÃ¤ftig ten
ĠDom ain
st Ã¤tten
ĠAb teilung
ĠMehrwert steuer
d ies
ĠG Ã¤rten
Ã¤t ter
pro jekt
hol fen
Ġbelieb igen
sch icht
Ġb u
ĠD ER
Ġan f
ĠN ur
ĠGegen wart
Ġbelie bt
ĠgefÃ¤hr den
Ġober en
Ġrespek tiert
ĠKonsult ation
bo ard
ĠRepar atur
at ing
ĠHerr schaft
E P
F i
L aut
l ehen
Ġfol glich
ain er
Will kommen
Ġ3 3
Ġunterb reiten
ĠChe f
n g
ĠIn c
ĠAn kÃ¼nd
oc i
ĠRaum s
ĠkÃ¼r z
ĠPanor ama
st Ã¶
]] ,
ĠWert pap
Ġerf asst
ĠTab elle
Ġpassen de
Ġbeeinfl usst
M et
Ä Ľ
ĠEr Ã¶ffnung
Ġent h
fÃ¼ gen
ĠEr be
ĠO s
Ġruh iger
ĠKon tra
rans fer
ĠF inger
bet rag
6 6
B M
h Ã¤ngt
m ord
fol io
Ġange stre
muse um
Ġd id
zieh ungs
ĠP iaz
sk osten
Ġvoll em
onen te
ĠEnt steh
Ġerb aut
z icht
ĠLab or
ĠSpann ungen
Ä ĩ
Ġ Ã¶ffnet
ir st
Ġthe ore
Ġinvest iert
Ġkontinuier lich
h Ã¤usern
Ġa ss
Ġ( âĢŀ
ĠDe vis
ĠProdu zenten
grÃ¼n den
ĠF Ã¼nf
Ġkomp ati
b ach
ĠA U
ĠI V
ĠN ic
ĠAn bindung
ĠGew inne
ĠerÃ¶r tert
ĠR assismus
way s
sper iode
h or
sch la
Ġsch enken
lie der
ok us
Ġk rimin
ĠGew inner
ĠIs land
Ġ198 0
Ġerneuer baren
Ġbedau ere
Ġbe stens
ĠÃ¤rm sten
ĠW a
Ġl ike
Ġjem als
ĠausgewÃ¤hl ten
Ġbeizut ragen
G u
Ð¾Ð ²
ĠSchausp ieler
Ġd ok
Ġg laubwÃ¼rd
Ġro b
ontro llen
ĠTe e
mus ik
por tiert
dat eien
ok ol
ĠRegional politik
ĠplÃ¶t zlich
ĠT ipp
Ġab schlieÃŁend
ĠRÃ¼ck en
Ġtechnolog ische
t licher
ser ver
str asse
Ġfort gesetzt
ĠPer formance
g eschÃ¤
h one
ĠSt off
alt h
meld ungen
ĠRub rik
Ġherk Ã¶mm
ĠK lin
ĠK alender
ĠF err
ĠÃ ¨
ĠInstr umenten
Ġerweiter ten
Ġvorber eiten
ĠM auer
ĠAuf t
Ġweit aus
ĠGent oo
d ig
p end
ĠUnter lagen
ĠEx press
ĠGer ichten
ĠSchwimm bad
Ġein drucks
ĠH or
Ġgesch ickt
ĠM ur
ĠH istor
ĠSch war
ĠEin blick
Ġre prÃ¤sen
rid ge
ÐĵÑ ĺ
8 5
l ers
ĠE valu
ĠK rÃ¤ften
Ġaut or
Ġpl atz
b te
b ilitÃ¤t
ĠUN D
ĠÃ¼ber mittelt
ĠAn hang
Ġall eine
ten s
Ġge stellten
ĠGeb ir
Ġtrans atlan
L and
ro om
ĠSwimming pool
ĠR ind
ĠUS D
Ġkri tischen
ĠVersuch e
ĠUntern ehm
ĠE vents
ĠM aler
ĠSt ich
Ġzwei er
ater ial
Ġent worfen
ĠTour en
Ġex terne
Ġbe wirken
Ġv al
ĠM eld
s weisen
gesch n
ĠA C
ĠK ey
dern falls
ange hen
Ar ch
ei s
urch t
Ġte lefon
ĠerwÃ¤h nte
ĠDa zu
Ġtransp or
initi ative
Ġin begriffen
is ierungs
Ġwer fen
ĠTh omas
ĠEing abe
Ġerwor ben
ĠVer markt
il and
ak a
ĠAussch Ã¼sse
ĠMag az
ĠMerk male
eh in
Ġpro v
ĠGlob al
Ġfair en
Ġn ukle
ĠP RO
ĠSch lieÃŁ
Ġangen ehme
P al
Ġein ander
Ġi f
Ã¤ren z
ĠVerl uste
Ġeingesch rÃ¤nkt
g in
Ġbe en
ru he
Ġgew Ã¼nscht
Ġkosten gÃ¼nst
Ġautomati sche
ĠKons um
o ugh
Ġn on
N A
U p
es k
ĠA ff
ĠPal ace
ĠÃĦuÃŁer ungen
ĠL ande
Ġgeb ildet
ĠOrd ner
r el
ĠR auch
Ġvon einander
Ġbesch reiben
N utzen
acht ungen
ali for
ĠUp dates
ĠUn fall
ab les
Ġruss ische
ĠRuÃŁ land
[ [
Ġge handelt
ges prÃ¤
ĠG B
ahr ung
ib r
Ġor gan
D ollar
j u
Ġverw alten
ĠWeiÃŁ buch
Ġisrael ischen
Richt linie
ĠKreativ itÃ¤t
Ġen erg
lÃ¼s sen
and ten
Ġnach denken
ĠGe orge
Ġange wiesen
Ġunterb reitet
ĠBeob achter
ti me
ĠPrÃ¤ m
Ġf Ã¤hrt
ĠVor feld
N E
Ñ ħ
ĠS qu
Ġm elden
ĠVer gnÃ¼gen
rÃ¼ ger
Ã¼n de
ĠgÃ¼l tig
Ġge ziel
d h
ĠArbeits gruppe
Ġget Ã¶tet
ĠBew Ã¤ltigung
ĠZustÃ¤nd igkeiten
Ġdetaill ierte
Ã¼r zen
ĠSÃ¼d tiro
unk el
ĠendgÃ¼l tig
ĠbegrÃ¼n det
Ġauf er
ĠFunktion alitÃ¤t
Ġzeig te
ĠBudap est
s et
ian a
ĠEigen schaft
ĠBesitz er
b al
is st
Ġp ark
Ġgel ernt
i ment
ĠAus fuhr
gesch ritten
ĠInter pret
ĠBest euerung
ĠerÃ¶r tern
ber ichte
ut r
ĠAnt rieb
ĠGel Ã¤nde
ĠUn sicherheit
gew ogen
ĠWart ung
Ġot her
h lt
ĠKon ferenzen
k ontrolle
er re
ĠP et
ĠW ellen
schutz es
Ġleist ungsst
ĠBou ti
alte ten
ĠH yp
Ġschritt weise
Ġohn ehin
ĠRe zession
Ġgesch afft
part ment
fel der
Ġkonstru ktive
Ġbe auf
ĠAuf sicht
ĠMa zed
Ã¤ng ern
Ġgrundlegen der
ĠUnter zeichnung
Ġgesch Ã¼tz
ĠerlÃ¤ utern
ĠF lag
le d
ĠEurop ol
ĠBÃ¼r os
Ġrecht fertigen
w ood
ĠIm plemen
o ÃŁ
er ten
as sten
ĠJ ur
ĠvernÃ¼nf tige
ĠBedien ung
ĠZur Ã¼ck
ĠS erien
ĠIn dex
ungs maÃŁnahmen
ant as
Ġbef ind
Ġmult ination
D EN
ĠB rot
Ġ20 12
Ġdemokra tischer
Ġniedr iger
ĠTool s
Ġm essen
ell o
gesch oss
ĠInter ess
ĠSitz ungen
ĠFer tigung
Ġj Ã¼d
haus e
Ġangeb lich
Ġeinzu gehen
Ġerinner e
spf licht
BÃ¼r ger
ĠM ahl
Ġbe arbeitet
Ġvor hin
N ehmen
ier a
ĠVor gaben
ĠWor k
ĠVertra uens
Ġeingeb unden
Ġein halten
ĠG Ã¼
re cken
ath em
ĠM essen
Ġk Ã¶st
ak eten
ob el
Ġaktu alisieren
Ġvertra u
Ġver deut
la ÃŁ
ĠFlug gesellschaften
Ġkommerzie llen
Ġkonzip iert
ĠR uss
ĠD E
Ġbeit rÃ¤gt
ĠFo undation
st anzen
urop as
ĠKon zepte
ĠArbeits bedingungen
schw ung
ĠEigent Ã¼mer
ĠÃ¶rt lichen
ĠM otto
ĠZub eh
ĠL ern
ĠMich el
ĠBetroffen en
Ġw omit
spl Ã¤ne
verb indungen
Ġgelegen e
ĠHekt ar
l et
ĠMedik amente
Men schen
Ġst Ã¼tzen
Ġbilater alen
Ġkritis iert
ĠSchei tern
W el
ĠG Ã¼l
Ġbe gangen
ĠMo tiv
Ġerfolg te
in vest
reg ungen
bie tet
ĠgrenzÃ¼berschreiten de
F ast
s werten
el and
Ġg ast
ul se
ĠVers orgungs
) )
olog ischer
Room s
ĠRat s
Ġar g
Ġer langen
icher ungen
ĠAttra ktionen
on ischen
ĠAuf wand
ĠAuf ruf
qu id
Ã °
ĠQu ell
Ġloc ated
ĠT ir
au d
Ġexklus iven
ĠF ac
ĠÃ¤l tere
Ġgebrauch t
irl pool
v ar
tur e
ĠProf essor
v as
Ġz ielt
ĠG riff
ĠR ang
Ġmit hilfe
Ġbed auern
Ġgute m
Ġkonk ur
ĠGener ald
ĠMinister rat
ĠH D
stat us
Ġregistr iert
Ġp a
arbei teten
ĠHoch zeit
Ġvors ichtig
spezif ische
ĠBan anen
Z E
Ã¼ cher
Ġf ur
ĠW ille
mar quis
Ġerk enn
Ġdok umen
lÃ¤ ub
ĠWeiter bildung
o ter
an schluss
ĠK e
ĠnÃ¶ tigen
c as
Ġ q
Ġ Ã¼
our ismus
St ar
Ġra tifiziert
Ġeinger ichtete
ĠFeh len
ober flÃ¤che
verschm utzung
ĠL aser
Ġaus fÃ¼hren
Ġsch reibt
Ġe very
Ġklima tis
Ġd ella
rit z
Ġinteress ieren
Ġersta un
eu x
lle ktu
ĠVerantwort lichen
Ġb ist
Ġre alisieren
tik a
ele ase
ĠGet rei
ĠRe alisierung
Ġ7 00
dr ich
Ġ0 1
Ġmodern es
ĠHÃ¶ hen
Ġbeur teilen
u eller
Ġz iel
ĠVorred ner
u gt
Ġange fangen
fass ungs
is c
geb Ã¼hr
rin ken
ĠBeh aupt
hedr ale
V ers
Ġder ar
ĠU R
ĠEnergie politik
Ġeinzu halten
Ġp as
Ġkri tisch
lei h
ĠMe tern
wÃ¼r fe
f ace
sch ungen
Ġf ern
bl ock
ĠZer tifik
ĠDist ribution
ĠStock hol
C omp
pl atten
ĠV ier
auf gaben
ĠLi ban
Ġtechnolog ischen
beweg ung
Z eit
u i
us h
ĠP ay
An frage
ĠFol ter
Mail s
Ġtyp ische
ard in
ĠKomprom iÃŁ
ĠSw iss
ĠEr z
Ġverbesser te
S icher
el emente
ĠV ER
ĠâĢ ļ
Ġerreich te
w en
Ġ Ä
ĠK ron
ĠN I
Ã¤nd ig
ĠtÃ¤ tigen
E B
ĠF ron
Ġer w
ĠÃľber arbeitung
hÃ¶r igkeit
s ult
Ġre alen
spar ungen
ĠAtlan tik
i ft
eh end
ĠBe zahlung
Ġam b
ĠOber flÃ¤chen
ĠBerat ungs
ĠHT ML
Ġerz ielten
ĠZuf riedenheit
ĠS org
ĠMa k
ĠGesch lecht
ĠBo x
Ã¡ s
ĠKap azitÃ¤ten
greifen de
Ã¤ mm
ĠT ib
ĠTschech ischen
Ġi rak
Ġherr liche
ĠbekrÃ¤f tigt
ĠenttÃ¤u scht
ĠerlÃ¤uter t
ĠM ol
how s
Ġuner lÃ¤sslich
ĠOptim ierung
Ġunzureich end
ĠH en
Ġim pl
ĠSt utt
ĠAr gentin
Ġunter halten
fiz iert
alte te
ĠWeihn acht
% .
aus enden
Ġ20 13
ĠÂ §
k ette
ĠSpezial isten
De utsch
bef inden
ĠmÃ¼nd lichen
Ġverein fachen
Ġirgend ein
kur se
ĠTax i
ĠGepÃ¤ck raum
Ġarch ite
ĠW olf
Ġte sten
Ġbevor stehenden
ĠLegisla tiv
Ġ č
or gan
b aum
ĠG Ã¶
Ġan sonsten
kon zept
Ġteil genommen
ĠTechnik en
ein s
it ation
ĠP S
lei ster
Ġges ammelt
war ten
C ode
f Ã¶rm
Ġbet rieb
fl anz
tie f
ĠBeweg ungen
ĠDis ziplin
Ġfeh ler
Ġd oppel
Ġh ielt
ĠAb stand
Ġmitge teilt
ein heiten
Ġn amens
teg rit
ĠUnterdrÃ¼ck ung
Ġzu kunft
ĠLebens mitteln
Ar beit
ĠgrÃ¶ÃŁer er
ĠvielfÃ¤l tigen
spoliti sche
Ġkurzfrist ig
O ffen
re chnung
zen zen
ĠAuf forderung
Ġges onder
ĠOst see
ĠVerk Ã¤ufer
geschn eider
Ġschle chten
Ġzuver lÃ¤ssig
is a
ĠBesuch ern
Ġfal schen
Ġent scheidet
Ġverw altet
Ġprak tiz
ĠStabilitÃ¤t spakt
Ġzunehmen de
utt on
7 1
Ġan zeigen
ĠEin z
ĠProtokoll s
Ġmobil e
In ner
bed Ã¼rf
ĠErwachsen en
ĠV it
ĠAktu alisierung
Ġgew achsen
ĠZusammen setzung
ĠAuftrag geber
Ġco uld
ess o
werb ung
Ġir ische
ĠLehr e
Ġnorm ale
l ehnen
Ġaus wÃ¤rtige
Ġide aler
ĠVo gel
Ġflexib le
L Ã¤ndern
k as
t rÃ¤ger
Ã¤ be
ĠM und
Ġverw Ã¶hnen
Ġare a
ĠEurope an
Ġtro cken
I ER
ge kommen
Ġk ulin
op le
la d
id s
Ġgra tis
b ilder
k tiver
ĠP sych
verb and
ĠGerichtshof s
I X
k ri
ĠAn bau
Ġsch licht
Ġe cht
ÃĦ nder
Ġstren ge
ektiv itÃ¤t
ĠS AP
demokra ten
ĠP SE
Ã¶ ÃŁt
ĠIm port
ĠS yn
ĠP res
tion al
Ġher stellen
Ġkeines falls
ĠSchatten ber
T a
m eid
ĠA ch
ĠM es
ĠF Ã¤hr
Ġ6 4
ĠVert rÃ¤gen
freund lich
wechs lungs
g art
ĠE L
Ġauf rechter
ĠLehr en
ĠVen e
problem e
g ab
s ul
ver k
lei den
K am
Î ±
ra els
scha uer
In formationen
Ġglob aler
Ġdisk rimin
ĠElekt ronik
ĠHam as
ĠGewerk schaften
Ġm a
den z
Ġst anden
ĠsÃ¼d lich
ĠAngriff e
Gem einsam
Ġirgendw elche
Ġvor teil
rin t
Ġgel Ã¶
ĠGesetz geb
ĠMc C
Ġ Ã¤r
Ġd rÃ¼cken
ĠR ande
ĠHotels afe
rib ut
ĠEinsch rÃ¤nkung
ĠUrspr ung
g roÃŁ
Ð ¿
ĠV el
ĠT ank
Ġt op
ĠSp uren
stimm ungs
ĠDemokra tisierung
Haus halt
Ġresul tieren
Ġden k
ĠT en
ĠC ocktail
Ġsol ide
ĠTre ff
Ġregistr ieren
katastrop hen
E igen
g Ã¼ter
ĠS E
spro chen
]] .
ĠStr asse
ĠIntern etzugang
O W
ver kauf
fahr ts
Ġverl Ã¤nger
ĠschlieÃŁ e
funktion en
Ġz Ã¼g
ĠRe aktionen
ĠHaus halte
Ber ichterstatter
Ġwei b
v illa
ĠP rei
si ve
di a
Ġhe f
Ġder artigen
Ġbe denken
recht liche
ĠÃ¤uÃŁer ster
4 1
K eine
Ġfreund lichen
Ġanalys ieren
in nung
ĠJ azz
Ġhier mit
ol den
Ġt rop
frei heiten
ĠNeu e
h ers
Ġk auf
rei en
ĠLebens qualitÃ¤t
ĠEinzel nen
Ġaltern ative
ĠSubsidiaritÃ¤t sprinzip
Ã¤cht nis
ĠD ich
ĠT unes
ĠAus nahm
Ġsp Ã¼ren
ĠStu dium
ĠJahrz ehnt
Ġge leiste
Ġsch rieb
end o
ÃŃ n
ĠMallor ca
Ġaus gesch
ĠAn regungen
our t
Ġ4 2
ĠPart y
ĠDruck er
ĠDrit ter
Ġbegeist ert
ge h
sch rau
and te
lieÃŁ t
amp agne
Ġbr ut
Ã¶ff nete
struktur en
gra de
ĠDol om
Ġrelev anten
ĠMaast richt
ungsk osten
Sol che
ie fer
Ġaus gelÃ¶st
Ġjeweil ige
ĠL oc
fol ger
Ġange hen
ĠDi am
Ġtradition ell
ĠEntsteh ung
ra in
ĠL ou
ag on
ĠBet on
ĠPanor am
ĠAuf nahmen
Des ign
c raft
u age
ĠW ord
re formen
Ġe ure
Ġide alen
M on
N e
ĠA bl
ĠP as
Ġkl Ã¤ren
Ġbew aff
Ġfr isch
ĠAlex ander
p ut
Ġunver zicht
ĠWien er
ĠÃ¼b rig
Ġignor iert
A nt
re staurant
ĠErfolg s
ĠKar l
ĠKredit karten
N ichts
ĠAus legung
stre cken
zusp rechen
ri ffen
Ġsch Ã¼tzt
ĠEr nen
ĠSchne e
al ia
Ġn ennt
ber at
kt oren
so ftware
ssystem s
m or
Ġb ir
ĠH ans
ĠW el
Ġwenig stens
ĠWahr nehm
ĠVer g
Ġverb rei
ĠQu art
ĠEinw ohnern
Ġnutz bar
r unde
men gen
ĠVorsitzen der
ĠEcht zeit
ĠTragÃ¶ die
ĠPuert o
z on
Ġange ben
ĠVerein igung
ĠGesundheit swesen
ĠTher mal
B ucht
f i
ĠQu ark
Ġverschieden sten
Ġeinzel ner
C P
ĠR od
Ġl Ã¤ngst
ĠWohl befinden
ĠKind es
M a
ĠLi fe
ĠGÃ¼l tigkeit
f ul
ĠS ad
ĠSe gel
ĠAd obe
ĠPort o
sbe ziehungen
ĠgefÃ¤hr lichen
ĠTem po
Ãĸ ff
ĠJoh annes
B ild
c er
ĠD ort
Ġoffen kund
ĠJu den
ĠPrÃ¤ z
ĠWh irlpool
Ġgenehm igt
w Ã¤l
Ġges unden
Ġgem essen
fl otte
ĠJugend her
Ġs etzte
ĠE P
ad s
Ġsp iegelt
ĠzurÃ¼ck kehren
Ġabge halten
Ġkompl etten
7 8
Ġver halten
Ġre staur
ĠGu mm
Ġinc lu
s em
ren zen
sch alter
Ġh orizont
zu kommen
ik alien
ĠLi by
ĠCon tent
ĠKoh Ã¤renz
Ġko oper
tegrit Ã¤t
Ġw Ã¶ch
ard o
Ġeinger ichteten
eten z
Ġriesi ge
ĠAmts zeit
Ġwirk ungs
Ġarbei tete
ĠGesprÃ¤ chen
ĠR em
Ġver lei
Ġt rennen
ĠBr ut
vertre ter
Ġg ingen
au igkeit
ĠSte u
ĠMarkt wirtschaft
Ġunge achtet
ĠRatsvorsitz es
ĠVerstÃ¤r kung
ĠBe wertungen
ĠKoh le
Ġerneuer bare
Ã¤uÃŁer ung
sch l
ĠAus stellungen
Ġinternation ales
ĠInstrument s
Ġit s
sprach igen
ĠKonfigur ation
Ġw hen
Ġh Ã¼b
ĠH alte
Ġver he
Ġson n
Ġpro gramm
Ġmeisten s
Ġend et
Ġd einen
wei ÃŁ
ĠGer Ã¤ten
ĠRegul ierungs
ier bar
Ġauf weisen
Ġgef Ã¤llt
con om
G esch
sen der
Ġeinz iges
ĠUS S
ĠFrei will
ĠIniti ativ
Ġun iverse
as p
Ġdurchge fÃ¼hrten
ĠÃ¶k ologische
4 6
ĠK ohl
Ġwar tet
ĠGeb ur
ĠSon y
ĠFel sen
sstra tegie
o ul
ĠsÃ¤m tlichen
ĠSim bab
ĠMazed onien
M in
ĠH ub
ĠD or
Ġver ehrten
rÃ¤ gern
Ġ" ,
sf ragen
ib an
ĠSchiff s
ĠIs raels
ĠErk enntnisse
frik as
Ġbenach r
ĠB ele
ĠM is
glie dern
ĠErn Ã¤hrung
ĠAlb anien
Ã ²
ĠK ohlen
per ten
ĠSh utt
Ġvorher igen
ĠBe frei
ahl en
Ġdeut scher
fil m
Ġexklus iv
sch te
ĠÐ ¸
ĠÃ¤l ter
h ar
ord net
ĠSub ventionen
ĠChr isten
Ġbeg ab
gere chte
ĠSozialdemokra ten
ĠSorg falt
ĠHer berge
Ġinter pre
ĠLa den
Ġethn ischen
ĠV ar
zu stand
est s
str eit
ĠMon ats
wÃ¤r mung
bef ug
ĠMosk au
4 2
st eil
ĠR ing
ap el
Ġern ste
ĠDat a
ĠgefÃ¤hr liche
steuer ung
ĠD och
ĠFinanz mittel
ĠPh arma
Ġtra ur
ĠEntwicklungs zusammenarbeit
Ġvorher ige
ĠArbeitsk rÃ¤fte
c ol
Ġver g
ativ es
Ġex klusive
ucht ung
Ġzunehmen den
D rei
ĠE cke
Ġden selben
Ġob jek
Ġattra ktiv
A t
i dem
Ð ¹
ĠT rink
ĠIn t
ĠAn im
Ġglau bt
ĠPort al
Ġgegensei tig
ĠFernseh er
ĠMalt a
ĠZubeh Ã¶r
D I
ĠEx tra
laub nis
Ġaufge hoben
ĠÃ¼b lich
ĠArchite kten
ĠRand lage
ĠbetrÃ¤cht liche
j i
Ġl ohnt
la gert
recht lich
ĠS omm
ĠA cht
ĠT im
ĠFl Ã¼ge
haus es
bet eil
Ġleg iti
ĠK Ã¶rp
Ġver handeln
si l
Ġab wechslungs
Ġkri tische
ĠDien stag
ĠLit auen
C ommer
ĠAb sichten
ĠWelt bank
alis ierungs
Ġengag iert
g ungen
ĠG alerie
ĠL y
Ġir re
Ð ¡
ĠM u
bin sel
Ġbekannte sten
N o
Ġd iff
ĠRe b
bet reuung
Res erv
solid ierung
ĠniederlÃ¤nd ischen
ĠRechen schaft
p hen
ar ium
ss lich
Ġdauer haft
hunder t
svor schriften
Ġwirksam en
Ġin wie
ĠV iet
Ġzahl reicher
Ġeinzu beziehen
ĠFe ed
ĠVor bild
ĠBuch ungs
ĠTrans aktionen
ĠPlen ars
Ġportugies ischen
ĠAnh Ã¤nger
4 3
ĠB is
ĠE ta
Ġg raf
ĠH ann
ĠSp ir
ess el
bil anz
ĠH um
be kÃ¤mpfung
8 9
ÃŁ ig
ĠÃ¼ber setzt
ite ktur
f al
ĠH it
Ver f
nehm bar
Ġeinzur ichten
ich e
Ġf eier
ĠP y
Ġverst oÃŁen
bas ierten
ĠErn Ã¤hrungs
riter ium
m esse
em it
ver si
Ġstark es
ĠZin ss
ĠZ it
ff ekt
zuf inden
ES CO
ĠText es
ID S
ĠGrÃ¼ nder
ĠverstÃ¤nd lich
Ġeingereich ten
ĠVer hÃ¤ltnisse
ad t
teil ten
ĠÃľber setzungen
ĠÃ¤l testen
ĠStatist ik
der e
ĠB atter
ĠK au
Ġaus gebaut
ĠgrÃ¶ÃŁ t
Ġklass ische
ĠErdbe ben
Ġn ight
ĠM ach
ĠÃ¼ber fl
ri o
prÃ¼ f
M ark
end igung
Produ kte
ĠglÃ¼ck lich
ĠLiban on
T eil
Ġgef angen
Ġbew undern
Inner halb
r Ã¶n
an eben
ver tra
ĠVerzÃ¶ gerung
ĠGefangen en
ĠBM W
gerichts hof
Ġb inden
ĠT it
ĠN u
ĠO ze
Ġunter en
Ġleben den
ĠSpe zi
Ġ {{
Ġf ar
ĠK lei
ĠKir k
Ġeinzigar tig
Ġzeich nen
ĠBerichterstat tern
ĠSp anisch
ĠRechts rahmen
ĠSy rien
ĠInd ones
ĠHaushaltsplan s
D ienst
ĠFlug zeuge
ĠLeiden schaft
u tionen
Ġv ierten
ig uren
Ġman gel
Ġc l
pl ant
Ġausge legt
ĠPl us
Ġeinzel staatlichen
ĠbeeintrÃ¤ch tigt
3 00
B ek
d ar
Ġer richten
fahr ung
ĠS et
ur g
Ġwo fÃ¼r
Ġauszu Ã¼ben
Ġjahr el
Ġpersonenbezogen en
Ġerf reu
vol umen
ĠbefÃ¼r worte
Ġverab schie
Ġirgend einer
Ġvern ach
Ġvergleich en
ĠKaff e
ĠTai wan
ste uropÃ¤ischen
Ġbeit reten
yr ight
Ġluxuri Ã¶se
V ert
w eichen
ĠH Ã¶r
Ġsch warz
Ġak zeptabel
Gem Ã¤ÃŁ
P riv
ĠD res
ov is
ĠKat hedrale
ĠM ah
ĠF A
ĠSch ienen
ĠVor gÃ¤nger
Ġ8 5
ĠGeschÃ¤fts bedingungen
-- --
Stand ard
ĠEinfl uÃŁ
Ġverank ert
beit rag
ĠMon itor
ĠEreig nissen
Ġqualifiz ierte
n ame
hr oom
Ġc or
ĠH u
ĠZ eug
EN T
ĠAnt on
ĠlÃ¤nger e
Ġsystem atisch
ĠvielfÃ¤l tige
m l
ĠH ot
il a
ĠN ote
ab teilung
minister ium
ĠStre cken
ich en
ĠD aher
ast et
gÃ¤n gen
Ġfried lichen
ĠCaf Ã©
ĠG itar
ĠD IE
sp oten
Ġsch lage
bl es
Ġzw angs
ĠStadt teil
ĠSk la
System e
LA F
ĠImplemen tierung
. ).
K om
sp reis
Ġdurch setzen
Ġ3 9
Ġinter ak
Ġer eig
ĠN ein
ĠN euer
ĠBesonder heiten
Prot okoll
K T
b inden
r Ã©
un s
ĠB ang
Ġl ive
Ġde bat
iv als
ĠMo dule
ĠDoppel bett
Ġberuf liche
U T
W Ã¼r
ĠF air
fÃ¼ llen
Ġbesei tigt
ĠBru der
ĠMul tim
g rÃ¶ÃŁe
ĠR io
ĠO pfern
Ġger ufen
ĠiP hone
Ġabz ielen
w s
um pen
spiel er
ĠPlay a
ĠPerspek tiven
ĠAnwendungs bereich
ĠLate Rooms
n utzung
w inkel
Ġh ell
ĠAn weisungen
Ġunter liegt
ĠTats achen
Em issionen
ĠJugoslaw ien
itra vel
te le
Ġra sche
schw emm
ĠVerst Ã¶
ĠB lan
Ġth eir
ĠKomplett preise
ĠUmstruktur ierung
Ġstehen de
ĠKoordin ation
Ġun zu
men Ã¼
ord nen
Ġbesch eiden
des ign
ĠDevis en
ber ger
ĠArbeits weise
markt es
st rom
ĠP akt
Ġg Ã¤be
ĠBe dingung
ĠKommissar e
spoliti ken
ĠLe der
reg ierungs
ĠgrÃ¶ s
ĠM ilit
ver einbar
so fern
ĠTrend s
ĠAuseinander setzung
Ġmaler ischen
mer zen
Kl asse
as a
Ġver arbeiten
Ġkon serv
ĠTemperatur en
f isch
ĠP R
ĠH on
men s
Ġzum al
schein lichkeit
Ġus e
ĠMail and
ĠKlo ster
ĠPalÃ¤st ina
ĠAnn Ã¤h
ĠSn ow
Ġsm all
ĠSowjet union
Ġzusammenzu arbeiten
ĠN iger
Ġ% .
ĠEhr en
ĠKol um
Ġdauer hafte
Dist ribution
un tern
an bieter
sch ei
Ġge kauft
att formen
weiter ung
Ġautomati s
ĠTsch etschen
zei tige
ĠSil ber
Ġeinsch lÃ¤
P e
ĠE VP
ĠG re
Ġinter institution
ĠGelegen heiten
ĠAnaly sen
ĠInner es
Ġverlei ht
D av
f ab
âĢľ )
ĠHy d
ĠCommun ity
k ont
ump ing
ĠTha iland
G eben
ĠF al
ĠW Ã¶rter
Ġausgewogen en
ĠResol ution
ĠA V
us sten
ĠPro test
Ã¶l kern
ip el
ool s
ĠSen si
Ã¶h nt
s zeit
or er
ĠN ull
Ġdies mal
Ġbereit zustellen
ĠMus ic
ĠEntschlieÃŁ ungen
cy c
Ġbele gt
L og
ĠL uf
netz e
ag a
ĠVorsitzen de
Ġaufrechter halten
G ipfel
M P
Ġan bietet
ĠÃľber ra
rÃ¤n gt
ĠstÃ¤rk eren
S D
ĠF eind
eigen en
Ġsicher er
Ġklar er
ĠK ra
sprech ung
ĠGovern ance
ĠAn ruf
ĠNor wegen
ĠCorpor ate
Ġh arte
Ġge laden
ĠD ann
ehr ter
we be
ay a
ĠWill kommen
i fik
Ġgrundle gend
M ag
an ern
ĠAn sprech
ĠBe endigung
Ġ" .
ĠHer angehen
Ġgeb illigt
ĠInternet seite
Ġvertra uen
ĠWik itravel
ĠSemin ar
ĠTenden z
m iss
Ġk enn
ĠR Ã¼st
ĠEing riff
viel falt
ĠVertrieb s
ĠnÃ¶r dlichen
ab stimmung
ĠVor wand
ĠmÃ¼s se
ĠEU RO
Ġunter s
ĠLÃ¶s ungs
ĠDurch schnitt
ement s
ĠZwe cken
B C
ĠIn tegritÃ¤t
jÃ¤hr iger
ĠCan on
ie ter
Ġver schieben
io x
Ġgef asst
ĠÃ¼ber wiegend
Ġbes etzt
ec utive
ĠDar lehen
k ar
y b
st uf
ĠAnrei z
ant eil
Ġange hÃ¶ren
al us
Ġge holfen
ol ge
ĠKan al
O p
W ieder
an wendungen
ĠHa lle
Ser ie
ĠSalz burg
ent ren
Ġzerst Ã¶ren
L O
in te
Ġv i
Ġin iti
Ġbest icht
sprogramm s
Ã¶h nung
am i
Ġanalys iert
Ġim plemen
ĠVor sorge
ĠGrund freiheiten
E E
Ġf a
Ġwer te
Ġbeg reifen
Ġneue ste
ĠForm ul
h ungen
Ġn ament
Ã¤l er
ĠKonflikt s
Ġwor auf
Ġstren gen
unn el
EW G
Ġwettbewerbsf Ã¤hig
ĠVerzÃ¶ gerungen
Ġbelg ischen
ĠAnkÃ¼nd igung
ĠRe c
Ġmehr erer
Ġverl iert
ĠAmerik as
Ġmak ro
schnit tlich
em issionen
ĠSt orn
err en
wÃ¤r tig
ĠTrain ings
ĠZul assung
ĠEntscheid ungs
Ġschnell es
inter essen
ĠVorber eitungen
ĠReihen folge
ĠdrÃ¤n gen
Ġeinmal ige
ĠSec urity
ĠSlowen ien
ĠAb stimmungen
ĠMill enn
ĠUN ESCO
Ġbelieb ten
Ġwei ÃŁen
Ġkonstru ktiven
ĠmÃ¼nd liche
Ġf rucht
Ã¼r fen
Ġu eber
bel ast
ĠzukÃ¼nf tig
ĠSch ott
Ġversch oben
ĠgrÃ¼n dlich
ĠnÃ¼tz liche
Ġha bt
err t
ed i
Ġget renn
ĠNicht regierungs
Ġbreit es
es ischen
de fin
ĠW Ã¤hrend
rÃ¤ der
Ġvor ne
id ay
nt h
ĠFinanz mÃ¤rkte
ĠForm el
test et
Ġzu geschnitten
Ġer mitteln
Ġgesellschaft liche
cl us
ĠD est
Ġr eine
ĠGes am
ĠfÃ¼hr ten
Ġbevor zug
ĠLandwirtschaft s
Ã¶pf e
Ġschl immer
Ġverschw inden
Sow eit
ĠK m
el ung
ĠV alen
ĠSp ek
ĠGegen stÃ¤nde
ĠPartner schaften
Ġersch ien
Ġaut hen
ĠwÃ¼nschen swert
ĠBegriff e
ĠL en
ĠmÃ¼ÃŁ te
ĠReicht um
ĠPrÃ¤si dium
K ont
Ġun f
ĠFrei en
Reg ierung
Ġchamb res
Ã¤ udes
chn ungen
grei ft
n oten
Ġer re
Ġben utz
ĠLuft verkehrs
Part ner
ĠP ek
ĠAus fahrt
ĠNor mal
Ġhil fs
ĠS av
ĠI b
Ġben annt
ĠX P
Ġunmittel baren
m ische
Ġk unden
Ġj unger
ĠMit wirkung
ilit ies
Ġbi ologischen
Mar kt
ĠDek or
ĠverknÃ¼ pft
st ers
Ġso zusagen
Ġunter graben
Ġgelten d
Ġungar ischen
B A
H R
ĠP est
ĠF ried
ator ium
Ġvorge geben
ĠKur se
ĠEff ektivitÃ¤t
ĠPiaz za
ungs system
pp er
ystem s
ĠStutt gart
, -
ĠSp iels
Ġges unde
teil te
ĠschÃ¶n es
IN E
Ġmar kt
de uten
lÃ¤ ÃŁ
othe ken
ĠHal binsel
Ġver sprochen
Ġt ausend
ĠC y
ĠJ ames
ĠZusammen bruch
ĠKre bs
st ar
Ġf eiern
Ġnach voll
In ternation
Ġmehr mals
c ess
on ial
Ġg Ã¤ng
se g
la b
Ġverein facht
ĠPrem ium
Ã¶konom ischen
an b
al p
Ġge klÃ¤rt
ik i
ĠDe fizit
Ġfair e
Ġjap anischen
Ġab geb
ĠSn ack
Ġm erk
ĠT H
ĠL esen
Ġweiter gegeben
Ġausge arbeitet
ive aus
Bis her
ĠL aut
Ġwenig sten
ĠStraÃŁen verkehr
ĠGolf platz
Ġunvergess lichen
Ġh ol
ĠN ukle
ĠUnter stÃ¼t
lag ern
ĠGen f
bas ierte
Ġunterst reicht
l ist
si gen
ĠRe port
ĠSte ll
ĠBl u
ĠG ir
ĠTag ungs
Ġvers etzt
ĠTr ennung
Ġunab ding
H och
Ġbereit stellen
Ġhinzu weisen
F ahr
l Ã©
Ġk g
Ġge werb
Ã¤h iger
ĠSch le
ĠReg imes
Ġgew ann
ĠStand punkte
ĠtÃ¼rk ische
b ry
ĠBe weise
Ġfamil ien
6 9
st unden
ĠM eine
Ġstar tet
ĠVerm eidung
sproblem e
Ġfund ament
tief st
V i
Ã¼ che
ĠW o
um pf
ĠT reiber
Ã¼ber wach
Ġunter einander
oh a
ĠSpiel raum
ĠInformations gesellschaft
se x
ĠC ent
ag ing
Ġwar men
ĠHaushalts jahr
ES T
Ġbedeutend sten
ĠLegitim itÃ¤t
Ã¼ llen
Ġarbeit s
S erv
st s
ĠM asse
Ġzu tiefst
ĠG ard
Ġdurch gesetzt
ec ial
Ġmin utes
ĠÃľbereinkommen s
Ġwar m
Ġ0 7
Ġkorrig ieren
ĠK ino
ier ra
etz e
Ġfr ischen
ĠBinnenmarkt s
g ier
Å Ļ
ĠB reakfast
Ġf o
Ġt od
riv e
Ġeffek tiven
zwe ck
m il
Î ²
is en
eben e
ĠWelt markt
Ġfrei er
geord neten
Ã¤ ssi
icht ung
ĠGol den
ĠPhil ipp
ronom ie
l uft
ir a
Ġwo zu
ĠLeist ungsfÃ¤higkeit
ĠRind fleisch
Ġarg umen
Ġun vor
ĠEin trag
fe ct
ĠEnergie versorgung
ĠV ielen
ĠC li
ĠEr stens
iz a
ĠÐ ¾
ĠGanz es
ĠAusnahm ere
Ġan stelle
Ġver fahren
ĠStellen wert
Ġindir ekt
l eit
us alem
ĠDien sten
ĠOrgan en
G A
Ġw ho
ĠR Ã¤um
Ġeinzu sch
Ġfried liche
ĠGastfreund schaft
Ġin ternet
ĠPf ad
Ġignor ieren
l em
Pro blem
ĠPriv atis
Ġeffizien ten
Ġreal istisch
l anz
ĠK le
ĠK ernen
ĠT rÃ¤ger
ser klÃ¤rung
ann ehm
ant rag
Ġgleich berech
ĠMon d
sor gt
bie tern
V erk
ge ls
ĠAn zeigen
Ġwunder bare
stu hl
Ġumge kehrt
ver treten
ĠNeu es
ĠGleich behandlung
Ġvorange gangenen
Ã ¸
ĠE i
In stall
Ġtra in
ĠInvest ment
ĠRoh stoff
Ñ Ĩ
ti tionen
burg h
Ġschwer er
ĠgenÃ¼ gt
ĠCamping platz
Ġd on
ĠMenschen handel
Ġgesch eiter
ĠFinanz iellen
zuf olge
ied elt
Fl ug
Ġvorrang ig
ĠHong kon
D i
t d
an sprÃ¼che
Ġge folgt
ĠW agen
ho use
ĠFor st
Ġmo st
ĠPal ast
ĠKons umenten
institu tionen
ĠErnen nung
ĠPro v
ĠRahmen s
Ġkorre kte
Ġpla ce
Ġgez ielt
- )
Ġd roht
is ol
ĠKam in
ĠauÃŁergewÃ¶hn liche
k unst
icht ungs
ĠH aust
Ġum stritten
Ġzahl t
ĠParlam enten
ĠVermarkt ung
at ie
Ġbes agt
Ġviel fach
ust om
sk raft
ĠNach folger
ĠWahr scheinlichkeit
ĠEff ekte
Ġlandwirtschaft liche
Ġausgestat teten
anw alt
Ġd ei
ad et
pl Ã¤ne
wÃ¼rd ig
Ġvorsch lÃ¤gt
ĠUnions bÃ¼rger
ĠRat sprÃ¤sidenten
ĠEur or
ĠTerritor ium
qu ar
lan ge
ĠKop ie
Lin ux
Ġverwirk licht
N et
k rie
AL E
Ġfinanziell er
ĠFrie drich
f end
ĠAuf rechter
ĠgroÃŁ artige
ĠKl uft
ĠPersÃ¶n lichkeit
Ġverb ieten
ĠEl ementen
ĠMobil e
Ġbez aubern
Ġ4 4
Ġbesser es
Ġwahr nehmen
RO M
ĠgewÃ¤hl te
Ġauf re
ĠRo ad
sver b
ĠAb fÃ¤lle
Ġkon sul
ĠApp le
ĠverÃ¶ffent lichten
ĠErn st
Ġfehlen de
ĠDol met
n ik
er be
ĠSch uh
ĠEr reichen
schie bung
land es
ĠVul kan
ĠS em
Ġhinter lassen
anspruch nahme
M ich
ĠA P
ĠMusik er
Ġintensi ve
in ischen
Ġein zustellen
ĠK Ã¤mpf
ĠF okus
om an
Ġzuge wiesen
c ar
Ġzu lÃ¤ssig
ĠK laus
si a
il den
Ġzusammen gef
Ġdi verse
ĠSon g
Ġvorhanden e
Ġrei z
ĠD Ã¼ssel
ĠBe steller
Ã¼n deten
ele ct
ĠGesch ichten
Ġrecht lich
ĠEm p
ĠBo ard
ĠLe on
ÑĢ Ðµ
Ste llen
b io
s bereich
st euern
sch Ã¤den
Ġv e
ĠSch au
ĠEr rungen
ĠPar ks
Ġzwei mal
Ġlang jÃ¤hrige
tensi v
ĠVerkehrs mittel
zut eilen
ĠAnnÃ¤h erung
Ã¼ sten
Ġb elegen
Ġge teilt
Ġunver bind
Ġbeant ragen
ĠOrien tierung
ĠL ust
le ch
Ġentsch uld
Ġoptim alen
Ġkommerzie lle
ĠÃĦr zte
}} )
P h
en se
ar tikel
ĠAl m
ĠQu ar
ĠTab ellen
ĠMitent scheid
Ġ rot
st abil
ĠS eine
Ġg rand
ĠZ ellen
ag og
ĠMa ter
dien sten
m ischung
ĠFl otte
ĠVerb and
zÃ¼ gen
Ã «
om o
ho tels
Ġleich ten
ĠGraf iken
ĠVerfass ungsver
Ġtran se
S K
m Ã¼
Ġ ei
Ġn um
Ġausge glichen
ĠBuchsta ben
ĠFri sten
F e
ge halt
Ġab sur
Ġges orgt
ĠJahres bericht
ĠVi sta
Ġabz ielt
zu heben
ĠKomm ando
ĠEx porte
Ġumfassen des
ogra fen
P ress
er halten
ĠE leg
ĠH els
ĠT hr
ss on
ĠMÃ¼ he
ĠStrÃ¤n den
ĠSoft war
ĠA rab
Ġge treten
Ġan lÃ¤sslich
Ġbe ach
Ã¤m tliche
Ġregel mÃ¤ÃŁigen
ĠVerpack ung
ĠTherap ie
Ġzwangs lÃ¤ufig
sch wei
te am
Ġge testet
ĠEin heiten
anz ler
ow ski
rat or
frist ig
n d
ĠM ix
ri um
Ã¼ck t
Ġqu i
Ġ197 0
h u
sch luÃŁ
be wertung
ap e
ud ien
greifen den
ĠCon sult
ĠWurz eln
ĠWahrnehm ung
Ġmein t
ĠLi sten
kam era
ĠLei p
ĠKÃ¼nst lern
ĠWelthandel sorganisation
W U
Ġde cken
part ei
ĠGetrei de
ĠTib et
ri x
Ġr isk
Ġkompl iziert
LÃ¶s ungen
ĠIndustr iel
Ġkompati bel
M y
ĠG ay
form at
ĠForsch er
stre bungen
Ġan melden
ĠL ap
ĠJahrzeh nte
Ġkoh Ã¤ren
a sten
em b
Ġg laub
ĠZ igar
ĠJ os
âĢľ -
Ġverb reiten
hand lung
verb ot
ĠMuse ums
ĠBere chnung
Ġf liegen
di ovis
Ab gesehen
ĠTick ets
ĠKernen ergie
ad el
fahr zeugen
âĢĵ ,
ĠFran cis
ĠAufrechter haltung
7 2
fahr zeug
roh ungen
ĠZiels etzung
ĠChem ikalien
ĠParlament arier
ĠGeneral sekretÃ¤r
ĠbeeintrÃ¤ch tigen
H and
Ġd oppelt
Ġz iti
ĠH unger
ĠZ entr
ĠAmer ican
Ġunter halb
ĠFl or
ĠAt t
Programm e
Ġherunter geladen
ĠBehinder ungen
Ġm ieten
Ġf ung
Ã¤l en
ke p
ĠhÃ¤uf iger
Ġf Ã¤
Ġlie ÃŁen
Ġgesch Ã¤tzt
ĠBef ehl
Ġstabil e
Ä Ļ
st ent
or dern
Ġp lay
ĠOr ts
Ġdeut licher
staat liche
Dar in
P erson
Ġk Ã¼nd
ĠD ub
reich enden
Ġqu an
ĠPh ot
ĠWachstum spakt
Ġwundersch Ã¶n
ĠQuad rat
sch wer
la fen
Dar auf
ĠNeu igkeiten
ontro ller
ĠReserv e
Ġschwed ische
ĠTelekommunik ations
A ir
Ġw Ã¼nscht
ĠH eute
ĠJ agd
ĠSch ool
R o
e arch
ar tig
unt a
Je den
ĠtatsÃ¤ch liche
7 3
ar l
Ġbe stellt
Ġvor kommen
ste chnologie
ĠAuf trÃ¤ge
Ġ0 8
ĠgrÃ¶ÃŁten teils
Ġan streben
ĠT ar
di mension
ĠSub stanzen
Ġbeant ragt
ĠGro ss
ĠDÃ¶r fer
Ġan tiken
hal ter
ĠAus sichten
ĠFe atures
C o
ĠGew issen
ĠCo unt
besch luss
lÃ¤uf e
ĠAutomobil industrie
M ed
t rieben
Ġn ett
ĠF ett
ic i
programm s
ĠLes er
Ã¤ss ig
F est
L iste
z ucht
un er
Ġw it
Ã¤ uft
ĠL ot
wick elt
od y
Ġparlament arische
op e
Ġe asy
In dem
ĠGesamt heit
ĠVerhalten sk
E X
z ell
ĠD ein
ĠCh at
KÃ¶n nen
r ont
ĠA D
ĠLie b
ĠKre atur
ĠEt agen
ĠAssozi ierungs
ĠH ighl
System s
ĠE F
Ġf iel
ĠC oll
ĠAb wicklung
ĠÃĸ konom
Ġschnell st
ĠKonflik ten
ĠbekrÃ¤f tigen
ĠPetition s
gel Ã¤nde
ĠStimm ung
ĠFran ce
Ġsex uellen
F rÃ¼h
ĠSch iffen
ĠAuf stieg
herr schaft
ĠEntschÃ¤d igung
ĠSimbab we
Ġbek am
Ġklar es
ied lung
Ġerweiter te
Ġste ckt
ĠLand schaften
ĠFl ach
ĠNational park
Nie mand
a e
Ã© t
P ol
ĠC entral
bÃ¼r os
Ġan fangen
Ġausge Ã¼bt
Ġal ter
ĠDef izite
ĠViet nam
ĠV iew
aus stattung
her z
Ġeinz eln
Ġfestge halten
ĠDist ri
d ir
geb ir
Ġsp Ã¤ten
Ġbet reibt
ĠLin ken
d or
Ġbe wirkt
il er
ĠIn anspruchnahme
ĠSek ret
Ġkoordin ieren
Fol glich
k le
ĠB our
ĠK ul
ĠT i
ĠGe geben
ĠKomp on
Ġgesetz lich
Hin sichtlich
ĠgewÃ¶hn lich
S eiten
g eist
Ġge Ã¤nder
ger ech
ĠSk y
ĠBas el
Ġun gen
ĠP utin
ĠV Ã¶lkern
ĠD ifferenz
le ar
be werber
Ġab ges
ĠBru st
Ġbat hroom
Ã¤ che
ĠS ource
Ġj u
ĠFrage stunde
scheid ungen
ĠInfrastruktur en
ĠNord ir
Ġmon at
H aupt
ul ationen
Ġre ale
Mit glieder
ĠGleich heit
7 6
E urop
b Ã¶
b rÃ¼
u ben
Ġf irst
Ġver glichen
Ġp osition
ers atz
Ã¼t ten
ĠbenÃ¶ tigten
ĠausfÃ¼hr liche
ĠallmÃ¤h lich
h us
Ġt oll
be stimmung
ĠEin ladung
ĠfÃ¼nf zehn
ĠFer tig
ĠÃ¶konom ischen
veranst altungen
Ġschwar zen
Ġdamal igen
ĠA li
Ġge forder
ĠMa y
Ġbef riedigen
Ġgenau en
ĠHil fen
ĠNahr ung
ĠDolom iten
O K
ĠH an
ĠD oha
ĠO t
Ġkon vention
ĠY ou
Man che
Ġbas ierend
Hin zu
Ġnachzu denken
Ġislam ischen
Ġz og
ĠE ro
Ġst oppen
ĠschÃ¶n er
gesetz te
fass ungen
ĠSchnitt stelle
ĠA M
ien e
ĠEle ct
ĠE M
Ġge druck
ĠGe ber
ĠFest ung
ĠAugen merk
AR E
ĠSor timent
Ġbelieb testen
ĠVersch m
ĠAss oci
w ing
Ġan wend
Ġ4 3
mer kt
c ast
ĠSch okol
ul den
Ent decken
ĠAir lines
ĠVerk nÃ¼
ĠSÃ¤u le
b ringt
Ġb ack
at on
Ver fahren
Ġth an
itt le
frik anische
ĠImmun itÃ¤t
c an
Ġd or
in frastruktur
ĠA ro
n ation
Ġbe weist
Ġt wo
ste ten
ĠBef Ã¶rderung
Ġausgewogen e
Ġtour istischen
Ġer l
ĠEnt deckung
all o
ĠGes etzen
zie ll
ĠEinw Ã¤nde
ĠFrÃ¼ chte
ĠdÃ¤n ischen
g ipfel
sp aren
ru hen
ĠMet rop
ali tion
Ġabend s
err y
Wir tschaft
iss ar
ĠPh asen
Ġpassen den
ĠImp ulse
ĠSm art
ĠLiby en
ten eg
Ġh Ã¤ngen
ĠvernÃ¼nf tigen
ĠKranken haus
ĠKÃ¼hl schrank
ĠDafÃ¼r halten
F reuen
k enntnisse
ein g
ĠMit bÃ¼rger
schein end
ĠUntersuch ungs
ĠTunes ien
H at
ĠSo uth
ĠNetz es
ĠErn euerung
Ġgriech ische
Ġbeunruh igen
ĠTipp s
Ġein bringen
ĠAn zeichen
au tif
ste chn
ad ing
lÃ¤ d
ĠgrÃ¼n den
Ġbemer kt
spezif ischen
M Ã¶glich
Ġer for
Ġp ubl
Ġt ho
ed s
ass age
Ġausge deh
abhÃ¤ng ig
ĠpersÃ¶n licher
ĠÃ¶st lichen
ĠgÃ¼l tigen
Gest atten
Ġein geben
ĠR Ã¤umen
bau ten
ĠStr assen
sch lÃ¼ssel
Ġein leiten
ĠN ap
ĠZeit ungen
hol ungs
Ġleg te
ink i
Ġintensi ver
un ction
Ġf otograf
beh alte
ĠNacht eil
ĠNachbarschaft spolitik
ĠGaz a
O C
Ġbes ichtigen
ĠMin ist
ain s
ĠInte lligen
ĠverstÃ¤r kten
ĠgelÃ¶ scht
Ġm uch
au ert
oll t
od a
gere chnet
Ġtie fe
ĠF ont
Ġerz Ã¤hlt
ĠverÃ¶ffent lichte
ĠEinkommen s
antas ie
ĠEleg anz
E IT
Ġbet rachte
ĠTeil nehmern
ens eits
fang s
ĠBeitritt sk
Ġvorzu schlagen
7 4
n nen
Ġb ot
ri an
ange hÃ¶rigen
ĠgehÃ¶r te
Ġvorzu bereiten
preis es
Ġqualifiz ierten
ĠJose ph
sfrei heit
Ġ rÃ¤um
ein halb
Ġoptim ieren
ĠjÃ¤hr liche
ĠGri ll
sch Ã¼sse
ĠD ay
Ġbef reien
ĠÃľbersetz ungs
ĠB uffet
ĠKon vents
kl er
mer ken
St ation
ĠFrankreich s
o tel
st eine
ĠS el
me ter
velop ment
ĠTschetschen ien
T C
ĠW ettbe
Ġl atein
ĠAus kunft
ĠIm pf
Ġerreich ten
Ġgeh ei
komp lex
Ġreligi Ã¶se
ĠParad ies
ĠRe den
Ġha ftet
fra u
T M
om b
Ġre volution
ĠCH F
wahr scheinlich
ĠNichtregierungs organisationen
F A
ĠD al
op tionen
Ã¤nd igen
Ġra dio
ĠRaum fahrt
iti s
St u
ĠBeg eister
ĠInnov ations
ĠSqu are
ok ia
ĠSpiel ern
Ġhinzu zufÃ¼gen
Ġwiederhol e
ĠWh ite
Ġindustrie lle
kom pl
be arbeitung
ant o
Ġimmer hin
ĠDaten banken
inge hend
Ġgesetz liche
bÃ¼ cher
B i
S ehen
Ġein setzt
Ġb eschÃ¤d
arte ment
Ġeh e
Ġfort zusetzen
viel fÃ¤l
person al
Ġiden tifizieren
V IS
ĠB ib
uf fer
Ġengag ieren
r ichter
ĠG VO
be griff
ĠStellung nahmen
Ġdauer haften
Ġrenov ierte
ĠRich ard
st Ã¤tte
ha be
ĠStaats bÃ¼rger
ĠBek annt
ĠArgentin ien
Ġh et
Ġverb rauch
Ġern annt
Ġst euern
ĠEx ek
ĠNamen s
Ġaufge worfen
ĠAll ah
ĠDon au
U P
h och
der t
ĠVer stoÃŁ
âĢ Ķ
ĠGesetz geber
Ġregel mÃ¤ÃŁige
Entwick lungs
Ġw eiten
ĠB y
de fizit
ĠT R
mit h
Be achten
Ġabzu lehnen
ĠberÃ¼hm t
Ġweite m
Ġfac ilities
ĠNet work
C ard
is er
ĠT oleranz
Ġschw ach
Ġerf assen
ĠKomment ar
Chin a
D VD
Ġin kl
ed a
ĠEin bindung
ĠAt hen
ĠTrans aktion
bliothe ken
bereit schaft
pal ette
MÃ¶ chten
B eit
ĠÃ¼berra schen
Ġausge drÃ¼ckt
Ġ4 6
ĠAl ger
tem peratur
Ġ0 9
ĠfrÃ¼ here
ĠTem pel
Ġvoraus gesetzt
ĠWar craft
Ġau diovis
berech tigung
ĠSzen e
ĠEuror aum
Ġn ahmen
ĠFra cht
ĠSp enden
sw o
Ġm ain
ĠVer gabe
ĠZ imm
Ġunter strichen
Ġem o
ĠRÃ¼ck tritt
ĠArtikel s
ES S
ĠbeglÃ¼ckw Ã¼nsche
Ġtschech ischen
F inanz
m ag
r ein
or ial
ver folg
ĠJahrhunder te
zut reten
ĠSign ale
Ġgeschmack voll
d igt
stÃ¼t zt
ĠÃľber w
arbei tete
aÃŁ nahmen
ĠKomprom isse
ĠIndik atoren
Ï Ħ
le hr
ri ken
ĠRecht ssicherheit
ĠLi quid
one y
Aus sprache
Ġpl ant
ÑĤ Ðµ
material ien
Ġeig nen
ĠPfer de
ber eitet
ĠVer lag
und et
Ġfest halten
ber gt
Ġy e
ĠRo om
Ġfr ische
ĠVir en
ĠLiebl ings
ĠS un
ĠD oss
ĠAn sÃ¤tze
ĠO x
Ġent lassen
fol gerung
Ġausge stellt
atur e
ĠEx ecutive
ĠY acht
zept anz
Ġfort geschritten
ĠZivil isation
Ġdah ingehend
g f
l us
ra xis
ĠK en
sion s
ĠGipf els
B eh
C he
Ġun gerecht
ĠAus stellungs
Ġber Ã¼hrt
ĠKomp onente
ĠSport s
ĠErd Ã¶l
Komm ission
e cht
Î ¿
ha i
beh altung
ĠSozial politik
bo ot
AS S
n Ã¼tz
ĠG ame
ad y
ĠVor behalte
pf lanzen
lÃ¤ nen
ĠVers icherung
Ġmangeln de
am ik
Ġaus machen
Ġbei zu
omen te
ĠTo il
Ġamtieren den
Statt dessen
S Ã¼d
d acht
ĠKraft stoff
ĠBÃ¶r sen
Ġsch merz
ĠO DER
leich en
leben s
Ġletzt es
P aket
k ontroll
ĠK andid
Man agement
ĠFot ok
Ġilleg al
Ġwert vollen
H O
Ġm achten
Ġge achtet
Ġauf weist
ĠAr tikeln
wer de
ĠGewÃ¤hr ung
ei gert
ĠK leidung
ĠH IV
anz ut
ĠHo heits
Ġbest anden
fiz ieren
Ġvot es
Ġdiver sen
st abilitÃ¤t
Ġw a
ĠS ierra
Ġbe ding
Ġda y
ĠO berg
eb el
wÃ¤r tigen
ĠF unk
Ġt olle
ĠEr leichter
ĠFinanz rahmen
Ġabzu schlieÃŁen
ĠInstall ations
ĠKonzer te
ĠVarian te
Ġwoh in
eh nten
Ġab schlieÃŁen
ĠNavig ation
ĠP last
Ġden kt
du ktion
Ġ3 50
Ġle gend
geord net
ĠBundes republik
Ġarchite kt
a iss
Ġh Ã¶rt
ĠG ames
zu halten
ĠInternet seiten
regel ungen
Ġsteigen den
Ġzivil en
ĠG anzen
Ġl oben
Ġbed Ã¼rfen
grÃ¼n de
it Ã©
Ġpro test
ĠfÃ¼h lt
Ġverbind lich
Ġun um
Ġs y
ĠNatur katastrophen
Ġf ix
ah ll
Ġseit dem
ĠRede zeit
ĠKos me
Ġbenach bar
Ġerkenn bar
ĠGegeben heiten
ĠH eiz
ĠD eine
ĠEin reise
Ġabsol v
ĠGest alt
ĠLay out
C ar
ar akter
Ġzw in
qu oten
Fra ge
ain ment
Ġglob al
Ġeinzu leiten
ĠSchwier igkeit
9 2
le uten
F I
F erien
Ġs ite
ĠA ud
ĠK ing
ĠZ e
ett a
ĠEntschlieÃŁ ungsantrÃ¤ge
Ġzuver lÃ¤ssige
ĠAdr essen
ĠRie sen
T H
z ir
Ġ reiche
ĠN ie
Ġe ven
ab schluss
Ġber ufen
ĠAuf lagen
An wendungen
ator s
ĠvÃ¶ ll
ĠTur m
ĠauÃŁergewÃ¶hn lichen
ĠStockhol m
ĠL ud
Ġl ehnen
Ġe en
ĠAuÃŁen grenzen
ĠBrÃ¼ der
ĠErd gas
ĠSing ap
ge ts
Ġer we
ĠL td
sp aket
ĠVor gang
ren ze
Ġgeschlossen en
K an
Ġd Ã¼n
Ġk os
Ġer suchen
he d
Ġunver meid
ĠKÃ¶nigreich s
ber uf
ĠC ro
ste cken
ĠVol umen
Hier bei
ĠmaÃŁ geschneider
Zug leich
k rÃ¤f
ĠF rucht
stand es
Ġbek Ã¤mpft
ĠDienst es
ĠWieder ver
Ġkoordin iert
Ġkat astrop
ĠKomplex itÃ¤t
Deutsch land
Ġwir ft
Ġvor geschrieben
ru p
Ġanzu gehen
Ġinwie weit
Ð ³
Unser er
ĠFol gendes
ĠtÃ¤ gliche
Ġverein baren
stre cke
ĠErk enntnis
ĠPersÃ¶n lichkeiten
ĠZut aten
f rÃ¼
sol ven
ĠGast ronomie
Ġgrat ul
K ultur
T ech
ar ien
ĠL ett
ĠO m
ĠBes etzung
bild ungen
ĠFortschritt s
Ġfe ste
Ġbeob achtet
Î ¹
Ġn u
wie s
ĠItalien s
ĠCap tain
ĠHels inki
1 60
4 00
c us
ĠH at
ĠAuf klÃ¤rung
Ġges ucht
ild ing
Ġnotwend iger
Ġmodern sten
ari at
Ġoff er
ĠPrÃ¤z ision
D o
Ġver teilen
Ġsch ien
aus wahl
rÃ¤n kten
ĠGeburt stag
berat ung
k w
m ission
t okoll
Ġbe achtet
ĠC ab
Ġwunder baren
Ġerfahren en
ĠRot h
ĠStraf gerichtshof
ĠgrÃ¼ ne
F T
W ind
c ed
ĠB aden
re z
Ã¤hl te
Ġchem ischen
Ġblo ÃŁ
Sicherheit s
Dir ekt
ĠverlÃ¤nger t
ĠAnsprech partner
C E
al z
sp iegel
ĠC R
ist et
ĠMin imum
ĠIndustrie politik
Ġfort schritt
Gen er
ĠAtom waffen
A gen
Å Ħ
ĠS ir
ĠS ehr
Ġh arten
Ġver weist
Ġbeh indert
Ġdir ekter
ennt nissen
Ġtransatlan tischen
ĠIndones ien
Ġun weit
ĠP ad
ĠK ammer
Ġausge hend
ĠSo f
Ġen ergie
Man chmal
jen ige
ĠAutor itÃ¤t
ĠBegeister ung
Ġkatastrop hal
I de
W erk
b aut
ab or
Ġabgesch afft
Ġt at
ver mÃ¶gen
ĠFall s
Ġengl ische
Ġsin ken
T o
Ġc ol
Ġak tiver
tis h
ĠAuto verm
/ -
Ġge strichen
ĠDemokra tien
Ġleg itim
ĠPassag iere
Ġander swo
mit te
Ġex tern
Ġel ement
Ġwahr genommen
ĠSozial isten
ĠChar les
w anne
ein stellungen
ir us
Ġer ober
pro f
fach e
Ġsozi o
ph ase
Ġbenachr ichtigt
or ben
Ġn am
Ġge p
aus bildung
Ġ6 8
ĠÐ º
ĠiP od
ĠSing le
strÃ¶ m
c ing
ĠLandwir ten
Ġstren ger
ĠgerÃ¤um igen
ĠP ier
Ġp aten
eite te
ĠRÃ¼ck sicht
Ġirgend eine
ĠsÃ¤m tlicher
Ġschlimm sten
ĠAutomati s
ĠUR L
Ð ±
ung al
sch Ã¤d
Ġautomati schen
sitzen den
ĠÃľberwach ungs
Ġsauber e
Ġmoral ische
ĠMold au
ĠLuf tra
C enter
el ess
Ġc re
pro duz
Ġange fÃ¼hrt
ĠEntwicklung spolitik
ĠStu dios
ĠHoff nungen
ĠAb weich
Ġc our
hÃ¤lt nissen
j oy
ĠA ven
ĠR ichtigkeit
si m
art h
ĠEm o
Zahl reiche
E uro
Ġh om
Ġh Ã¶r
ĠZ eile
Ġbereit gestellten
ischer ei
amp agnen
ĠTrans it
ĠResult at
F OR
zei le
ĠSon gs
ĠHindern is
ĠausgewÃ¤hl te
ĠnÃ¶r dlich
O ff
ĠB lau
Ã¶ pft
ĠK ant
ann a
Ġ1 30
Ġvert rieben
ĠD ur
ĠUnter haltungs
Sch rift
ĠZentrum s
Ġzu greifen
ger s
Ġde aktiv
Ġvorh err
En g
Ġbeher bergt
k ontrollen
Ġm ach
Ã¶ ser
de f
ĠSp l
ĠKre dite
ĠZw angs
Ġausger Ã¼stet
Ġkop ieren
stock ung
b eschÃ¤f
n Ã¤chst
ar es
Ġbew ahrt
ĠNatur schutz
sprogramm en
ĠAk zeptanz
ĠGed anke
Ġtot al
Ġpf legen
ĠrÃ¶ mischen
A c
Ver b
Ġch ron
ĠGeschÃ¤fts fÃ¼hrer
ĠExpl orer
ĠdiesbezÃ¼ glichen
Ġge fÃ¼hrten
Ġan zusehen
si ge
zen e
Ġgesch Ã¤tz
ĠBl ue
ĠKl ick
ron en
ĠFahr zeugen
Ġdort hin
gÃ¼l tig
ĠTro cken
ĠSchlieÃŁ ung
G o
L o
Ġf lo
Ġwill kÃ¼r
ĠFÃ¼hr ungsk
H U
e ffizien
Ġd ruck
ĠG PS
qu alifiz
ren zung
ĠWer ken
ĠFuÃŁ gÃ¤nger
ĠBeitritt sverhandlungen
Ġag ieren
ĠFl Ã¼ss
Ġand auern
Ġpriv at
pen sion
ĠGemeinschafts recht
Ġeleg ant
Ġvot re
anzut reiben
n s
Ġm ech
ĠfÃ¼r chte
oh le
ok umente
Ġbekannt lich
g io
ol ogen
ĠN orth
Ġp rinzip
rag ma
Ġben utzer
amil ien
ĠAu di
in formation
ĠK la
ĠL amp
ĠBÃ¼rger rechte
ĠAc count
ĠVir us
ei he
ĠV illen
Ġvor anzutreiben
aj or
Programm s
Her z
ĠLou is
E d
ein satz
ar isch
ah ara
ĠSh opping
Ã´ te
oli ber
Ġblock iert
ĠSad dam
5 9
Ġr umÃ¤n
we sten
ĠIm porte
amm ent
og a
gie b
ĠMaÃŁ stab
ĠBus se
spart eien
ĠOper ationen
ĠMig ranten
Ġgemeinschaft liche
We gen
f an
ĠS Ã¤nger
ĠR elease
Ġabzu geben
ĠÃ¼berw Ã¤ltigen
riz itÃ¤t
Ġleistungsst ar
Ġgratul iere
st art
ĠM O
eh ne
stimm igkeit
Ġbest raft
Su per
kir che
Ġverhe eren
5 8
C om
F S
K at
S on
ĠS QL
ĠBet rÃ¤ge
stra hlung
programm en
ĠLauf zeit
ĠgemÃ¼t lich
ĠSchluÃŁ folgerungen
Ġm ache
ĠA z
ĠP aar
ĠSt Ã¶rungen
ĠProjekt es
spart nern
ĠOlymp ischen
ĠDikt atur
n ier
an kt
ĠG ute
la sten
sta mm
ĠHer stellern
Mehr ere
ĠVerh inderung
k riterien
ĠD Ã¼
ĠZeit alter
ac io
ĠWohn sitz
ĠMeinungs Ã¤uÃŁerung
al in
eh ls
aut om
ĠdÃ¼r ften
mÃ¤ÃŁ igkeiten
Ġattra ktive
lav ier
ĠstÃ¤d tischen
ĠB ruch
Un ivers
ĠGen auigkeit
ĠDienst stellen
Ġevent uelle
Ġhal ben
H inter
in stall
it Ã¤r
ĠV ieh
Ġbe dient
ot a
ĠKon go
ill er
ĠGen fer
ĠfÃ¼hren der
Ġempf ind
Ġdynam ischen
Ġlegisla tiven
l or
l ant
Ġ **
ein gang
ĠRe p
ĠGl et
ĠEngl ish
Ġd rohen
ĠB it
ĠP ubl
ĠF le
ĠG ru
ĠSch lei
ĠEn des
Ġgesch enkt
ĠMittel alter
ĠSti ft
ĠSozial partner
ĠTermin e
Ġverd anken
ĠÃ¶sterreich ische
S port
l Ã¤nglich
ĠH ir
ĠT ru
tra gt
Ġerwar te
ĠApp ell
ĠStabil isierung
Ġb rei
ĠB ach
Ġauf halten
ste chnologien
ĠFor en
amerik anische
verfahren s
schnit ts
Ġmultilater alen
ĠWorks hops
W en
um e
ĠC ir
Ġkon stitution
Ġzusammen gestellt
Sol ange
Ġtie fen
ĠKapit alismus
mach ung
st ahl
ĠS ei
ĠE ck
ĠJ ar
mode lle
ĠVic tor
ĠHongkon g
ĠV IP
ad os
Ġdazu ge
Ġstabil en
Ġstre ben
us se
ĠP u
ĠEin stieg
ĠBei behaltung
ac o
ond a
Ġdynam isch
5 1
Ġf ahr
ĠK eller
ĠL och
ĠzurÃ¼ck kommen
ĠInstitu te
Ġunge h
Ġmark iert
ĠDÃ¼ssel dorf
lich sten
ĠAn sprÃ¼chen
ĠSk ige
U B
ein richtung
ĠB Ã¤
schaft lichen
Ġkommun izieren
Ġgepf legt
ĠPek ing
Ġh igh
ĠM otoren
Ġer bringen
Ġer mittelt
men sch
tik e
ĠAnpass ungen
ĠM ord
Ġklar stellen
ĠHoch schulen
Ġdynam ische
ĠFÃ¼ lle
ĠTelekommunik ation
N C
ĠPro gn
ĠEr ziehung
ĠRo ute
Ġanspruchs volle
t Ã¤tigkeit
ch ern
Ġauf hÃ¶ren
Ġc u
Ġausge liefert
ĠMus li
Ġ% ,
Ġrel ax
ĠHÃ¶he punkt
ĠWei s
Ġmobil en
A mer
er gehen
op oliti
Ġ1 10
Ġr et
Ġbet reut
ĠWir t
ĠZin sen
t chen
ĠR ap
tig sten
ul pt
ĠCh ir
li a
ungsf onds
sch lÃ¼sse
ĠB ell
ĠEr fassung
Sp iel
Ġunmittel bare
Ġag gressi
A ktiv
F P
F rank
Ġs elt
ĠH unde
geb ungen
Ġre ally
Ġwenn gleich
ungsver hÃ¤ltnis
lÃ¤uf igen
ĠWander ungen
Ġveranst altet
Ġver handelt
lechter ung
le v
zug ang
ĠjÃ¼n ger
ĠMod us
Ġvergleich bar
grÃ¶ÃŁ te
Ġpe ople
ĠF eiert
Ġwir st
ck et
Ġl eitet
ĠKon solidierung
ĠGrund prinzip
Ġbegren zen
ĠInterpret ation
M e
Ġf ak
Ġab hÃ¤ngen
ast atur
Ġex akt
Ab stimmung
ĠWohl ergehen
ĠkÃ¼nstler ischen
ĠVe get
Ġmittelalter lichen
A uÃŁer
Ġ rat
ĠT osk
ĠAusgang s
B el
b on
Ġun voll
ĠK oll
Ġaus zur
Ġak adem
ĠEd in
Ġnied rige
invest itionen
ĠSchott land
P R
R ad
Ġre qu
Ġverl ang
AN D
ĠNacht eile
sches ervice
ĠLeip zig
k Ã¶rper
ĠH ung
ĠJahres zeit
ĠTechnolog y
ĠzustÃ¤nd ige
S hop
ĠS udan
Ġv ierte
ĠK riterium
and in
au scht
ĠGe genden
ĠNach weis
ĠWÃ¤hr ungen
ĠgerÃ¤um ige
Play er
Ġaufr ichtig
6 2
7 9
A K
a ure
z err
Ġsich ert
ĠZu schauer
Ġ4 9
bet reiber
Ġanzu erkennen
pack t
agentur en
ĠUn regel
gl as
ĠFunktion sweise
ĠGef Ã¤hr
ĠUngleich heiten
T est
Ġg Ã¤n
ĠIn spe
Ġbes p
spl atz
ĠLog o
aj a
ĠFlÃ¼cht lingen
ĠPrin t
Ġasi atischen
ĠMultim edia
d okument
ei gung
wei f
ht on
iz it
mar ken
Ġel f
Ġgewal tige
Ġbegrenz te
ĠverschÃ¤r ft
r ier
Ġaus b
Ã¼ck e
ĠHand hab
d om
ch ange
ĠP ed
ĠT oten
ĠAus sehen
ĠUm stellung
ĠTag ungen
ĠEntscheid ungsf
Ġerhe bt
Ġangemessen er
ĠÃľbersetz er
ĠE ast
Ġp ragma
ĠEnt tÃ¤u
ĠReg ister
Ġausge prÃ¤
ĠBesch werde
deh nung
c z
g rÃ¶
ĠAn sehen
ĠÃľber schwemm
lo ok
ĠGesellschaft s
ĠX ML
Ġvorgesehen e
freund lichen
Ġattra ktiven
ĠG n
R C
ge k
ĠP rie
schaft liche
ĠBla ir
Em pf
Web site
h em
re den
Ġverm ieten
ĠTa sten
ĠSpe zifik
Ġbeauf tragt
m ont
ĠE S
Ġunter gebracht
arbeit s
Ġger icht
ĠSitzung speriode
ĠGanz e
Ġeuropa weit
ĠEngine ering
sch alten
ĠZ entren
stell bar
Ġkommen de
NG L
Ġdiplomati schen
Ġunglaub lich
Ġleid et
Ġw ach
Ġf ind
Ġver setzen
richt linien
ĠBesatz ung
G H
S Ã¤mtliche
p reisen
w elle
or o
ĠM au
Ġan st
ĠSch ritten
ĠQu er
ĠStand orten
ĠMann schaft
spr ung
ĠZwischen zeit
dy ll
Ġreserv ieren
ĠRÃ¤um lichkeiten
ĠVerhaltensk odex
W issen
Ġes p
ĠSchul ung
Ġser b
ĠKÃ¤ se
ĠF ru
ub il
Ġ9 9
Ġhervor zuheben
Ġaufge treten
ĠBr eit
Ġperf ekten
Ġschrift lichen
med ien
ĠWÃ¤ scheservice
ĠZustell betten
Ġein genommen
Ġver lin
Ġl ock
spro jekt
ĠÅ ł
ĠBegl eitung
Ġgrei ft
Ġd un
Ġro ten
ĠSk ript
Ġzerst Ã¶r
Ġmassi ven
ĠQuart al
en ke
Ġaus genommen
Ġum gew
Ġde kor
Ġverw andeln
Ġposi tiver
ĠStreit krÃ¤fte
ĠInf os
ĠB reite
Ġzu t
ĠH Ã¤
ĠZ eilen
ĠEr mitt
zy klus
ĠFab rik
ĠKolum bien
K unden
L oc
ĠH Ã¤usern
ĠW ach
ĠAr ena
ste te
anz eige
Ġausge ben
ĠSchw anger
Ġge heim
ĠW ichtig
Ġsign ifik
ie ur
Ġein setz
Ġm Ã¼h
ĠP atten
Ġirgend wie
ĠSozialdemokra tischen
Ġm el
Ġkon solid
ĠGrund stÃ¼ck
geben d
ĠRen aiss
stÃ¤ tigung
Ġbegrenz ten
ĠGU E
it Ã¤ren
ro v
ĠÃ¼ber leben
ĠEr hebung
ĠUm w
Ġkon sequen
kl icken
Ġerz ielte
haf tet
Ġexzellen te
Ġberuh igen
Ġb aut
ĠA frikas
ĠBe strebungen
Ġnach folgenden
ag ten
ank ungen
Hier zu
sor ien
Ġh under
ĠD I
Ġop en
Ġintensi ven
ĠfÃ¼ gt
Ġkritis ieren
Ġvirt uellen
Gegen wÃ¤rtig
ĠunzÃ¤hl ige
ĠTrink wasser
G O
P ark
r elev
ĠL Ã¼
rin ge
Ġ5 2
ĠVort rag
ĠFischerei abkommen
zwe cken
Ġein richten
ĠB org
Ġk ol
eg ow
pl ik
eise ktor
Ġversuch te
Ġbeeindruck ende
ĠDiagn ose
y o
Ġst Ã¼tzt
ĠQu e
Ðµ Ð½
ĠStre ben
Ġengl isch
ĠZuf all
L esen
Ġb reiter
Ġbest ehend
ĠGeb Ã¤udes
wirtschaft lichen
Ġaufge fÃ¼hrten
Ġvorzu gehen
tert ainment
Ġ ol
ĠA ra
re a
Ã¼ber tragung
Ġdritten s
ĠMic ro
ĠPublik ationen
ĠSpann ung
autif ul
K o
b u
g ige
Ġ {
ĠM ED
ĠK DE
ĠR eit
ĠW M
Ġer holen
ĠN ero
ĠCh ic
ĠTe uf
Ġverbunden e
Ġvers orgen
ĠCha os
ĠEli te
= "
k Ã¤
Ġf ood
ir es
ĠKl aren
ĠIm per
ĠSach verstÃ¤nd
Or ganis
aller y
ĠServic el
cyc ling
ĠS W
ĠS i
Ġan ger
Ġver sprechen
si sten
Ġe chter
Ġde zentr
ĠHotel zimmer
Ġher an
ĠGed Ã¤chtnis
Ġuntern ehmer
ĠElekt rizitÃ¤t
sprech er
II I
ĠRef lex
adr esse
ĠDres den
G erne
N ET
c at
ĠH art
bar d
ĠNutz ern
Ġwirksam er
ĠBrÃ¼ cken
Ġanerk annten
Ġste cken
Ġun Ã¼ber
ĠHand lung
ĠTa schen
hy th
ĠgroÃŁzÃ¼g ig
B ro
se hr
ĠAuf preis
sk y
ĠMon opol
man ager
Ġ18 0
Ġmittel stÃ¤nd
ĠSand strand
ĠVerbind ungs
D isk
G ut
p ot
Ġg olden
ĠT ot
ĠJ un
Ã¼t te
bei hilfen
Qu alitÃ¤t
ĠÃľberw indung
re gung
ger lich
ĠSp am
ian ische
unter richt
ĠHa llen
Ġprof itiert
Ġerh ielten
Ġverantwortungs bew
Ġi ll
ĠP au
ĠV iele
ĠT amp
Ġauf rufen
Ġbe geben
om a
ĠÃ¼ber nahm
ĠâĢ ł
In sofern
ĠBesch leun
Eben falls
Ġkre ative
Ġq m
8 2
B ER
Ġun besch
ser ie
Ġst arb
Ġbef reit
Ġsol id
vi lle
Ges etz
h Ã¤nge
ĠR et
Ġt oler
pf lanz
amen ten
stra ÃŁen
part nern
ĠBem Ã¼hen
Ġmorgen s
Ġirgendw o
ĠPoten tial
lieder ung
E nergie
g rÃ¼
Ġver folg
Ġdem selben
Ġp le
ĠAn leger
anz lei
Ġstar ker
ĠChem ie
Ġbedeut sam
te ch
mm et
Ġgem achten
Ġgesch ah
ĠMon teneg
ĠHand t
Ġne ar
En terprise
ĠBand breite
a o
ĠI l
stimm te
Ġgeb ucht
Ġaufge geben
Ġaufge griffen
Ġmassi ve
ĠmaÃŁgeb lich
ysik al
Ã¼ chter
ĠÃľber trag
feren ce
ĠBeg renzung
ĠKÃ¶nig s
ĠZer tifizierung
Ġkommun istischen
Ġs or
ge gangen
il dern
ĠMaÃŁ stÃ¤
Ġerz Ã¤hlen
liefer ten
Ġfreiwill ig
Ġjur istischen
ĠSicher stellung
a bend
ĠB re
ĠK r
ĠG rupp
Ġbe gan
ĠCh i
ĠAussch Ã¼ssen
Ġfol gte
ose x
ĠPriv ileg
Ġoptim iert
Ġverteid igt
Ġirgendw ann
ĠFranz osen
Ġg gf
Ġge einigt
ĠT ok
ĠVor mittag
Ver hÃ¤ltnis
ĠPal ma
ĠBeweg ungs
R ussland
h at
ĠBe wirtschaftung
Ġges enkt
ĠTh un
Ġverl Ã¤ngern
ĠLe vel
Ġdefin itiv
Ġbeschleun igt
Lie be
ĠM id
Ġbeh indern
tis mus
Ġgelegen tlich
quen zen
ĠVoll stÃ¤ndigkeit
Dank e
Ã± a
ĠNordir land
f one
r end
Ġm ul
ĠL ine
Ġgem eint
ĠSe villa
fl Ã¼gel
Ġra tion
Kon ferenz
ĠWechsel kurs
ĠRoh stoffe
Ġgene tisch
W E
ĠR y
Ġan schauen
Ġent nehmen
ĠAus bruch
ĠSp an
spro jekte
ĠPf eiler
Ġjem anden
sch ten
ig an
Ġbel astet
ĠSol ution
ĠWort laut
ĠgrÃ¼n dete
ĠImp uls
ĠEdin burgh
p an
er ischen
ĠS S
Ġver lÃ¤uft
ĠN erv
ĠAuf treten
kon stru
tier ungs
gew al
ĠTex ten
ĠReisen den
Ġunters agt
ĠPrivatis ierung
ti tel
ĠA tem
ĠZeit schrift
ap ter
ĠVersch lechterung
meister schaft
Ġintelligen te
Ġbe acht
op ier
ĠSch ad
ĠSo fort
ĠPh otos
ĠAnge stellten
unik ation
ĠSchwer punkte
EC D
Ġw ind
ĠG R
Ġsch einbar
ĠRecht sprechung
lau ber
assi v
Ġaltern ativen
verl ust
Ġschuld ig
I O
Ġd ring
ĠP opul
Ġl ine
ĠC ru
Ġher ange
Ã© r
sÃ¤tz lich
Ã¶pf en
Ġste tig
ĠInn eren
ĠBeob achtungs
ĠGesicht spunkt
angem essen
k rÃ¤ften
ĠN av
zu gehen
pp t
Ġbed aure
Ð¾Ð ¼
ĠTie fe
Mus ik
Christ demokraten
Ġf Ã¶rder
is o
rei he
Ġeinz ut
ĠSchw ach
Ġk rÃ¤f
ag ung
Ġbed ingt
ĠFir ef
ĠAnge hÃ¶rigen
in sel
be ob
os se
ĠStra fe
Ġamtieren de
Ġkorrig iert
Ġerstklassi ge
r ennung
w enn
Ġein beziehen
ĠT eils
zu erhalten
Ġdurch schnittlich
iz il
ĠFrei lassung
+ +
E gal
Ġh olen
ĠÃľberein kunft
ĠBro sch
ĠChrist ian
ĠReich weite
ĠerhÃ¶h te
Ġweiterentwick elt
ĠKÃ¶rp ers
Ġin to
ser gebnisse
ell i
Ġlie fer
ĠZu liefer
ĠhÃ¶her er
ĠMÃ¼ ll
Ġwidersp iegelt
ĠJer usalem
gewogen heit
Ġdem nÃ¤chst
wer ter
Ġbet ragen
okra ft
ĠFischer eisektor
Gleich wohl
ĠSchrift steller
Ġuneingesch rÃ¤nkte
ĠVerpack ungs
ĠResiden ce
Verf asser
ĠFiref ox
z z
ra ul
ĠMa ur
Ġc al
rÃ¼ck t
Ġpositiv es
Ġbill ig
Ġwidersp iegeln
Ġbeunruh igt
Ġaufrecht zuerhalten
h armon
w ein
Ġh is
ĠF usion
Ġge fertigt
Ġent ziehen
ile o
arch ie
ĠHaupt ziel
Ġkostenfrei en
deb atte
ĠeinschlÃ¤ gigen
f likt
te au
Ġb uch
ĠK ost
Ġl im
ĠAn s
ĠC ontrol
end em
ĠVor sicht
Ã¤nd lern
ĠStad ium
ĠDom in
stÃ¤r ke
Ġeinheim ischen
ĠHandhab ung
5 4
ĠN etto
ĠSp eise
og ar
Ã¤nd ige
kehr ungen
ĠBed rohungen
Ġbill igen
ĠKommissions mitglied
Ġiran ischen
ĠS A
ĠB in
ĠH ass
uch tigkeit
am ar
ĠO ffiz
Ġnach gewiesen
ĠDie sel
Ġchar man
ĠKontinent s
ĠMittag essen
Ġbus iness
ĠTosk ana
Ġm Ã¤nn
Ġentsprechen der
ĠDar Ã¼ber
ĠAnw alt
ierend es
Ste uer
Ñ İ
ĠE conom
ĠW ende
ĠEin stimmigkeit
gel Ã¶
ris iko
aut omati
ĠBÃ¼ gel
ĠMountain b
s aison
ĠB irma
ĠH uss
ĠT w
cht ungen
bet rieben
ĠMobil telefon
ĠVerkehrs mitteln
ĠFreiwill igen
b od
x en
ĠCh ile
ĠKommissar s
Ġuntern immt
ĠFotograf ie
Ġmit zuteilen
ĠAn geboten
gel ungen
ĠSchul z
ĠBest Ã¤nde
ĠInformations austausch
wÃ¼rd igen
iden t
Ġveran lassen
sch Ã¤tzung
ĠS in
Ġso w
Ġwid met
ĠZusammenhalt s
ĠUl tra
ĠTurn ier
ĠgÃ¤n zlich
Ġun annehm
ĠSt offen
ĠEuropÃ¤ isches
ĠAuf stellung
assi c
tektion ismus
8 7
w achstum
ĠS CH
ll es
Ġver sorgt
ad ies
ĠFinanz minister
Ġgetroffen en
ĠHarmon ie
Ġacc ess
ĠAlger ien
Ã¤ tigen
ĠAn onym
ill on
di ff
ĠNacht leben
Ġfreund liches
ĠE v
ier n
Ġo steuropÃ¤ischen
Ġgew ahrt
ĠÐ ´
Ġverurs achten
ĠCas a
Ġunterschiedlich sten
Ġmiss brauch
ĠGrem ien
ĠMin eral
Ã¤ng lichen
Ġverw andelt
So fern
Ã¼nsch te
Ġterritori alen
ĠHann over
ĠN an
ĠAuf teilung
pl o
Ġ4 7
tur en
sf ers
Ġbetreffen de
Ġpri m
ĠEst land
Ġp hil
ĠEr ste
Ġre fle
li ma
ĠGemeinschaft sebene
Ġqu er
ĠLebens bedingungen
Ġbem erk
ĠAngebot s
ĠFerien haus
Ġverbind liche
belast ung
g ol
Ġ ri
de utet
ĠZ ell
Ġentfern ten
Ġpriv ater
Sp Ã¤ter
ĠCre w
C omm
L ICH
s ituation
Ġs ynchron
ĠD A
up s
Ġvorge tragen
k unde
ag te
ĠSp ace
ce pt
ĠSicherheit sk
Ġbeh eben
ĠDis play
Ã¼berwach ung
G eschÃ¤ft
n ur
an bau
ĠP isten
ĠF els
ĠD ifferen
ub s
schiff e
5 2
Ġan re
ĠT rib
Ġauf geben
Ġc as
Ġex peri
ierten s
ĠSu ites
ĠApp art
Ġsepar ate
ĠMinisterp rÃ¤sidenten
ĠGenerald ire
egow ina
5 6
Ġi dyll
ĠM omente
Ġge denkt
Ġge ehrter
Ġo d
Ġj ung
ĠEr holungs
Ġober ste
Ġtie fer
Commer ce
8 1
Ġw eich
ge leitet
ĠK orea
ĠR A
sp eicher
Ġsch all
ĠPro mo
Ġhin nehmen
Ġallgem einer
ĠNik on
p akete
Ġver laufen
ĠAuf stockung
kl ick
Ġob gleich
ĠStr ess
g y
sch ungs
ĠB ogen
ĠI BM
Ġer ho
ĠIn fo
rÃ¤ te
Ġ19 60
ĠHunder te
Ġr as
Zimmer service
ĠUnregel mÃ¤ÃŁigkeiten
m und
st eiger
Ġm ay
ĠM A
ĠR SS
ig ration
ĠSie mens
ver ein
wer en
ĠâĢ ĺ
ss ituation
Ġabge deckt
ĠNetz werke
Ġvers ichert
ĠGeh Ã¶r
ĠZus agen
Ġm ade
ier bare
ĠmÃ¶ ge
ĠZu wanderung
Ġex portieren
Ġstell vertreten
20 13
bel ebung
Ġhistor isch
ĠFlÃ¼cht ling
ĠRett ung
ĠSteu ers
ang o
ill igung
fÃ¼hr enden
Er leben
unter laden
Ander s
erkl Ã¤rung
% ,
S M
j ect
Ã¶ cke
ĠT ode
ĠT imes
Ġsch aden
zi a
Ð¾ ÑĢ
rock ner
ĠÐ½ Ð°
Ġun auf
Ġun kompl
Ġk rei
Ġk apital
Ġan scheinend
ĠN Ã¤chte
Ġt rinken
ĠAn leitung
ĠJ on
schlieÃŁ enden
wor ter
Ġhoch rang
Ġappell iere
Ġvertie fen
Ġhilfs bereit
9 3
k n
Ġs uch
ĠH ill
ent a
ĠN okia
ĠEin leitung
rank heit
Aus ser
andin av
) ).
W est
ĠSie ger
Ġange kommen
Ġganz heit
att le
ĠSti lle
Ġerst mal
Ġschw Ã¤ch
ĠWieder ein
Ġflexibl en
gÃ¤ng ig
ĠGelt ungsbereich
lei teten
Ġbedeuten der
Ãľber einkommen
ĠBefrei ung
ĠP i
el fen
ĠV alle
ĠW andern
si der
ĠAus lands
Ġihr erseits
lo gen
ĠLie d
ve z
sprÃ¼ fung
beg inn
ĠM i
um gebung
re bt
Ġp lÃ¤d
Ġt own
ĠÃ¼ber denken
Ġbeh il
raum s
pr essi
gesetz gebung
ĠErk rankungen
sprach ige
8 3
ĠN eg
ĠO ne
Ġbes uchte
qu er
zie he
sel be
ĠFrÃ¼h ling
ĠSl ides
Mittel meer
ĠMitent scheidung
Ġp ool
Ġall tÃ¤
ist isches
Ġeinfach es
com e
ĠHaushalts ausschusses
ĠÃ¶ fter
gien e
Ġg alt
ĠBe streben
ĠAus lieferung
Ġunter richtet
ga in
Ġkonkre ter
ĠPla ce
ĠSemin are
Ġverwei gert
Ġ tier
ĠW en
men sionen
ĠEin sparungen
Ġqu iet
Ġehr en
ĠTermin al
ĠWellness bereich
ĠChin esen
F F
b lich
Ġ enden
ed ition
St adt
Ġverwende te
ĠAnmerk ung
in stitut
ĠK alk
ĠF eier
ĠR eh
Ġuns icher
hen de
ark o
ĠDemokra tischen
ĠFest ivals
Ġsex uelle
ĠUngleich heit
ĠherkÃ¶mm lichen
ĠMitentscheid ungsverfahren
P rÃ¤
Ġf re
ĠP ublic
ĠUn recht
ĠEr laubnis
ĠBesch rÃ¤nkung
Ġhinaus gehen
ĠValen cia
i alen
Ġd achte
ĠE D
ĠM att
ĠL assen
ot her
ĠIde al
ĠVeranstaltungs rÃ¤ume
v id
ĠT ut
uch tet
ĠÃ¼ber arbeitet
ver hÃ¤ltnisse
for um
Ġseiner zeit
th ing
ĠMitglieds lÃ¤nder
ĠIndust rien
K A
ĠS MS
Ġk enne
rÃ¶ me
Ġwieder auf
ĠPl Ã¤tzen
az zo
ĠstÃ¤r kt
Ġdo uble
ĠDeleg ationen
Ġproblem atisch
orgnis erre
ie ben
us k
Ã¶ gel
ĠSt ufen
Ġunter zeichnen
ĠFl ucht
Ġganz es
iet y
Ġfol gendes
rak tiken
Ġkultur eller
Ġuner w
ĠKohÃ¤sion sfonds
arn ing
ĠBehand lungs
ĠRek ord
Ġauss ieht
Ġbefind lichen
st ationen
Ġw illen
ĠD os
ĠT s
ĠT rotz
Ġunver Ã¤ndert
Ġinform ation
ĠInst abilitÃ¤t
Ġverf asst
ĠGefÃ¼ hle
ĠKonserv ativen
Ġtranse uropÃ¤ischen
) |
f reu
ĠVer nicht
ĠSch riften
Ġnach kommen
ĠPar tition
ta uchen
Ġisrael ische
V iertens
Ġ old
un c
st ill
ĠP L
od ge
zuf riedenheit
ĠAd ri
ĠChrist us
Ġgepl ante
ĠMÃ¼ ller
ĠAL DE
ĠP ie
ĠO LAF
ĠImm obil
Ġehrgeiz ige
Ġhandel te
ĠAnf Ã¤nger
ĠEntscheidungsf indung
Ġsow je
s Ã¤
t u
ĠL iv
ĠAb reise
gra m
ap s
Ġob liegt
ĠWasser sport
Ġverbesser ten
ĠSpanien s
Ġtransparen te
ĠProp he
ĠEvalu ierung
K S
h Ã¤n
Ġein rÃ¤umen
Ġf Ã¤hig
Ġl Ã¶st
ĠTerr assen
assi st
ĠÃ¤l teste
Ġform ulieren
ci Ã³n
Ġbi ologische
ĠVerh eugen
Ġbilater ale
ĠCaf Ã©s
Ġpotenzie llen
ĠOS ZE
ĠSolar ium
S an
Å Ī
ĠM un
ĠM ale
ĠF ord
ĠBe antwortung
ĠMa j
Ġange hÃ¶rt
ĠHaushalt skontrolle
Â® -
ĠSym p
ĠFÃ¼ ÃŁen
ĠverÃ¤nder ten
Ġd ifferenz
Ġm ake
ent s
ĠL E
ĠEr sten
tiv es
ĠHaushalt sverfahren
weg ung
zuf ordern
Ġheraus zufinden
Ġwissenschaft lich
ĠRund funk
Ġoffenkund ig
n ummern
ĠVer urteilung
Ġst oÃŁen
Ã¤h lung
ak ets
ĠHand buch
Ġcom o
Ġbir gt
Ġbehil flich
f amilie
Ġsp rachen
bes itz
Ġ4 1
ĠBei hilfe
Ġdarauf hin
ĠJahre stag
ĠPrÃ¤sidentschaft sw
lÃ¤ÃŁ lich
c op
Î µ
Ġer zeug
ĠL ED
ser t
ĠÃ¼ber zeu
ĠnÃ¤ch stes
ĠÃ¼bersch ritten
stÃ¤d te
ĠS C
uf er
ent liche
ĠEx empl
Ġabzu stimmen
Ġmin imal
Ġbelieb ige
wissen schaften
ĠEt age
ĠAs hton
s icher
t p
w ier
on ische
Ġf arb
ĠSt ate
ĠTe pp
ĠHaushalt sk
ĠSol ana
ction s
En de
ĠErzeug nissen
c ts
g asse
ĠS L
Ġk ar
Ġge fÃ¼hrte
ĠPro be
ĠKon g
ht ml
ose v
umm e
Ġpri ce
Ġjeg lichen
Ġschreck lichen
Ġbevorzu gt
Ġ Ã¼ben
Ġa fter
Ġf lieÃŁen
Ġvor wiegend
fÃ¼hr ende
ĠRei fen
Ġwunder bar
Ġav ail
Ġw eise
ĠA h
Ġver voll
ĠÃ¼ber schreiten
Ġr em
Ġr uft
ĠRat ing
tier ungen
haus en
ĠBi okraft
Ġzeit lich
ĠBestand teile
ĠgrÃ¼n det
Ġwest liche
ĠVerd acht
s ig
Ġgesch icht
Ġaufge teilt
Ġgewal tigen
Ġwiederher zustellen
figur ation
ĠGewÃ¤sser n
Ġpark ing
K rise
eigen schaften
Ġbest rebt
Ġson t
gem Ã¤
ĠKl Ã¤rung
ĠBel eg
Ġteilnehmen den
ĠÃĸk os
h anden
o is
Ġn or
ĠAus dehnung
ĠKont inu
ĠAussch luss
ĠBed auern
ĠFir st
Ġ0 6
Ġerle digen
van gel
ĠFestpl atten
iti ve
Ġgem eldet
ĠFinanz ielle
ph one
ĠBot schafter
Ġind ischen
ĠWÃ¤l dern
Ġumfangreich es
D is
Ġun schuld
Ã¶ gert
In te
Ġdir ect
ĠprÃ¤ sent
ĠErweiter ungen
ĠDienstleistungs richtlinie
Ġzweit es
G E
Ġ ....
ei ll
art s
All ein
ĠGl Ã¼cks
Ġvorh ers
Ġverschw unden
Ġche ck
A ktu
ĠK lavier
sp ektrum
ĠC anc
ĠZu dem
Ġversch l
gesetz e
ish ing
zwe cke
ĠFla ir
Ġund er
for e
pl atte
ĠGem Ã¤l
gew ichte
ĠbefÃ¼r chten
ĠKonsequen z
ĠRi ver
Ġdurchschnitt liche
b ra
w Ã¶rter
vor haben
sto ÃŁen
ĠErm essen
L es
u ge
ste xt
ĠÃľber mittlung
ĠhÃ¤ufig sten
ĠBeob achtung
Mode ll
6 1
D el
Ġan merken
ĠZ eugen
ĠJ ord
Ġhal be
ĠAdr ess
ĠbÃ¼rger liche
ĠAssoci ation
ĠE sp
ĠRo sen
Ġunver gleich
Ġorien tiert
Ġun end
Ġt ak
ver antwortung
ang aben
sche cken
Ġto o
Ġforder te
Ð¾Ð »
Ġschwei gen
ĠVerstÃ¶ ÃŁe
t rans
z ungs
ĠBe zirk
Ġab ger
Ġbes orgniserre
ĠLi zenzen
ĠSchw Ã¤chen
ĠInnen hof
Ġquan tit
i i
elt a
ieren der
ĠAb onn
Ġab hÃ¤ngt
id sch
ĠAl arm
ĠDurch bruch
ĠBefÃ¼r chtungen
j an
ĠWahl kreis
port al
ĠgÃ¼nst iger
ĠGeist es
ĠErleichter ung
Die jenigen
Ã¤h ern
ĠHand werk
Ġpar tic
ĠKÃ¼r zungen
Viel mehr
ĠJos Ã©
B it
ar o
Ġver trag
op fer
Ġvor ant
sta ge
ak s
ow e
Ġoffen sicht
ĠSÃ¼ ÃŁ
ĠPartnerschaft s
ĠInst anz
Her zlich
Ġtransparen ter
ĠBelast ungen
ĠApplik ationen
Ġd icht
ĠV irt
In zwischen
di ums
ĠKan Ã¤le
ĠFisch ler
ĠErd geschoss
ĠPrÃ¼f ungen
ĠHaft bef
Ġstud ierte
W C
ĠA S
em an
Ġf Ã¶der
ĠP osten
il s
wei tet
rie s
Ġerf rischen
ĠGast geber
ĠSach ver
ĠMitglieds staaten
ĠBerichterstat tung
Mod us
Ġzwin gend
D am
Ã ¯
Ġer r
pf lege
alis ierungen
Ġeinge treten
haft ung
ĠTier schutz
Reg ion
Ġkonstru ktiv
Ġehrgeiz igen
Ġjur istische
ĠAuseinander setzungen
c ard
Ġa p
ĠB ungal
Ġnach teil
ine a
sw id
Ã¼nd ung
ĠBal ance
ĠTo uch
ĠRab att
vir on
ĠAutoverm ietung
k enn
n itte
Ġn omin
ĠG rÃ¤
ĠD arf
Ġaus schlieÃŁ
ann i
ri ka
ĠRe staur
ot um
vor aus
ĠRicht ungen
Ġempf ehle
ĠMeer blick
Ġfehlen den
ĠSymbol e
Daten bank
ĠHalte stelle
Å Ł
ĠS mith
as c
ig o
ĠN Ã¼r
ĠzusÃ¤tz licher
ĠLuft verkehr
Ġeinzigar tiges
ĠBot schaften
ĠLang zeit
Ġbeeindruck enden
ĠFluss es
herap eu
ĠLett land
Ġumgew andelt
Ġbegan nen
ĠP ixel
at om
op ien
be am
och ten
aler ien
ĠPlan et
ĠGeh alt
ĠAk ademie
Ġgra us
Ġkompliz ierten
ĠD adurch
ver hÃ¤ltnis
aus stellung
ne e
lÃ¤ uter
Ġstaat licher
ĠResiden z
b org
f irmen
ei hen
on sor
ll i
ĠAus zeichnung
ud ie
ĠGeh irn
ĠEntsch uld
ĠDo ktor
ĠBaum w
ĠProp ag
Ġunber Ã¼hr
T rans
es p
ĠN un
glich keit
ux e
Ġheraus gegeben
use um
Ġprofession ell
Bahn hof
Ġrest lichen
k opf
ĠB ron
ĠK rÃ¤
re k
kl ima
ierte m
wert ungs
ĠInhalt s
Ġvoran zubringen
K osten
es a
sch eiden
ĠEurop ar
Ġges amt
gem acht
ĠDurch fÃ¼hrungs
Ã¶konom ische
Ġstri kt
Schrift liche
S ub
z eilen
ĠE IN
Ġj enseits
li p
iell er
Ġgere chte
flÃ¤ ch
Ġauszu bauen
Ġorganis ator
ĠProf it
Wer de
schn eiden
Ġschnellst mÃ¶glich
Ä ħ
in haber
ĠVer wir
ĠO ECD
ĠAb fahrt
Ġbest er
ĠThem as
Ġhistor ischer
ĠgefÃ¤hr licher
sprÃ¼ ch
Mo dern
ĠunnÃ¶ tig
LÃ¶s ung
Ġfrem den
ĠPrÃ¤m ien
ĠD B
ĠD C
Ġmit zu
ff in
anz eigen
Ġex o
ĠBÃ¼rger krieg
ute te
ĠPort folio
ĠlÃ¤nger en
ĠÃ¼berein stimmen
Ġdein em
ĠBehand lungen
9 4
W asser
et ti
ĠR aketen
Ġver haftet
ĠO ld
ĠDem o
Ġpriv ileg
AS P
pa cken
far ben
s ung
ic ations
Ġde ckt
tier ter
zentrum s
ĠKar ls
Ð¾Ð ´
Ġoff ers
Ġorien tieren
ĠFotok opier
ĠG all
Ġso lle
ĠJ ak
ĠSch ach
aut y
ĠPf eil
if est
ĠTyp en
ĠBio technologie
Ġanspruchs vollen
ĠBÃ¼nd nis
ĠBrut to
ĠF ische
In iti
Ġre prÃ¤sent
ic ars
ĠgroÃŁ artigen
OT EL
ĠInfl ations
ĠÃ¼ pp
T er
Ġb lu
ĠF ak
Ġbe weg
Ġim stande
ĠAus gewogenheit
ok e
schieden e
ĠBet rieben
gew Ã¤sser
ĠÃ¤ sthe
Ġleben d
zur ufen
ĠGet rÃ¤nk
Ġsofor tige
ĠBeitrittsk andidaten
c os
ĠE ben
ver ter
ven ir
con i
Pl atz
Ġbeherr schen
ĠCop yright
ĠLieb haber
l ar
ĠVer ts
Ġl Ã¤ng
Ġst arte
ĠRecht setzung
voll sten
ĠDesign s
Ġ198 8
spe zial
Ġerle digt
ĠWik icars
ĠGerman y
ĠErwÃ¤ gungen
ir gend
os h
Ġre chte
ĠUm stand
ap azitÃ¤t
AR D
ĠVeranst alter
Ġabsol uten
ĠPlug in
5 7
Ġun angemessen
el ekt
ĠG lÃ¤ub
ĠVer schw
sp unkten
Ġt her
ĠHa iti
ĠpersÃ¶n liches
Dar aus
ĠFil men
ĠLiefer ungen
komp etenz
kor b
Ġwh at
Ġstruktur ellen
ĠKer amik
ĠFeed back
sta d
amm lungen
ĠEur os
Ġ7 2
ĠRo uten
ĠLa gerung
Ġberech nen
ĠSied lung
ĠAdminist ration
E le
w ohnung
er zeugung
ĠL CD
Ġver lie
âĢ ĺ
ĠPer iode
haupt stadt
Ð½ Ñĭ
ĠKrie ge
Ġo k
ĠVari ablen
ĠErrungen schaften
M E
Ġv ar
Ġaus zufÃ¼hren
ĠIn tensiv
Ġem p
Ġpol izei
initi ativen
Ġd igital
Ġs itzt
Ġf ragt
ĠK odex
ĠIn di
ett s
ech selt
ĠGleich e
Ġvertra uens
ĠServicel eistungen
Ġs eid
Ġm iÃŁ
ĠA y
sp Ã¤t
Ġnach t
Ġweiter gehen
setz ungs
ĠGen e
ĠRes earch
ĠDi mensionen
ĠNord korea
gren zt
al m
ĠF ull
Ġvor sehen
Ġ5 1
tre te
Ġermu tigt
ĠGeheim nis
Ġsensi blen
H a
Ġ5 4
tre ff
Ġeinge geben
AR T
Ġint u
ĠRiv iera
ĠFotokopier einrichtungen
P G
S CH
f la
Ġb ook
ĠE X
ĠH und
Ġp ur
ĠC el
Ġausge ht
Ġeinz iger
reichen de
ĠSta ff
Ġgeb Ã¼hr
ĠGra b
ĠGut es
ĠNiger ia
Ġzusammengef asst
R und
w ende
ver zeichnis
ĠBe stehen
ĠAus wirkung
Ġges endet
ĠGar den
iar de
ĠInformations schalter
mod us
Ġluxuri Ã¶sen
Ġbeur teilt
F ern
n y
Ġo s
ĠPro tektionismus
Ġern sten
Ġelekt rischen
Ġerhol samen
schrau ber
m obil
ĠF riendly
Ġl ehnt
lich ungen
Ġge zahlt
Ġan kommt
Ġbe gehen
amm elten
ati bilitÃ¤t
kauf en
ĠFre quenz
ĠSen der
Ġangesprochen en
Ġpoln ische
ĠSÃ¤ ulen
ĠGebur ts
ĠNukle ar
p oten
ĠKl icken
Ver trags
wÃ¼rd ige
ĠMeinungs freiheit
ĠAktu alitÃ¤t
Ġgl Ã¤n
Dav on
N CC
on omen
il m
ad as
ren ten
Ġange griffen
Ġbl icken
Ġsteigen de
ĠRen ov
ĠVarian ten
ĠZ en
ĠÃĦnderungsantrag s
ĠPriv ate
ĠWeihn achten
ĠT ak
Ġdem ograf
ĠÃ¼ber sehen
ok olle
ĠSe ch
ĠMon ti
ou p
ĠModern e
Ġentdeck te
Ġecht es
ĠSingap ur
8 4
Ġun aus
ĠE IB
ĠN oten
ĠC er
Ġdies jÃ¤hrigen
sta ste
Ġsp ir
Bei spielsweise
tie fung
ĠAkte uren
Ġorden tlich
Ġchrist lichen
I l
M C
M T
m u
ĠB rie
ter a
Ġbe ziehe
kl assen
Ġausge wiesen
ĠInter ventionen
ĠKom it
ĠBo ok
ĠHoch schul
ĠMitgliedstaat es
Ġmassi v
Ġbevorzu gen
ĠStraft aten
alifor nien
ĠFrancis co
g ro
ar on
ĠK it
Ġver lÃ¤ss
ĠC e
Ġlang jÃ¤hrigen
ĠAll iance
gor ith
Ġwissenschaft licher
ĠPfer d
Ġbeherr scht
in ken
et or
ĠN az
vor gaben
ĠÃĦ hn
ĠwÃ¼r digen
oc ument
ĠTra ck
Ġetabl iert
ĠTamp ere
Ġein wand
Ġdem nach
ĠC orn
ĠUn fÃ¤lle
Ġvor behalt
rit ter
ischer weise
Ġversch lechter
ĠÐ ¼
ĠKampf es
bew usstsein
fil ter
ĠmÃ¼ÃŁ ten
H z
Ġs ing
ĠA ction
Ġf ull
ĠW elle
ĠVor behalt
Ġc e
uer st
Ġfrei gegeben
ĠSozial modell
ĠBade wanne
ĠBay ern
ĠSchen gener
Ġrenomm ierten
ĠPest izi
D r
H T
c ip
ĠH ein
ĠC ash
scha d
Ġgen Ã¼gen
ĠUnter scheidung
opp elten
ĠGeschÃ¤fts reisende
statt ungen
ĠGal ax
Ġvirt uelle
ĠBevÃ¶lkerungs gruppen
Ġmultination alen
i ale
Ġb ulgar
Ġn ein
ir r
ĠR ic
ĠT rop
ĠJ ungen
Ġsch lie
ĠSo u
Ġhervor gerufen
Ã¤u schen
Ġcomp uter
vert rÃ¤glich
orien tierte
Ġkontinuier liche
beweg ungen
geschÃ¤ fte
K enn
ĠS us
ĠF igur
ĠC all
ĠC lin
ĠKon zeption
fri kan
Ġgerade zu
Ġwider sprechen
ĠReisen de
kap azitÃ¤t
ĠGlÃ¼ckw unsch
sil ber
gel der
Ġkon tra
Ġher ab
Ġ5 6
Ġeinge st
ĠLebens dauer
stra tegien
sbe zogen
ĠKonfigur ations
ĠEnttÃ¤u schung
ch est
in ts
ĠK ok
Ġer weist
Ġst ieg
ĠC i
ĠRo hr
ĠJahrhunder ten
ĠhÃ¶ch stem
ĠBro k
ĠTal iban
( {{
T our
Ã¼ te
ĠM isch
ĠC ub
ĠKlima schutz
Ġ14 0
ĠLÃ¶ hne
ĠLap top
H S
O ft
ĠEin mischung
ĠSp ei
ĠEnergie verbrauch
ĠEm bry
lÃ¤nd ischen
ĠKommun ismus
dring lich
ĠSÃ¼dtiro l
X I
un ten
iz er
ĠPolitik ern
Fra uen
ome tern
ĠSchm uck
New s
ĠRenaiss ance
ĠF u
Ġan kommen
eu gt
Ġsp ac
Ġr einen
ĠVerb Ã¼ndeten
ĠStra fen
Ã¼nd et
ĠSil ver
ĠTreibhaus gas
brech ung
ĠBehaupt ung
B r
ĠVerhalten s
c io
ĠW ater
ord et
ĠMar co
ĠWeiter gabe
ĠAuftrag s
ziehungs weise
Z uerst
Ġ rÃ¼
ar ren
auf nahmen
lin der
Ġkon ver
ĠCh ip
ct or
essour ce
ĠProt ot
ĠMotor rad
ĠPaten te
Ġstren gere
beteil igung
B O
v it
ĠS eil
ĠS itze
ĠZ Ã¼ge
Ġbef and
schlieÃŁ ung
Ġstattf and
AT ION
con f
ĠprÃ¼ ft
wÃ¤ gen
ĠR inder
Ġver einen
rei bst
off iz
zw ingen
ĠWar um
ĠCD s
ĠDownload s
ĠFitness center
anb ul
F C
ĠT ap
ĠEr forschung
ĠNeu en
Ġko ennen
ĠTelefon nummer
Ġvoraus sichtlich
ĠStrei tigkeiten
I mm
en dern
ti pp
ĠIn stand
ien ten
end iox
ĠVor jahr
oll ow
Ġgleich nam
ĠSti ck
l asst
ent sprechend
sp erson
Ġunter worfen
ĠEx cel
ĠGen ehm
ĠWahl kampf
splan s
ĠEing liederung
ĠDritt lÃ¤nder
ĠLiquid itÃ¤t
f Ã¶rderung
s z
Ġf ossi
de hnen
ĠL abel
Ġver p
ĠIn vas
ĠSch u
Ġre d
ĠOr chester
ĠFolgen absch
ĠverschÃ¤r fen
Ġdien te
vereinbar ung
Ġin fo
ra fen
ĠVer tiefung
ot on
ĠÃľbern achtungen
ĠFrankf ur
ĠUrheber recht
8 00
A k
L ang
k y
re b
ĠRe cycling
Ġ20 15
rank heiten
ĠzÃ¼g ig
ĠVerknÃ¼ pfung
Ġbeizu behalten
Ã ¦
Ã¤ glich
ĠL ieder
ĠSt olz
ĠKo alition
Ġeindeu tigen
ĠPe ters
ĠÃ¼berw unden
ĠGed uld
Ġfreiwill ige
ubil Ã¤um
s an
il es
ah m
Ġe ur
ed o
ĠReg ist
ĠPf und
ĠFeh lern
ĠZentral banken
Ġjap anische
Ġbehinderten freundliche
M al
Ġein geschlossen
Ġb ud
Ã¶ pfer
uer te
ĠBeschÃ¤ftigung spolitik
do or
Mill iarden
V ideo
ĠD IN
Ġl ust
ĠC S
ĠVor beu
Ġoffen er
sol e
ĠÂ °
ĠprÃ¤ ch
ĠSchul ungen
ĠSub stanz
ĠVoll endung
ĠÃ¼bert rieben
erzeug nisse
fab rik
Ġentschuld igen
N ord
h istor
ĠD J
Ġver kehr
Ġl ib
os o
ĠEin ige
Ġ19 45
Ġaufge zeigt
Ġne utr
if ic
ĠHol iday
Ġderar tiger
ĠZinss Ã¤tze
6 00
Ã ¹
ĠG au
ĠVer weis
Ġso viel
Ġzur echt
Ġwo von
ĠKn ochen
ĠGesundheits versorgung
ĠKÃ¼r zung
Ãº n
5 3
P P
ĠC ourt
imm en
ĠEr wÃ¤rmung
ĠHo b
ĠMin de
ris iken
Ġ16 0
ĠMode llen
ĠGal ileo
Ġkombin ieren
Ġfinn ischen
p Ã¤
ĠA SE
ĠG our
eu tet
ha ut
ĠKol onial
ĠJes us
Ġm ont
ĠEr lÃ¤uter
ĠAus wertung
ĠFor mate
ĠSchw Ã¤che
Ġtra f
Ġ198 6
ĠkÃ¼mm ert
kas us
Ġs Ã¼
ĠK reu
Ġer leb
op tim
Ġaus schlag
stell ers
ĠOr tschaft
ĠbetrÃ¤cht lichen
ĠordnungsgemÃ¤ÃŁ e
Ġappell ieren
T yp
Ġh Ã¤r
ĠW WU
ent al
Ġ5 3
ĠPerson als
anc ial
Ð¾Ð ³
Ġsah en
Ġdist anz
ĠPassag ier
ĠProfession al
Ġherausragen de
ĠÃľberschwemm ungen
ie bt
ĠH ell
ver leih
ĠunterstÃ¼t zten
Ġbek annter
geord nete
ĠBi bliotheken
Ġexist ierenden
ĠWertpap ier
U L
ĠI A
Ġbe ziehungsweise
ĠO hr
In folge
ichtig ungen
gem essen
Ġar t
ĠRatsprÃ¤sident in
seh er
Ġlau ten
ĠBon n
Ġherbei zufÃ¼hren
n ischen
ĠB isch
et ings
ĠT astatur
ĠBer ech
ÑĤ Ð°
ee p
ĠHy per
Beit ritt
M B
ĠM ov
wach s
ĠEmpf angs
ĠGra mm
Ġfac to
Ñ Ī
ĠM Ã¶n
ĠK inn
Ġl iter
Ver ordnung
ĠZus age
Ġdrama tisch
Ġg aben
ĠEin verstÃ¤ndnis
ĠZw ang
Ġerneuer barer
ĠQualifik ation
ĠQualifik ationen
ber ater
Ġst orn
ssystem en
Ġ198 5
Ġrest ri
Ġtelefon isch
Priv ate
Ġavail able
j er
ĠB uen
ser mÃ¤ch
ĠAus sprachen
Ã¼n der
Ġhier her
ĠSchw ester
Unter stÃ¼tzung
urt eile
d ach
ĠS ab
Ġsch lafen
ger ichte
ĠHa art
Ġverl etzen
ĠJe der
Ġziti ere
F amilie
Ġk alt
ĠL anz
ron ic
Ġqu asi
Ġ9 8
ĠFot ografen
gere gt
ĠÃ¼berra schend
ĠGlet scher
ĠS ein
et tern
ĠR oten
rÃ¤ t
ĠPl at
Ġjen em
ĠLab our
ĠEta ppe
B uch
ĠB ig
Ġst reichen
ul ver
mit gliedern
ys sen
Ġ198 7
ĠRa uchen
K arte
Ã¼r t
de cke
ĠL ight
ĠL iga
ing u
ul ator
ĠEin fach
Ġjeder mann
Ġinnov ativer
ĠKonsult ationen
Ġkompliz ierte
Ġaufer legt
ĠOze an
T err
W ollen
k ab
ĠA ma
Ġk Ã¤
tig ter
ic y
mar ke
gleich ung
ĠZivil isten
Ġwor ld
ĠGlauben s
ĠSlides hows
Ġb lieben
ĠZ onen
ĠO ste
ĠInform atik
ĠFrieden sprozess
ĠB A
ab ler
zi ale
ma x
Ġra ffin
Ġfolgen der
Ġdra uÃŁen
Ġarch Ã¤
ĠApplik ation
Ġauf kommen
Ġmit unter
In form
ĠExper i
ĠEtik et
ĠDampf bad
Ġ900 1
F IN
s ub
w ettbewerb
ein nahmen
ĠEin bau
ĠAb wesen
sk omm
ĠBild es
Ġstell ten
ĠHaushalts mittel
ungsk raft
Ġserv ices
tic s
ĠgeÃ¤ uÃŁer
ĠRob oter
ĠBom ben
ĠgeÃ¤nder ten
ĠS om
ĠL om
ĠSch all
ĠSch ock
ĠIde ologie
ĠGeh Ã¤use
Ġreich lich
ĠGriechen lands
Ġverwei gern
Ġgeleiste te
6 3
ĠG T
Ġer Ã¶ffnete
ĠJ av
ĠSp ass
ĠÃĦ ng
Ġauszu arbeiten
Ġtem por
aku um
gemÃ¤ ÃŁen
D eb
k amm
Ġw endet
ĠProgramm ier
mÃ¤ÃŁ iger
Ġliegen de
Ġpoten tie
ĠResult ate
Ġirak ischen
G ra
L eben
V C
m otor
ĠV eg
Ġwer det
fl Ã¼gen
ĠKn oten
Ġveran lasst
Leist ungs
alo ge
k ing
y k
ĠK h
ĠÃ¼ber setzen
Ġunter zogen
Ġman y
ĠUmwelt politik
ĠKunden dienst
gew ichts
Ġextrem en
Ġair port
Ġunabding bar
ĠZigar etten
C lub
e v
ar me
Ġbe autiful
Ã¤hr en
ĠMill iarde
ĠKam eras
ĠSan ti
c ent
t yp
ĠAn forderung
Ġ19 50
ĠBl att
Ġper fect
ĠLa w
Ġinform ellen
ath ie
ĠgrundsÃ¤tz liche
Ġgeziel te
ĠÄ Į
d ay
Ġs Ã©
at us
Ġver tik
Ġbe c
Ġum liegenden
ĠSch ein
Ġent schied
ĠEin igkeit
ven ce
ĠSchw eine
ĠBehinder ung
Ġherz lichen
beschÃ¤f tigung
ĠKontinu itÃ¤t
B R
R eise
m auern
t an
Ġ Âł
Ġb rand
ien ste
ok uss
ĠAuf tritt
ĠDe velopment
ĠFamilien zimmer
ĠMaterial s
gesetz es
ĠFreund schaft
ĠMedik amenten
ĠAlltag s
ge stellte
ĠB ast
ig sten
ĠC P
Ġent s
ĠJahr t
Ġwar me
ĠAuf schwung
schlieÃŁ ende
ĠmuÃŁ te
Ãľ R
B ox
I r
J u
ĠP ast
Ġver trete
Ġc ent
min i
ĠunterstÃ¼t zte
zep ten
Ġu kra
ĠErfahr ungs
ĠOb jektiv
ĠFach leute
Ġmen schen
ĠGemeinschafts haushalt
Ġfreiwill igen
Ġdrast isch
Ġbenachbar ten
Ġ â
oh er
Ġman uell
Ġen joy
Ġdeut lichen
deut sch
offe e
ĠBef Ã¶rder
Ent wicklung
Ġeinsch rÃ¤nken
orien tierten
ĠAsyl bewerber
Ġser i
ĠAngel es
ĠBeschleun igung
i ein
ass o
ho ut
vers icherungs
ĠFlug gesellschaft
ograf ie
ĠMail ing
lieb haber
ĠConsult ing
rÃ¤ uch
Ġpro m
Ġbef aÃŁt
oc us
opp eln
Ġne oliber
ĠSuch maschinen
ĠVertreter in
ĠErinner ungen
ĠPin ien
ĠPress emit
quip ment
. ),
er maÃŁen
Ã¤n ner
ĠPro zessen
ak i
Ġdrei ÃŁig
els ohne
Ġfer tigen
Ġbeschrieben en
sorganis ationen
ĠArznei mitteln
feind lichkeit
Ġrefle k
ĠAn laÃŁ
sten ten
ĠSch los
ĠEr wÃ¤h
ĠKont inen
Ġersch wert
hÃ¤ltnis mÃ¤ÃŁig
Ġstrateg ischer
ĠnÃ¶ tige
Ġ `
ĠVer spÃ¤t
ĠRe feren
ĠVerantwort ungs
ĠGar age
ĠÃ¶konom ische
sprodu kt
ĠJugendher berge
ĠVerwir rung
M er
w ell
Ġauf gel
ĠVer schiebung
Ġent zieht
hÃ¶ fe
Ã¤uf ers
Ġeingeb ettet
ĠStÃ¼ck e
Ġethn ische
ĠÃ¼berfl Ã¼ss
j ec
ĠS endung
Ã¤h le
ĠWeiter e
Ð½ Ð¾
Ġbelieb te
Ġnament lich
Ġf einen
Ġan fÃ¼hren
ic tion
Ġhin dern
ren gung
ĠPreis es
ĠJuni or
Ġerfolgreich er
Ġungar ische
Ġeth ischen
st eu
te chnologien
ĠR asse
ĠN on
Ġsch ot
ĠStand orte
ĠÃ¼b licherweise
anc ed
ĠSnack s
b lau
sch einen
Ġzu fÃ¤llig
ĠV I
og n
ĠTh is
ĠBes ichtigung
Ver y
ĠSym pt
Ġph ysikal
Ġlauf ende
Ġportugies ische
ĠKohl endiox
ĠDifferen zen
, ...
ĠS end
Ġan fallen
Ġer wachsen
ĠAus steller
ĠInter face
ĠÃĸsterreich s
ĠAmsterdam er
ĠauÃŁergewÃ¶hn lich
Ġzuzu stimmen
Ġhaus halt
tens itÃ¤t
V ER
ul i
ul ierten
pro fil
ĠDurch messer
Ġernst haften
Ġsho uld
Â ·
ĠF C
ĠL eicht
Ġst u
ot ter
ichtig ungs
ĠSte hende
ĠMehr zahl
ĠKamp agnen
ĠverÃ¤nder te
Ġschwar ze
ĠErfordern isse
Ġdokumen tiert
ĠMonteneg ro
D on
b ogen
c ti
se y
Ġbe ge
ĠO ase
ĠSp recher
In stitu
dr ess
ĠLe ucht
ĠKat zen
Ġelektron ischer
Ġausgeb il
Ã¶ lle
Ġg r
de p
Ġver steck
la ck
Ġsch alten
mo dern
sver zerr
ĠComp any
Ġvern ichten
Ġflexibl er
ĠOliven Ã¶l
ĠVerschm utzung
ĠVernicht ung
M achen
ĠSch merz
ĠO ster
ĠEuropÃ¤ ern
In dustrie
ĠGemeinschafts rechts
Ġanerk annte
ĠInvestitions bank
ĠgeschÃ¼tz ten
ĠMahl zeiten
w el
z end
Ġb ien
Ġf Ã¼gen
und s
ĠMit teilungen
Ġerm ordet
Ġbel asten
ĠKar ib
ĠIsrael is
ĠBett wÃ¤sche
Ġbegeist ern
ĠbewÃ¤hr ten
Ġdringen de
Ġeinsei tig
Ġbenachteil igten
Ġgeograf ischen
H andel
Ġa gain
Ġein sehen
Ġzu genommen
ent es
Ġaus lÃ¶sen
ag ue
Ġc ool
lo ÃŁ
rem e
ĠLin ke
ĠMo di
ĠVort eilen
minist ers
Ġnachzu kommen
far be
Ġausgedeh nt
C ap
Ġun gew
au g
iz es
zei tigen
ail s
ĠSa f
ĠKÃ¶n nen
ĠSicht weise
US A
ĠFer tigungs
ĠSy nth
ĠFlÃ¼cht lings
ĠEinwanderung spolitik
ĠpalÃ¤stinens ische
ĠTreff punkt
A uÃŁen
Ġa round
sch on
ĠR E
Ġge ehrten
ĠH is
Ġl ittle
ĠAb stimm
pp el
Ein fach
Gen eral
ĠFitness raum
schul den
ĠCont ainer
ĠRent ner
ĠO hren
wer bst
Ġman ip
eigen t
ĠÃĦ ra
Ġgesch m
Ġsinn volle
ĠTeuf el
H L
J an
Ġein f
ĠE c
ĠVer vielfÃ¤l
ĠHoch schule
ĠfrÃ¼h zeitig
ĠMess ung
Ġzuver sichtlich
ĠZiff ern
Ġeinzur Ã¤umen
Ġorigin al
ĠDemonstra tion
ill igen
Ġc ir
lan k
ĠMed ium
stÃ¼ck en
Ġgek Ã¼rzt
haf tigkeit
Ġiden tifiziert
Ġniedrig eren
Ġval ue
ĠFried hof
Ġzu geben
ĠK ie
ĠIn tel
Ġzum eist
beit rÃ¤ge
ĠMar mor
ĠAl ten
ĠMan ip
ĠUp grade
ĠBegl eit
ĠFass ade
Ġzusammenge arbeitet
ĠbeschÃ¤d igt
j ord
n ische
ĠM athem
ro g
Ġan nimmt
ĠEnt spannen
Ġget Ã¤
ĠZuge stÃ¤nd
ĠBreit band
k ov
ĠS ri
Ġein gesetzten
ĠM auern
ĠF ut
sp eich
Ġaus schlie
geb oren
Ġilleg aler
Ġroman tischen
ĠvorÃ¼ber gehend
Ġslow en
ĠSchokol ade
F L
i ver
Ġf ru
ĠVor gÃ¤nge
Ġweiter geleitet
zei gten
ac y
ĠRichtlinien vorschlag
ĠreprÃ¤sen tiert
9 1
u ung
sch ritte
ti um
re p
be dien
ĠY or
ĠSan ter
ĠPat ch
ĠWart ungs
ĠCorpor ation
f Ã¤hige
g rem
Ġg ran
ĠBe ge
eb ook
Ġpro bieren
ĠDe cken
sf Ã¤hig
ĠKam er
Ġamtieren der
ĠAusgleich s
Ã¤mm ung
y t
Ġde f
ĠVerw alt
ĠNation alen
ĠÃ¤hn licher
mel de
Ġerb racht
ĠgrÃ¶ sser
Ġtranspor tiert
Ġw ay
or ia
ĠAn schein
ĠSp ur
Ġbeg riffen
Ġgering fÃ¼
ĠSchnitt stellen
Ġliber alen
fÃ¤ll ige
Ġdemonstr ieren
ĠMaÃŁstÃ¤ be
D aneben
Ġun lau
ĠR ussen
ĠC ra
ĠAus b
ĠBo ots
ĠOrt es
ĠTages zeit
ĠGar ant
Ġauszu schlieÃŁen
Ġbestimmt es
zum achen
c omp
an sion
ver folgung
ab gabe
qu emen
pro bieren
Ġeinmal igen
ĠRÃ¼ck zug
ĠunabhÃ¤ng iger
wÃ¤ cht
S tre
w andeln
Ġa way
Ġbet rug
pro menade
Ġausge gangen
Ġangem eldet
Ġbeeindruck t
Ġkre ativen
mess ungen
ĠErschein ung
ch i
Ġk ub
Ġk roati
ĠAuf fassungen
Ġausge weitet
An schlieÃŁend
ĠHÃ¶ hlen
Ġallgemein em
ĠMau staste
ser n
Ġman gelt
ĠUm frage
Ġgew ohnt
opp lung
ĠSk ulpt
ĠEntscheidung strÃ¤ger
Ġangenommen e
Ġb ig
ĠK rem
ver antwort
ant a
ĠCh or
Ġbeh andel
Ġverst Ã¶ÃŁt
ĠAk k
Ð½ Ð°
Ġpart ner
stÃ¤d ten
L age
Ġj eher
ant wortet
tra ges
sk arten
Ġeinge hend
ĠSicherheits rat
Ġgering eren
hel fen
ĠHoll and
Ġdoppel te
P ass
op tion
ĠIn spir
zu geben
ang riff
Ġr ight
ownlo aden
Europ e
ĠFl u
ĠWieder gabe
Ġhe bt
ĠProzent satz
ĠKur den
Ġentstehen den
ĠunzÃ¤hl igen
k ungen
Ġs ektor
Ġs alle
Ġvor ab
Ġbis weilen
Ġges und
Ġgesch lagen
ĠRei s
Ġkri stall
ĠStÃ¤r ken
ĠParis er
ĠIngenie ur
b eugen
m Ã¤ssig
Ġw here
Ġm org
it Ã¤re
ĠB utton
ĠW affe
Ġt ru
zi o
Ġmoral ischen
Å Ľ
ĠS ack
Ġn ette
is mo
ĠBei fall
Ġuner war
Ġschl ug
Ġmaxim alen
Ġd ritt
ĠB ull
ĠM andel
el ie
ĠL Ã¼cken
la di
ist in
Ġgen utz
ĠbefÃ¼r chte
Ġmediterr anen
Bek annt
Ġn os
ĠH av
ĠâĢ ¢
Ġbef est
ĠWelt raum
ĠThem atik
Ġgest rigen
inde x
ym n
ĠSchluss folgerung
Ġersch Ã¼t
ĠOrganis men
O G
T I
Ġ ul
Ã¤ qu
Ġer sucht
ĠL ack
and em
ĠN Ã¤hr
ĠJ ury
Ġ4 50
Ġversp richt
ĠKosme tik
ĠDarf ur
h ls
ĠS auber
Ġver fassungs
Ġl Ã¤cher
Ġbest mÃ¶gliche
spro zessen
ĠSpiel zeug
Ġanges iedelt
ĠVerbraucher politik
TO R
gere chten
Ġanerk ennt
ĠNutzungs bedingungen
as ern
ra tionen
ent halte
sp rÃ¤
Ġt reu
etz ter
geb unden
Ġgem isch
ĠFinanz dienstleistungen
hÃ¶ re
Ã¤d agog
Ġgere chter
Ġpotenzie lle
ĠAssoziierungs abkommen
S a
la gerungen
ĠÃ¼ber wie
Ġhin ten
Ġzwei fel
rÃ¤n de
Ġal p
ĠLauf enden
f eln
an geboten
ĠS IE
ĠR ou
ab y
Ġar riv
ĠJu an
Ġkomplex er
wesen s
M obil
ĠS arko
Ġin haf
Ġzu teil
ĠSch uhe
ik anischen
ĠZu hause
ĠTra vel
ĠSozial fonds
ĠBel ange
Ġverz ichtet
Ġstil volle
ĠDan iel
ĠTarif a
Ġinspir iert
sermÃ¤ch tigungen
o in
ĠT ime
pf el
Ġc arte
Sch Ã¶n
ĠÂ ĸ
Ġus er
Netz werk
ĠBrun nen
ĠBouti que
Ġgescheiter t
f Ã¤higen
ĠE B
Ġh ar
ĠW Ã¤hl
Ġaus zut
Ġ- >
olle gen
ĠMar ine
ĠÃ¤ gyp
ungsver schieden
Ġstattfinden den
Lin ks
ĠFo ot
Ġamb ition
ĠVerfassungsver trag
ĠW inkel
uÃŁ ts
ĠGeb iets
ĠPal acio
Ġnachhal tiges
ĠSc ience
!! !
gÃ¤ sten
ĠRett ungs
clus ive
G ruppen
ĠK im
ĠH arb
Ġl arge
ĠSp rung
vor schrift
Ġ3 000
ĠTa ste
ĠRel ax
fg h
ĠniederlÃ¤nd ische
ĠDemonstra tionen
ĠColle ge
ĠOberg renze
n utzen
Ð ¶
Ã¤ mmen
Ġb rachten
ter in
Ġzu kommt
um fang
aus rÃ¼stung
ot ti
stimm e
ank a
ĠBÃ¼rger meister
An statt
Sch auen
ĠGeld politik
Ġjen es
Ġadministra tiven
ĠausdrÃ¼ck liche
k os
l Ã¤nge
op ie
ing ham
zie lle
ĠMitglieds lÃ¤ndern
gesprÃ¤ che
Ã¤ lle
et es
de z
ĠSt aub
ĠAuf lage
Ġgef Ã¤l
ichterstat tern
staat es
ĠfrÃ¼ he
b iet
k onto
at ab
ĠH i
Ġvor geb
Ġbei spiel
ĠVerantwort lichkeit
Ġelekt rische
Ġd eg
Ġun l
ĠK Ã¼n
ĠD igit
ĠT ari
ĠEn tertainment
ĠSp ring
ati scher
ĠzurÃ¼ck greifen
EL L
oy ager
ĠLog os
Ġemo tion
Ġvorherr schen
K rieg
P re
Ġh ellen
In tern
ĠBes ser
Ġinte llektu
Ġne xt
EA CH
Ġreichhal tiges
ĠSpeich erk
Ġvernach lÃ¤ss
B ay
m at
Ġm ex
ĠRe zept
ik on
ohn heiten
sst ruktur
Ġwider sprÃ¼ch
bie gen
Ġvorge legte
Ġverk Ã¶rp
Ġdrama tischen
ĠHuss ein
v ed
ĠS hang
Ġb eschÃ¤
al tern
ĠJ am
ĠSch ichten
ĠSch ande
Ã¶n nen
ĠEr stellen
ĠReg isse
ĠBet rÃ¼ger
ĠWort es
ĠAktion sprogramm
ĠPo int
komp onenten
CO D
Ġinhalt lich
Ġatemberauben den
C A
ur se
Ġan gel
Ġan grenzen
Ġe b
lÃ¤ chen
ĠÃľber zeug
ĠHer unterladen
ĠEx t
ĠEing angs
ĠBeam te
ĠWol ken
F ree
d s
y ch
ĠG ei
ĠH alt
Ġbei des
qu eren
Ein zel
ĠUr lauber
anc es
liefer ungen
Ġkost spiel
ĠerhÃ¶h ten
On line
Ġvertrau lich
ĠK alifornien
ĠD oll
ĠL ind
ĠSt urm
ĠMein ungsverschieden
Ġunverzicht bar
st able
Ġz Ã¶gern
Ġvor zustellen
ab eth
ĠSp ecial
Ġre ception
ho st
ĠTa uchen
Ġsozial es
Ġpri or
Ã§ a
Ġehrgeiz ig
Ġerstklassi gen
Ġbe quemen
Ã¤l ern
Ġak zept
ĠBuch ten
amerik as
Ġbelieb ig
Ġspeziell es
Ġempfehlen swert
Ġgemein nÃ¼tz
Ġgetrenn te
n iveaus
o e
Ġger Ã¤t
bau ern
ĠWettbewerb spolitik
ĠSal on
ĠGelt ung
ĠvergrÃ¶ÃŁ ern
ĠVene zu
ĠS tere
ach r
ĠL Ã¼cke
Ġaus drÃ¼cken
be c
ĠSch Ã¤tzungen
vor gang
ĠZusammen fassung
Ġob jektiv
ĠMal ay
ĠWohn ungs
ĠKn opf
Ġleg al
ĠbetrÃ¤cht lich
ĠAbwesen heit
i ze
ĠS ul
Ġzu bereitet
il en
Ein erseits
Ġ, ,
Ġbisher ige
ĠTschech ien
Ġbr asil
ĠIst anbul
ĠZul ass
Ġh y
ĠG ab
Ġaus macht
ĠC OM
scha fft
ĠSch Ã¤d
Ġper i
ĠLe v
sor ten
Be zÃ¼glich
Ġgesundheit lichen
Bed auer
ĠUmw andlung
d os
Ì Ī
st al
um feld
sp richt
ĠC EO
ĠRat haus
eid et
ĠProdukt s
Ġgesp eicher
wind igkeiten
ĠFutter mittel
b oll
b rÃ¼cke
z es
Ġs et
Ġauf bew
Ġp ublic
ĠAn na
Ġst a
ag ner
Ã¼n dete
Ġbek lagen
An aly
lÃ¼s selt
ĠhÃ¶ch stens
ĠMitte le
ĠNot fall
ĠWiederauf nahme
Ġtrag ischen
ĠSpeich erung
P f
Ġs eg
ĠA IDS
ĠÃ¼ber gehen
eig net
ĠGleich berechtigung
Ġextrem e
ĠEd itor
ĠPen sionen
ĠzurÃ¼ckge zogen
Ġzivil e
ĠJoh ann
ĠSchalt flÃ¤che
h Ã¼
ei tern
ur st
ĠC ala
ma p
ĠÐ ·
hil f
use eland
Fil m
ĠDiplom atie
Ġexzellen ten
Ġheil igen
Ġbewaff neten
ĠA str
Ġso g
ĠVor zÃ¼ge
bereich s
ĠDi versi
ĠComp utern
halte stelle
En d
Ã¼ch ern
ĠRÃ¶ mer
Ġi mmen
Ġf indest
Ã¤r es
ĠPl ur
Ġunbe f
air o
ĠStaats ange
ĠAnzahl ung
ĠBÃ¼ chern
Ãľ b
ĠBri tish
Jahr e
ĠtÃ¶ ten
ĠjÃ¼d ischen
a ine
ak is
ĠVerb und
Ġcon ven
rÃ¤um t
ĠGet rÃ¤nken
Ġlauf end
ĠJac ques
in as
Ġa fgh
ĠR hyth
ĠL av
ĠAus lÃ¤nder
ĠMit arbeit
Ġhin nehmbar
arb on
Ġvoll zogen
arte ments
Ġgelten de
ĠRu inen
ĠSor ten
ĠGesundheits schutz
Ġverdeut licht
d on
Ġw ater
Ġs w
ber Ã¼hm
ro st
ĠH emm
Ġauf greifen
zu laden
auf gabe
Ġ3 60
erk on
Ġlie b
ĠNord amerika
ĠWillen s
Ġbill iger
Ġschwerwie gende
ĠwÃ¶ch entlich
ĠSanti ago
C as
f ehler
Ä º
Ġm i
ĠA ri
ĠK ast
sp osition
men ten
Ġwas ser
Ġvern ichtet
ĠTschech ische
ĠgroÃŁzÃ¼g ige
Ġkat hol
Ġradio ak
K n
L etzten
is l
ol as
und ung
ĠO K
Ġeinheit lich
ĠnatÃ¼r licher
Ð» Ð¸
Gest ern
Ġschall isol
k est
ĠF iguren
ĠG eister
ĠG ood
ĠL ar
eg ulierung
ĠZeit schriften
An gebot
ĠInternet s
th umb
Ġstatist ischen
Serv ices
f aden
u y
Ä ģ
Ġa ux
am an
ĠU K
ĠJ et
ĠKon stru
ĠOb wohl
ĠRad ik
ĠBi om
Ad minist
g round
ĠK Ã¶st
Ġl ov
ĠUn ited
min en
ĠWÃ¤hr ungsfonds
ĠNe ph
ĠBeruf ung
Ġ197 9
ĠgÃ¼l tige
Ġrelev ant
hod ox
N ormal
ein stellung
Ġm usst
ĠB Ã¤ume
Ġh ome
ĠEin heim
Ġweiter ver
ĠKam bod
Ġern euert
ĠEinsatz es
ĠX V
ĠgrÃ¼n dliche
ĠMÃ¼n zen
Ġsho wer
d ringen
w ellen
Ġb ra
ĠP el
ro hr
ĠL enk
ĠC ur
ĠEn gel
ĠFra me
du c
Ġle er
Ġober halb
ĠPat ri
ĠAp ache
Ġklin gt
kre bs
Schn itt
i at
n Ã¤he
ĠG assen
ĠR essource
ĠL is
ĠBe arbeitungs
ĠUm lauf
iss heit
zug leichen
An sonsten
ph p
ĠHaushalts ausschuss
ĠNe apel
ĠEing reifen
vert rÃ¤ge
ĠkÃ¼nstler ische
ĠSamm el
ĠHaart rockner
\ "
m auer
ĠK alten
Ġdem zufolge
ĠÃ¼ber st
pl es
ĠEinzel personen
Ġoper ation
Ġdetaill ierten
ĠRechnungshof s
ĠÃĦnderungs vorschlÃ¤ge
Ġverschlechter t
K unst
k ol
Ġin ne
Ġver wir
ne st
Ġgleich wer
ĠDienst leister
Ġlang wier
beh and
por ten
ĠbenÃ¶ tigte
ĠProdukt palette
ipel ine
D ruck
Ġs up
ĠR oc
Ġan dernfalls
ĠT reu
ĠUn der
io den
ite ls
rank ung
ĠItalien isch
Ġvieler lei
ĠAlp ha
ĠGrem ium
G el
m acher
st i
Ġw in
ĠB und
ĠW elche
Ġe p
pro jekten
fl ow
Ġus ed
Ġiden tisch
Ġdre hen
f lex
en g
Ġun glÃ¼ck
Ġf uhr
ro gen
ĠZ ucht
sp iell
bl as
ĠDisk rimin
AC K
Ġkurzfrist ige
ĠSied lungen
ĠMeld ung
ĠKomit ologie
Ġs us
Ġauf geb
ser satz
Ġnach weis
ist ans
lÃ¤ss iger
ĠPlan ungs
Ġstrateg isch
ĠPati ent
ĠPresse freiheit
ĠAkte ur
hel m
eto oth
ĠspÃ¼r bar
Ġdebat tieren
g rÃ¤
in ten
ĠE ver
ĠVer lagerung
ĠC up
ĠJ etzt
Ġe sta
bl er
Ġab halten
ĠFl ora
Ġch o
orm on
ĠNieder lage
Ġstud ieren
institu te
Ġexpl izit
gesp ielt
ĠSeg ment
ĠFreihandels abkommen
ti le
ĠV om
ĠH ut
Ġdar zustellen
ĠGe webe
pf eiler
Ġtradition eller
System en
ĠSonnen unter
Ġwidersp richt
Ġverabschie deten
Ã¤ ste
ĠC in
ĠMitglied staats
ĠTh yssen
Ġfor mal
Ġeingest uft
M Ã¤r
d in
re de
ĠL ock
ĠUnter wasser
ai lle
ĠNahrungs mitteln
grei fend
D C
sch ub
Ġb rechen
ĠB R
ĠW arte
ĠN obel
Ġt agt
Ġst ehe
Ġe v
Ġen gere
Sp ieler
Ġklein ste
lÃ¤uf ige
ĠGrÃ¼ ne
ĠSou venir
W ahr
h Ã´tel
in tensi
ĠL ade
ann el
ĠC av
ĠmÃ¶ bl
Ġneu em
Ã© lÃ©
ĠGer Ã¤u
ĠHandel spolitik
Ġhervorragen der
ĠTal ent
ĠÃľberra schung
h att
ĠG or
ÃŁ er
ut s
ĠVor stands
los es
maÃŁ nahme
lang es
Ġperman ent
Ġabsur d
x y
Ġver steckt
Ġp at
ad ox
ĠOrganis ations
ĠAir es
agn ost
ĠDist anz
geg nung
Recht s
ĠgÃ¤ng igen
" ).
Y ou
Ġ ]
ĠR Ã¼cks
re ens
ĠT ragen
ul ierte
Ġc enter
ĠFortsch ritten
ĠWar nung
ĠVern unft
ĠKlin ik
Ġz auber
ĠB ah
ĠE ier
ĠSt ro
Ġunter richten
sta gung
ierte ls
ĠPart ners
ĠOp ern
All gem
ĠheiÃŁ e
Ġhochwer tiger
ĠMad eira
ĠGrenz werte
ĠBefÃ¼r worter
ĠAmb itionen
ĠEmo tionen
f ic
Ã¤ en
Ġin neh
ĠK und
is si
ro llen
Ġ5 7
Ġal arm
Ġbed acht
ĠBesch affung
Ġra schen
spoten zial
ĠNeuer ungen
in land
Ġi z
ĠB ow
Ġk raft
ĠT un
ĠL ichte
omm od
Ġaus reichenden
ĠVor reiter
Ġander wei
ĠMenschen leben
ĠCh ines
ĠLe er
Ġph arma
Ġblock ieren
schlie ssen
ĠVerg Ã¼tung
c m
u lichkeit
ĠM ug
Sie he
ĠLi ft
ĠEx change
ĠWert schÃ¶pf
Ġur heber
Ġnachhal tiger
ĠOst se
ĠGrundsatz es
Pl attform
med izin
Ġanhalten den
Ġbec ause
S uchen
k et
ert al
sh ip
nÃ¼ pfen
Ġengl ischer
Ġtransparen ten
ĠglaubwÃ¼rd ig
ĠErwÃ¤h nung
Ġh ie
Ġge g
Ġan stehenden
ĠL AN
ien a
schaft lich
ĠAb Ã¤nder
ze denz
ĠArbeit sprogramm
St art
ĠEl end
ĠGu ant
ÑĢ Ð¸
ĠvielfÃ¤l tig
steh end
ĠBesonder heit
befug nisse
ĠNÃ¼r n
e ur
Ġh yd
ol it
ĠC ross
ver lauf
Ġex portiert
ĠMittel me
blick en
Al tern
ĠAnd alus
ĠBeitritts lÃ¤nder
Ġnukle aren
ĠGÃ¼ tern
ĠGÃ¶ te
ĠÃ¼berflÃ¼ss ig
m anden
Ġd oppelten
ĠK uchen
ĠH orn
Ġnach ts
Ġzw ingt
olog y
ĠAll erdings
ry pt
Te chnik
ĠMassen vern
ĠFremden feindlichkeit
Ġvorant reiben
K ern
Z one
m ond
Î ½
ĠP ion
ĠK G
ĠK lage
Ġdem entsprechend
Ġaus fallen
Ġr unden
Ġal b
Ġcom pl
ĠZivil bevÃ¶lkerung
ij k
Ġentstanden en
ĠPrak tik
ĠZeich nungen
ĠbegÃ¼nst igt
Dam als
G ute
T ele
Ġer langt
ĠUn glÃ¼ck
Ġsch ock
pl ans
Mit t
ĠDel uxe
Ġober sten
Ġverbleiben den
Ġbesp rechen
Ġan steigen
Ġgere chten
ĠBedÃ¼rf nis
Ġvoran kommen
ĠBehinder ten
Ġunvergess liche
erkl Ã¤r
ĠWolf gang
ĠProv ider
ĠKinn ock
st ufe
or ter
ĠC hal
ĠO k
ion i
ĠEin sicht
we en
ĠRahmen beschluss
ahn sinn
kon struktion
ĠFest land
ĠHaushalts linie
Ġfunktion ierenden
Seit dem
Ġeingeb rachten
ĠWill iam
ason ic
ĠMagaz in
D enken
J ahren
W Ã¤re
h ing
ĠP ause
ĠK od
ĠN ar
ĠSch atz
Ġmehr heit
Ġbes etzten
ĠFl otten
Ġfest geschrieben
Ġnation ales
Ã¼nd igung
ĠÂ ·
Ġunbe grenz
Ġne ed
ĠgroÃŁzÃ¼g igen
Ġfantast ischen
ĠAnton io
ĠFrankfur ter
ĠF Ã¤l
ĠL KW
ĠAnst rengung
sei tigkeit
Ġerfahren e
Ġperson al
A lt
C lient
O ber
w ohnungen
al istischen
Ġbesonder em
Ġal kohol
Ġwor Ã¼ber
Ġqualifiz ierter
a ur
st ufen
ĠEr nte
lei tete
ite e
ĠPl attformen
ĠAut hen
Ver wenden
ĠSk ip
ĠGu ide
ĠAng rei
ĠHalb jahr
hei mer
Ġdre ht
W LAN
f euer
Ġa partment
ar ote
ĠUn i
eid el
ĠTra uben
reg ulierung
ĠReligion sfreiheit
Ġfrag te
ĠEth ik
ch o
ĠBe sten
Ġre par
Ġweiter geben
ĠBet a
Ġ9 6
Da ÃŁ
ĠSu mmen
Ġersch wing
Ar t
ĠStraÃŁen bahn
ĠVÃ¶lker recht
lÃ¤uf er
ĠKu pfer
ĠVerh Ã¼tung
ĠzurÃ¼ckzu kehren
Ġkurzfrist igen
ĠHÃ¼ geln
K arten
V ol
d umping
ĠS urf
op en
Ġp ossi
Ġt ur
Ġvor gebracht
lÃ¤ re
ĠRahmen richtlinie
hÃ¶ hungen
ĠNation alismus
ĠHe alth
ĠSee verkehr
ĠbegrÃ¼n den
Ġleb te
ĠSD L
ĠSolution s
P M
R unde
k anzler
v ing
Ġun angen
Ġm ess
Ġh ieÃŁ
Ġver senden
ĠC ON
di das
lo cken
ĠhÃ¶ re
ĠInternet anschluss
Ðµ ÑĤ
ĠBri ten
ĠStamm zellen
ĠSachverstÃ¤nd igen
ĠBÃ¼gel service
P an
sch ild
ĠE ric
ĠU V
ĠEr mittlung
mittel ten
ide os
ĠAuÃŁen handel
Ġtschech ische
ĠbÃ¼rger lichen
ouv erne
ĠMillenn iums
Ausser dem
ĠInvas ion
K R
P rÃ¼
un ity
es ische
ar zt
it ing
Ġh ind
ĠP ausch
ĠV ent
ungs mittel
ste am
est ern
auf t
ange legen
Ġhel p
ĠPrÃ¤ zedenz
Ġverh Ã¤ngt
ĠMand ats
ĠGran de
Ġrestaurant s
V ier
c ri
Ġun klar
ĠD uft
Ġver hÃ¤lt
op s
sst euer
Ġgeist ige
Ġfantast ische
ĠSchattenber ichterstatter
Ġgeforder ten
g Ã¼
ell y
Ġman cher
wie der
ĠSo c
Ġwe ek
Ġheraus gestellt
bezogen e
ĠPa are
Produ kt
ĠHerangehen sweise
gebir ge
d f
Ġb on
ĠAl bert
Ver w
Ġbed roh
ĠPal m
ĠFisch fang
Wor ld
Ġun t
ĠS ynchron
ĠF uj
ĠH P
ĠD Ã¼r
ol is
ĠZ a
ĠC AN
Ġ5 8
wor ks
ĠKinder spiel
ĠKop ien
ĠMotiv ation
m uster
ĠS eb
Ã¤t tern
lei ÃŁ
pl er
Ġschw achen
Ġhervor geht
yn n
IN D
Ġbeit ritt
ĠFisch bestÃ¤nde
Ġzuver lÃ¤ssigen
Ġkop iert
Ġangestre bt
Ġerstaun lich
k ans
x i
Ġs es
ĠP osi
ĠSp err
Ġ19 30
ss icherung
ĠVerantwort lichkeiten
Ġerk lÃ¤re
Ġspeziell er
ĠHandeln s
ĠSchm id
ĠSau di
ĠKÃ¤mpf e
d ichte
k ore
l ov
ĠP od
ĠG ASP
ĠIn haf
ĠBe auty
geb iets
ill o
Ġgef eiert
ĠSu p
ĠTrain er
Ġsport lichen
ĠdiesbezÃ¼ gliche
ĠOs lo
n ia
ĠL ido
ĠC E
Ġversch lossen
Ġwesent liches
ĠFach wissen
Ġgering ere
ĠKontra st
Ġerl itten
ĠGeneraldire ktion
e ken
f aktor
s ichtig
Ġ rÃ¼cken
sen kung
Ġl ook
op pt
ĠAn lauf
ĠSch icht
ĠSch ild
ĠEurop arat
Ã¶r tlich
Ġfest legt
Ġzusammen fassen
ys q
ĠAd ria
Ġauszu wÃ¤hlen
ĠWissenschaft lern
ĠLondon er
ĠJack son
FrÃ¼h stÃ¼ck
d le
x x
ĠM w
Ġt rug
di alog
eigen e
nt he
Ġnie manden
Man ager
ĠGl anz
ĠAktion Ã¤re
nÃ¼ pft
Ġspannen de
ĠShutt le
ĠDoss ier
Ġkonstitution elle
us a
Ġwar nen
In vest
In nov
zi lla
ĠVolks wirtschaft
sent wurf
Ġsel ek
ĠfÃ¼h l
Ġzer tifiziert
ĠbewÃ¤hr te
Ġgrei f
z un
Ã¤ ger
ĠW ood
Ã¼ber nahme
Ġbei spiell
ver sch
ĠAb u
bes uch
Ġzusammen hÃ¤ngen
ĠHa ag
inent al
Ġkonfigur iert
Ã¤ssi gen
Institu tionen
b ein
k eln
ĠB at
ĠT rÃ¤ume
ĠVer gn
ĠZ oom
ĠSt rÃ¶
Ġsch ar
ĠEin trÃ¤ge
Ġange st
ign al
Ġra us
ĠSam sung
wechsel n
spar ung
ĠAktionsplan s
ĠWeihnacht s
Ġimplemen tiert
ĠIb iza
viron ment
Ġspir itu
s werter
Ġb ro
ĠK ann
ĠUn gerech
ĠInter oper
ĠRechts vorschrift
besch rÃ¤nkungen
Ġeinheit liches
arch iv
ĠPanoram abl
G ast
j ust
l ok
ĠB Ã¤der
ĠP flanz
ĠG h
ĠN ick
ĠLand haus
Ġausge t
ĠSchw Ã¤ch
ĠweiÃŁ e
Ġabzu bauen
C NS
M ai
ĠW einen
ĠSt reichung
lau bt
ĠBar on
ĠPh oto
ĠHeil ung
ĠHy giene
ĠBeschluss es
Ġoper ativen
ĠFlag ge
ĠImmobil ie
m os
n eiden
o ung
p i
on as
Ġge fÃ¼llt
tel y
eg ion
ĠMa is
Ġex per
Ġ6 6
ĠGesch eh
gew innung
ĠFir ew
ĠPal azzo
Ð» ÑĮ
ĠKart off
Ġirgendein em
Ġverbrei tete
ĠKarib ik
c am
ie ber
ber ichts
lin k
bau er
kon z
vers orgungs
ĠMarkt fÃ¼hrer
Ġse e
ĠSpe ed
Al p
ĠOper a
ĠDist ribut
Ġausgeb ildet
ĠDenk mal
ĠErfordern issen
G P
S ogar
ĠK ette
Ġk ap
ĠJ h
ĠGew ichts
ilt on
ĠCon c
17 01
rÃ¼st ungen
ĠÃ¶k ologisch
Ġsystem atische
Ġkan ad
Ġann Ã¤hern
ĠBeton ung
e der
Ġh alt
ĠP av
ĠEnt deck
reich es
Ġkont ro
ingt on
Ġzuges agt
Au schecken
Ġerfreu lich
ĠIntelligen z
f ield
Â ©
Ġw usste
ĠW eit
ĠSt ring
ĠPro teste
Ã¤ch ten
ĠGesch ehen
Ġern eute
ĠBo ote
ĠKat al
fel dern
ĠTerrorismus bekÃ¤mpfung
Ġged rÃ¤ngt
Ġtour istische
ĠExp ansion
ĠTenden zen
Ġkonfigur ieren
Ġz a
it ch
Ġauf tritt
Ġp ic
ĠIn se
Ġvor der
schen ko
ĠMit gefÃ¼hl
ĠPar allel
ob s
Ġange gangen
Ġverein fach
ĠPalÃ¤st inens
wan dern
ĠHilfs mittel
ĠCa stell
Ġenerg isch
ĠBele uchtung
Ġkenn zeichnen
h ans
Ã¶ hne
ĠF at
ĠSt eine
Ġent fallen
esen de
man gel
wirtschaft liche
ĠBen zin
staat licher
Ġklein sten
ĠMutter sprache
ĠVater s
Ġblo ÃŁe
Ġlegisla tive
Ġkn ow
Ġzun ichte
h te
p at
el ement
ĠG on
Ġj ugoslaw
ĠFlug zeugen
ĠspÃ¤ter e
Ġdefin ierten
ĠMark us
ĠMark et
ĠAndre as
S ite
as ing
Ġgest euert
ĠTechnolog ies
Ġat t
Ġlok al
ĠNe useeland
ĠMobil tele
ĠSuper ior
Ġersta unt
ĠAnreise datum
Ġgeograph ischen
ĠGÃ¶te borg
T F
T ool
ĠA ct
ĠB art
Ġf urcht
ĠF urcht
Ġim port
ĠWasser s
Ġabzu schaffen
klus iv
ĠDokument s
ĠHe ad
ĠDra ma
ĠmÃ¤ch tigen
ĠVorbeu gung
F ragen
b rochen
y wood
z ielen
Ġd ell
ĠR Ã©
ier baren
am tieren
Ġpro gressi
An fang
ĠPolitik bereiche
sver w
ĠHy b
ĠFrÃ¼hstÃ¼cks raum
Men Ã¼
ĠkÃ¶rper liche
ĠMeld ungen
ĠSchattenber ichterstattern
Ġinterpre tiert
ĠSkla ven
V oll
Ġein tritt
Ġm oney
be ding
ĠPro vence
Ġr ig
ĠQu ality
fra gt
ĠHandel sbeziehungen
Sch l
Ġgesp annt
Ġsozial istischen
H A
y on
un ts
Ġw em
ti se
ĠM IT
ĠJ ubilÃ¤um
Ġverb racht
Ġbestehen der
ĠWerk statt
ĠSchwei gen
Ġzweif elsohne
ĠVermitt ler
F en
ĠS auer
ĠB ass
ĠUn zu
Ã¼n kt
Ġc lass
lÃ¤ ger
ren zt
ĠMar x
ĠBeit rÃ¤gen
Ġfort fahren
ĠMobil isierung
Mitglied schaft
Ġstruktur elle
Ġblau en
ĠMassenvern ichtungs
G lÃ¼ck
sen dungen
ut schen
Ġvor nehm
he ater
fer tigte
pflicht ungen
ungsk ette
ĠRelig ionen
ĠunnÃ¶ tige
uis ine
Ġisol iert
ĠPrÃ¤sidentschaftsw ahlen
G lob
s aal
un nen
ĠS ac
ĠT unnel
ĠL eich
ser e
sp itze
ĠSt able
rag ten
Ġbesser er
ĠSti pend
Ġmodern ste
eck silber
kom bin
su ite
Ġverdeut lichen
C l
H ow
W ert
in fo
as ma
ir che
Ġaus reicht
Ġab gebaut
ht tp
ĠInter institution
ĠNatur park
ĠausfÃ¼hr lichen
ĠVerÃ¶ffent lichungen
Ġanhalten de
ĠAnim ation
ĠWÃ¤hl ern
b or
st urz
Ġaus schlieÃŁen
ĠRe cher
fern sehen
ond o
az ione
Ber lin
ĠOb jekten
daten bank
ĠGour met
Ġw uchs
Ġw andern
um a
Ġp red
ĠO ri
Ġab gew
Ġnah en
ĠWirk ungen
Ġehemal iger
ĠEngagement s
Ġinterinstitution ellen
C R
b our
gen der
ĠE CO
Ġzu geordnet
Ġl ong
ad es
ĠKon gr
ĠAd v
th i
stre ck
Ġ198 4
Ġverh elfen
ĠDorf es
Ġdor tigen
ĠHoheits gebiet
Wind ows
m i
m isch
m alen
ind el
ah ls
Ġp i
Ã¤r fung
ĠBar bar
Ġra tifizieren
Ġ/ /
ĠHandels abkommen
ĠPap st
ĠKonz erne
ĠRein igungs
Ðº Ð¸
ĠauÃŁen politischen
ĠVill age
Ġterror istischen
C K
R Ã¼ck
er ei
sch ichten
ĠL odge
ungs mÃ¶glichkeiten
auf enthalt
Ġr assist
Ġwelt berÃ¼hm
ĠMo z
berg s
ĠBest es
Ġ196 7
ĠLud wig
N ov
Ġan geregt
bl Ã¤tter
ill es
ĠKolle ktion
Ġempf unden
Ã³ w
leb nisse
ĠLeg isl
ĠEdel stahl
Ġprov ide
Q U
Ï ĥ
ein schlieÃŁlich
gen au
ĠK ass
Ġan zusprechen
Ġbe denkt
sp ekt
Ã¶n t
ate mal
sk o
ĠVerein s
ĠFahr plan
ĠVertra ulichkeit
Ġhe art
ĠNational staaten
ĠIden tifizierung
Ġslow ak
P O
b Ã¤der
ĠF L
ĠAn lÃ¤
lie be
ĠFlug gÃ¤ste
RO N
wirt scha
bi bliothek
bÃ¶ den
ĠWirt schaften
ĠBuen os
ĠKÃ¶st lichkeiten
Z er
k inder
w id
Ġs endet
am as
le z
ĠEin nahme
ĠGrund wasser
ĠFl ut
Ġ6 3
Ġto llen
ĠMan hatt
Ġro te
spl attform
jÃ¤hr ig
Ġdah inter
wÃ¼r de
handen sein
om er
ation alisierung
ul o
ho u
reg ister
ĠRed nern
ĠMor al
ĠErf indung
ugt uung
ĠBrutto inland
us ionen
Ġauf w
Ġo wn
ĠEin vern
fer tigten
ĠInter ieur
ĠLi br
Aus gehend
ĠRo ut
ĠFreund lichkeit
ĠBetracht ung
ĠschÃ¤d lichen
b lichkeit
o on
er stattung
Ġbe zwei
ĠEn sem
ĠGe werbe
Ã¼t ze
ĠMen Ã¼s
Ã¶s ungen
ĠHaupt sitz
unter stÃ¼tzung
Ġanzu geben
ĠSicherheits standards
Ent spannen
gener ation
ĠDach terrasse
Ġmu y
krie ges
Ġflo or
F ort
Ġt eils
ild ren
ĠInter aktion
Ġeinge gangenen
ĠGen ugtuung
ĠInteroper abilitÃ¤t
E IN
R ed
g Ã¤rten
j amin
Ġ ort
ĠM Ã¼tter
et ra
ĠF lex
Ġge stellte
ĠH ang
ĠW elten
ent halten
ĠT O
ĠBe gegnung
ĠEnt sorgung
ĠHo w
Ġbie gen
Ġeigen s
Ġcon dition
oper ation
ath on
Ġverurs achte
ĠIN TER
ĠRauch er
Ġgast ronom
Ġprinzip iell
ĠVeget ation
" >
w ich
it sch
ĠH orizont
ĠfÃ¼r s
ĠL ong
ul ations
ac a
rÃ¤n gen
az ieren
CH O
ĠWohn raum
ĠMil osev
Zwei f
Ġetabl ieren
gemein schaften
Ġkolle ktiven
ĠPanoramabl ick
Ġf Ã¼nften
ĠV ON
ĠH ack
ĠRe ader
ĠC L
Ġvor wÃ¤rts
ĠFra g
alen te
stimm ten
Ġkon st
Ã¼hr ung
Ġ14 9
ĠVÃ¶lker mord
ĠAnti bio
ĠLu c
ĠWander ung
ĠRoh stoffen
Ġpopul Ã¤r
acion es
ĠZertifik at
I EN
Ġh ielten
dr essen
Ã¤mpf er
ĠSk andal
ĠSicherheits maÃŁnahmen
ĠMobil funk
Ġli zenz
Bet rieb
ĠSzen en
Ġphil osoph
F O
an satz
ĠM ust
Ġp ay
rot t
ĠAll es
ĠAd am
Ġeinzu bringen
ĠBeitrag s
ĠMag net
ĠRegistr ierungs
UNG EN
Best imm
ĠHandt Ã¼cher
Ġz eugt
ĠD S
scha ll
ĠkÃ¶n ig
Ġhin reichend
im s
ign ano
Ġinteress anter
ĠWieder belebung
Ġsepar aten
ĠOlymp us
gelegen en
ÃĦnder ungsantrag
ĠEntschuld igung
M ic
n ot
sch ir
sch ancen
ĠB ike
Ġim portieren
ĠN enn
ĠVor kehrungen
wir ft
ĠNe uf
OR T
ĠmilitÃ¤r ischer
ĠWaffen still
ĠPre stige
k enntnis
o fen
p rint
Ġw Ã¤hlt
Ġein t
ur teilungen
ĠB ali
Ġer schaffen
Ġso ftware
Ġbew Ã¤hrt
ĠDurch schnitts
ĠPak ets
amerik anischer
ĠBundes regierung
Ġangegeben e
fre quenz
ĠBlu etooth
ĠVictor ia
ĠA uÃŁ
ĠE vangel
ĠG ate
ĠD ichter
ĠT rieb
ĠVer dienst
ĠSch iene
ĠTeil ung
ĠVerw altungen
hil e
ĠKonf ront
ĠDiskussion s
Ġ197 8
aktiv itÃ¤t
ĠDemon st
Ġdiplomati sche
ĠVervielfÃ¤l tigung
Ġ tim
Ġun miss
Ġw ant
ge fÃ¼
Ġin vol
ĠB ienen
um welt
Ġt herapeu
Ġent gehen
ĠKon ten
ĠGes ichts
ĠzurÃ¼ck halten
ĠKo finanzierung
Ġzentr ales
Ġgra Ã°
ĠTr il
ĠFlÃ¼ gel
ĠMass agen
ĠTsch ern
ĠRuss ischen
ĠProphe ten
an bindung
Ġb Ã¼nd
ĠK ro
Ġsp ont
ĠRecht fertigung
ĠFrei e
ĠForsch ungen
urs acher
amp le
ĠÂ Ħ
ĠLes e
ĠAG B
Ġwert voll
ĠMis stra
ĠSomm ers
ĠEinvern ehmen
Ġd unkel
an ti
ĠIn betrieb
ĠMal aria
ret ungen
kan al
ĠRede beitrag
ĠVersch lÃ¼ssel
Ġloc al
Ġvorange trieben
Et wa
ĠInteress es
lech tern
Ġunannehm bar
G R
G ar
H off
ĠK ret
ck ets
ĠO ran
ĠSp alte
Ġges unken
Ġwissen s
stra hl
part ments
Ġat mo
ĠGleich zeitig
ĠMy th
ĠAsy ls
ĠEinkaufs zentrum
Ġzuzu lassen
ĠungewÃ¶hn lich
ĠSchwar zen
ĠGesetzgeb ungs
R u
m Ã¼d
r iert
Ġb a
ĠC afe
och t
ĠBet Ã¤
az in
ĠBesch lÃ¼ssen
ĠCon ne
Ġauszu weiten
ĠSc ript
ĠZugriff e
Ġradik ale
ĠPlenars aal
v ier
Å ķ
em ma
ĠK rak
ĠF lie
Ġauf zustellen
ungs anlagen
hal tige
Ġab onn
ĠmÃ¶glich er
Ã¤ng liche
Ġ9 2
Ã¤uf ig
ĠNieder lassungen
ĠAnsatz es
Ã¶t ter
ĠBegl eiter
Ġass ozi
Ġgleichnam igen
G et
b Ã¶r
k ammer
o ire
te ll
Ġein geschlagen
ĠM uss
ol s
ĠU ran
Ġbef Ã¶rdert
ĠFl Ã¼sse
Ġho fft
ĠGrÃ¼n dungs
ĠberÃ¼hm testen
Ġbequem e
He utzutage
ĠDolmet scher
Ġp op
ri ll
Ġsch Ã¤r
Ġc ultur
ĠSe el
Ġbesch uld
ohn ten
ĠSÃ¼d korea
ĠGra ph
ĠÃ¤hn liches
rib ute
Ġtrans nation
ĠZuge hÃ¶rigkeit
Ġjetz ige
Spe zial
sb ruck
ĠProfession alitÃ¤t
ĠZeug nis
ĠHon ig
Bedauer licherweise
ĠLegisl atur
d Ã©
f ischerei
Er fahren
Ġte le
ĠEinzel betten
Ġamerik anischer
othe k
ĠHel den
ĠMerc edes
ĠSarko zy
ei de
ĠF R
Ġk unst
Ġe w
ĠO R
Ġneu sten
eid igung
bau te
ĠKl etter
ĠWettbewerb sverzerr
ĠAuÃŁen beziehungen
ĠTerror an
ĠFilm s
Ġserv ieren
ĠEinwander ungs
ba idsch
Ġentf alten
Met ho
ĠMater ie
ĠWeis heit
Ġn annte
Ġsch eitern
Ġc entral
ĠSte ck
hÃ¶ fen
ĠBas il
ĠBef est
Ġeingeb aut
Ġtrop ischen
Ġunl Ã¤ngst
ĠMeinungsverschieden heiten
K or
K opf
h ib
Ġun ivers
ĠS AT
em ann
Ġk na
ĠH itze
ern et
Ġab seh
lin ks
pro ben
gesch Ã¼tz
ac c
ĠUhr en
bezogen en
sitzen der
Ġbeige treten
pap ier
B ank
T here
b Ã¤umen
er z
ar kt
al isten
sp ital
ff ekte
Ġp assi
ĠO der
we de
ou ver
ĠEinkaufs mÃ¶glichkeiten
Ġerfor schen
uÃŁts ein
Ġein fluss
ĠT ausenden
ser baidsch
op ro
ĠC ost
Ġsch arf
ob by
Ver schiedene
ĠÂ ©
ĠSal v
nÃ¶ ten
rip te
untern ehmer
ĠÃĸkonom ie
brÃ¼ che
n Ã¤ck
o en
ge stÃ¼t
ge fÃ¼hrte
sch eine
ĠIn land
Ġab weichen
ĠMa ison
Ent sprechend
test s
ĠVorsitz es
ĠHaft ungs
ĠFA Q
9 00
g on
k ok
Ġd own
Ã¼ chte
Ġn irgend
ĠR eiter
Ġso uver
ff er
Ġp an
ĠAn leihen
aus gabe
ic on
fe ktionen
lau be
Ġbed room
Pro jekte
Ġunver antwort
Ġgro sser
OM E
ĠPublik ation
ĠWorks hop
Po int
Ġkonsul tiert
ĠH als
op oul
Ġha b
enn etz
Ġern euten
Ġ0 4
ĠÂ Ń
Ġaufzu geben
Ġreal istische
ĠErm ord
Bus iness
Ġbit tet
Ġterritori ale
ĠShang hai
H ol
o cken
sch Ã¶n
ĠB anner
ĠK lausel
ĠF lan
le ep
au gen
Ġbes prochen
iv a
ke y
ĠKl ienten
Ġhei sst
ĠEntwurf s
ĠOff ic
ĠMiÃŁ tra
Funktion en
ĠJob s
Ġkonsequen te
ĠDiversi fizierung
H ilfe
a tern
b ehr
r h
Ï ģ
Ġun wahrscheinlich
ĠF uerte
ĠH ed
ĠSp alten
Ġr ufe
ĠUnter schrift
ĠTr enn
ĠModell s
ĠHalb zeit
aller erst
ĠMeilen stein
schei be
ĠEtiket tierung
st rÃ¤gern
is ode
Ġaus nahm
ĠAn hebung
Ġvor legt
Ġc ap
ob yl
druck en
ĠHoch geschwindigkeit
ĠSek unde
Ġbedauer licherweise
Ġsitu ated
ĠkÃ¼rz ester
Ġeinzusch rÃ¤nken
f ungen
mm ern
ĠD rag
ĠAn gleichung
Ġre ad
Ã¤l tigt
ĠEx il
ĠSchw ung
Ġ0 5
Ġinnov ativ
ĠSpezial ist
Ġauseinander setzen
ĠInstitut s
Ġbenachteil igt
ĠVizeprÃ¤sident in
Ġanst ren
ĠErmitt lungen
ĠP uffer
Ġl ohnen
he ad
ad i
di ten
ĠMon op
Ġvertreten en
ĠPic ard
Ġbelg ische
Ġausschlie sslich
ĠVenezu ela
m ie
an wendung
ĠE asy
Ġf lÃ¼s
Ġh ow
Ġer g
bl og
bar go
Ġher e
tur m
ud a
Ġwirtschaft liches
part eien
Ġop tion
Ġlog isch
ĠMiet wagen
Eigen tlich
ĠBatter ie
M useum
Ġn et
ĠV il
ĠV otum
eh lt
Ġver zeichnet
ig ranten
ĠBe at
Ġho tels
ĠWe steuropa
ĠjÃ¼ng ster
Ġta uchen
ĠMassenvernichtungs waffen
ĠA er
Ġl it
ĠC lau
An dernfalls
Ġfol gten
ater ie
ĠDer egulierung
ip her
ĠVers agen
Ġerf Ã¤hrt
ĠProf is
ĠGu est
ĠCar l
Ġgesetz ten
laus eln
Ġgewisser maÃŁen
ĠSens or
k anischen
an isches
ĠS ession
ĠS iena
Ġt ausende
Ġent werfen
ul are
Ġunter teilt
Ġab stra
Ver handlungen
Ġabge legt
Ġ198 2
ĠCl assic
Ġfaszin ierende
Ġaust auschen
disk riminierung
Ġatemberauben de
Ġnachvoll zieh
ĠKandid at
Ġun kontroll
ĠP ho
et ch
Ġk la
ĠD SL
Ġan legen
ĠfÃ¼r chten
Ġp flanz
Ġaus bauen
ĠAn ordnung
Ġunter hÃ¤lt
In stitut
mar sch
Ġfr ont
Ġenthalten e
sbe stimmungen
Ġsub stanz
Ġdetaill iert
ĠDÃ¶r fern
ie wer
Ġin stabil
rei be
lie d
ma ster
Ġbet reten
sor gan
Ġkultur ell
ĠAllgem ein
ĠTro ck
hei zung
Ġumzu gehen
Ġeinher gehen
izz ard
GroÃŁ e
Ġreform ieren
Ġauszut auschen
ĠK ne
Ġge stÃ¼tzt
ab a
ĠAb zug
ĠSelbst mord
ĠFe uchtigkeit
Ġind igen
ĠUngleich gewichte
Ġbegeg net
ĠHob by
S im
Ġm ass
Ġm inder
ĠD Ã¼n
op ing
stell end
ĠEin halt
alt ar
ĠDe p
ĠGeb ot
met all
ĠUnivers um
Ġbeschlossen en
Ġfamil y
ĠFein de
Inter ess
ĠFÃ¼hrungs rolle
Ġjahrel ang
ĠHÃ¤ ft
ĠDemonst ranten
D P
I hnen
Ġv ill
ĠB Ã¤umen
at tra
ig ma
Ġbe fore
ĠC lear
age gen
wor ld
ost el
ĠSport ler
ĠKn ei
ĠArten vielfalt
ĠAK VIS
ĠVermittlungs verfahren
Ġplatz iert
Z entrum
us en
ĠB ag
Ġauf zufordern
Ġbet onte
sf eld
ĠverfÃ¼g bare
ĠTur b
skon vention
ĠErschein ungs
ĠVern etzung
Ġmusikal ischen
ĠInitiativ bericht
u alisierung
an al
sch u
as mus
us es
Ġzu wider
ĠR I
ĠL Ã¤den
ĠKomm and
Ã¶r tliche
ĠLand s
Ġunver stÃ¤nd
ĠNah ost
ĠUmweltschutz es
Ġkompliz ierter
ĠPrÃ¤sent ationen
ĠKompon isten
ĠPlast ik
ĠLuftra um
M ax
O ne
S ource
i h
u ay
Ġb rennen
Ġf ile
ĠR un
Ġge ho
ĠUn ruhen
eil t
ĠFra tt
Ġc ur
ende te
ĠÐ ĵ
Ġcon c
AS T
ĠUnterk Ã¼nften
instr umenten
reserv en
Ġlegiti men
ĠPropag anda
L IN
O ption
c ture
s burg
ĠM oh
ĠSch merzen
ob a
pro zen
ander s
fÃ¤ lligen
Ġmodern em
ĠPer u
ĠfranzÃ¶s ischer
ĠWinter sport
ĠMensch lichkeit
ĠVermÃ¶gen s
Nichts dest
ĠChic ago
m otoren
Ġa ct
gen annten
Ġvor igen
ern te
ot rotz
ĠGe flÃ¼gel
Ã¼l ern
Ġgeeig neter
freund licher
Ġangen ehmer
ĠSchaden sersatz
Ġselten en
fest ival
ĠMusli me
ĠThun fisch
ĠCub ase
L auf
Ġd os
st reifen
Ġf lieÃŁt
ber ufen
ĠR EACH
Ġg renzt
ĠSt ationen
ĠAn dr
Ġsol iden
Ġ197 5
demokra tischen
ĠMaler ei
ĠGrundprinzip ien
ĠTreibhausgas emissionen
c ont
k Ã¼che
r isch
r ant
ĠR um
re y
re st
ĠC Ã´te
imm el
Ġbet one
Ġlie st
Ġange legten
ĠQu ecksilber
ĠEnergie trÃ¤ger
ied s
ĠKritik er
ĠIndust ri
Ġwalk ing
ĠAusb reitung
B and
K ar
M aÃŁnahmen
w Ã¤nde
Å ¼
ĠE u
Ġge hoben
ĠVer wertung
ser gebnis
Ġst Ã¶r
ĠSch irm
ĠPro menade
ĠKommission sprÃ¤sidenten
ĠMo der
schein ungen
Ġheraus stellen
ĠSchlaf zimmern
orien tiert
ungsst unde
zwei g
ĠGewerk schaft
Ġradik al
ĠCy ber
b els
Ġs al
ĠG ig
ĠD rink
ungs weise
Ġab weich
eg ation
ĠMin en
gar age
gar ve
ĠBar ock
ip e
liegen de
verb Ã¤nde
ĠPra ger
ĠWohl stands
Ġmin i
Ġrie s
ĠAntrag s
ĠProvin zen
ĠSchausp iel
ĠExpl o
ĠReh abil
ĠGemÃ¤l de
ĠBe werbung
ĠBer lus
iz itÃ¤t
Ġhin auf
bes itzer
tur es
ĠProgramm ierung
ĠBesch reibungen
ÑĤ Ð¸
Ġschwerwie genden
lev ard
O ut
u ite
in gem
Ġv en
ra cle
Ġzu weilen
fÃ¼ hlen
ĠCh ian
fÃ¼r sorge
Ġ6 2
ĠVers Ã¶hnung
ipf els
ĠImm o
ĠPil oten
ĠKlei der
ĠÃĦng ste
ĠSauber keit
i kt
k al
in ische
ber ung
ĠAn bietern
ĠMa gen
Ġverb orgen
Er weiterung
hÃ¶r er
gew alt
rieben en
Ġerwar teten
ĠKomp atibilitÃ¤t
ĠprÃ¤ ven
ĠBud dh
Ġbill ige
ĠFla schen
Ġadministra tive
Frank reich
A dressen
C op
S O
t Ã¼r
z et
ĠM r
ĠF ÃľR
ĠEuro stat
ĠVers icherungen
ĠBlick winkel
ĠRechn ungen
Ġausser halb
Ġfak tisch
ĠKambod scha
Allgem eine
G eh
T NG
Ġb ran
ĠB lei
at al
ĠAus kÃ¼nfte
fe ste
hin ter
besser ung
ĠAd d
Ġmobil isieren
orien tierung
ĠRumÃ¤n iens
wart ung
ĠAnk lage
Ġobjek tive
verfolg barkeit
Ġnotwendiger weise
Imm obilien
) -
_ _
Ã ¬
et was
Ġk alten
Ġer lernen
ĠÃ¼ber s
ĠC ad
Ġent z
ĠAus sen
per ial
Ġschw Ã¤chen
rach ter
ĠAll erg
ĠerklÃ¤r ten
drÃ¼ck e
ĠSÃ¼d ost
ĠUnivers al
dienst es
schuld ung
ĠSzen ario
ĠDenk m
Ġdrama tische
Ġpersonenbezogen er
ĠTreibhaus g
Ġbal tischen
ĠCocktail s
ĠHaushaltsk ontroll
gÃ¼ tern
ĠG am
Ġim pos
ĠServ ern
ĠGeschÃ¤fts jahr
Ġinteress ierten
ĠProdukt es
ĠComputer s
ĠIr lands
ĠBusiness center
ĠEntschlieÃŁungsantrag s
ĠGut achten
ĠgerÃ¤um ig
kom fort
ĠBlock ade
Ġdruck en
vertrÃ¤glich keit
E uropÃ¤ische
Ġh elle
ĠK Ã¼h
ĠK etten
el ing
ah ne
ĠJ ust
Ġre produ
Ġsp ek
icher ten
ĠMar b
Ġgest altete
zeug nisse
ĠBuch ungen
Ġaufzu heben
ĠauslÃ¤nd ischer
ĠInn sbruck
ĠCat al
Off ice
f ix
Ġw ahl
Ġv ideo
Ã¼ber weisung
ĠSt Ã¼tz
Ġdar legen
Ġger ingem
ĠHandel sk
ĠLa eken
kur beln
Ġmensch licher
ĠCharakter s
Ġdur fte
ĠLanz arote
T al
g ig
Ġ Ñ
Ġz ahll
ĠK inos
ĠW ats
Ġl agen
Ġst im
ĠBer ichtigungs
aten den
Ġde cor
Ġeinge fÃ¼gt
ĠGegen seitigkeit
ĠMo tive
Dar an
ĠÃ© t
Ã¤nglich keit
Ġaus fÃ¼llen
ĠzurÃ¼ck ziehen
ĠParlaments wahlen
ack t
ĠmuÃŁ ten
ĠWie sen
ĠSalz burger
Ġroman tische
Ġerstre cken
ĠvergrÃ¶ÃŁ ert
Comp uter
Ġpraktiz iert
ĠRÃ¼cks eite
Ġpharma zeu
k eller
r n
s ow
ĠS her
Ġein greifen
Ġz ielen
ĠM ID
ah nt
ĠN ase
au bt
ĠEr b
ĠEin setzung
lei det
kon sum
ĠUmwelt verschmutzung
Ġersch weren
ĠAuÃŁen pool
svor sorge
ĠVerpack ungen
Ġstil vollen
Ġzus amment
ĠLam an
Ġunf air
grÃ¶ ÃŁen
Ġple as
L etzt
Ġf eiert
Ġk rie
ĠC lass
Ġben ennen
Ob gleich
ried igung
ĠWaren zeichen
Ġkostenfrei e
ĠMerk mal
ĠAff ili
k ennung
ĠW ales
Ġan im
eh nte
ĠAus setzung
ĠAr k
ges ucht
ĠUnter bringung
Sch utz
Ġfunktion ierende
oss a
Ġgener elle
spek tive
Ġacc ommod
Ġvorrang ige
ĠMalay sia
ĠMw St
S til
p riv
u sten
Ġw eichen
Ġk ind
ĠH Ã¼r
ver handlungen
all es
Ġar m
ĠVerein barkeit
unter schiede
Ġreserv iert
Ġgewalt tÃ¤
ĠFormul ierungen
ĠProgn osen
ĠBeobachtungs stelle
Ġspac ious
S onder
f ind
p aten
u tiv
st h
Ġb ild
ĠW Ã¼ste
sp ace
sp raktiken
ĠRe duktion
ag na
tisch em
[...]
