#version: 0.2
Ġ t
Ġ a
h e
i n
r e
Ġt he
o n
e r
Ġ o
a t
e n
Ġ s
Ġ w
i s
Ġ c
i t
n d
o r
e s
Ġ p
Ġ f
Ġo f
a n
Ġ b
i on
Ġ in
a l
o u
Ġt o
e d
Ġa nd
a r
in g
Ġ m
i c
r o
Ġ d
Ġt h
en t
l e
Ġ h
s t
o m
Ġ re
Ġ n
i l
a s
v e
c t
Ġ is
Ġ e
Ġb e
l y
Ġ l
at ion
o t
Ġf or
u r
Ġ on
Ġth at
u t
e t
Ġ g
i d
c e
i m
s e
m ent
o l
r a
Ġ C
Ġp ro
Ġ u
Ġ y
it h
p e
v er
Ġw e
i g
Ġc on
T he
Ġw ith
c h
Ġa l
o w
Ġw h
u l
Ġa re
Ġs t
Ġ it
Ġ S
Ġ E
or t
a y
Ġa s
Ġd e
i r
Ġy ou
Ġ M
Ġ I
Ġ P
Ġh a
re s
l d
il l
Ġa n
er s
Ġc om
i es
at e
a d
a m
Ġs u
Ġth is
n t
b le
Ġ A
it y
g e
i f
es s
he r
e l
Ġe x
p p
es t
q u
o s
Ġo r
Ġn ot
Ġ v
e m
Ġn e
i ve
o p
k e
is t
Ġb y
an t
Ġha ve
ic h
o re
Ġa t
ar t
a in
u s
u st
u ro
ou ld
ro m
o c
ig h
r i
o d
Ġin t
Ġw ill
e ct
Ġwh ich
Ġ r
Ġs h
â Ģ
a c
ĠE uro
i al
Ġ en
Ġf rom
ĠEuro pe
Ġ B
u m
i a
Ġs e
u n
u re
Ġ 1
Ġc an
ion s
Ġ he
i v
Ġh as
p ort
Ġal l
a nd
Ġ G
Ġ im
om m
ou r
ar d
Ġ (
i e
igh t
Ġ T
Ġ le
s ion
0 0
en d
Ġ 2
er n
Ġcom p
Ġw or
Ġ R
Ġo ur
al l
a st
t h
Ġre s
Ġc h
b er
Ġw as
ĠC omm
ĠEurope an
u d
s o
f f
Ġ F
t her
Ġcon t
r ou
ou nt
Ġ H
Ġa d
Ġ D
ic al
e re
a k
Ġ U
l l
at ed
c c
p t
Ġu s
ou s
o st
a ble
ver y
Ġa g
Ġal so
d u
Ġ L
a b
Ġp art
ou t
i re
Ġp l
a ge
an s
ation s
T h
Ġm e
Ġ -
a g
om e
Ġd o
l o
Ġyou r
t er
is sion
ul t
a re
' s
W e
id e
p er
ic e
Ġa b
re e
ve l
a ct
or m
a ke
Ġw he
an ce
in e
Ġb ut
Ġthe re
i p
ĠS t
Ġ qu
Ġg o
g h
Ġ j
ar y
Ġit s
ment s
Ġ N
ĠComm ission
u e
Ġre g
o g
c l
Ġw ould
Ġu n
id ent
c on
Ġm ore
on g
at es
it ion
Ġthe ir
er v
l ic
I n
i z
r y
Ġ k
Ġbe en
Ġs o
in d
Ġm an
Ġd is
ct ion
Ġp ol
im e
r u
e ar
re at
Ġa m
f orm
. .
ar k
Ġon e
Ġl i
pp ort
al ly
a il
Ġa pp
Ġ W
Ġsh ould
Ġo ther
Ġc ount
Ġa cc
is h
Ġwor k
ig n
Ġ ro
s i
âĢ Ļ
Ġne w
I t
Ġwh o
Ġt ra
Ġcom m
Ġof f
ĠU n
as e
Ġ âĢ
u b
er m
Ġu p
it e
a ce
Th is
o k
a p
a ch
a u
Ġo ut
Ġs pe
en ce
Ġt r
Ġm ust
res s
c ial
Ġp re
t e
or d
ĠP res
ation al
on e
ac k
n c
it ies
Ġp os
en s
Ġthe y
Ġc o
ot el
Ġne ed
in t
Ġ very
Ġp e
Ġli ke
Ġt e
ar l
Ġim p
ĠM r
Ġin d
am e
Ġe v
Ġpro du
Ġy ear
Ġon ly
Ġbe c
j ect
Ġcon s
Ġ O
o se
Ġt ime
Ġa r
Ġab out
Ġc l
em ber
ĠPres ident
Ġth an
Ġu nd
Ġan y
i ous
Ġ V
Ġp er
e p
Ġ K
a v
Ġ J
Ġpro v
is e
Ġr ight
vel op
c ess
arl ia
Ġbe t
Ġthe se
Ġp o
Ġn o
Ġ2 00
f ore
arlia ment
Ġs p
ra m
Ġre c
Ġre l
Ġim port
as s
ut ion
Ġs y
p os
Ġre port
il ity
Ġp r
Ġ "
or s
k s
en c
op le
ĠUn ion
ir st
Ġde velop
Ġ if
i an
Ġ ra
n ow
w n
Ġa ct
Ġthe m
e w
r ies
u res
f ere
Ġtr ans
er t
Ġs erv
st em
au se
ing s
w e
Ġo ver
Ġin st
cl ud
ul ar
i le
Ġe m
g et
an g
Ġint o
Ġpe ople
ay s
if ic
pe ct
p l
Ġsu b
Ġe ff
ĠP arliament
Ġwe ll
ie w
Ġm y
f t
Ġd es
ĠE U
ou nc
u al
Ġwe re
Ġs ome
Ġsu pport
Ġwh at
Ġu se
x t
c re
f ul
Ġsu ch
ĠSt ates
l ow
Ġs a
Ġ The
ad e
r ic
con om
c ed
Ġsy stem
Ġo b
Ġ1 9
Ġd if
le ct
Ġad d
Ġ 3
ic es
res ent
u nd
i ent
Ġund er
Ġcount ries
Ġm ark
Ġf irst
Ġwhe n
d er
o ok
Ġin form
o v
ĠM ember
Ġ .
ounc il
Ġf in
Ġh is
Ġm ost
Ġin v
il d
r it
at ing
Ġ ,
ire ct
at er
Ġpart ic
Ġl oc
ĠC ouncil
at ive
rou gh
Ġpol ic
or y
si ble
Ġn ow
Ġag ain
se l
ou nd
Ġimport ant
an ge
he n
e ver
Ġex t
Ġj ust
Ġm ake
we en
Ġc ent
Ġt w
Ġk now
Ġpro g
Ġde c
Ġg u
Ġ ent
ĠC h
re n
Ġman y
Ġin clud
Ġh otel
Ġbet ween
he d
Ġh ow
in k
Ġat t
Ġe conom
c es
Ġpro pos
re d
rou p
ce pt
ou gh
Ġre qu
o ve
Â ł
Ġint ern
ĠâĢ ĵ
Ġbec ause
f ter
Ġt ake
i ed
Ġde m
Ġmark et
Ġs it
p h
Ġs c
Ġwor ld
p on
an y
ur al
ub lic
Ġas s
am p
t ed
Ġfor m
Ġm od
ent ion
ard s
Ġs oc
Ġre m
Ġwhe re
Ġl a
Ġc ol
Ġb as
e g
al ity
Ġcon c
Ġro om
Ġle g
Ġa c
Ġinform ation
Ġtw o
o b
el l
ot h
Ġh igh
Ġg reat
Ġc le
ur ing
Ġyear s
Ġo p
Ġpo int
Ġm ade
ch n
al s
.. .
Ġe very
rou nd
Ġgo od
ri b
Ġa v
ol og
Ġev en
ra ct
Ġis s
Ġth rough
en er
Ġha d
d ay
Ġth ose
Ġw ay
a x
ow n
Ġprodu ct
iv es
l es
Ġs ol
Ġd irect
Ġse e
Ġw ant
ar m
u es
Ġs et
Ġp ers
ble m
Ġb u
g y
Ġpol it
ver n
Ġag ree
) .
Ġpolic y
Ġt ak
Ġf e
it ed
Ġpro blem
Ġdis c
ie ve
Ġm ay
ag es
is m
ar ge
ro w
i b
Ġo wn
ver s
Ġa ut
Ġex p
Ġbe ing
I f
ri v
Ġm in
Ġf act
d e
g an
Ġpartic ular
un ity
Ġn um
ur n
Ġapp ro
u ch
Ġv iew
Ġpro t
c k
Ġl ong
Ġst r
a ir
ect ion
Ġbe l
l and
l p
Ġpro cess
Ġ ke
Ġ 5
Ġv ot
o od
re ad
Y ou
Ġres pon
Ġprog ram
Ġor der
on s
Ġdif fere
Ġc ur
Ġqu est
is ion
t ing
in es
Ġ 4
Ġare a
m e
in ce
The re
Ġm ain
Ġc re
Ġc our
Ġf ind
Ġre p
Ġhe re
Ġc ar
Ġre st
Ġb us
or k
Ġm on
l ed
um an
Ġte chn
le ment
Ġs m
O n
Ġsit u
Ġf ul
Ġa fter
Ġ '
i et
Ġde f
Ġpolit ical
ow er
M r
Ġpl ace
Ġre f
Ġconc ern
Ġpos sible
Ġin cre
ru ct
Ġp ublic
Ġs ame
ou se
enc y
n ing
ere st
Ġhe lp
Ġde b
in ess
Ġprov id
r at
ic k
v ed
b ers
Ġen d
Ġcon f
re nt
at h
Ġex per
Ġs ay
Ġcle ar
Ġp h
Ġcont in
ent s
Ġacc ess
Ġc ould
ir on
Ġs im
Ġdo es
Ġs er
il y
A s
Ġdevelop ment
Ġcomp le
t en
it te
Ġeff ect
o y
Ġthe n
ere d
is ed
Ġeconom ic
ert ain
Ġint erest
ol d
Ġright s
he s
Ġwith in
Ġres ult
Ġa w
t s
) ,
i o
Ġcount ry
ar ch
Ġagain st
Ġc all
n er
Ġp resent
Ġav ail
Ġthere fore
Ġa p
Ġb oth
Ġus ed
n ot
Ġst and
r on
con d
Ġm uch
lo y
ut e
e c
Ġle vel
ĠA m
Ġv al
Ġg et
it ions
Ġd ist
at a
h ip
r an
c om
ut ions
er ation
v iron
Ġm et
Ġe qu
p loy
ust om
Ġg ener
ol low
Ġ est
Ġd et
Ġf und
Ġsoc ial
Ġpl ay
ic t
ical ly
l i
âĢ Ŀ
itte e
ĠC on
Ġ2 0
Ġh uman
Ġdiffere nt
Ġm at
Ġg roup
a j
Ġv is
Ġfin an
Ġwith out
Ġs ign
Ġme as
it s
Ġle ad
Ġs ur
viron ment
Ġnum ber
s s
F or
Ġc r
Ġpers on
Ġf am
Ġth ink
e f
Ġcons id
Ġintern ational
Ġf ree
Ġl ast
Ġv ar
Ġall ow
ĠI n
us s
iv en
Ġserv ices
Ġen s
r ation
Ġspe c
Ġst ill
em bers
ist s
t y
Ġre al
Ġor gan
Ġt erm
ĠG erm
Ġrequ ire
Ġgo vern
Ġavail able
H ow
si b
read y
ic s
W h
ĠâĢ ľ
Ġse c
ur ther
ut ure
Ġad v
ak ing
n ce
Ġcon st
al k
Ġb ack
h ing
Ġspe cial
ul ation
Ġcomp et
Ġcur rent
sel f
Ġoff er
Ġf ollow
Ġbus iness
Ġal ready
Ġha nd
Ġo per
Ġc ustom
Ġbe fore
Ġop en
Ġbel ieve
ion al
ĠI nt
Ġcon d
Ġf uture
ant s
n g
Ġpro ject
Ġl ook
Ġst art
Ġsm all
Ã ©
al th
Ġpre v
r al
Ġto day
Ġn ational
i ence
Ġcour se
u g
l ess
o pe
h or
n ess
Ġproduct s
om et
Ġa ble
Ġc or
as ed
Ġd own
Ġa ir
Ġen vironment
Ġst ate
it al
v ing
it iz
Ġint er
ĠP ro
Ġm ed
p r
Ġto o
l ish
Ġpro m
Ġind ust
u c
Ġc ertain
v en
Ġcan not
Ġ ide
ĠH otel
Ġin s
Ġd ata
Ġdes ign
ur ity
Ġc ase
v es
amp le
Ġserv ice
ate ly
Ġreg ard
is hed
an k
ro l
t al
c ome
Ġquest ion
Ġp ut
aj or
n e
Th at
Ġc ap
Ġl if
Ġc he
Ġs ince
Ġoff ers
ud get
Ġimp ro
Ġla w
Ġf ac
Ġme et
le ase
Ġp ur
f ort
ar g
Ġb r
u ally
Ġsa id
i x
Ġbe h
Ġfinan cial
Ġre as
Ġb est
in c
Ġc itiz
oc k
Ġin f
Ġd uring
ĠD e
Ġar t
ĠT h
ir d
Ġ 6
Ġa ch
cc ess
ar s
Ġpropos al
at her
Ġiss ue
Ġn at
Ġme ans
Ġres pect
Ġb o
ain s
i er
Ġex ample
Ġd ay
Ġc ity
Ġd ra
Ġas k
in ation
Ġt er
Ġapp lic
in ing
Ġsa f
Ġimp lement
Ġl arge
Ġdeb ate
Ġm ajor
Ġqu ality
Ġ her
Ġsitu ation
qu e
ĠA r
t le
Ġwe b
Ġne cess
ĠCommission er
Ġc ost
is ation
in ed
in a
Ġl ist
is s
Ġco op
if ied
iv id
y s
Ġam end
Ġsh ow
in ist
Ġs ect
Ġcomm on
Ġpro f
Ġre v
Ġf ound
Ġe lect
Ġad op
Ġch ild
w ays
Ġf ew
Ġres ol
b al
ent ial
iz ed
Ġen er
Ġe ach
Ġ ed
ab ility
Ġob ject
B ut
Ġcitiz ens
Ġre du
ĠComm ittee
m en
u p
Ġinclud ing
re ed
Ġe as
m it
im es
Ġ19 9
Ġact iv
Ġf un
Ġ es
l ine
Ġh ist
ill ion
Ġinst it
il ities
w are
al f
Ġmeas ures
Ġth ree
Ġinv est
Ġare as
Ġre t
Ġrep resent
How ever
Ġroom s
Ġg ive
el s
Ġb l
Ġdem oc
Ġens ure
Ġc ult
ot her
Ġf l
Ġne xt
an n
Ġsu ccess
ie ld
Ġp ower
Ġre ad
a ut
Ġaut hor
olog y
Ġf urther
Ġre ce
w ard
Ġb udget
are d
Ġener gy
Ġtak en
om en
Ġne g
Ġprov ide
Ġagree ment
Ġacc ount
Ġem ploy
Ġde p
ĠS e
Ġwe l
pt ion
ition al
ent ly
Ġf ore
i um
Ġbu ild
Ġtra d
it ive
Ġse cond
Ġt y
Ġf ar
Ġest ab
Ġg row
O ur
Ġ [
ro du
Ġst ay
W ith
Ġsu pp
o int
st and
Ġ 7
lo se
Ġp ay
e ur
is ing
a z
1 0
00 0
j oy
he re
ĠS p
inc ip
Ġ1 0
ĠInt ern
i ble
Ġsh all
cl us
Ġac cept
Ġp ass
Ġo pport
Ġnecess ary
Ġproblem s
Ġcom e
Ġcomp any
i k
as es
is l
i vers
Ġpos ition
iv ing
ro ss
ul es
Ġh ope
Ġs omet
est s
ĠU S
Ġke y
a ur
Ġch ange
Ġpr incip
Ġ 8
Ġg iven
Ġsec urity
Ġdif f
Ġp ract
ut es
e e
pe cial
Ġst ud
Ġwh y
Ġhow ever
Ġhe alth
Ġcoop eration
ra ph
lo bal
Ġinv ol
Ġp riv
en g
Ġp res
le g
Ġwh ile
Ġsim p
Ġin it
Ġd id
un ic
on d
Ġprot ection
ri end
ce ll
Ġim m
Ġf il
Ġa ff
sib ility
iet y
Ġb re
Ġcomple te
Ġcont rol
Ġal ways
Ġneed s
er ic
Ġlif e
a ve
m b
Ġu nt
c y
Ġt our
Ġvot e
Ġc lose
Ġleg isl
Ġind ivid
Ġ Z
iz e
Ġn ame
Ġp op
Ġcom b
Ġde al
age ment
Ġstr ate
Ġloc ated
in al
Ġha pp
in s
Ġa ction
t he
Ġ We
e k
Ġsh ort
fere nce
Ġbet ter
A t
Ġs k
Ġde l
ĠG roup
Ġful l
Ġo ld
Ġb en
Ġ ver
t ain
ur g
T o
Ġre se
Ġus ing
w ards
ĠUn ited
c ing
er ing
ur y
ir m
Ġcons um
Ġf av
Ġch o
Ġcon n
ic ult
Ġvis it
Ġbas ed
un g
Ġl ess
Ġint eg
n ers
Ġ 9
A ll
et s
Ġp ar
Ġtrans port
Ġwork ing
if y
ot e
Ġl it
Ġ Y
Ġleg al
Ġterm s
our ces
Ġp ri
p ar
Ġa round
Ġprodu ction
t o
o ver
pport eur
Ġwor d
p or
Ġwhe ther
Ġen joy
Ġbec ome
ar ant
is es
Ġsub ject
Ġparticular ly
Ġc rit
i od
Ġe l
ĠA l
get her
Ġto gether
al e
Ġch ang
ĠComm unity
l ing
Ġdiff icult
a ff
Ġs ing
ou ra
Ġn et
Ġan other
and s
Ġh im
Ġindivid ual
Ġf ield
ĠH ouse
Ġc are
Ġtra de
g g
an ies
ight s
Ġchild ren
Ġcont rib
Ġwho le
Ġpro per
Ġiss ues
Ġc a
Ġg lobal
ort h
Ġmod ern
pecial ly
ol id
ĠAm eric
Ġs he
i ation
Ġspec ific
Ġcond itions
en se
ord ing
Ġpl an
Ġl im
o ol
Ġbe g
ĠI s
Ġreas on
Ã ¼
Ġn on
ak es
oc u
Ġra pporteur
ft ware
Âł Âł
Ġgu arant
Ġro le
Ġloc al
Ġw ater
Ġsystem s
e ed
Ġte xt
Ġvar ious
Ġadd ress
Ġcent re
ment al
Wh at
sel ves
Ġcomm it
Ġcomp anies
W hen
Ġex ist
ang u
Ġindust ry
Ġw omen
Ġap pe
Ġst ep
Ġsect or
Ġbas is
ive ly
Ġa im
ĠMr s
Ġexper ience
Ġconsid er
Ġth ird
u se
e ad
u x
Ġt ax
Ġw rit
Ġben ef
The y
Ġmat ter
Ġo cc
reat y
o f
f act
Ġr un
Ġb ook
Ġ ...
Ġeff ort
Ġne ar
Ġm embers
Ġmon th
Ġg ent
Ġd one
im ate
Ġ1 5
Ġsu m
Ġes pecially
Ġpro ced
n ov
is ions
Ġdisc uss
ater ial
Ġor ig
Ġrese arch
Ġm ove
os ed
Ġp ack
th ing
le v
il it
Ġr is
Ġneg ot
a h
ro om
Ġre ally
Ġper iod
Ġf ram
Ġbe aut
enc es
Ġgent le
Ġth ough
Ġreg ion
Ġcre ate
Ġo pt
an ces
The se
Ġw ish
Ġpri or
Ġimpro ve
Ġd ocu
et y
one y
Ġb ro
Ġse ver
end ed
Ġfe at
our s
Ġf riend
i que
Ġstr ong
Ġper form
Ġp at
ic ient
Ġgovern ment
Ġp ress
w ork
Ġt urn
iz ation
c o
Ġdec ision
Ġam ong
ad ies
e xt
end ing
Ġit self
Ġf ood
og n
t ic
ĠC ent
Ġsomet hing
Ġsever al
le ction
Ġj ob
ar n
ect ed
b y
at ic
Ġst ruct
as ing
Ġcom fort
Ġthan k
od y
Ġprogram me
Ġp le
Ġsing le
Ġs ite
Ġan n
Ġto p
Ġresol ution
Ġgener al
Ġ1 2
Ġcontin ue
Ġb ed
Ġperson al
Ġgentle men
Ġm aterial
s ite
Ġm illion
Ġex cell
Ġ z
or ies
p ri
Ġrest aur
Ġl angu
Ġbre ak
Ġm aking
Ġ1 8
om p
Ġp age
is is
Ġint rodu
it her
s ide
ra nd
Ġl ab
ĠS w
ou th
Ġser ious
Ġfollow ing
ab ly
Ġop in
ĠGerm an
Ġm ult
Ġen g
Ġle ast
Ġle t
Ġrel ations
w ay
Ġd ou
r ate
Ġex pl
ific ation
Ġgo ing
Ġcont act
Ġpe ace
ew ork
Ġof ten
Ġdirect ive
Ġdet ail
r or
ric ult
as h
Ġr ules
er y
Ġto wn
Ġk ind
ri ed
A l
Ġman agement
Ġad m
Ġh ome
Ġinit i
Ġunder stand
er g
Ġpartic ip
f er
A nd
Ġnegot i
Ġfor ward
Ġcr isis
Ġto wards
Ġm us
Ġm ot
Ġre form
Ġaw ay
Ġfam ily
th ough
Ġprog ress
Ġexp ress
Ġon ce
pp ed
Ġh ard
] ]
Ġfe el
Ġe t
Ġrec ogn
ic ial
ad am
Ġth ings
Ġwel come
Ġm ention
ic i
Ġr ange
l ished
ric t
Ġ ess
Ġinstit utions
ĠGerm any
Ġcomm unic
Ġen c
ĠG o
Ġin c
Ġso ftware
Ġm oney
e x
' t
Ġap art
air s
f or
i ol
Ġrev iew
Ġunt il
ĠA g
Ġa id
Ġcustom ers
n a
ĠT reaty
Ġex pect
Ġ &
Ġexcell ent
Ġincre ase
Ġpr ice
Ġfav our
Ġd ays
ap s
Ġb al
Ġappro ach
re me
Ġw ar
se qu
Ġlit tle
Ġl ine
Ġbeg in
Ġbr ing
id ency
Ġloc ation
m ost
Ġopport unity
Ġ ve
at ives
ist ic
l in
at or
Ġach ieve
c he
Ġp ost
Ġst aff
Ġactiv ities
Ġr ather
Ġke ep
Ġprof ess
Ġs w
ĠR e
lo ad
if ul
id es
Ġinst all
Ġo pp
Ġb ar
ĠT ur
iv ed
ĠL e
Ġch ar
Ġd r
Ġfun ction
Ġbeh alf
Ġres ources
reed om
ĠP ol
Ġpart ners
it or
Ġt ry
2 0
Ġpriv ate
2 00
ĠA f
Ġ Q
Ġprovid ed
Ġme an
H e
Ġsu ff
Ġt reat
Ġqu ite
Ġse em
Ġgrow th
Ġm ight
ra cy
Ġful ly
Ġl ight
ĠI tal
E R
z e
m ber
ĠM on
f ast
oc us
Ġrequ est
Ġl adies
Ġt re
p are
Ġinclud e
le x
Ġsign ific
Ġde v
S o
ac es
Ġestab lish
Ġpropos als
Ġf our
Ġy et
os p
b e
ĠP l
or ld
Ġamend ments
Ġb ig
Ġha ving
ĠSt ate
Ġw alk
Ġtechn ology
ĠM embers
ĠB ar
m an
Ġh ig
s p
rat ic
ren g
Ġp ort
Ġst at
Ġfram ework
Ġs l
f ect
u le
Ġ[ [
ron t
t ers
Ã ¶
Ġrem ain
Ġp ast
Ġal ong
Ġsaf ety
Ġsol ution
ĠM ar
ĠI t
Ġed uc
id ence
Ġev ent
s w
Ġph ot
Ġinst ru
Ġab ove
Ġle ft
Ġadop ted
ful ly
Ġcl ass
Ġcost s
Ġspe ak
ra d
u ge
Ġval ue
Ġhe art
Ġt imes
Ġreg ul
Ġtak ing
Ġadd ition
S t
Ġother s
am es
Ġess ential
Ġab s
Ġst reng
Ġ200 9
or n
Ġrec omm
Ġm en
Ġopin ion
r ated
st it
Ġf ail
Ġm akes
Ġv iol
Ġeconom y
ep end
Ġent ire
o ot
Ġc reat
Ġext reme
Ġlegisl ation
Ġag ricult
Ġhist or
it ing
Ġchar act
Ġwe ek
ĠI nd
A n
Ġt est
Ġse a
Ġbeaut iful
ĠF r
Ġcall ed
Ġcont ent
iv il
Ġch all
il t
Ã ¡
it es
Ġd est
im um
Ġto ol
h od
Ġapplic ation
Ġf ocus
Ġg r
Ġresult s
Ġf reedom
en sion
Ġhe ad
Ġcont ext
Ġpoint s
Ġproject s
Ġne ver
Ġg l
Ġret urn
Ġsu re
Ġconcern ed
re t
Ġatt ention
ar ly
A T
Ġrespon sibility
Ġprovid es
Ġweb site
Ġeas y
Ġmin utes
Ġpolic ies
a mental
ĠH e
pp ing
ĠA n
Ġd ue
Ġ 0
Ġf lo
Ġsimp ly
Ġappro pri
led ge
m es
Ġbuild ing
Ġimport ance
od e
st ain
ĠP al
ir c
m er
Ġquest ions
Ġde li
Ġcon v
Ġgroup s
Ġte am
Ġprev ent
is c
u fact
Ġp ark
Ġyou ng
lic k
ed i
Ġ ident
i or
b on
Ġsoc iety
Ġeffect ive
Ġ er
Ġpre c
a pt
Ġaut om
Ġl ot
Ġknow n
Ġty p
ce ed
Ġenvironment al
Ġf arm
Ġgreat er
w ord
Ġstrate gy
nc y
ow s
Ġt ar
ri al
o om
Ġin nov
ch ool
Ġent er
Ġw ide
Ġcontin u
s h
Ġprincip le
Ġh olid
Ġp erm
ĠS h
Ġan al
Ġb ath
Ġt em
Ġstand ards
Ġh ost
ure d
Ġach ie
l ig
id d
r ist
Ġam ount
Ġper fect
Ġnat ural
Ġt alk
Ġadm inist
Ġver sion
Ġword s
ĠG u
Ġro ad
Ġ /
Ġincre asing
Ġ3 0
ĠE x
Ġmet hod
Ġc red
A fter
en e
Ġrequire d
Ġm ount
ĠE ng
Ġan sw
Ġman ufact
ĠA d
olog ical
Ġche ck
Ġauthor ities
Ġclear ly
e es
Ġsignific ant
at ors
ast er
Ġtra ining
ru ction
id ed
ĠW orld
a im
Ġmeet ing
r ing
Ġm ach
Ġp ot
Ġapp l
Ġe uro
og raph
at s
un e
un ities
Ġg ra
Ġris k
Ġw on
Ġprot ect
Ġv ia
ivers ity
p ose
Ġqu ick
a pe
Ġre ach
Ġnet work
Ġrec ent
ar ity
Ġtechn ical
re en
Ġacc ording
s c
Ġdem and
Ġass ist
Ġas pect
Ġh ouse
Ġs al
h ib
Ġaw are
t ern
Ġsh are
Ġsu gg
Ġd i
ate g
ĠCh ina
Ġl ink
Ġb an
re ct
Ġcent ral
Ġintern al
Ġf ight
ient s
Ã ¤
Ġsu per
Ġcap ital
Ġmonth s
Ġp ages
Ġp a
Ġrespon sible
Ġpropos ed
ĠEU R
Ġlong er
ens ive
r im
Ġdirect ly
l er
Ġ i
Ġemploy ment
Ġw in
Ġdist rib
Ġpos itive
ĠTh is
Ġl arg
os s
Ġsol utions
Ġ |
b our
port s
Ġnat ure
ĠR om
Ġd ial
Ġinterest s
Ġinf l
Ġdes c
Ġm om
Ġreg ist
ĠIntern et
Ġind epend
Ġrequire ments
Ġcurrent ly
ĠN ew
ĠS c
Ġus er
t hen
a f
ĠA ust
Ġar ch
E S
Ġf ish
Ġcult ural
Ġs ide
5 0
Ġhist ory
Ġreg ions
g o
Ġl og
ĠM ed
Ġinvol ved
ro p
Ġcharact er
Ġc ivil
Ġen ough
Ġthem selves
ar ian
Ġd on
Ġev ents
Ġapp ly
an ced
Ġstand ard
Ġprom ot
Ġfund amental
Ġpart ies
Ġgu ests
Ġl at
Ġvot ed
uss ia
Ġrel ax
ore d
Ġto tal
Ġsu stain
ĠC l
Ġcompet ition
Ġhapp en
Ġd am
Ġimplement ation
Ġref er
I N
it er
Ġl o
Ġdemoc racy
er ous
Ġguarant ee
Ġfor ce
Ġv ill
ac hed
Ġeffort s
Ġ1 1
Ġst y
Ġb ord
Ġfore ign
Ġup on
Ġon line
Ġneed ed
og ue
Ġm ov
Ġ X
Ġit em
ke y
ag ed
Ġn ight
Ġcent ury
Ġag o
Ġchang es
ac y
ĠW est
Ġst re
Ġp ub
t on
Ġextreme ly
a w
On e
Ġd om
ĠM inist
Ġca us
ast e
b o
Ġfac ilities
Ġl ow
ren ch
Ġse lect
Ġc irc
i en
Ġl ive
op s
Ġreg ulation
Ġdevelop ed
ĠE ast
Ġmus ic
Ġcont ain
a i
Ġg en
Ġv ol
Ġcont ract
Ġc ases
Ġc amp
Ġnegoti ations
Ġp lease
Ġcomp ut
Ġconst it
Ġso on
Ġm ob
e an
in ally
Ġview s
Ġdocu ment
ire d
Ġan im
m ing
Ġ1 4
Ġlangu age
ĠAf ric
Ġh old
at ory
Ġde cl
Ġcom es
Ġh arm
ib ility
Ġprev ious
ĠA nd
on y
Ġtar get
ri p
Ġun ique
omm od
Ġe ither
Ġsub mit
Ġmarket s
Ġdevelop ing
C h
res sion
ĠP art
du ct
Ġbro ad
Ġmain tain
Ġm ess
Ġsub st
ĠPres idency
ĠN o
Ġet c
Ġdra w
Ġ200 8
Ġt as
ac ed
Ġind ic
ĠA s
A N
Ġcre ated
g ed
ĠM an
Ġst ates
ution al
t i
Ġfin al
Ġ20 10
Ġd er
Ġres erv
ĠO r
Ġbreak fast
i res
Ġsugg est
Ġeduc ation
em pt
Ġsur round
u nt
am b
Ġl ater
Ġrecomm end
Ġ1 6
Ġs ound
ĠA ll
ct ions
Ġsitu ated
Ġcon g
Ġdemoc ratic
3 0
ĠGo vern
Ġadd itional
Ġpr ices
is her
Ġw ind
le t
Ġatt ract
Ġcol le
Ġimm edi
Ġtr ue
Ġg round
Ġevery thing
Ġth us
O N
h aps
Ġbe ach
el f
Ġreg ional
le ar
ĠT e
Ġcl imate
Ġact ually
at is
Ġm ilit
Ġem ph
Ġal most
Ġc ut
Ġse en
1 9
Ġj o
ul ate
Ġter ror
Ġide a
Ġrece ive
in o
Ġstreng then
Ġpo ol
on st
Ġl iving
Ġenc oura
Ġex am
ern al
o id
Ġinclud ed
Ġm ar
ab led
Ġfund s
ĠR ussia
Ġen l
Ġtrans pare
Ġappropri ate
Ġp ict
Ġ5 0
Ġknow ledge
cept ion
Ġf air
Ġcle an
Ġproced ure
Ġhe ld
our ce
ĠR es
Ġmom ent
D E
Ġl and
ĠP ort
ch ange
Ġacc ommod
ĠF rench
Ġoff icial
Ġob lig
ĠA ir
Ġc at
er ia
ĠR ep
ĠB er
S e
Ġ1 7
is on
Ġty pe
i pped
Ġass oc
ĠS ch
m s
Ġmajor ity
Ġst ation
ĠS erv
Ġwork ers
Ġcons ult
Ġm ass
P lease
s er
Ġs end
Ġl ack
Ġrestaur ant
ĠIntern ational
Ġc al
Ġtra vel
Ġm ind
E uro
Ġth ing
ĠD irect
Ġs chool
Ġar r
er c
ro ll
Ġ Â
ip ment
Ġm or
ĠB rit
ĠR eg
Ġdesign ed
Ġimp act
Ġcommunic ation
Ġout side
Ġf ile
Ġthrough out
Ġ2 4
c hes
Ġfam ous
i ans
Ġ200 7
Ġfeat ures
Ġis land
Ġf ive
ot s
Ġemph as
ĠB e
Ġcustom er
Ġprofess ional
in ks
Ġrec ord
Ġcol lect
Ġide al
Ġcomfort able
s id
Ġtak es
r id
Ġdo ing
Ġcolle ag
Ġh on
Ġcertain ly
ĠC our
o h
Ġcon sequ
F rom
Ġlook ing
Ġpart s
clus ion
Ġwork s
Ġpot ential
A R
Ġe arly
Ġ Ð
Ġadop t
Ġsp ace
Ġac ross
Ġr ate
Ġ2 5
ff ice
Ġc e
Ġus ers
Ġh ours
Ġcon cept
Ġj oint
ĠFr ance
ĠâĢ ĺ
ra st
Ġe ver
Ġra d
ab les
ĠS oc
Ġd ate
Ġtrans l
Ġdis pl
d en
Ġconcern s
Ġcor rect
Ġprogram mes
ĠS y
Ġexist ing
ar ing
Ġdra ft
Ġdown load
Ġext ra
Ġtrad itional
Ġto ok
Ġdet erm
Ġm ag
b it
Ġ1 00
Ġinvest ment
Ġmention ed
Ġconcern ing
st er
Ġgu est
I T
Ġco ord
ĠL is
Ġconn ection
ĠF und
at ically
fort un
Ġreas ons
Ġcomple x
Ġdec isions
Ġmon itor
g u
op y
ĠB el
Ġc ross
Ġv ide
ĠA ff
Ġdem onst
" .
e b
ch an
Ġcomplete ly
Ã Ń
ver t
Ġwrit ing
Ġal though
Ã ³
Ġcomm ittee
Ġth reat
on es
Ġlead ing
Ġrel ated
Ġmod el
ĠGovern ment
o ber
ia ble
Ġf lex
y n
Ġbu ilt
C on
Ġconf lic
ok ing
Ġass ess
Ġnot hing
use um
Ġcl aim
Ġcomm unity
nc es
Ġm ember
Ġagree ments
ĠB l
Ġs ent
ra g
Ġpract ice
Ġg ame
Ġpop ulation
ri a
U n
Ġf all
Ġbas ic
Ġmilit ary
Ġobject ives
at ure
Ġbec om
r ans
ĠP ar
E C
Ġk m
Ġinclud es
Ġallow s
Ġholid ay
m ore
ĠS u
l t
Ġadv ant
n ew
Ġcult ure
Ġt ell
ra el
Ġint erv
le y
ut ed
ia b
m p
op h
Ġse par
Ġorig inal
Ġb ody
er cial
Ġsol id
M ore
Ġc ard
y l
ce l
Ġval ues
Euro pe
Ġrece ived
Ġmed ia
Ġf irm
ur s
Ġjob s
ĠU N
Ġh alf
ter m
iv al
Ġestab lished
Ġw r
it able
end s
Ġf re
ĠC an
ĠTur key
Ġup d
F irst
Ġ1 3
Ġs atis
ĠCour t
ĠAmeric an
Ġregard ing
Ġconf irm
Ġapplic ations
Ġst e
p ite
1 1
Ġ You
ĠM ay
an ish
r ary
us h
Ġequ ipment
ac hes
Ġagricult ural
j ust
Ġj ud
idd le
Ġcho ice
Ġobject ive
ot t
ur b
ĠLis bon
v ious
i ke
Ġf ront
ĠT ra
ag ing
Ġpack age
Ġdou b
e qu
Ġcap ac
Ġperform ance
in ary
Ġreport s
E N
ra ft
Ġpur ch
O R
Ġquick ly
Ġstrate g
Ġkey word
B y
Ġt en
Ġgood s
end a
ĠAff airs
I S
Ġim age
ĠT V
Ġpart y
Ġse arch
Ġfil es
Ġa ud
uc lear
Ġs elf
Ġbenef it
Ġw at
ud e
Ġatt ack
si an
p art
am ic
Ġachie ved
en ing
ill s
Ġtreat ment
ĠV al
iven ess
k now
Ġinfl u
re c
Ġiniti ative
Ġme chan
Ġtrans fer
Ġbe low
Ġs ense
Ġsimp le
Ġexper i
s u
Ġind eed
M y
Ġpre p
Ġd ire
ber al
Ġdef in
Ġh uge
Ġf ace
ĠJ an
Ġcomput er
ol ute
Ġcont ains
Ġseem s
ï ¿
ĠAmeric a
ï¿ ½
Ġ urg
Ġco ver
Ġcong rat
ol l
Ġs ens
Ġre pl
Ġple as
av ing
w ide
v al
Ġcar ry
Ġra il
Ġc ru
Ġv ict
Ġdial ogue
S ince
re g
h ic
v ention
Ġbegin ning
Ġrec ently
Ġpop ular
ĠEng lish
L et
ĠS outh
Ġlead ers
Ġindust rial
il es
Ġpr int
f ace
M adam
Ġo il
Ġsuccess ful
Ġeng ine
Ġintern et
ĠIs rael
h old
c hed
Ġ :
ol f
Ġpresent ed
Ġst op
Ġqu al
Ġ200 0
Ġser ies
Ġanal ys
' '
Ġansw er
Ġcomp rom
Ġhigh ly
ĠB o
er al
il ar
Ġsc ient
Ġcar ried
Ġinteg ration
Ġevery one
Ġlevel s
Ġf el
Ġatt empt
" ,
Ġsu n
Ġ19 8
Ð ¾
w h
fortun ately
m a
F inally
Ġfam il
Ġwho se
Ġconsum ers
1 2
Ġeff icient
Ġincre ased
ri pt
ĠG ree
Ġ Ã
Ġb ank
Ġprincip les
Ġgovern ments
m osp
Ġw arm
Ġag reed
l ight
Ġact ive
Ġequ ipped
Ġst age
Ġamend ment
it ect
Ġopp os
er a
Ġw a
Ġg ard
Ġa ge
Ġenl arge
Ġabs olute
Ġsh o
Ġreview s
Ġcent er
Ġp ain
Ġc am
tic le
l im
Ġd ang
Ġsee k
ĠCh rist
Ġcommit ment
p ro
Ġat mosp
Ġ il
an ia
g es
Ġex c
ĠC o
Ġs ix
Ġoff ice
Ġchall eng
in ated
ĠP r
Ġcho ose
Ġsupp ly
Ġtra ff
Ġhig her
or row
Ġper haps
Ġask ed
w ise
Ġd ig
Ġmat ters
O M
w w
as on
ur ch
Ġaspect s
ĠJ une
Ġshow s
Ġco he
Ġd en
Ġav oid
Ġsh own
Ġsub sid
Ġprom ote
Ġcomm ercial
Ġref lect
Ġve hic
Ġdire ction
rough t
Ġob tain
Ġ200 6
Ġf urn
ir t
Ġthan ks
ig ration
ĠP h
Ġn uclear
ĠF or
c ent
an a
ic ro
Ġform er
Ġflo or
Ġen able
Ġte le
Ġcons ist
it z
Ġpos sibility
Ġadd ed
un ch
Ġre lev
i j
ra ce
u ary
Ġst ress
Ġfriend ly
Ġopport unities
ĠBer lin
m ark
ill ed
ous ly
a pp
Ġc ame
Ġf oot
re hen
Ġeffect s
g round
Ġmaterial s
Ġconsid ered
ploy ment
ĠB r
A S
Ġr out
Ġspe ed
Ġnot e
le ments
Ġbeh ind
H ere
Ġlat est
Ġex change
Ġc lick
Ġm ax
Ġnew s
Ġex clus
Ġdou ble
Ġre ached
Ġcl os
Ġal tern
Ġle arn
iss ions
Ġ ill
Ġsaf e
Ġcol l
enc ies
Ġde ath
Ġre ject
Ġcre ation
or ks
Ġrespon se
Ġstud y
Ġprep ared
Ġh y
em oc
Ġext ernal
Ġar riv
c hen
Ġp an
Ġprovid ing
ar ily
Ġr ates
ĠRep ublic
Ġpr im
Ġart ic
Ġex hib
Ġdec ided
Ġredu ce
Ġset ting
i ra
Ġt able
ap an
Ġpress ure
on a
ĠQ u
Ġsubmit ted
Ġwon der
Ġsustain able
pt ember
Ġeas ily
Ġact ions
ĠW h
Ġor d
art er
Ġcapac ity
ce mber
Ġprec ise
he st
cre t
ĠM adam
w here
ĠSp ain
ĠF in
Ġenlarge ment
Ġ ut
Ġg ives
u ly
Ġem erg
Ġcom ing
ĠSoc ial
ĠE C
Ġprior ity
p le
Ġatmosp here
D o
us sion
Ġdetail s
s erv
Â ®
Ġn orm
Ġl ove
sib ilities
al u
olog ies
ĠE n
Ġsum mer
Ġrem ains
Ġl ay
Ġaccommod ation
Ġch arg
Ġgr ant
Ġreg ular
Ġc ause
Ġne igh
There fore
Ġhotel s
Ġem b
A L
iter ran
if t
B e
Ġfund ing
ĠF ran
m ail
d om
an e
et ary
i ated
er ve
ist ics
Ġcl osed
Ġn ice
Ġarch itect
Ġpl aces
Ġdispl ay
F urther
ve re
ant ly
Ġconsum er
Ġf it
N ow
Ġbu y
Ġdesc rib
Ġassist ance
Ġbal ance
Ġappe ar
Ġsim ilar
S ome
e v
Ġre d
Ġmove ment
Ġle ave
Ġproper ty
es e
Ġf ig
ĠAm end
Ġcon duct
Ġform s
um e
Ġde g
Ġsit es
ĠAr ticle
Ġmanufact ure
Ġcon clud
are nt
ĠC omp
Ġsupport ed
ateg ories
ĠCon vention
Ġs ize
ic y
iterran ean
Ġregul ations
Ġlim ited
h a
Ġbath room
Ġb rought
ĠC ol
ie f
Ġpre par
or g
Ġp ow
Ġindepend ent
ĠB ank
I C
t a
ĠItal y
Ġr ule
b urg
p id
Ġpur pose
Ġre pe
âĢ ľ
Ġf isher
ĠS er
Ġorgan is
ĠDe cember
c le
ct ober
pr ise
en ed
ĠWe b
Ġple ased
Ġel se
ici ency
a ult
Ġg e
Ġter rit
Ġcreat ing
Ġsty le
Ġch arge
Ġvide o
res ident
Ġsh ip
Ġad apt
Ġconst ruction
Ġconn ect
Ġrelev ant
Ġsp ir
Ġdisc ussion
ĠSe ptember
ĠCon t
Ġl ic
Ġth ous
Ġb illion
ar ies
Ġprodu ced
ĠAfric a
Ġac qu
im ately
u ff
ener al
ĠCent ral
Ġbec ame
Ġcred it
Ġmess age
o or
Ġvar iety
od ay
it ure
ron ic
Ġreg ards
land s
Ġinst ead
Ġlarg est
ra q
Ġacc ord
re am
Ġf low
Ġex ec
g en
Ġrelations hip
Ġde ep
Ġmeas ure
Ġfriend s
E x
Ġst ability
Ġcon ference
Ġw ays
ĠL a
Ġob vious
N o
if e
Ġgu id
g ing
ra p
Ġinterest ing
Ġproced ures
um p
Ġfish ing
ĠI I
r as
Ġbo ard
Ġstart ed
u el
Ġactiv ity
t ies
Ġcond ition
Ġallow ed
Ġset t
Ġr ound
Ġp arliament
Ġt rip
Ġsk i
ĠJ apan
Ġpro s
Ð µ
â Ĥ
art h
Ġmed ium
Ġprodu ce
Ġcomprom ise
ol ution
ĠN et
Ġtas k
Ġs cre
Ġtra in
âĤ ¬
Ġcontrib ution
Ġstep s
Ġprov isions
ail y
I nd
ĠMinist er
Ġrel ation
Ġ200 5
ĠItal ian
Ġdep art
y ond
por ary
g ar
p ut
ain ed
Ġh ous
Ġdam age
Ġd ut
Ġb lo
Ġm em
Ġstat us
Ġpro b
ĠA t
Ġinstru ments
s ive
P resident
ĠM arch
Ġex act
ĠW ind
iv ity
enc ed
Ġj our
r s
Ġcomp rehen
Ġco ast
ad a
Ġour selves
Ġlab our
Ġpart ner
Ġcrit eria
Ġc ou
Ġcomp on
Ġs ource
Ġo ption
Ġb ase
Ġg reen
Ġg iving
Ġwrit ten
Ġlim it
ĠD es
Ġp en
Ġdocu ments
in i
ru g
ĠO ctober
Ġstate ment
Ġ4 0
ic a
ri ver
Ġex cept
Ġqu iet
D es
Ġc opy
Ġto m
Ġrestaur ants
Ġviol ence
ver se
com ing
Ġl oss
Ð °
conom ic
v is
ĠBrit ish
k a
Ġmin or
or por
Ġfin ally
Ġapart ment
Ġdis e
ĠJan uary
Ġmount ain
sel s
Ġb at
z z
Ġre nt
Ġopt im
Ġw orth
Ġmechan ism
Ġstruct ure
ri an
ĠN orth
Ġhistor ical
Ġtyp es
velop ment
it ude
Ġrel ig
Ġbenef its
ĠF l
Ġp ath
Ġf ast
Ġsw im
O S
Ġn or
Ġtranspare ncy
ant ic
ist an
ag er
ix ed
res h
all ed
Ġimmedi ately
Ġemploy ees
ĠSp anish
ĠR ights
Ġe lements
Ġfil m
Ġc and
ent al
Ġhig hest
Se cond
E L
Ġw ood
Ġ200 4
ove mber
ul l
Ġs ection
Ġw ine
Ġelect ions
Ġc ode
O f
en ge
Ġuse ful
Ġvill age
Ġnum erous
Ġinteg rated
Ġair port
Ġdistrib ution
is hes
s es
Ġag enda
Ġappl ied
Ġaff ect
ber g
qu are
Ġoper ation
d am
Ġequ al
ess ion
rast ruct
Ġre ality
d ing
c ks
Ġs ou
Ġsay ing
A C
Ġ2 1
Ġprocess es
Ġchalleng es
Ġsolid arity
oc ated
Ġread ing
Ġlegisl ative
Ġk it
Ġdist ance
Ġil leg
Ġpo ver
a ign
Ġconsequ ences
Ġpay ment
ĠN ational
Ġvict im
Ġpover ty
ĠP ark
Ġev alu
Ġcru cial
Ġocc as
Ġd ie
ĠP a
ĠW ar
e ks
Ġpo or
Ġund ert
o on
Ġd aily
Ġl ed
Ġcolleag ues
Ġr at
Ġdr ive
Ġun em
ĠPart y
ĠI raq
Ġimp os
A d
ĠS an
ve ll
ur ance
Ġg as
Ġcon ven
ĠServ ice
Ġanalys is
Ġtool s
ri ption
Ġpers ons
ĠJ uly
Ġbe yond
ĠR us
T oday
ad es
ĠD emoc
all s
a res
Ġharm on
c er
ra y
Ġconflic t
om b
Ġpract ical
Ġoffer ing
O ffice
Ġinstru ment
pr il
I s
Ġgo es
i ate
Ġapart ments
Ġsuff icient
Ġdig ital
Ġpa id
an o
Ġdep end
Ġl ate
g ram
Ġconst ruct
Ġfore st
Ġv o
Ġide as
Ġorganis ations
D S
Ġ ir
ĠMed iterranean
Ġfor ces
Ġoff ered
Ġtom orrow
e ch
Ġcongrat ulate
Ġinf rastruct
Ġrequ ires
ast ic
Ġd im
Ġr ich
Ġl ux
Ġdoub t
' .
ĠN ovember
ĠA ss
k y
Ġthough t
Ġl ower
Ġhapp y
Ġadvant age
Ġwe eks
Ġimplement ed
ĠSw ed
Ġcirc um
h ol
Ġb i
Ġcur re
Ġrel ating
Ġb it
ĠG e
in ate
Ġre act
Ġre new
en n
ĠDirect ive
1 3
A P
Ġwe ak
Ġan ti
Ġmin imum
Ġb rand
Ġem ail
he ad
Ġpartners hip
ĠK ing
Ġ2 3
P ro
pl es
Ġmob ile
Ġm is
Ġl ines
Ġv ac
l a
Ġmonitor ing
au gh
Ġl inks
Ġre ference
A m
k i
ĠP e
Ġen h
Ġpub lished
il ater
Ġcon ver
the less
r ant
ĠR oom
Ġ $
Ġe y
Ġstart ing
Ġsec ure
Ġar m
Ġli beral
S h
ed eral
ĠPort ug
Ġd riv
Ġcaus ed
Ġs ell
ĠC ar
ab or
Ġaccord ance
Ġsal es
Ġeff iciency
u is
Ġoper ating
Ġ19 7
Ġredu ction
b ased
Ġcamp aign
Ġw aste
Ġl ives
E very
D uring
Ġcomprehen sive
Ġhistor ic
Ġd at
1 5
Ġar gu
Ġc ast
le b
Ġcl ients
Ġmax imum
Ġam b
ĠPal est
Further more
re st
it arian
Ġg ot
o le
Ġspir it
um b
pect ive
M any
6 0
it ors
res pon
l ines
r ative
Ġmean ing
ĠM ark
as c
Ġb ad
Ġfre qu
Ġcrit ic
ul ated
Ġpl ant
Ġgrow ing
Al though
est ic
Ġmach ine
Ġext ent
Ġu lt
Ġrem ind
ra in
w orks
ne y
Ġterror ism
Ġread y
Ġ )
Ġon es
Ġsomet imes
Ġvot ing
Ġfarm ers
Ġplay ers
Ġany thing
ĠWind ows
est er
Ġtechn ologies
Ġopt ions
Ġinter p
oc ol
ĠS al
Ġre con
ĠS ec
Ġh or
Ġmethod s
Ġch ance
if ically
Ġser ver
se c
Ġrem ov
Ġad vert
Ġc y
ĠA pril
Ġsect ors
Ġcand id
Ġinterest ed
ill a
Ġful f
qu es
stand ing
ines e
r ight
Ġprob ably
Ġt ru
Ġmor ning
ĠDe velopment
ĠPar is
Ġworld wide
ar i
Ġlangu ages
Ġpark ing
ict ion
Ġchall enge
Ġ200 3
Ġscient ific
Ġconc ent
u ine
U S
Ġra pid
h ouse
her n
Ġcr im
Ġl ands
iab ility
Ġpict ures
Ġs ports
Ġinnov ative
Ġinit ial
se mb
Ġp ie
Ġs port
v ent
T O
Ġpow ers
Ġbusiness es
Ġaccept ed
Ġencoura ge
Ġ %
Ġarr ange
Ġt ou
Ġf ine
Ġex erc
ph one
Ġd ed
Ġre lease
Ġc ert
oura ble
Ġe th
Ġre le
Ġwant ed
Ġra ised
Ġsho pping
re land
g er
se e
at form
Ġse lection
Ġinflu ence
B ook
Ġsc he
Ġexper t
Ġswim ming
Ġvisit ors
for ce
Ġapp rec
Ġdes pite
Ġb ur
Ġtry ing
Ġinvest ig
Ð ¸
ĠO n
ĠWest ern
i ance
et er
Ġaltern ative
nt er
Ġabsolute ly
ĠM al
Ġl ost
Ġdem ands
Ġname ly
an ks
Ġbed room
H otel
Ġbord ers
Ġstre et
Ġval id
ĠT rans
v a
Ġs av
Ġinvol ve
Ġgen uine
iz ing
l s
Ġgard en
d ra
Ġim ages
Ġrest rict
her s
am a
Ġhe av
Ġ âĤ¬
Ġg ames
Ġd iv
un a
Ġfield s
Ġrepresent atives
Ġjo in
Ġkit chen
ly ing
ĠA ut
Ġpro ceed
c omm
ilater al
Ġ2 2
t t
Ġd rug
Ã¼ r
Ġqu e
Ġhigh light
Ġt al
pr ises
E P
Ġad just
Ġinnov ation
E ven
Ġe arl
Ġiniti atives
Ġstrateg ic
ĠI ran
form ation
Ġcount er
ĠAust ria
Ġcall s
Ã ¨
ra b
Ġcircum st
end er
ear ch
Ġob serv
Second ly
it ation
av a
Ġexpress ed
b ody
Ġs ort
Ġchang ed
Ġ vers
Ġocc ur
ver age
Ġprocess ing
Ġover all
Ġint ended
Ġaccess ion
Ġf ire
A cc
Ġorig in
Ġrespon d
Ġex port
re m
Ġann ual
Ġwr ong
Ġyour self
Ġmot or
ill ing
ĠCon ference
o x
ug ust
if f
ĠI reland
Ġhe ard
oc ks
ĠC ity
Ġse ason
us es
Ġcommit ted
Ġpl ans
Ġwork ed
Ġilleg al
Ġpre m
c ape
Ġdec or
pos es
Ġtr ust
ond on
Ġs il
ree ment
Ġt ick
Ġe leg
Ġtra ck
ĠCon stit
Ġs outh
Ġres ort
Ġtalk ing
ar a
Ġgo al
Ġcl ub
Ġv ital
ĠAmend ment
am ed
Ġaw ard
Ġocc up
Wh ile
Ġsubst ant
Ġse x
Ġc ities
Ġf resh
Ġcohe sion
ĠM us
m et
Ġd yn
Ġmain ly
at t
Ġbord er
ĠCh inese
s y
Ġpass eng
und red
Ġtraff ic
Ñ Ĥ
Ġdeli ver
el ines
Ġappro ved
Ġs ays
Ġab ility
Ġeven ing
u ed
pp er
Ġph ys
A M
Ġjust ice
Ġplay er
li ke
Ġal one
Ġwh om
Ġcon clusion
Ġmen u
Ġpl aced
ĠB al
Ġf ear
Ġaff ected
Ġplan ning
or age
Ġ 000
ĠL i
mb H
Ġopen ing
Ġfel low
Ġfamil ies
Ġcircumst ances
Ġimpro ved
Ġrun ning
us ed
ĠRus sian
Ġhelp ful
Ġtour ist
E D
Ġdec ide
ĠE l
Ġspe ct
Ġdat ab
Ġcom ments
ther n
Ġban ks
ri ef
Ġun ivers
Ġwalk ing
b ian
Ġdisc rim
c raft
Ġprov ision
ĠUn iversity
Ġv irt
ze ch
Ġc ell
ĠA G
ify ing
u ck
Ġfeat ure
ag raph
ĠCent re
Ġprior ities
Ġ6 0
Ġsim pl
ann ed
R O
Ġcomp l
h ood
Ġfe ed
Ġincreasing ly
ĠG mbH
Ġcurre ncy
Ġredu ced
More over
Ġreform s
Ġsu itable
Ġcor por
Ġautom atically
Ġcont roll
Ġter race
Europe an
Ġdeli very
Ġconf idence
ici ans
Ġcontrib ute
Ġadminist ration
Ġbe gan
Ð ½
ur t
Ġappro x
ĠSy stem
Ġs em
Ġtrad ition
Ġstud ents
Ġreg ime
Ġvictim s
Ġens uring
Ġsupport s
ĠC ons
Ġh om
ra z
ru it
ĠS o
Ġstruct ural
ĠA b
Ġcol lection
Ġm iss
s et
ough t
Ġinfrastruct ure
Ġcl ient
Ġunem ployment
E n
c a
Ġem issions
Ġsc ope
ĠA nt
Ġco ve
Ġsepar ate
ain t
Ġspec ifically
Ġce leb
E T
Ġcr ime
Ġparticip ation
ĠL ondon
ro wn
Ġt abled
Ġapp oint
id er
Ġext ensive
Ġph one
Ġconf ig
Ġman ner
Ġbel ong
ounc ed
ress ive
er land
Ġplay ed
Ġlaw s
ĠN ations
Ġm ere
rat s
ĠS ant
Ġan c
Ġelect ronic
Ġintrodu ced
Ġagricult ure
Ġbo x
h ab
Ġt it
Ġf a
Ġcompet itive
Ġpur poses
n o
Ġr ise
Ġpower ful
Ġpre fer
1 8
Ġh undred
ent y
c ast
Ġrefer red
Ġanim als
Ġmin ist
fere nces
Ġdetail ed
Ġcom ment
con t
Ġpol ice
1 7
Ġhe ar
at ur
Ġbl ack
Ġaim ed
Ġeffect ively
c ers
ro ad
Ġ200 2
ro y
Ġt im
Ġs ources
Ġpl atform
Ġsatis f
eb ru
k t
ent ions
Ġs an
Ġmed ic
Ġperm an
Ġmot ion
. ,
Ġch ann
Ġch arm
Ġus ually
ĠJ ust
ĠC zech
Ġ2 7
ĠT our
Ġh ot
ac ious
ch ing
Ġe ast
ĠM in
Ġlarg er
Ġprecise ly
n ed
Ġphot o
Ġst ated
od ies
ĠE d
he l
Ġinstall ation
ort hern
Ġde leg
st ar
ĠA ugust
Ġbudget ary
c alled
Ġde ad
o o
Ġfun ctions
Ġdis p
ĠG od
Ġprot ected
Ġrepresent s
Ġdiscuss ed
Ġexact ly
ord er
av es
Ġserv ed
Ġrem ember
Ġr ural
Ġfor get
Ġwant s
Ġget ting
Ġsit ting
Ġbecom ing
ĠPalest in
bour g
on t
Ġsol d
ĠSec urity
Ġser ve
Ġl ies
Ġdevelop ments
Ġded ic
Ġwh ite
Ġdiscuss ions
ebru ary
Ġbl ock
ĠU K
Th ank
Ġris ks
id ing
Ġm useum
Ġother wise
Ġtre nd
Ġre in
m in
Ġs low
Ġ200 1
r ich
re ak
ĠL at
ĠPro t
ĠH ung
Ġthous ands
Ġadminist rative
Ġrem ark
c ategories
ident ial
ĠP C
Ġreg ret
Ġman aged
Ġm id
Ġassess ment
Ġm ut
Ġfac ilit
ip l
Ġguid elines
Ġcove red
ĠS lo
im b
4 0
o ke
nd er
ĠG eneral
Ġearl ier
ĠAg reement
Ġclose ly
Ġm and
ĠM or
Ġ8 0
Ġcam era
Ġcrit ical
Ġfollow ed
ĠM e
itz erland
ov o
it iveness
ut s
re l
ic o
Ġwonder ful
Ġselect ed
ĠC D
ul ations
Ġent ry
Ġintrodu ction
' ll
Y our
C omm
ĠT H
Ġcor respon
Ġlike ly
Ġlist ed
Ġsp read
Ġenter prises
Ġwe ap
ĠF ore
m ar
ident s
Ġbuild ings
Ġmed ical
R oom
bo ard
R e
o very
il s
Ġst ar
ĠM a
Ġprogram s
h r
Ġnet works
ĠBel g
ec ause
y a
mb ol
Ġmet res
Ġsp end
Ġqu ot
com p
Ġexp lo
Ġimm igration
On ly
Ġc os
Ġlink ed
t ime
ĠC al
Ġins ide
Ġrel ative
Ġsupport ing
Ind eed
Ġpa per
Ġimpro ving
Ġinstit utional
or ing
ens ions
Ġoper ations
Ġexpect ed
et h
1 6
Ġ' '
Ġact ual
Ġn orth
Ġspe ech
cel ona
N ot
Ġelect ric
Ġacc omp
Ġ199 9
Ġconsider able
o res
Ġb row
Ġmag n
ĠI S
ĠC he
Ġcomp ens
ĠU k
er o
Ġbu ff
Ġopen ed
Ġdeg ree
ut h
Ġent it
Ġunderstand ing
Ġus es
Ġtour ism
b ack
ĠI T
Ġcomb at
ur ation
Ġpres ence
Ġb rief
cre te
Ġg ain
Ġwin ter
A pp
Ġm ill
Ġsubstant ial
Ġfisher ies
ĠM iddle
ff ee
ĠS um
Ġhand s
ĠTe chn
Ġtele phone
eng th
Ġexclus ive
Ġcompon ents
ĠPol icy
Ġmarket ing
ure au
ĠE m
Acc ording
Ġexper ts
Ġcomp ar
Ġdel ay
ĠPro gram
st e
ate ll
Ġper cent
Ġfound ed
Ġproper ly
eg u
Ġtem per
ĠI f
b all
lev ision
Ġdut y
Ġcoord ination
ul a
Ġpurch ase
ur d
us iness
I L
Ġanim al
Ġpres idency
Ġentire ly
ĠSe a
Ġref uge
Ġst rict
s pe
Ġw est
ing u
Ġpl ants
i ers
Ġc od
Ġw ent
Ġsupp li
Ġauthor ity
Ġdifficult ies
Ġt ack
Ġdeb t
Ġcrim inal
Ġsa ve
Ġdeal ing
1 4
Ġg ave
Ġpur su
S E
Ġcompet itiveness
Ġitem s
Ġle ar
ĠF ebruary
Ġe lement
Ġsum mit
Ġdis pos
It s
Ġplay ing
Ġdisc over
us sels
Ġrel ate
Ġres ist
P l
Ġtyp ical
i os
Ġm ap
ut ive
ĠAs ia
Ġinc orpor
Ġgener ally
Ġsy mbol
Ġorgan isation
Ġst ock
M E
Ġpol l
il ing
in ux
b u
Ġpar agraph
Ġleg it
n al
R E
ish ing
Ġsu sp
ĠI r
Ġsu c
Ġvehic les
m ical
r ants
Ġl os
Ġnorm al
am ber
Ġexp and
Ġwill ing
iz es
ind ing
Ġappl ies
Ġlo ad
Ġpleas ant
Ġconsid eration
ĠS ol
Ġtra vell
Ã³ n
Ġso le
ĠInd ia
Ġto t
ers on
ĠP ublic
Ġmach ines
Ġm ist
Ġcomm and
Ġthink ing
Ġflex ibility
Ġmeet ings
Ġpict ure
ĠGree ce
Ġh osp
oc ation
Ġun ac
ve y
Ġsp acious
Ġcol or
est ival
Ñ Ģ
Ġdest roy
o z
Ġmod ified
Ġfac ing
Ġadv ance
ĠBar celona
ĠSw itzerland
Ġbecom es
ĠG reen
Ġad equ
Ġcal c
ra de
Ġnum bers
Ġre ception
ĠJ oh
Ġen orm
Ñ ģ
Ġspe aking
' ,
ester day
Ġb odies
Ġdef ence
Ġpeace ful
Ġhim self
Ġmult ip
Ġform at
Ġsuc ceed
Ġbel ie
Ġa verage
Ġaim s
ĠC y
ster dam
ĠBr ussels
O r
p en
in ter
Ġf ixed
Ġpract ices
Ð¾ Ð
uis ine
O ther
i ar
Ġst ra
ĠV er
m aking
Q u
O L
Ġdist rict
ĠTur k
Ġm ail
Ġestablish ment
Ġdef ined
i ant
Ġflex ible
E ach
at o
Ġg raph
Ġparliament ary
Ġin come
Ġto ld
An y
Ġpromot ing
Ġmy self
Ġsign ed
Ġ !
Ġeas ier
Ġbed s
Ġbe ar
ĠThe re
os en
Wh y
Ġserious ly
f e
n el
Ġinform ed
The n
ĠPol and
g est
ĠK os
Ġsh ops
A r
y ear
ĠR ed
Ġac know
Ġh ar
Ġfinan cing
Ġfail ure
s ized
Ġli b
ĠC ast
Ġcl ar
Ġcour t
semb ly
Ġdom estic
Ġc ateg
ad em
I P
V D
2 5
r ates
Ġh our
Ġsubsid i
Ġsupp l
Ġpen al
id s
Ġexperi enced
Ġpolit ics
Ġinst ance
Ġ =
Ġgra du
Ġcon crete
know n
Ġdiffere nces
ĠSw iss
ĠC ro
Ġwith dra
n es
i ver
Ġpos itions
Ġstruct ures
Ġcont em
ĠY ork
Ġ ur
Ġcoop er
Ġf ra
Ġdatab ase
Ġanc ient
Un fortunately
P E
Ġdang erous
Ġvo ice
Ġ +
Ġadopt ion
ĠAm sterdam
J ust
ag en
Ġhappen ed
Ġneg ative
Ġconn ected
Ġassoc iated
Ġhuman itarian
Ġadv anced
ĠAir port
Ġimplement ing
Â ´
Ġsaf egu
Ġperm it
Ġbeh av
Ġc uisine
Ġneigh bour
Ġappe ars
Ġest ate
Ġcond em
Ġel im
Ġdo or
Ġm iddle
Ġhous es
Ġunac cept
Ġoppos ition
Ġs en
Ġe c
Ġim ag
Ġany one
Ġdiffere nce
Ġcare fully
ove red
Ġwel com
Ġtransl ation
Ġprodu cers
ra ine
Ġstate ments
Ġmod els
Ġexhib ition
ĠKing dom
I nt
Ġstud ies
ub e
Ġ ign
n s
Ġag encies
Ġann ounced
Ġconven ient
Ġpro pose
yl um
P L
Ġs ong
Ġcomb ination
Ġguarant ees
Al so
Ġman age
ĠN e
ĠUS A
Ġrecogn ition
Ġredu cing
Ġacc ur
Ġcoll abor
re et
Ġcall ing
Ġl ou
qu is
ĠH igh
Ġdescrib ed
Ġsatis fact
Ġcour ses
Ġbe aches
i as
Ġev idence
Ġartic le
Ġimpos sible
ĠM y
in ating
Ġlead er
ach ing
e ff
Ġtru ly
ĠI m
Ġ x
or ial
Ġsp ent
Ġimmedi ate
C lick
ĠC as
Ġl ength
B ecause
Ġterrit ory
u k
L ast
Ġdiscrim ination
g n
Ġarchitect ure
Ġst ri
ip s
Ġpos sibilities
Ġte levision
Ġdr ink
ĠA rab
al le
Ġw ishes
ru pt
Ġsh ower
Ġn ames
Ġ5 00
r ust
I M
Ġimprove ment
Ġorgan iz
ĠH uman
Ġrele ased
ĠE conomic
Ġmembers hip
Ġa head
Ġattract ive
ĠO b
Ġunaccept able
2 4
Ġe ight
ĠB udget
ĠM useum
Ġdel ight
Ġscre en
Ġback ground
Ġsh ared
Ġavail ability
Ġk il
Ġex cess
Ġst ru
Ġ2 8
Ġfig ures
O T
Ġparticip ate
r ance
ĠJust ice
N ever
ĠD ep
n y
Ġdes ire
Ġcon clus
Ġpar am
9 9
Ġqu ant
Ġcontinu ed
am s
o ly
S he
Ġintrodu ce
f ree
Ġreason able
Ġs and
Ġtas ks
Ġ19 6
o ff
ell ing
Ġcontin ues
ĠA C
Ġcharg ed
ĠDemoc rats
Ġeleg ant
Ġs le
Ġtrans act
ash ion
Ġexpl ain
Ġgreat est
ĠH ow
ell ig
Ġc ards
v iew
Ġentit led
Ġun fortunately
ĠAr t
Ġconsum ption
Ġtrad ing
Ġstrong ly
Ġown ers
ĠI N
urb an
Ġdev ices
ten ance
ĠB ul
Ġconv in
On ce
Ġallow ing
ĠAss oc
Ġgl ass
Ġcomple ted
Ġcomb ined
Ġent ertain
Ġvot es
ĠBo ard
Ġra ise
p ir
w o
Ġen ables
Ġcar s
ot o
Ġmon etary
c an
Ġt aste
ĠV ien
Ġp arent
ĠG rand
Ġgener ation
Ġrad io
Ġarriv al
Ġa u
il st
Ġst able
ipl om
Ġappe al
Ġrelig ious
ri vers
Ġsurround ing
i pe
Ġun less
Ġexp end
Ġde lic
Ġpack ages
Ġco ffee
Ġd in
Ġtranspare nt
Ġas ylum
.. ..
Ġc as
Ġsk ills
Ġh op
Ġclos er
il os
Ġbeaut y
ign ed
D P
ograph y
ĠRom an
Ġins urance
ĠP er
Ġsp l
Ġregist ered
Ġexerc ise
Ġb orn
Ġvol unt
Ġm ission
- -
Ġnear by
Ġenorm ous
Ġdedic ated
ĠIr ish
ens us
Ġcomp os
Ġca pt
Ġsur face
qu ality
ĠIn stit
w ith
Ġholid ays
Ġprofess ion
Ġclaim s
Ġpers pective
Ġmet ers
Ġfor th
First ly
Ġun c
us ion
ang ing
Ġp ure
Ġfor ced
P arliament
il le
ick ing
ĠDe bian
al d
* *
v est
Ġbook ing
Ġm er
ĠEn vironment
ĠTurk ish
Ġ river
m on
ar ation
Ġs ale
ou nce
Ġun f
it ch
Ġrepl ace
Ġinstit ution
ĠGu est
Ġperman ent
ol it
ĠM ad
go ing
Ġconvin ced
M ost
Ġestablish ing
Ġro ll
Ġrel iable
Ġadvert ising
Ġtot ally
ate ver
Ġindividual s
Ġf ruit
not her
Ġd u
z a
Ġnot ice
Ġrelax ing
Ġp al
ion e
Ġme ant
ĠD r
Ġgrant ed
ĠEuropean s
2 3
Ġb ound
Ġad ult
' re
Ġconclus ions
Ġinstall ed
so ft
Ġun ion
Ġ3 00
Ġurg ent
ĠA pp
ĠAfric an
Ġbut ton
Ġan t
en h
Ġe arth
Ġs quare
Ġd ivid
Ġstand s
Ġex clud
Ġpr ison
Ġs ides
Ġpass ed
Ġs atell
A D
Ġcomp ared
ĠNet her
Ġfail ed
âĢĿ ,
Ġrail way
Ġext ended
Ġf le
ĠW TO
Ġke pt
Ġdev ice
ok er
r ating
est aur
Ġcontrol s
Ġst orage
S c
isc al
Ġcont rary
Ġunt o
Ġch air
Ġmount ains
s m
Ġconc ert
Ġbig gest
k en
ĠC at
ĠKos ovo
Ġ7 0
U R
Ġ9 0
an im
un ction
ig rants
N ew
Ġcandid ate
ĠPl ay
Ġmem ory
Ġdra wn
Ġun able
Ġd ream
ĠT re
Ġattract ions
Ġreserv ation
Ġeconom ies
Ġsign al
Ġfact ors
ĠIs l
Ġst ory
Ġlear ning
il iation
Ġsa w
an cing
Ġch urch
Ġwe ight
Ġmov ing
ĠReg ulation
Ġam bit
Ġout d
it age
Ġcommit ments
t able
gh an
Ġs ession
Ġdise ase
Ġla id
Ġhon ourable
Ġadv ice
Ġch osen
Ġright ly
ĠNether lands
F R
i el
Ġsc ience
vern mental
Ġwind ow
a ment
Ġstreng th
Ġcorpor ate
ĠServ ices
it i
Ġt ried
ar c
Ġweap ons
Ġun it
Ġexp ression
Ġart ists
Ġmain tenance
ĠOr gan
Ġc ore
Ġse cret
ĠA ud
{ {
ĠM art
r ations
8 0
ĠMark et
D e
Ġ2 6
Ġperfect ly
re w
ir th
Ġp et
Ġfin ance
Ġne ither
Ġoblig ations
g age
âĢĿ .
Ġsens itive
Ġambit ious
Ġachie ving
Ġsp ending
m ission
Ġb ott
Ġag ency
Ġy esterday
Ġsh op
Ġsc ale
sequ ently
Ġob st
Ġout come
ĠSt ar
Ġpromot ion
Ġcolleag ue
he t
Ġe lection
Ġre ve
ĠFran k
m al
Book ing
ĠConstit ution
Ġobvious ly
i ques
ap ers
ĠGree k
Ġorgan ised
act ive
Ġvehic le
Ġconst antly
ĠM icro
Ġinterv ention
l antic
Ġv on
az a
Ġv ision
Ġdefin ition
ut ch
ner gy
Ġair craft
r is
Ġre nov
Ġ199 8
Ġinter face
ĠUk raine
re p
b um
Ġpay ments
Ġdim ension
o e
Ġlux ury
ĠB u
Ġlim its
Ġche mical
Ġla un
Ġelect ed
Ġequ ality
Ġcontinu ing
Ġro ck
ĠRoom s
Ġout standing
Ġw ww
ch arge
ag ue
ĠEast ern
s ites
Ġf ant
ent ed
C an
P er
P h
ur ally
Ġsitu ations
Never theless
Ġcol our
et t
ĠA ct
Ġask ing
Ġgu ide
Ġpro port
Ġcont ents
Ġla unch
en a
Ġg olf
Ġd iplom
Ġsuccess fully
ĠHe alth
} }
Ġcomp at
Ġexpend iture
w ing
ĠVien na
Ġdist in
Ġorgan ization
ĠAf ghan
I ON
om an
Ġrecommend ations
Ġcritic ism
ak en
Ġm icro
Ġn ation
ific ations
ĠC or
ĠG ard
Ġoccas ion
Ġsurround ed
cond ition
Ġindepend ence
Ġtou ch
on ia
Ġra ce
ĠH er
n et
in ations
Ġgo als
Ġfl ight
Ġsome one
Ġupd ate
Ġspec ies
Ġint ention
Ġmere ly
Ġsur v
ĠPortug al
Ġse ven
Ġbal anced
Ġext end
A nother
Ġact s
ĠF ree
Ġphys ical
Ġtarget s
Ġst ore
al t
ĠC ong
ĠPr ime
p s
ĠP at
Ġcontain ed
ab il
o oth
Ġwe alth
Ġdef ic
Ġv ul
Ġprev ention
Ġtit le
Ġcateg ory
Ġcons ists
d ed
ĠPe ople
Ġapprox imately
Ġfra ud
ĠK ore
Ġdispos al
Ġaccess ible
ĠAssoc iation
ĠB as
Ġpres erv
ĠRes earch
Ġpoint ed
Ġphot os
Ġlands cape
Ġde pos
Ġpl anned
Ġg old
y le
Ġput ting
ĠFore ign
Ġcomm unities
Ġrout e
ĠPalestin ian
Ġmult i
Ġbring ing
ĠA c
Ġchang ing
ĠCro at
ĠMan agement
Ġm il
Ġcomp li
ĠThe y
Ġparticip ants
n ic
n ge
estaur ant
ct or
Ġrespon sibilities
Ġlead s
Ġgl ad
Ġguarant eed
H is
k ing
Ġwa iting
ĠAust rian
Ġoper ate
I D
Ġstrengthen ing
el lect
ul ating
est ion
r um
Ġbuff et
Ġresult ing
Ġcap able
Ġconclud e
ĠSum mit
oy al
y m
Ġcaus es
Ġpros pect
Ġ urban
Ġf iscal
Ġground s
Ġs n
Ġinst ruct
Ġl ake
Ġsmall er
it ness
Ġdyn amic
Ġex pos
um n
Ġfact or
ĠR ome
Ġaff ord
ol a
Ġsl ight
S P
Ġso vere
Ġconv ention
ĠAg ency
Ġbr ings
Ġaccept able
Ġcat al
Ġche ap
Ġneigh b
Ġexam ples
reak fast
S uch
ĠM EP
or ough
Ġto w
Ġo u
Ġregist ration
Ġcontem porary
ru ption
Ġdef end
Ġsafegu ard
âĢ ĵ
an c
ro s
ĠL ux
Ġval u
Ġpleas ure
Ġseek ing
Ġassoc iation
Ġinterp ret
ĠTra de
ĠCl ub
b ar
Ġph ilos
ĠA N
erm an
Ġident ity
Ġs now
ĠC ost
ob by
sib ly
Ġh um
Ġfurn ished
b an
D F
ĠCent er
Ġcan cell
ĠS af
Ġsp aces
Ġn ations
Ġsp a
p ress
Ġass um
Ġmanufact uring
. âĢĿ
Ġlet ter
E M
Ġmin ute
Y et
Ġp ill
et ers
Ġ2 9
nter prise
... "
Ġb and
Ġf uel
Ġdiscuss ing
Ġsatell ite
ut ing
an cy
Ġcons ensus
Ġste el
b ook
Ġnear ly
Ġf ashion
Ġwr ite
ĠV en
a per
is ure
Ġpat ients
Ġl iability
ĠF ederal
Ġve get
Ġsc en
Ġattack s
in y
Ġaddress ed
ĠR ules
Ġtr uth
Ġover lo
Ġrepresent ative
riv ate
Ġin hab
Ġm other
ĠM ac
pl ace
ĠL eg
mit ted
Ġsou thern
i ations
Ġset s
Ã ±
Ġthere by
ed ia
Ġbal con
Ġprevious ly
Ġvul ner
f are
Ġb ars
Ġexpl an
Ġdriv ing
Ġst im
Ġz one
IN G
! !
ĠA lp
ĠO ffice
ograph ic
Ġprim ary
Ġkind s
Ġlab or
Ġprim arily
Ġadequ ate
O ver
ĠB usiness
Ġ" ...
I A
Ġ199 7
Th us
Ġre fere
Ġrequest ed
Ġcons olid
Ġph ase
Ġfor t
ive red
Ġkil omet
Ġsur pr
Ġr ul
Ġschool s
Ġrec overy
Ġe arn
Ġindust ries
Ġf if
Ġvers ions
ĠâĢ Ķ
Ġs on
Ġpass word
A re
ĠLat in
Ġdec ades
Ġord ers
Ġrem ove
ĠH ar
Ġgovern ance
Ġtal ks
Ġevalu ation
Ġdeal t
Ġmut ual
es ides
Ġtest ing
ĠE st
ĠN ot
Ã §
ang es
Ġanal y
am m
Ġdeterm ined
b order
Ġro b
ĠH ost
Ġmultip le
s k
Ġt end
9 8
ĠJ ava
Ġamong st
Ġun anim
Ġsk in
Ġp un
Ġn amed
ĠL inux
Ġwat ers
og le
raz il
ĠM ag
Ġdel ivered
Ġd iversity
ast ers
Ġex ception
Ġup g
Ġpre pare
ĠD VD
Ġmechanism s
ĠM et
on om
ac ing
Ġf ather
Ġturn ed
Ġal bum
Th ose
Ġtechn ological
Ġlit er
4 5
Ã© s
h us
Ġconsult ation
Ġqual ified
Ġur ge
ire less
Ġd ram
ĠInt er
S ub
Ġf ol
ĠS a
Ġdef ault
ĠR ot
Ġmanufacture rs
ĠL ake
m as
Ġinvest ments
S T
Ġon to
Ġv es
Ġob ser
Con t
ellect ual
ic ed
Ġoppos ite
ur ies
, "
R eg
Ġpre d
Ġbook s
ĠSwed en
Ġco ol
C O
Ġ3 1
Ġint ellig
Ġexist ence
ag s
I I
Ġins ist
Ġbl ue
Ġpl us
Ġaccount s
ĠMin utes
h ow
Ġrepe ated
as er
In st
Ġpie ce
rou d
Ġstra ight
lic it
Ġknow s
ol es
ĠSt rate
or a
ar us
Ġatt itude
ĠIn st
Ġv an
2 2
Ġrep ly
Ġm ix
riend ly
Ġimprove ments
Ġfeel ing
Ã ł
Ġex ceed
f urt
Ġe p
Ġcor ner
Ġwat ch
ĠTH E
in er
ab ilities
Ġmark ed
ĠM il
I V
k ed
Ġ3 5
ĠRom ania
g s
Ġexperi ences
Ġsh ape
Ġfor um
Ġcompet ence
Ġreject ed
Ġd ry
Ġcompli ance
Ġrun s
Ġblo od
Ġg all
Ġfl at
Ġbr id
Ġb ureau
i us
Ġt on
Ġregist er
Ġmov ed
or se
Ġb irth
Ġoblig ation
Ġ ).
ĠC om
ĠD utch
Ġleaders hip
ov a
ĠCh amber
Ġrecogn ise
op les
Ġrequ ests
Ġhelp ing
ri ers
Ġb inding
an cial
Ġsignificant ly
Ġbur den
Ġheav y
Ġspeak ers
l av
Ġlaun ched
Ġcompens ation
O s
C omp
ar ia
Ġconsist ent
Ġst one
Ġexpert ise
Ġwithdra w
c ap
Ġco ok
Ġtre ated
Ġd oll
Ġp ension
Ġaud io
qu ir
am ing
Ġsan ctions
Ġpresent ation
Ġsp ok
Ġdrug s
Ġjour nal
c ription
s on
al es
ĠH a
ĠD is
Ġso ft
Ġun its
iet ies
ĠT erm
ĠInd ust
Ġh it
un ich
d s
Ġrepresent ed
le te
ĠB ud
Ġcomp ly
Ġun s
Ġstre ets
m ann
ens es
ĠChrist ian
n is
Ġoper ators
Ġweb sites
P S
oura ge
L A
Ġdis hes
ony m
W here
Ġexp ensive
Ġsubst ances
Ġal t
S p
ĠM c
Ġdest ination
a is
Ġresol ve
Ġemphas is
r ig
Ġn ar
Ġprof it
C l
Ġsp ot
Ġexpect ations
Ġex ists
j a
Ġs ight
Ġconst ant
Ġapplic able
ĠSt ud
el come
Ġemphas ise
0 3
h t
Ġsh ut
ĠF ound
Ġext ension
Ġrefuge es
B oth
Ġw all
ĠI M
Ġrecomm ended
Ġs we
ail s
Ġlat ter
Ġcharm ing
ite ly
Ġar ms
S im
Ġn av
Ġpl ug
Ġappro val
app oint
et te
Ġwa it
ĠG al
Ġpriv acy
ik ing
m at
Ġent ered
Ġadvant ages
gh t
âĢ ¦
I m
â Ħ
Ġle isure
ĠL ord
Ġd ict
ent ure
Ġdeleg ation
i pping
Ġold er
Ġaff airs
S C
y ing
Ġp il
Ġp roud
ĠB ut
Ġtre es
ab ling
Ġsupp lement
Ġr ig
Ġrespect ive
Ġc art
]] ,
b l
Ġcent res
Ġapprec iate
Ġkeep ing
Ġobject s
Ġt ests
Ġra re
Ġhelp s
ang ed
b ed
Ġout put
Ġbrow ser
R es
Ġcont rast
Ġrelative ly
Ġw ild
ĠC O
ri er
Ġmod e
Ġwh atever
Ġinvol ving
F ind
Ġco vers
gy pt
Ġt ro
Ġwh ilst
k o
Ġre ven
Ġhapp ens
Ġsuff ering
ĠPro f
Ġperson ally
Ġpe oples
Ġsuper v
ĠT er
Ġst ations
s ch
Ġengine ering
Ġdang er
ĠD el
Ġdis aster
ell a
Ġarrange ments
re es
Ġrecogn ised
wh at
Ġexclus ively
Ġv ast
ap pe
Ġartic les
Ġp as
Ġfurn iture
Ġf ab
Ġrep rodu
Ġnat urally
Ġpolit icians
Ġsub sc
Ġtax es
âĦ ¢
Ġh all
ĠR o
ian o
sy ch
Ġvalu able
U s
il i
ad o
Des pite
oc al
Ġfel t
Ġopp osed
ĠProgram me
Ġrepe at
L ocated
Ġth orough
Ġcomp lic
Ġfirst ly
Ġconfirm ed
Ġt rou
Ġest im
rid ge
7 0
Ġer ror
z en
op eration
ĠComp any
Ġdise ases
Ġl ose
Ġfind ing
Ġjour ney
Ġy e
Ã Ł
ĠG reat
Ġtemper ature
T M
Ġhelp ed
Ġenh ance
Th anks
ĠS m
ed eration
os c
% .
it a
Ġmob ility
Ġte ac
Ġcomb ating
Ġey e
G u
Ġrenew able
Ġpasseng ers
I F
Ġhost els
Ġbedroom s
Ġno ise
Ġobtain ed
Ġtrans form
Ġtext s
ĠM ex
er b
Ġsol ve
Ġfig ure
Ġor ient
Ġ199 6
Ġint ellectual
Ġdirect ives
d own
v ak
az z
ĠC ub
p oint
Ġ- -
Ġf ill
or f
Ġoff ices
Ġb reat
Ġsp ring
Ġinvolve ment
ĠB razil
/ /
idd en
Th ird
Ġentertain ment
Ġdisc overed
Ġpros per
ĠSo ftware
Ġf em
Ġmill ions
Ġfac ed
Ġdeterm ine
Å ¡
AT O
Ġstru gg
Ġobst ac
Ġbureau c
Ġ199 0
Ġd a
g ment
9 7
Ġprotect ing
Ġpres ident
ĠSu per
and a
Ġcons erv
Ġconstruct ive
Ġg rand
Ġar rest
Ġtour s
Ġserv es
Ġt reaty
Ġwe ather
Ġdis charge
it ime
Ġb ra
ĠMinist ers
Ġd ia
augh t
Ġ rom
Ġpub lish
Ġt rib
Ġexcept ional
ount ry
f in
et he
Ġamount s
arlia ments
Ã¶ r
ĠInstit ute
Ġcontrib utions
Ġsc ript
) :
im ent
Ġhappen ing
Ġremov ed
ĠH ead
Ġcreat ive
ĠSwed ish
Ġey es
Ġequ ally
Ġmand ate
gar ia
ĠPa per
Ġcomp r
Ġmin im
Ġlarge ly
ail ing
Ġofficial s
cl es
Ġcontract s
ĠMicro soft
ĠL ib
S m
Ġimp ressive
Ġpriv ile
p ol
Ġst ake
Ġtem porary
Ġphilos oph
Ġlook s
Ġbat tle
ĠAfghan istan
Ġrefere nd
Ġle aving
r ors
er ce
Ġp ick
Ġm it
Ġres idence
Ġcol d
Ġstrateg ies
tt p
ĠC ard
ĠCh arter
Ġoutd oor
Ġcommunic ations
Ġliberal isation
ĠStrate gy
c her
Ġch ain
Ġsle ep
Ġincre ases
Ġiss ued
and er
Ġaware ness
Ġag g
Ġspect ac
ĠB ur
hold ers
Ġpan or
Ġremain ing
Ġrestrict ions
ĠO ur
Ġrapporteur s
Ġprepar ation
ĠJ ew
Ġorganiz ations
Ġautom atic
Ġdeb ates
Ġhand ling
ĠPro ced
Ġrequire ment
Ġres erve
Ġdin ner
ĠM unich
ĠG old
ak ers
Ġresol utions
Ġopin ions
et her
Ġinhab it
ĠBel arus
ĠMon t
Ġcharacter istics
ĠGe org
ĠW i
Ġpro hib
Ġf rag
Ġhealth y
il ed
Ġapp arent
Ġpat ent
Ġfight ing
L e
Ġ ;
Ġbo at
Ġlic ense
En joy
Ġextra ord
s man
ĠS ME
ies t
ult ure
ly mp
Ġab ol
ĠE gypt
Ġcollect ive
Ġdec is
9 0
ĠC op
ĠM er
ĠPl an
Ġcharg es
st ood
Ġproport ion
ress ed
Ġund erm
Ġ19 5
Ġg ir
Ġfant astic
Ġinc ent
Ġab road
Ġfa ith
Ġa ft
Ġthe r
Ġp hen
Ġhosp it
Ġb ran
P T
et ic
Ġvol ume
al ed
Ġimp ression
Ġrecommend ation
at re
ĠH ol
Ġill ust
and on
ĠD an
Ġpro ve
Ġident ify
Ġnew ly
Ġcre ates
ĠFound ation
Ġreturn ed
um in
Ġexpl ore
f ol
Ġf asc
d ate
ĠO pen
ĠLux em
ĠAll iance
Ġcou ple
ĠW ith
Ġdep ends
Ġann ounce
he nt
Ġdoes n
ir ing
A b
Ġint end
ĠE r
, âĢĿ
itte es
cl ass
Q L
he ther
ĠT or
ĠP ak
Ġent hus
a el
Ġcons c
Ġhe at
Ġmaintain ed
Ġconflic ts
Ġform al
I R
Ġsex ual
Ġw itness
ĠSt e
Ġmess ages
Ġfamil iar
Ġoper ational
F ollow
ĠProced ure
Ġis ol
ul s
Ġha ir
Ġun p
Ġget s
Ġfacilit ate
ĠBrit ain
m y
Ġregular ly
ĠB alk
Ġmin i
Ġdis appoint
Ġcustom s
ĠJoh n
Ġc ry
Ġatt end
ĠBl ack
ĠCont rol
Ġw id
Ġpat tern
Ġrem ote
S u
Ð »
Ġdraw ing
Ġsurround ings
Ġp arliaments
ĠM od
ploy ed
Ġb on
ĠA part
Ġyou th
Ġreport ed
Ġmass ive
Ġfe e
Ġpro p
ĠS il
Ġconduct ed
Ġme at
: //
ĠT y
v ant
ob ile
Ġg one
Ġaft ern
Ġpre t
or ge
unic ip
Ġparent s
S S
ĠO F
Comm ission
Ġphen omen
Ġc ab
Ġcare er
Ġcopy right
Ġhundred s
r un
ac he
Ġperform ed
ĠMEP s
co hol
ur ious
Ġsh ad
Ġproper ties
Ġt ri
Ġim per
Ġhold ing
i am
Ġw alls
ĠR iver
Ġen force
T A
Ġunivers al
Ġg rate
in em
pr us
Ġm aster
Ġfollow s
rel ated
ĠC ustom
ĠH ome
ĠL ab
Ġrec ip
Ġv ir
k es
Ġtop ic
an ied
Ġd ining
Ġwor se
ĠP an
ĠSt reet
Ġvis a
ic on
Ġlist en
Ġdisplay ed
r ase
Ġhard ware
al ing
ra c
Ġou ght
ou b
ĠFrank furt
it u
Ġsupp osed
Ġnot ed
Ġart ist
g l
Ġacc om
Ġvac ation
h and
ĠB ay
Ġdef ine
Ġacqu is
Ġcontin ent
Ġtick et
Ġjo ined
ĠSaf ety
ĠP H
Ġab andon
ĠS und
ro te
Ġsome what
Ġdemand ing
2 6
if orm
Ġreserv es
ĠBul garia
N ote
Ġfav or
ĠWh ite
Ġd ark
Ġfrequ ently
Ġclass ic
Ġminor ity
Ġn orthern
Ġs ch
ĠFr id
ĠE xt
Ġrev olution
Ġregul atory
Ġimp l
Ġ15 0
ĠD en
f l
Ġansw ers
M S
if ies
Ġj e
Ġemerg ency
9 6
Ġult imately
st ruction
lo g
Ġc able
Ġde als
ĠD ub
Ġisland s
F i
ues e
Ġtransport ation
Ġrenov ated
oth ing
Ġg ender
Ġm arg
Ġmet al
Ġgrate ful
ĠCroat ia
ll a
Ġsa una
Ġorgan ized
Ġbalcon y
Ġmag az
Ġconnect ions
g ent
ĠIn formation
w in
ĠPol ish
Ad d
an sion
or al
Ġd rop
' ve
Ġf aster
Ġcomm un
Ġsee ing
Ġl obby
ĠE nergy
Ġdisc ount
Ġown er
ĠLuxem bourg
h otel
Ġfulf il
ĠD ay
Ġse vere
ĠC amp
ĠM ount
Ġwor ry
Ġeth nic
Ġto ler
um er
ĠN ATO
Ġlab el
Ġsett ings
Ġdelight ed
Ġdivid ed
ĠCost a
Ġbehav i
Ġtown s
w ood
ĠCy prus
C he
Ġtechn iques
ĠK y
ĠSer b
Ġher itage
at ures
en ary
Ġupd ated
j e
it t
ĠA cc
ĠB en
Ġse at
Ġprodu cing
Ġelectric ity
Ġpro of
d i
Ġc ourage
Ġcomp lement
Ġut il
ĠT o
Ġstat istics
ĠJapan ese
Ġw ines
Ġm al
d o
ou red
enh agen
ct ive
ild ing
Ġinvol ves
Ġinhabit ants
ĠâĢ ŀ
ĠSe cret
Ġto b
Ġm igration
v o
Ġdecl aration
ĠO lymp
ĠMon etary
ĠRom a
Ġinv ite
Ġprot ocol
st ra
ĠS ing
Ġinter ior
ot ed
Ġwel fare
Ġcontact s
ĠCh urch
Ġval ley
ĠS quare
ĠO per
Ġbott om
ar p
ĠL aw
ov iet
U nder
Ġd river
Ġqu arter
Ġpoll ution
an qu
Ġcast le
Ġtour ists
ĠAust ral
e y
Ġindic ated
art ers
Ġvis ible
Ġrelax ation
og ether
C H
Ġd ates
r ical
Â °
Ġadv is
Ġsubsid ies
u ous
Ġpar ad
ĠB os
Ġdemonst rate
Ġcare ful
Ġarr ive
Ġdecor ated
EN T
Ġstart s
er ies
Ġt rial
at ch
ĠC ap
Ġmaintain ing
Ġwide ly
3 5
ĠGo ogle
ĠG DP
Ġfl ights
Ġcollabor ation
Ġaftern oon
Ġreferend um
rag ue
Ġlib rary
Ġcorrespon ding
Ġacc ident
Ġpresent s
Ġdemonst rated
Ġst ored
ĠF irst
m ed
Ġdis appe
Ġt ail
Ġunder stood
ĠPak istan
Ġinvest ors
ĠG l
Ġshow ing
du c
cl ing
Ġ20 20
Ġsign s
Ġnew sp
Ġloc ations
Ġpos s
Ġvis ited
Ġdep ending
Ġent rance
Ġexc iting
Ġam az
L ike
Ġchann els
Ġaw a
ĠPortug uese
L a
ac co
Ġprov ed
Ġd rivers
Ġstr ing
T wo
Ġfocus ed
Ġmagn ific
in ent
ruct ural
A G
2 7
ĠÃ ł
Ġcomm ission
ĠI P
ich t
Ġ4 5
Ġprovid er
Ġconclud ed
Ġcut ting
Ġaccomp anied
Ġc ategories
Ġmon u
Ġc op
Ġin put
ec ision
ĠP act
Ġsty lish
Ġtrans ition
ĠG re
Ġexp ansion
em ark
Ġcomm ittees
ig en
Ġmost ly
ĠSc hen
Ġwork sh
ĠV illa
Ġb all
Ġspok en
Ġsett lement
Ġfin ished
Ġrest ruct
Ġfor g
bo x
V ery
ur a
Ġcont rad
G et
ĠPal ace
ĠP ri
ĠDes ign
ĠSlo vak
Ġeffect iveness
Ġdist ingu
Ġmat ch
App l
ĠSt ation
Ġs ac
ig ation
Ġli ber
i Ã³n
ĠS aint
ĠB ro
Ġimm igrants
Ġbr ight
h y
Ġcontroll ed
Ġtraff icking
Ġvisit ing
Ġminor ities
Ġcitiz en
Ġdepart ment
Ġra w
Ġ199 5
b and
Ġon going
I B
ĠI C
ren ce
Ġsol ar
Ġbo ost
Be fore
Ġ *
A g
cess ion
ĠBal tic
Ġdocument ation
b a
Ġplan et
Ġrest ric
Ġoccas ions
Ġc ash
Ġor al
Ġresist ance
Ġpasseng er
Ġbehavi our
Ġtack le
u zz
Ġaward ed
Ġst ars
Ġcr imes
Ġfound ation
A part
C om
Ġthem e
ĠCan ada
Ġexp licit
Ġprint ing
Ġspeak er
Ġlove ly
hent ic
Ġb ilateral
in n
ĠB est
Ġrecord ed
Ġhost el
Ġrepl aced
Ġ ?
ĠA L
ĠL u
ĠO ld
rap y
Ġcor ruption
Ġconstit ution
Ġcompl ain
Ġgard ens
ĠR ad
o ch
Ġass ume
Ġadop ting
Ġcar bon
Ġcy cle
ĠF ram
Appl ause
Ġn om
ĠS ky
Ġli qu
Ġk ing
Ġeduc ational
et ing
Ġimp osed
ĠD av
Ġrespect ed
Inst ead
ĠKore a
Ġover come
Ġfit ness
ot ic
Ġterror ist
Ġsu ites
y er
Ġdecl ared
Ġfirm s
Ġmanufacture r
Ġcompet ent
ĠDirect or
Ġspectac ular
Ġsm ooth
) ;
Ġfac ility
Ġhe ating
ĠH all
Ġdes ired
ĠSME s
Ġfil ms
ĠAg ricult
Ġs ad
Ġp sych
Ġsubsidi arity
ro c
Ġconfig uration
Ġcos y
ĠI nc
Ġcompat ible
Ġsh ares
Ġjud icial
ĠCop enhagen
Ġsche me
c are
Ġr ub
Ġtransact ions
ĠPro v
ĠSchen gen
h am
Th rough
W elcome
Ġrout es
Ġg lo
Ġsu gar
Ġend orse
ĠFund s
ĠFin ancial
Ġrapid ly
Ġtick ets
Ġwind ows
Ġin g
Ġfact s
ĠP et
Ġ ice
ĠSp a
Ġm m
Â ²
Ġdest ruction
Ġs ending
Ġw oman
Ġcorrect ly
Ġa st
Ġpur s
Ġfunction ing
Ġt ight
Ġdis s
Ġint ens
Ġa f
w ater
Ġinf ring
ac c
Ġcred ibility
ĠIsrael i
ĠB on
Ġcent uries
ĠS oviet
Ġsu ite
Ġcontain ing
E U
Ġpos sibly
vis ory
ĠP rague
Ġsur f
P art
ĠH el
The ir
as y
ĠO ff
Ġass ets
Ġprof ile
le an
a e
Ġunc ertain
Ġal cohol
ĠE nterprise
Ġprofession als
Commission er
N G
T ake
ĠN or
Ġg ram
ĠFrid ay
ad or
ĠO ne
ro g
Ġpie ces
t ical
Ġpl enty
Ġsatisf ied
Ġprom pt
Ġstrong er
Ġ iron
Ġpart ly
Ġun iform
Ġperson nel
Ġconstit utional
Ġthous and
Ġcour ts
ber t
ak er
ethe less
ig e
Ġdiv ision
Ġtax ation
Ġus ual
Ġd ign
Ġvis ual
Ġbo ast
Ġd ied
Ġcert ific
z one
Ġm ac
P e
u it
W hether
p ay
g ic
ĠR ec
Ġprepar ing
2 8
Ġglobal isation
Ġpropos es
Ġsuppli ers
n ight
Ġaddress es
Ġblo g
Ġsuff er
Ġins p
Ġcons ent
Ġal arm
Ġeast ern
Ġencoura ging
Ġse as
Ġident ified
r d
Ġpl enary
p o
Ġoff ic
Ġminist er
z y
Ġpo ore
Ġlou nge
Ġappoint ed
R ec
Ã ´
Ġdefin itely
ĠL ou
Ġflo od
apt er
Ġextraord inary
ĠV ol
Ġr id
Ġform ed
urs day
el t
C D
Ġv oc
Ġargu ment
b us
Ġmot iv
A DS
Ġconsid ering
Ġarm y
Ġb ill
te en
]] .
ĠD ef
Ġo l
h of
Ġin clusion
ĠG N
ĠN os
L E
ĠThe se
ĠY ear
in en
Ġpl ays
Ġprovid ers
Ġresol ved
Ġmagnific ent
Ġco al
ual ity
ĠS chool
Ġroad s
1 00
Ġbel ief
Ġinfl ation
ĠW ik
Ġenc ount
Ġens ures
Ġmil k
Ġwar rant
Ġrent al
Ġnar row
Ġdut ies
R A
Ġsubst ance
Per haps
Ġdistrib uted
G o
Ġappe ared
ah n
M ember
Ġc ere
ĠMus lim
Ġ19 4
Ġg ar
un k
Ġslight ly
ag ers
Ġin j
Ġvirt ual
Third ly
ĠF er
Ġun w
wh ile
Ġact ively
Ġem ot
Ġ4 00
Ġdepos it
Ġpropos ing
Ġdecis ive
Ġre now
ĠMad rid
2 1
ou l
ĠTrans port
ĠProt ection
Ġsubject s
Ġf Ã¼r
Ġweek end
Ġconcept s
a ud
Ġass ure
amp ions
ĠHung ary
Ġsole ly
âĢ Ķ
amb urg
Ġnever theless
Ġhon est
ĠBelg ium
Ġm iles
Ġadult s
D A
st ic
Ġl es
ĠSt ructural
Ġex it
Ġun for
3 3
Ġbroad cast
ĠT own
c ol
Ġapply ing
Ġsu it
Ġz u
Ġcarry ing
Ġmar itime
Ġart istic
is p
Ġpart ial
Ġfour th
Ġer a
l ife
Ġcompon ent
id a
re a
e ment
p et
t ra
let ter
Ġwest ern
Ġevery day
Ġevent ually
Ġthe ory
Ġt ast
ĠD o
ww w
Ġfl u
Ġprov en
Ġtrad itions
Ġlegit imate
Ġdirect or
Ġtob acco
Ġdi verse
rep ren
at z
Ġdom ain
Ġship s
Ġvulner able
Ġde cre
Ġcondem n
Ġf at
Ġv ary
Ġj ur
Ġabs ence
Ġinterp re
ist er
ĠSt ras
Ġupd ates
I G
ce an
Ġvolunt ary
min ute
Ġlot s
ste in
p rodu
ĠN G
Ġinterpret ation
repren eur
ation ally
Ġe at
Ġman ager
Ġlux urious
e conomic
Ġn ights
Ġcondition ing
un ning
ĠIS O
Ġimp ose
Ġarriv ed
Ġsuppl ies
Ġm a
Ġl ie
Ġmor al
t ion
ĠM ich
Ġemerg ing
Ġelse where
Ġg ained
ĠTh at
ent h
Ġun iversity
Ġaut hentic
ĠPa ul
Ġpack aging
Ġdef ect
hip s
al a
au nd
Ġsc hed
Ġmus ical
Ġab use
W ell
i ences
Ġcre w
Ġw rote
m m
Ġsuggest ions
Ġfunction al
en z
Ð º
ĠB ush
Ġst o
lic ations
le vel
Ġinter act
Ġacknow ledge
Ġo d
Ġdist ort
ĠAs sembly
Ġgreat ly
Ġdefic it
Ġins ert
Ġt un
Ġex ch
Ġaut onom
Ġcountry side
0 1
G iven
Ġsh ipping
Ġvill ages
ĠD om
ĠN orthern
Ġexcess ive
Ġpre ced
l ights
ur rent
Ġphilosoph y
2 000
Ġgener ated
Ġsatisfact ion
Ġrece iving
Ġless ons
Ġdec ent
ĠIn n
Ġf ran
Ġcol ours
Ġadv oc
ĠMex ico
Ġteam s
ĠÂ »
Ġunfor get
M ay
Ġsuppli er
L adies
Ġregard ed
Ġdifficult y
Ä į
Ġsuggest ed
ĠTh ursday
augh ter
ing er
Ġinv ited
ĠHung arian
Ġcompar ison
y stem
Ġsp oke
Ġex ports
Ġtop ics
Ġ ),
oub ted
id o
Ġattempt s
ĠV AT
Mr s
T ra
ter y
Ġl ists
ĠFram ework
ĠIs land
Ġpurs ue
Ġperiod s
Ġrepresent ation
Ġdr inks
Ġdepart ure
ograph ical
Ġforest s
rib e
Ġpermit ted
Ġdisc ip
Ġexam ine
Ġhor se
ĠP re
os is
ib et
ĠEng land
Ġdestroy ed
Ġfin ish
Ġp ed
ĠP ack
Ġact ing
Ġspec ified
i xt
or ry
Ġchann el
a ft
Ġpain t
Ġreserv ations
Ġsc ene
Ġdesc ription
ĠN on
Ġsu s
Ġsav ings
ĠC am
Ġhous ing
ĠDe uts
W ill
ĠF am
Ġargu ments
2 9
Ġconstit ute
Ġret ain
Ġl unch
ĠR estaurant
Ġdis abled
ul f
Ġsem in
Ġref ers
al y
Ġen abling
ult ane
ug gage
Ġfreedom s
g ence
Ġport s
Ġreal istic
Ġfarm ing
ĠS atur
ĠS he
ge l
Ġoblig ed
Ġc ul
ĠB reakfast
ab y
Ġcooper ate
ĠN ice
ĠPro duct
Ġenjoy ed
Follow ing
or ient
ĠG lobal
Ġed ge
Ġreact ion
ĠF re
Ġf ederal
C ons
Ġk illed
Ġdo ors
Ġdis m
Ġrelig ion
ĠAC P
Ġbrid ge
ĠS im
Ġun like
Ġcontinu ous
Ġsignific ance
Ġtw enty
Ġover view
ĠWh at
ĠG ene
ne x
Ġrev ision
Ġequ ival
T e
ĠTechn ology
Ġle aves
ĠLi ber
onym ous
or ation
ĠA v
hed ral
Ġs ought
Ġharmon isation
ĠN ord
he im
Ġm unicip
Ġst abil
ĠS P
Ġmod ule
Ġpat ient
sc ale
ĠDes k
Ġdelic ious
ĠR ule
ĠCong ress
Ġb omb
ĠSund ay
U N
ad vant
alle l
Ġrep ut
Ġtrad emark
Ġfoot ball
ĠH amburg
an z
Ġjust ified
ĠÂ «
Y es
ĠE arth
Ġsh ap
Ġro of
U se
Ġconfirm ation
Ġproceed ings
ĠSant a
itu ated
ol i
Ġstand ing
ro so
ĠD ata
Ġleg ally
il m
Ġind irect
Ġport fol
Ġnegoti ating
as hing
Ġpolitical ly
Ġsuff ered
Ġunforget table
ĠF estival
Ġpo ly
Ġwelcom ed
âĢĻ .
Ġpublic ation
Ġrad ical
Ġ3 2
Ġrenow ned
ĠCh air
ĠHotel s
With in
Ġdepend ent
ul ous
Ġremain ed
Ġski ing
Ġman ual
Ġimport s
7 5
ild ren
Ġbank ing
Ġprosper ity
ac ilities
Ġro t
ĠTre k
Ġu pper
Ġam en
Ġspecial ist
Ġsoc ieties
oubted ly
f ers
Ġp or
ic ing
Ġis t
Ġappear ance
ĠAud itors
Ġres ource
Ġcharact ers
Ġpay ing
Ġsuperv ision
i ro
ĠH am
ĠSt ock
ĠMed ia
ĠMon day
= =
Ġinstruct ions
G eneral
k et
Ġcol on
p a
Ġdis advant
Ġins pect
Ġbe ings
5 00
200 1
Ġh ttp
ĠSocial ist
Ġun a
Ġf estival
Â »
ĠP age
Ġprevent ing
Ġforth coming
p ass
Ġcomplic ated
Ġf ix
ĠB y
Ġret ail
ĠS ite
Ġdis k
O b
Ġall ocated
Ġsure ly
Ġan tic
ĠT O
Ġhom es
Ġevery body
Ġdirect ed
Ġhand le
Ġcontrib uted
Ġtrip s
Ġb ond
Ġr ising
Ġent repreneur
Ġexpl ained
Ġfirm ly
re al
Ġreal ise
d ro
Ġprot est
Ġsum m
art ment
ĠA ction
Ġatt rib
Sc ript
Ġb urn
ĠSlo ven
he tic
Ġf ans
ĠStras bourg
0 4
Ġten nis
comm unic
Ġw ider
Ġ id
Ġn one
Ġr ank
Ġ20 11
ĠAn n
op er
Ġparam eters
Ġlif t
Ġintrodu cing
Ġjud ge
ĠR oyal
ĠRe al
ant e
m ade
Ġin n
ron om
Ch rist
ĠAmend ments
ow nt
Ġwelcom es
ĠAut hor
se m
Ġdirect ory
3 6
pe l
mb ud
Ġacknow led
3 4
ĠM P
os lav
Ġhard ly
Ġen abled
Ġac adem
Ġorig inally
Ġenter prise
Ġeuro s
Ġrecon c
int s
Ġprogram ming
Ġinvestig ation
Ġp ra
ag o
enc ing
Ġves sels
D ue
ĠP rivate
Ġmove ments
Ġmiss ing
ĠAgricult ure
0 5
ing ly
ist a
im a
ĠZ e
Ġhe aring
Ġindic ate
sequ ent
Ġcut s
Ġph arm
Ġobstac les
ĠP ower
iz on
Ġbar riers
Ñ ĥ
ĠE M
ir k
Ġsound s
Ġremark s
ĠW all
Ġind ex
Ġpas sion
Ġclean ing
Ġord inary
Des cription
ĠTour ism
ĠSecret ary
Ġre b
em b
ĠFl ore
ĠA z
Ġ199 4
% ,
Ġre n
Ġg ather
ĠSt and
ĠV is
Ġm ir
Ġb ul
Ġphot ograph
Ġex clusion
3 8
Ġcon ce
Ġdet er
h i
ig nt
Ġdes erv
Ġclub s
ĠLeg al
Ġcollect ed
Ġ Å
Ġrecogn ized
Ġinterv iew
Ã º
us al
Ġwell ness
an i
Ġshow ed
in f
w est
With out
Ġf er
Ġwhere as
ult ural
Ġsustain ability
p age
ĠBe ach
Ġsim ultane
Ġal leg
go vernmental
Ġcover ing
Ġtrans mission
Ġrom antic
Ġhe s
Ġdid n
Ġcomb ine
Ġfab ric
U T
Ġcomp act
Ġer rors
Ġhospit ality
Ġdis asters
Ġcell s
H aving
Ġmod ules
Ġpenal ty
Ġfle et
Ġgall ery
ĠI D
Ġmov ie
Ġst ocks
Ġche cks
ivers ary
Am ong
3 2
B esides
ĠF ederation
Ġsav ed
Ġconsider ably
Ġdign ity
Ġt ree
Ġfe es
Ġbo ot
Ġfunction ality
oph istic
Ġwel coming
Ġimag ine
ĠV ice
ĠF ront
Ġintern ationally
Ġlook ed
Ġsect ions
Ġturn ing
Ġte a
w an
j o
Ġlegit im
ĠPH P
Ġt ables
Ġmuseum s
Ġr u
ern el
Ġsur ve
Ġviol ations
Ġunivers ities
Ġb ag
Ġminist ers
Ġb ird
Ġen de
ĠR el
Ġdemoc rat
b en
Ġsh aring
pl ay
Ġbelie ves
Ġjur is
9 5
Ġen em
Ġdeli ber
ul ed
cl ub
Ġsw itch
Ġsong s
ÃŃ a
Ġenh anced
Ġreflect ed
op es
Ġregard less
Ġaccur ate
sm oking
ĠAt lantic
Ġlab elling
und er
Ġclass es
l ined
Ġan g
Ġende av
ld er
Ġpre st
ĠSal z
ĠSt ability
C C
ĠT reat
Ġun ited
Ġexplo itation
d es
Ġadapt ed
Ġexclud ed
m inist
ĠB ad
Ġund oubtedly
Ġmob il
ust er
ĠFin land
ĠT ime
f riendly
Ġgener ate
Ġtim et
Ġfem ale
ignt y
Ġproduct ivity
Ġreach ing
f ront
ug oslav
Ġin ev
Ġth umb
Ã £
ĠJ ac
Ġaccept ance
ar io
ĠCommission ers
Ġing red
k m
ig er
ĠT ibet
Ġtransfer red
kt op
u a
ĠG M
Ġdial og
Ġgener ations
be ing
ĠMor oc
C OM
Ġl ov
E O
pe ll
ĠAr ch
Ġw ireless
Ġtest ed
Ġhon our
Ġpro x
ĠV ill
ĠC H
ch ant
Ġca f
Ġman aging
Ġc raft
ĠBalk ans
ĠG all
is ch
Ġno vel
Ġf illed
Ġdia gn
Ġnot es
Ġtravell ing
Ġspl end
ĠD ue
ade qu
u els
quir y
ĠP ost
Ġg ap
Ġcan cer
6 4
V is
Ġd ies
Ġfree ly
Ġorgan ic
ro vers
Ġconcent rate
mbud sman
Ġsatisf y
Che ck
stit utional
ĠP PE
Ġd os
us ing
ĠD on
Ġdes k
Ġundert aken
Ġn ine
Ġloss es
ĠHow ever
in et
i ov
Ġpr ime
Ġincre d
Ġsub sequent
Ġconsult ing
Ġcomput ers
ĠVal ley
Ġf an
Ġsovere ignty
N L
Ġs ophistic
ot ive
Ġst ages
Ġr ide
Ġreflect s
Ġvide os
Ġv en
Ġin com
st ream
clud ing
Ġpar a
Ġstrengthen ed
ri e
ec utive
ĠInd ian
ĠGene va
us c
Ġwor st
Ġfisher men
n ia
Ġrest ored
Ġstud io
ĠAmeric ans
Ġsu p
ha us
Ġrel iability
ĠIsl amic
Ġamen ities
Ġrecon struction
duc ation
w ar
og rap
Ġpar allel
Ġrest ore
Room s
Ġli ked
Ġdam ages
ir ty
Ġsuppl ied
Ġliqu id
ĠOrgan isation
ie val
ĠSerb ia
Ġar bit
0 2
Ġv ig
20 10
Ġsell ing
u er
Ġsince re
Ġshad ow
Ġsy m
Ġl as
Ġar ise
Ġfil ter
app ro
Ġlearn ed
ĠS en
ide o
Ġcoord inated
ĠEC U
Ġcl imb
ne cess
Ġcult ures
Ġb ike
le ts
Ġrestruct uring
f low
Ġc rop
ĠA fter
Ġsy n
Ġappro ve
Ġneighbour ing
Ġl ived
ol ic
ĠA p
Ġcl ause
Ġst ret
Ġdesign s
ĠIs lands
Ġantic ip
ĠSatur day
Ġed ition
ĠY ugoslav
St ar
ĠA lex
ĠUS B
Ġpl astic
ĠRe port
ind er
ĠO R
ĠRes ort
ĠS ou
Ġsy nt
ĠM ore
ĠG olf
Ġ7 5
Ġrep air
Ġbrief ly
Ġto ile
Ġ 00
it ar
ĠC ode
Ġsp ons
Ġc ock
clus ive
ĠM at
Ġsuper ior
Ġin adequ
Ġse qu
Ġcal m
ĠA sian
f a
Ġfram e
Ġv ent
Ġpictures que
Ġtrend s
Ġunf air
Ġas sembly
ĠT un
ĠChrist mas
' m
y p
Ġb io
Ġany where
Ġprov ince
Ġnecess arily
ĠM ill
Ġdis ag
Ġtreat ments
S QL
Ġprocess ed
Ġlist ings
erson al
Ġem p
Ġhold s
Ġhe ight
ĠVen ice
Ġther mal
it ative
ĠF ire
Ġvar ied
Ġadd s
Ġdeep ly
Ġpanor amic
Ġsu d
Ġflo ors
Ġappropri ations
3 9
Ġmult ilateral
ed ly
Ġmass age
Ġord ered
Ġamaz ing
Ġh iking
Ġpe ak
Ġconstit u
Ġann iversary
Ġeng age
B ar
Ġpresent ing
ĠEx press
Ġhy p
eff ect
Ġdeterm ination
u v
Ġro ot
wh ich
ĠS un
Ġtarget ed
Ġlay er
Ġb reed
ĠS ud
Ġra c
Ġeng aged
e z
ĠG ran
ĠPart ners
Ġtra cks
ĠAustral ia
Ġpret ty
Ġcont rovers
Ġar ising
ĠC AP
Ġint ends
Ġindivid ually
E W
il er
Ġprof its
ump ing
om as
ĠE nt
Ġ3 6
S ituated
Ġequival ent
or ous
Ġsen sible
Ġreput ation
Ġp ush
Ġun necess
Ġrefer ring
U p
ĠB ol
Ġfact ory
Ġportfol io
n am
Ġol ive
Ġevery where
A B
ĠW ill
Ġphenomen on
ĠD ol
S L
Ġs aving
Ġs ights
Ġp us
Ġcat ch
Ġt ab
Ġtra ged
ĠY our
ĠP u
Ġjuris d
ĠBar roso
Pe ople
ĠB ern
Ġent ering
Ġthreat s
Ġstud ent
Ġv ine
ĠCast le
el low
Ġte aching
H O
Ġg re
Ġw arn
Ġed itor
Ġform ats
Ġ198 0
ĠEC B
ĠM ot
Ġexec utive
ce ler
Ġtr anqu
Ġw ides
lic ation
Ġd ownt
Ġhigh lights
ess ions
Ġstrugg le
iz z
ĠProt ocol
ĠB ook
Ġbudget s
Ġurg ently
ĠF orm
Ġrel ates
ĠAN D
Ġfair ly
ĠBudget s
Ġt ort
Ġst uff
ĠS T
Ġl iable
ep ing
c ountry
Ġh ill
ĠCh arl
Ġexec ution
Ġbeg ins
ĠAl b
ĠBelg ian
d isc
Sh ould
Ġcandid ates
Int ern
s hip
Ġb oy
A V
Ġv ib
Ġlast ing
Ġoccur red
S ee
Ġdec ade
Ġnorm ally
on ic
Ġs am
Ġgu ard
Ġeng ines
all ing
Ġge ographical
f ord
Ġdecl ine
Ġprom ised
ad ing
end ar
ĠO mbudsman
Ġefficient ly
Ġunder ground
s en
Ġint erm
ĠW ed
Ġprom ise
F ree
Ġprodu ces
t d
Ġstrict ly
ira ble
ĠReg ional
ha ust
Ġass ign
Ġprospect s
Ġst unning
Ġspe ll
ĠK ar
Ġrec ording
Ġus age
Ġsucceed ed
Ġec ological
or ne
Ġp ul
Ġprint ed
Do es
Ġresult ed
Ġscient ists
Ġoverlo oking
ĠNG Os
Ġconsequ ence
Ġincorpor ated
Ã ¥
Ġkilomet res
os ing
Ġse ats
Ġ #
Ġend ed
Ġpan el
Ġmist ake
r ity
Ġ {{
ĠP DF
Ġem pt
Ġreserv ed
ĠE ADS
Ġ( "
Ġhighlight ed
ĠMich ael
Ġfe et
ot ten
Ġtw ice
Ġdep th
he red
Ġconsid ers
ĠF isher
Last ly
Ġmeet s
ĠCl ass
Ġcohe rent
Ġt ill
Ġmagaz ine
ĠEx ecutive
u an
Ġk n
Ġcl in
Ġmon op
Ġtax pay
Ġsh ock
Ġacqu ired
ĠII I
i h
ed s
Ġold est
Ġa er
Ġabs or
Ġessential ly
T V
er as
u y
Ġspecial ists
ĠF ood
Ġtro ops
uls ory
Ġcomb ines
Ġaffect s
ĠDen mark
ri age
p read
rou s
Ġar g
Ġlay out
i em
Ġwhe el
ĠV an
Ġair ports
Ġsp here
Ġassoc iations
our se
own load
Ġmet ro
Ġoper ator
ĠSystem s
Ġh ills
m atically
ut ors
Ġterrit orial
Ġrecord s
Ġsh arp
Ġdom in
or ia
Ġsh oot
Ġmedic ine
Ġ4 8
3 7
Ġhead ing
Ġgradu ally
ĠR os
Ġv it
Ġbro ther
Ġprison ers
ĠC orpor
ĠA ng
T rans
r us
Ġv ic
Ġcult iv
P C
Ġcaus ing
ic he
Ġdo g
Ġdiplom atic
ou d
Ġend s
quis ite
Ġsur prise
Ġenvironment ally
Ġsophistic ated
w ell
Ġag ents
it ate
Ġhe nce
Ġm ouse
ut r
Ġal umin
ĠW ork
Ġacc idents
ĠGeorg ia
Ġwides pread
b s
Ġadv enture
Ġpro sec
h ors
ap se
Ġ199 2
ĠMus ic
ĠP eter
S pe
Ġvirt ually
Ġsud den
Ġparticip ating
Ġencoura ged
Ġclar ify
ĠTreat ies
ĠC ivil
Ġav iation
0 8
Ġop ens
Ġsee ks
Ġf ault
con s
Ġconf idential
Ġb es
Ġprodu cer
ĠO ut
Ġd ivers
ri ble
al ities
Ġdo ct
Ġrec re
ĠF rom
ĠSt at
Ġrein for
ĠCas ino
Ġatt ached
t es
Ġin equ
Ġalong side
ĠS pe
Ġpil ot
is k
Ġev ident
ound ed
ĠComm un
l ong
Ġme al
Ġsp ite
Ġser vers
Ġrestric ted
g i
Ġcol ors
Con sequently
Ġexplan ation
Ġput s
ĠS pecial
( )
Ġut most
Ġpill ar
ĠM ain
Ġun us
Ġharm ful
Ġobserv ed
ĠProf ess
Ġaccom pl
Ġbathroom s
pl ore
" )
Ġint ensive
ĠR ober
Ġf ax
Ġachieve ment
Ġth row
Ġcon vey
ĠRep resent
Ġadd ing
Ġbl ind
T ip
Ġwar ning
Ġdet ect
Ġpres erve
Ġstre am
Ġarm ed
Ġcontext ual
Ġre iter
il arly
ut in
ad ays
ist ical
Ġrec y
Ġteac hers
ĠConstit utional
ur f
ĠAc adem
Ġdisp ute
Ġpure ly
mark et
in ity
cl aim
Ġsurpr ised
ĠE mp
Ġqu ote
Ġquot as
Ñ ı
Ġcho ices
Ġreven ue
or gan
ĠC ulture
Ġsk y
Ġpri ze
T P
Ġf al
Ġr ational
D R
ut or
Ã£ o
Ġmark s
f rom
Ġconver gence
ĠIsl am
ed y
Ġg rown
Wh o
Ġh at
Ġgraph ics
ĠMart in
Ġm ort
Ġd as
Ġsecond ly
ĠL ith
it o
Ġwood en
Ġso il
200 9
Ġd ance
Ġh unt
st al
as se
N e
Ġto ward
ĠD anish
ĠCons umer
Ġh idden
Ġsuper b
urs ions
Ġn a
Ð ²
Ġha bit
Ġreport ing
Ġprem ium
c ul
Ġn ative
Ġro w
ut t
Ġme als
ĠJava Script
Ġcon ferences
Ġk ernel
Ġsur vey
Ġspecial ized
Ġpro c
ĠInt erg
Ġpass ing
lev ator
Ġau f
ph rase
Ã¶ n
M A
in als
Ġair lines
ĠFor um
Ġthumb n
in stitutional
Ġ Ã©
Ġserv ing
ĠCon f
Ġst ick
ĠT r
Ġcap abilities
Ġbl ocks
ĠT ai
Ġre ly
ĠW hen
st s
Ġep is
con n
Ð ¼
Ġhop es
Ġdef e
Ġcommunic ate
C o
Ġcomp lim
ĠU ser
st yle
Ġsecond s
de f
4 9
P r
he m
Ġext ending
Ġrecogn ize
Ġperm ission
0 6
ĠNot es
Ġmac ro
ĠD ist
Ġinteg rate
Ġbe er
ĠA ward
Ġcas ino
ĠJ er
Ġconvention al
ĠEx change
Ġsufficient ly
Ġinsp ired
ĠCon d
Ġinitial ly
Ġflow s
Ġupg rade
D on
ĠPro ject
T H
Ġf ly
Ġst ories
bu ilding
Ġpercent age
f it
Å Ĥ
Ġa us
b ur
Ġs qu
Ġtele communic
Ġex em
ĠR ead
Ġshort ly
ĠAg enda
Ġsche mes
Ġshut tle
ĠDub lin
Ġlic ens
st ate
Ġsh ift
Ġestim ated
ĠE N
Ġman if
Ġaud ience
ol o
4 8
Ġvict ory
ish ment
te xt
Ġass igned
Ġref und
ĠE lect
Ġth ick
Ġra ising
Ġoper ates
Ġ2 50
ib ly
Ġbon us
Ġf est
Ġexp ense
Ġbelie ved
O ut
o vernmental
ut ical
ĠP ic
ĠE ducation
Ġprom ises
Ġset tle
ĠAr gent
Ġdevelop ers
Ġmed ieval
d ep
ĠA R
Ġhouse hold
Ġind oor
ĠC up
orient ed
Ġex haust
Ġamend ed
Ġviol ation
Ġimp lications
Ġhor izon
Ġp ipe
Ġstud ied
Ġelim inate
Ġenthus ia
ĠJ ose
S A
Ġh ol
0 9
Ġnegot iation
Ġfall s
Ġrelationship s
Ġst em
ĠComm on
3 1
ĠJ es
Ġmeaning fully
M e
ad t
a us
ĠG ent
ert s
Ġover w
Ġaccomp any
ĠRot ary
enn ium
ĠV ia
ch t
Ġst ores
ĠP oker
Ġappro aches
Ġconstit utes
nes day
Ġgu ided
Ġwhere by
Ġcr ises
od es
Ġun e
Ġab stain
Christ ian
at i
Ġy es
Ġr ough
d a
ific ial
amp s
Ġneighb ours
Ġ ï¿½
ĠN ap
ĠOn line
Ġen vis
Ġres c
Ġdescrib e
Ġmedic ines
Ġed ited
Ã ¢
Ġrese arc
Ġvill a
Ġcampaign s
Ġingred ients
ĠP o
ĠT em
Ġcompos ition
ĠIndust ry
ell er
Ġgovern ing
W ould
ĠK ong
pro of
in ery
B l
u ing
ĠL td
i pt
ĠIn vest
ĠH y
Ġch apter
Ġac celer
Ġsched uled
Ġsatisfact ory
Ġre nd
Ġsc an
B S
Ġ199 3
Ġinc ident
ĠMar ia
os it
ĠAd d
Ġenforce ment
ap est
ec hes
ĠGre ens
g ies
ĠB M
Ġtr ig
Ġcontext ually
Ġgram matically
Ġb ought
ul pt
ob e
Ġchair man
Ġconcent ration
Ġenjoy s
Ġaddress ing
Ġurg ency
Ġsplend id
Ġrat ification
el a
ĠT im
Ġjo ining
Ġcomp ulsory
ĠR E
Ġins pir
Ġemploy ed
Ġtour na
Ġdoll ar
Ġorgan ise
ĠMan ager
ag a
row th
ĠFisher ies
[ [
ĠPro di
Ġsou l
res hold
âĢ ¢
ĠL uc
Ġclass ical
Ġpoore st
ĠS k
ound s
pr int
ĠTerm s
ig ious
ad d
Ġmore over
ace utical
arg ed
Ġfl ag
l as
z er
Ġpain ting
Ġappoint ment
Ġw ed
ion es
E l
Ġm erg
ure ment
ĠFund amental
Ġremark able
6 8
Ġins uff
S et
ad ic
ĠFran c
ĠInterg overnmental
os es
Ġhead s
ĠCat al
m od
ach t
vious ly
Ġj u
Ġaccount ing
ĠBo x
j ud
ĠE P
olid ay
Ġhead qu
ch o
Ġobser ve
Ġc inem
Ġg ross
Ġhe ct
Ġown ed
fere nt
ĠAuthor ity
L O
rop ical
re nd
Ġfound ations
k er
Ġre ferences
ĠB a
Ġdi am
ĠCustom er
Ġtimet able
Ġempt y
ic ian
Ġenjoy ing
ĠGard en
Ġdeserv es
h ard
ig ital
Ġas ide
cre en
Ġtax i
Ġtransl ated
M ed
ĠM osc
âĢĻ ,
Ġconsider ations
Ġconc iliation
Ġtechn ique
Ġcomple tion
ĠOb ama
ĠS ub
Ġdeb ating
Ġfl av
st r
Ġpers ist
Ġfav ourable
Ġult imate
Ġm el
ĠB et
Ġbo ats
Ġe ase
ĠTe am
Ġbe aring
Ġch ief
N on
ro t
Ġexper im
zz a
Ġcod ecision
ĠCub a
Ġconsc ious
ĠU p
Ġleg end
ĠFin n
Ġfew er
200 8
Ġincent ives
rich t
Ġintellig ent
Ġguarantee ing
Ġsurpr ising
Ġfasc inating
ut er
Ġmod er
aut hor
S w
c ar
Ġ8 00
Ġnav igation
Ġelect rical
Ġatt ach
Ġk ill
Ġpers u
Ġjournal ists
Ġad mit
Ġgenuine ly
Ġrein force
Ġdict ators
or ic
ĠG ames
ack s
Am eric
Ġprefer red
Ġm o
Ġcon vert
200 3
Ġst ip
Ġfore most
n i
or rect
ok ed
Ġsy mp
Ġbeg un
ĠE v
ĠG en
Ġsub sequently
Ġcoast al
Ġlegitim acy
T S
Ġ ..
in cluding
Ġthe atre
N or
e per
Ġbro ken
Ġupg rad
Ġsus pect
ĠF e
ĠNet work
Ġthumbn ail
m o
ĠD u
room s
ĠMinist ry
H igh
Ġd Ã©
Ġmay be
Ġ >
ĠS am
ĠT ar
are r
Ġins pe
ĠKy oto
Ġboast s
Ġm ixed
Ġref used
ĠNew s
Ġrepeated ly
st an
Ġth reshold
Ġwin ning
Ġinadequ ate
Ġal ter
Ġact ors
ĠSer ver
Ġunnecess ary
Ġb low
ĠQ ue
Ñ ĭ
Ġaut hors
ĠSe cond
D isc
ĠG r
Ġspe eches
Ġfre ight
om s
Ġbu g
Ġopp on
Ã ª
ern e
ous es
Sub ject
G ood
Ġmom ents
Ġneighbour hood
Ġwe ar
Ġrespect s
ĠAcadem y
Ġw ife
Ġexpos ed
Ġl uck
Ġimportant ly
Ġcharacter istic
Ġch at
ĠIn f
Ġs izes
Ġseem ed
Ġcancell ation
um es
ot hes
ĠC F
ĠFam ily
S erv
ra id
ol ved
ĠM ult
Ġint entions
Ġext ract
Ġexp enses
Ġport al
Ġin comp
ĠL am
Ġman agers
Ġf ost
Ġsecond ary
ric k
Ġelect ron
Ġmar ine
ĠK h
Ġbus y
Ġrepresent ing
Ġgir ls
B ased
ĠH ong
Ġra in
ever al
ener ation
Ġfac es
Ġcheck ed
Ġdram atic
Ġcompet e
Ġaut umn
spe c
Ġeconom ically
Ã© e
ĠP ass
so ever
ĠJew ish
Ġunder lying
Ġshe et
ĠIM F
Ġha z
Ġinst antly
Ġm ur
Ġre ass
ĠE c
Ġspl it
Ġsm art
C E
Ġoper ated
Ġprincip al
as p
C S
Ġm ig
ur ities
ĠW omen
ĠHost els
ĠB ra
Ġres idential
Ġvoc ational
Ġtra gic
Ġs orry
ĠR ef
Ġinv o
Ġopen ness
ĠFlore nce
Ġsl opes
Ġpool s
v ille
Ġweak ness
Ġb iod
Ġjoint ly
ĠG ra
Ġdo ctor
200 2
Ġnews letter
Ġamend ing
Ġp ump
Ġh ung
Ġch art
ĠEm ployment
Ġexpand ed
R OM
Ġinform al
ict ions
G B
ar ians
ĠP lease
ĠD iv
ert o
Ġsc and
Ġexam ination
ĠAlp s
T R
Ġl ively
Ġle ct
im edia
Ġcomplain ts
on i
Ġd ro
rat ors
aund ry
ĠLe ban
Ġpurch ased
Ġtravell ers
V I
Ġ3 7
U M
end o
v ia
Ġlist ening
ung s
Ġes cape
ĠSlovak ia
5 5
ĠW ell
Ġsugg ests
Ġoccup ation
ĠWed nesday
c al
Ġlet ters
Ġwilling ness
Ġy ield
Ġaccording ly
Ġjurisd iction
P re
Ġc ater
Ġtext ile
Ġdev oted
Ġposs ess
Ġinsuff icient
ĠBos nia
Ġcl arity
B el
Ġarr anged
Us ing
am in
Ġ12 0
ĠAn ge
Ġs ample
Ġdist urb
Ġinv ent
Ġsw it
Ġmotor way
ĠDep artment
ac ific
Ġ6 00
Ġfore cast
}} )
Ġtraged y
Ġter rible
ĠPl aza
Ġlog ic
Ġfol der
Ġp our
Ġowners hip
Ġfeat uring
du le
con f
Ġexc ursions
Ġclick ing
Ġaccess ories
Ġstay ing
be it
ill ance
0 7
Ġb read
Ġe in
Ġd up
ĠH ist
Ġinspe ction
Ġw ave
ener y
ĠInd ones
Ġste am
Ġbran ch
Ġsac r
T ER
l aw
Ġre ward
Ġbig ger
as ion
Ġdest inations
Ġstri ke
n ational
in ational
ik es
ĠHead s
ast ing
l ich
Ġoptim al
olit ical
Ġfif th
Ġsimultane ously
Ġcomp osed
Ġmeasure ment
B C
ĠA P
200 6
ud es
Ġspect rum
u ct
Ġexpress ly
M an
il ation
em ed
ord s
Ġg rat
Ġcontinu ously
Ġpl ate
Ġrev ised
Ġf o
Ġaf raid
L ook
are st
Ġcert ified
ĠM el
form ance
Ġwhat soever
C ent
b re
ĠUS D
Ġopp ose
u j
Ġdoub ts
ĠMosc ow
p ie
and o
Ġart ificial
Ġrec all
Ġcal endar
Ġsun ny
ars h
ĠPh il
Ġdyn am
Ġaffect ing
ann es
Ġpromot ed
b i
Ġmanufact ured
Ġcert ification
Ġa qu
ĠJ ean
Ġass ert
Ġfind s
Ġtransact ion
b el
Ġe lder
ĠG ood
ĠV iet
Ġass et
Ġfal se
g a
ĠN av
ĠV ict
ĠDav id
Ġexam ined
Ġmod ify
Ġd iving
4 7
Ġg ift
Ġun ity
ĠIntern al
Ġb aby
Ġint ense
Sm oking
Ġforg otten
Ġm ine
Ġinf o
ĠMoroc co
Ġcon j
ĠB re
ĠR h
Ġdead line
B et
ĠSalz burg
Ġsto pped
F our
ul ates
ĠZ ur
f ield
at ural
ar ious
ĠG ar
ĠL and
ĠN ik
Ġup load
Ġtrans fers
Ġpath s
M od
le ted
Ġbas ically
Ġdel ays
Ġstress ed
Ġsovere ign
Ġremov al
Ġbelong s
ĠPalestin ians
U L
condition ing
Ġf ell
Ġref use
ĠGe orge
Ġin ner
Ġspecial ly
Ġtar iff
à ¸
ĠN az
Ġno body
ĠCon c
Ġgrant ing
Ġvac c
ashing ton
Ġ icon
Ġbe ef
ip her
Ġtrans itional
ath y
Ġdriv en
b orn
Ġper pet
Ġs ake
ag on
Ġphot ograp
Ġt ang
Ġr ing
Ġlos ing
Ġtrou ble
Ġfrequ ency
spe ed
Ġrub ber
s ession
Ġr iding
Ġsc ulpt
Ġinteg rity
Ġinstall ations
r ison
Ġelect oral
Ġconven ience
og en
Ġk new
Ġsold iers
. )
Ġb ot
Ġres idents
Ġdecl are
Ġst ead
Ġcomm od
ĠLe ft
Ġ197 0
Ġp ace
ier a
Ġ199 1
Ġpark s
rat or
Ġfocus es
Ġarrange ment
Ġdim ensions
Ġpl ain
Ġcoll apse
Ġbehav ior
ir ts
Ġeth ical
Ġc m
Ġb out
Ġbus es
at en
ur ches
Ġman ip
Ġfall ing
Ġquant ity
k l
Ġb icy
Ġtoile t
Ġproduct ive
Ġdistin ction
Ġl akes
Ġbook ed
8 6
i ber
Ġprof ound
Ġg ear
Ġhealth care
Ġlands cap
ĠSky pe
Ġpharm aceutical
Ġp ensions
ĠEng ine
ĠM ax
itiz ens
ĠFinn ish
E A
Ġrenew ed
ĠTai wan
ĠL ife
ress es
Ġaccur acy
rit ten
Ġexhib itions
Ġarchitect ural
Ġterrit ories
ĠChair man
H er
Ġcorrespon d
ĠSud an
Ġbroad er
ĠP RO
riv ing
Ġobserv ation
ĠV ers
Ġar ray
ian a
Ġadv ise
Ġbuy ing
G erman
m akers
r ally
P al
ad y
Ġ198 9
Ġdes erve
ck er
Ġide ally
Ġlog ical
S omet
Ġs ailing
Ġturn s
Ġprepar ations
ĠExt ernal
Ġvine y
Ġresearc hers
l ist
Ġw al
Ġcan cel
Ġm outh
Ġdes ktop
Ġnewsp aper
Ġvis its
Ġundert ake
ĠMe eting
Ex per
hol m
E F
Ġmonu ments
B u
Ġlo ans
G reat
S V
l ock
au er
Ġke ys
ĠSc ot
Ġcam eras
A I
Ġaltern atives
ĠDeuts che
el ve
op ard
ĠTun is
ĠB at
Ġpub l
Ġprox im
Ġcomplim ent
E X
ition ally
Ġachieve ments
Ġregul ated
Ġbrand s
Ġg ro
Ġch a
pr ing
Qu estion
g art
s he
Ġrel ief
Ñ Į
Ġd uration
ĠPlay er
T C
Ġel ig
Ġbenef icial
Ġprest igious
ĠM ass
ĠP ers
Ġce iling
Ġthe rapy
ĠV iew
ir s
Ġwhen ever
Ġcancell ed
ĠO S
olog ne
Ġident ification
Ġcatal ogue
Ġsu ited
Ġexplicit ly
H ave
Ġtrans it
6 7
Ġm as
Ġpost al
Ġmechan ical
ĠRepresent ative
St art
Ġautom otive
Ġconstruct ed
Ġrec over
Ġnecess ity
ors es
S ch
Ġprevent ed
Ġpublish ing
ĠGN U
Ġmach inery
ĠG aza
ĠR ich
Ġpress ing
Ġir re
angu age
ĠAd minist
Ġofficial ly
ĠCol le
Ġconver sion
Ġreve aled
ast richt
ĠN I
Ġgreen house
Ġ3 8
Ġhy dro
Ġt ur
ĠMy SQL
ĠN ow
Ġsusp ended
h our
Ġad j
Ġtra ins
chn ology
Ġdeb ated
Ġpres idential
Ġsurve illance
it ter
Ġp oker
Ġper ce
Ġconcert s
4 4
E G
Ġc row
ard ing
Ġpop ulations
Ġfocus ing
at lantic
R el
n en
Ġb ay
Ġar ts
Ġw ars
Ġext rem
Ġemploy ers
Ġprec ious
Ġlog o
Ġcertific ate
Ġdeter ior
Ġmult inational
ĠCo operation
p m
lo ok
Ġunus ual
t ains
Ġa x
ou ble
ĠComm unic
Ġvar iable
Ġconst ra
ay a
Ġgr ass
u f
ac iÃ³n
ra ction
AT ION
Ġsche dule
Ġper sec
ag n
Ġcivil ian
Ġpreserv ed
Ġsign als
Ġafford able
ur able
Ġrelax ed
Ġnegoti ated
Ġconserv ation
ĠL im
Ġfrequ ent
Ġswe et
iz er
ĠFl ash
Ġthreat ened
Ġrat ified
Ġrul ing
G erm
Ġse gment
ic ks
os a
ĠO l
Ġcertain ty
st one
Ġign ore
Ġl od
pect ives
Ġthank ing
Ġindic ators
Ġro ots
Ġtelecommunic ations
j an
Ġtra ined
Ġref lection
ĠM aced
Ġtaxpay ers
ĠP rem
ic ted
ĠC arl
Ġcook ies
ĠA st
os h
ĠR ail
Ġhosp ital
ĠT al
ĠL os
ĠW ashington
Ġatt ended
Ġch ose
ĠMon te
ot he
Ġbre ach
Ġphotograph s
ĠSu ite
ĠAut om
Ġl ingu
ĠM aster
Ġm ental
Ġnational s
Ġadjust ment
ĠRober t
re ction
io x
Ġenc ry
Ġfail s
Ġsand y
Ġha m
ĠSt orage
Ġtre as
lim ited
le m
ĠE qu
Ġcent ers
M L
Ġno on
Ġfavour ite
C urrent
Ġg ast
Ġcon form
reg ular
Ġsupplement ary
w a
Ġreal ize
ĠMa astricht
6 5
ĠA rea
ĠHostels club
pos ition
ĠL as
Ġinnov ations
ĠC ount
Ġst ops
ung en
Ġrele ases
Ã¨ s
ĠBud apest
ĠSp ace
Ġshe l
Ġnegoti ate
ĠRo ad
ĠM and
Ġle ts
Ġinter active
Ġpost s
o is
Ġ9 00
nt il
Ġuncertain ty
Ġun known
Ġcitizens hip
ĠÐ ¿
Ġdriv es
ĠOlymp ic
Ġalumin ium
S everal
Ġfarm s
Ġlog istics
Ġcompr ises
ĠPri ze
Ġcl ock
Ġhes itate
o ose
Ġg ate
Ġliter ature
TM L
Ġacquis ition
Ġoverw hel
Ġt ough
ĠK e
Ġorgan ize
in st
Ġf ru
Ġcon vers
Ġsp are
Ġjust ify
Ġconf ront
Â Ń
Ġtra ce
Ġdeath s
w er
Ġstay ed
Ġreplace ment
iti ative
Ġw age
Ġ1 000
Ġclaim ed
Ġg ym
ĠG U
T ogether
ut ral
Ġacadem ic
Ġth r
ĠT am
Ġ9 5
ĠPh ot
Ġsub stit
he art
Ġf old
Ġmist akes
Ġc ouncil
Ġdemonst rates
ik a
Ġpurch asing
S te
ĠP ia
Ġpublic ations
ĠSoc iety
Ġmanif est
g ments
Ġev olution
pl ate
ĠRe v
ĠS ie
Ġill ness
Ġtow er
s ki
Ġworry ing
Ġadvert ise
Ġdisappe ar
ĠM S
Ġr anging
ĠB av
Ġcl othing
Ġinterv ene
Ġocc urs
Ġimport ed
see ing
Ġbureauc racy
Ġsign ing
ĠMil an
Ġde lete
ĠPro cess
Ġmov es
ĠAir bus
Ġwin ner
E s
Ġmand atory
um ed
t el
ĠU s
ĠMar ina
p in
ĠM oz
ĠT ool
ĠD al
Ġnot ified
Ġcatal og
M ar
ĠH D
y e
Ġal ike
Ġapplic ant
Ġwithdraw al
u ania
ĠS D
ak h
Ġtw in
Ġph ones
ĠC ur
if ts
Ġchemical s
ĠZur ich
l en
Ġemerg ed
Ġunanim ously
st ruct
Ġcoord inate
Ġfeed back
Ġprivile ged
z es
Ġnot ably
ex ist
m atic
Ġjud gment
lim inary
Ġorient ation
Ġj oy
ĠW ater
Ġte ach
Ġcompet ences
Ġconsist ently
Ġair line
Ġpat ents
Ġconv entions
ĠM Ã¼
p re
ad s
Ġex empt
S pecial
Ġhar bour
Ġpattern s
m l
ic hel
Ġheav ily
Ġ Î
ĠS ection
ĠB ed
Ġindic ates
Ġqual ifications
Ġcock t
Ġch urches
Ġcontrib uting
i pp
Ġacc um
on ing
ĠC ologne
Ġf lying
as is
ĠM en
Ġgener ous
ss en
Ġcreat ure
b ut
ĠP R
Ġpl acing
Ġwhere ver
Ġapparent ly
ig u
Ġclos ing
ĠSocial ists
R estaurant
in z
Ġspec ify
ĠOper a
P ar
ĠB ureau
enc ia
Ġmur der
ĠR ob
Ġz ero
lect ed
Ġelder ly
ab we
Ġstr ange
Ġdownload ed
Ġton nes
Ġdesign er
ĠM erc
Ġ6 5
Ġsen ior
Ġevalu ate
imb abwe
ĠPartners hip
Ġmov ies
Ġall ocation
ard o
Ġsur pl
ĠChe ck
Ġfinan ced
Ġpriv at
Ġdispl ays
Ġsystem atic
Ġviol ent
Ġprec ision
Ġarg ue
Ġin ject
ar ations
ĠT ro
ĠH is
ĠA sh
Ġke en
er ge
Ġcred ible
Ã ½
Ġprec a
Ġtyp ically
ĠGent oo
D r
Ġle ather
a ul
ĠT om
Ġexperi encing
Ġmeas uring
ĠLi beral
Ġdrink ing
est yle
Ġsent ence
E E
N ext
Ġf ert
ĠM old
Ġim bal
ĠYugoslav ia
Ġredu nd
Ġpursu ant
Ġc aught
Ġiniti ated
Ag ain
ĠSou thern
Ġproxim ity
Ġtime ly
Ġcop ies
i qu
ĠB SE
Ã¡ n
Ġform ation
Ġdefic its
Ġc ra
Ġsm oking
Ġimpos ing
Ġproc urement
ues day
8 8
ĠF air
ĠW ord
Ġprem ises
Ġsil ver
ll er
ĠPresident s
Ġdoll ars
Ġs essions
Ġcontract ual
Ġconver ted
B M
v y
if orn
Ġconf ident
Ġheadqu arters
Ġe gg
apt ain
Ġag rees
Ġav o
ĠL og
Ġass urance
Ġansw ered
Pl ay
uzz i
Ġslow ly
Ġd ual
Ġrece ipt
Ã¨ re
Ġintellig ence
Ġfavor ite
ĠStud io
C ol
ĠEuro pol
Ġsc r
Ġdeg rees
u z
ĠL ate
Ġhuman ity
Ġreturn s
le et
Ġpart ition
Ġdis cre
Ġrat io
Ġpursu ed
Ġ5 5
ik i
Ġvisit or
Ġcreat ivity
Ġs lo
ĠM o
Ġbiod iversity
ĠM ess
ail ed
ress ing
Ġarch ive
Ġeuro zone
Ġdisp utes
Ġwarm ly
ĠSing le
Ġarbit rary
Ġco oking
ock et
up s
Ġsil ence
pl an
Ġre cession
Ġkeep s
ell ed
Ġz ones
Ġpotential ly
Ġst ance
Ġvir us
Ġcont est
Ġrob ust
ent e
Ġsem i
ĠCons erv
6 6
Ġpers pectives
Ġfind ings
x ic
y pe
au x
ĠJ ack
Ch ina
Ġminim al
A F
c ase
un es
ĠT it
Ġtreat ies
h o
k el
Ġhand led
Ã¤ r
ri um
Ġconv ince
ak ings
ene z
Ġaccommod ate
ĠS ar
ĠR iv
Ġexpl ains
ĠS O
ĠP ay
Ġunem ployed
iling ual
' d
st uff
ĠA M
Ġoccup ied
b les
ĠC ON
Ġr ating
Ġdet rim
Ġinteg ral
ĠS ur
ĠN ic
il a
ĠR ural
Ġ3 4
Ġterror ists
Ġr ic
ĠA ccess
Ġspecial ities
Ġsuggest ion
g or
Ġpract ically
Ġir regular
ĠDep osit
t rans
Ġrespect ively
Ġworksh ops
Ġsh ot
Ġvot ers
Ġspecific ations
ĠC amb
Ġinter f
Ġben ch
Ġhe ro
Ġtra il
ĠCond itions
ĠAd ri
Ġtemper atures
Other wise
g in
m ony
Ġass ured
Ġlight ing
ES S
Ġlow est
Ġamb ition
ĠCharl es
ĠColle ge
Ġp ays
ĠB erg
Ġun ions
Ġfit ted
ĠJ ul
Ġess ence
Ġtre m
o a
Ġbl ame
p es
ĠJ ames
Ġsc ore
it ra
U ntil
ĠLith uania
Ð ´
Ġf ate
Ġd iet
ĠE nd
Ġ3 3
Ġsol ved
Ġo x
ĠG rowth
ocol ate
ĠP acific
Ġhe ated
Ġst ays
Ġref urb
Ġexpl os
Ġplatform s
Ġexpos ure
v an
is co
or ate
Ġparad ise
Ġvia ble
Ġdescrib es
ĠBur ma
ust ain
Ġfund ament
ht aking
ĠEmp ire
Ġdef ining
Ġped est
ra f
Ġen viron
ĠW olf
che stra
ĠYou th
Ġt ropical
ch ron
ĠZ imbabwe
Ġperform ances
Ġenl arged
Å ¾
am i
Ġse es
ĠK urd
Ġadv ent
Ġfl ash
Ġprogress ive
Ġd ating
ĠU R
ĠUS S
Ġlo vers
Ġcol umn
D ie
ĠC OM
ĠL ive
Ġdes irable
ĠStand ard
Ġcontrovers ial
Ġrece ives
Ph one
8 5
W ork
rom e
ĠG i
Ġj ew
Ġworksh op
P ress
Ġacqu ire
Ġmir ror
Ġemphas ised
effect ive
Ġtalk ed
ĠBl ue
im m
Ġdi ver
ĠWeb site
ĠF OR
ĠCh ampions
ĠB i
ab e
ĠV ir
Ġconsequ ently
Ġmag ic
oph ob
Ġcover age
Ġha ird
ĠSloven ia
I X
Ġm urd
Ġst roll
Ġen chant
Ġmeant ime
O W
ĠP en
ĠJ oint
af e
Ġavo ided
ĠH ans
ript ions
ĠMal ta
Am end
Ġcompar able
Ã¡ s
N S
200 5
ance ll
Ġpre liminary
Ġdirect ions
ĠLe on
Ġharm ony
Ġtort ure
Ġer adic
Ġundert akings
Ġdisag ree
ĠL ic
Ġfund ed
Ġsett led
Ñģ ÑĤ
Ġis n
u h
Ġl aser
out s
ĠN ov
Ġdevelop s
Ġsw ift
Ġcrop s
ic an
Ġdiff er
Ġce ase
F l
or ca
ĠSer ies
Ġexpand ing
Ġemb ed
Ġbi ological
ĠDef ence
it ting
Ġnon etheless
ĠSu pport
Ġexch anges
Ġp apers
Ġb rain
el ess
Ġcho osing
Ġview ed
eng er
ĠScot land
st able
ĠSy ria
Ġunderm ine
M on
Ġad mitted
Ġthorough ly
Germ any
M ake
Ġ ri
Ġtrans formation
Ġtem pt
Ġwind s
Ġworth y
ĠUn ivers
or able
ĠC a
Ġinter institutional
Ġdev ast
ĠTe le
Ġsubstantial ly
ĠCat hedral
spec ific
C le
ct s
Ġterm inal
Ġbr ut
ĠDemoc ratic
c as
i verse
ĠV o
Ġter ra
Ġgraph ic
N A
O U
ĠI V
ast ery
ak ed
Ġpartnership s
ĠV ideo
Ã¤ t
Ġapprec iated
Ġbreat htaking
Ġw ake
Ġsc enery
Ġi P
Ġent ries
Ġgir l
p ack
Ġexpress ing
Ġdraft ing
Ġtrib ute
er ie
v i
Ġs i
ĠI b
Ġdes ert
Ġdecl arations
Ġult ra
Ġcontroll ing
y ou
Ġsal t
. "
Ġ rivers
Ġsp r
Ġret ire
comm erce
ĠStock holm
at in
Ġw ise
ion ed
H our
ĠA D
ative ly
ij ing
E m
Ġt ank
ĠD ar
3 00
Ġthe ore
Ġfe as
C P
p ower
Ġres id
ĠIran ian
Ġdisappoint ed
Ġteac her
ĠW ars
ĠO s
Ġperform ing
Ġsign ature
Ġbelong ing
ĠBud d
u ber
ĠI ce
ad ium
ov en
Ġche ese
Ġphot ography
7 7
un ior
Ġmax im
Ġexec uted
c ard
anc ies
Ġstat istical
Ġinc orrect
Ġcont am
Ġra ises
Ġfin est
Ġform ula
Ġcat ast
Ġprohib ited
Ġc ot
st ep
av i
Ġconf usion
Ġregul ate
Ġre ct
Ġceleb rate
Ġbird s
Ġt ips
Ġsur g
iforn ia
Ġlic ence
ĠIraq i
ĠCommun ist
a fter
Ġex ert
Ġincred ible
Ġdownt own
Ġinc ur
Ġpost ed
Ġp ray
Ġw are
Ġm ale
ism s
Ġfinan ces
Ġsport ing
Ġp act
Ġneg lig
ĠApart ments
Ob viously
Ġacknowled ged
a id
Ġnot ion
Ġem ission
Ġdam aged
it ored
Ġp m
Ġed it
Ġpaint ings
Â «
ĠT rad
Ġje opard
Ġf ought
Ġas pir
ĠDe cl
ĠF ort
mar quis
com ings
Ġfear s
Ġp ine
Ġtell s
Ġbureauc ratic
is er
ĠB ang
b rid
less ly
Ġscre ens
Ġcry stal
Ġtem por
Ġisol ated
Ġt or
Ġregret table
Ġcapt ure
Ġscand al
Ġspirit ual
Ġfulf illed
Ġinteract ion
Ġth in
ĠLe ague
Ġhop ed
Ġw ages
Ġengine ers
Ġt ub
Ġin quiry
Ġpred ict
ĠE levator
ĠF ar
P R
ĠI G
ĠParliament ary
Ġign ored
y ers
ro b
ĠT uesday
Ġautom ation
el lo
Ġsoc io
Ġpublic ly
Ġu m
Ġshort comings
ol er
y es
Ġinterm edi
Ġcondem ned
ment ation
ĠP utin
ĠB rand
Ġtra m
Ġless on
Ġreject ion
he ast
it udes
Ġp od
Ġm aps
un ately
Ġcos met
D ep
Ġb orrow
Ã¼ h
Ġab und
Ġbat tery
ĠOb ject
Ġm erc
ĠE X
ĠG ulf
Ġout set
fortun ate
a o
Ġmon itored
Ġfall en
ĠM ach
Ġall oc
Ġmeas ured
ĠTh omas
al ia
re r
al ys
Ġag ent
Ġthem es
Ġthough ts
ious ly
Ġ19 60
B A
Ġsh ame
ĠD ec
ĠL uggage
O ff
ĠS port
Ġs q
Ġg al
Ġpre re
Ġfound ing
Ġhaz ard
Ġenviron ments
Ġmod est
ĠQ uality
riv al
Ġdownload ing
part y
19 99
h ost
Ġb id
Ġ7 00
Ġcharacter ized
c at
Ġb are
op ter
ĠK arl
Ġaccept s
ĠInst ru
Ġt ip
Ġgu itar
Ġbran ches
Ġoffic er
E xt
Ġre per
id el
Ġdem ographic
Ġcomplex ity
Ġsubsidi ary
Ġvolunt e
ĠC ath
Ġfest iv
ĠLeban on
st ation
Ġexper iment
Ġgovern ed
cell ent
Ġchalleng ing
atur ally
7 1
Ġgen et
Ġwarm ing
c rib
ĠR en
Ġcharacter ised
Ġcoord in
Ġincorpor ate
Sim ilarly
Ġautonom y
w orld
u pp
Ġconj unction
ĠMc C
4 1
A ir
ĠN ep
ĠEd ition
ĠBudget ary
ĠAdri atic
Ġh ier
ĠL o
Ġcamp s
Ġguid ance
k ind
Ġd ust
urn ing
Ġdepart ments
Th ree
Ġincent ive
Ġabandon ed
Ġstruct ured
Ġcod es
ĠArgent ina
Ġlack ing
condition ed
ri x
au g
Ġword ing
Ġun fortunate
Ġad verse
Ġsepar ately
Ġch airs
Ġpl ural
ĠM all
Ġreal ized
Ġprom inent
em ic
Ġaccept ing
cret ion
Ġoffic ers
Ġp ione
ail and
Ġsimpl ify
Ġpenal ties
ĠInvest ment
Ġe le
ĠF ried
ins ula
Ġsch ol
A ut
Ġ4 2
Ġ20 12
Ġgen etic
Ġexcept ions
Ph ot
ĠD ie
ĠO ther
Ġgr ants
ĠHe ating
Ġdelic ate
Ġdefect s
u um
Ġflow ers
Ġf ib
Ġm ixt
ĠM ur
ĠH en
Ġsurv ive
Ġfood s
Ġmult imedia
igen ous
ĠD igital
Ġinv itation
Ġ6 4
olit an
b ach
Ġinfring ement
ĠMaced onia
ĠI ron
Ġtrans mit
Ġtrans atlantic
Ġwat ching
O C
Ġsp ots
Ġceleb rated
el le
Ġk ids
p ly
Ġreturn ing
Ġder ived
Ġundert aking
c ut
ed e
Ġdistin ct
Ġtail ored
id ad
Ġsurv ival
Ġveget ables
ang er
ric ts
ĠSc ience
Ġparam eter
Ġsemin ars
ry er
ĠK irk
Ġcirc uit
Ġindic ation
Ġtoler ance
Ġrac ism
Ġsens or
Ġprop ag
ĠLab our
Ġdiscip line
D I
Ġp iano
if eration
Ġcomp are
men se
Ġshare holders
oc ent
h ist
Ġredu ces
ĠAd obe
N et
ĠS ony
Ġreg imes
Ġequ ity
Ġopt ical
Ġdraft ed
b reak
Ġp ig
et erm
Ġsty les
st adt
Ġre verse
Ġas semb
200 4
Ġgar age
ĠCol omb
r Ã©
ark ed
Ġco inc
Ġimp rison
iab ly
Ġden ied
ĠQu ark
ĠM em
Ġan x
Ġparticip ated
Ġtrem end
o ard
ĠS on
ĠNor way
in os
O pen
r ass
w all
Ġt aught
ĠC re
Ġpro te
Ġstri king
at hered
ĠS l
Ġmod es
Ġreiter ate
ĠBM W
4 6
Ġ č
at ile
Ġcent rally
ĠPalest ine
ias m
R ead
Ġt act
ie v
Ġquot a
or i
is en
et ition
Ġredu ctions
Ġtransl ations
Ġendeav our
ĠDecl aration
ĠP oint
ĠT est
ĠT op
Ġtra ils
ĠO f
Ġcontin ually
Ġensure d
Ġlandscap es
Ġhorizon tal
Ġf ro
Ġl oyal
ĠH oliday
Ġfe els
Ġshe ets
Ġder og
P ol
z ig
Ġth read
Ġup coming
Ġsearch ing
ĠF A
Ġcl othes
Ġim mense
Ġsol o
Ġdef ending
Ġmind s
roll ed
Ġf inger
if iable
ĠH ere
iss ance
ĠPu erto
Ġt ut
Ġd iox
Ġun equ
Ġautom ated
ĠÐ ²
Ġconsist ency
4 3
th ly
Ġch amp
ĠSt ep
l iness
iz a
ĠSh ow
Ġassum ed
Ġst ood
Ġquant ities
Ġg est
Ġpre jud
Ġsimpl ification
Ġde lla
Ã¼ s
Ġm issions
Ġh ire
Ġro les
ĠAlb ania
Ġdoct ors
Ġmy th
Ġunder line
ĠD E
Ġrespect ing
Ġtell ing
Ġinvestig ate
P rodu
um ber
ĠCan on
Ġrespon ses
Ġpre ferences
de b
Ġcirc ulation
j u
et us
Ġem erge
ĠBe ijing
ĠDol om
Ġe lev
Ġrequ iring
ĠHost el
Ġbad ly
Ġarrest ed
Ġnewsp apers
Ġcirc le
Cle arly
Ġlist ened
be an
Ġsens it
eff icient
Gu ests
Ġfran k
l ad
ĠP riv
Ġgu ides
Ġed iting
utt gart
Ġa est
es se
id ity
ĠCar ib
Ġtransform ed
Ġcl im
Ġbro ch
a ire
ĠTy rol
Ġt ension
Ġh ide
Ġre bu
Ġacc used
b ally
o que
Ġinter im
Ġexpl oring
c i
Ġb anned
ĠL ight
p ool
Ġt ape
he rent
Ġc er
ĠK al
Ġcomb ining
epend ent
H ence
Ġ ram
ĠQu estion
Ġcalc ulated
Ġimper ial
C ertain
y al
Ġf uels
ĠE s
ĠA I
Ġconvenient ly
ĠV enez
ĠGu ests
ĠSc ott
Ġlog in
b ec
Ġweap on
Ġwal ks
ch i
Ġcheck ing
Ġanalys es
Ġconcent rated
Ġepis ode
bur gh
C ar
P ublic
Se lect
r ine
oc ial
Ġbo ards
Ġcross ing
Ġenem y
ĠS AP
ĠM obile
we g
Ġgold en
Ġoverwhel ming
b ing
Ġo cean
Ġl ights
ĠS ad
ĠP ap
Ġall iance
Ġdis cretion
Ġident ical
Ġsustain ed
Ġconsist ing
Ġpan els
Ġde leted
Ġbox es
ĠAlex ander
ic ular
ad ed
Ġbas es
T ur
ĠR am
arg o
ĠCal ifornia
Ñ ĩ
Ġb ow
Ġprof iles
Al ong
Ġwid th
rac ies
Ġpl ed
Ġcul inary
Ġvic inity
Ġperman ently
Ġrecy cling
m n
stuff s
Ġe ar
Ġcomm end
we ight
9 3
Ä ĩ
Ġev il
Ch oose
Ġobser vers
W est
ES CO
Ġse vent
Ġspecial ised
Ġenthus iasm
Ġch ocolate
Ġper ipher
Ġpo et
Ġtack ling
Ġpursu ing
Ġsudden ly
Ġd aughter
ĠH TML
Ġche aper
ud i
Ġdemand ed
Ġtrademark s
ph a
ug en
Ġoverlo ok
f all
st en
Ġi Phone
Ġabol ition
Ġcolon ial
7 8
9 2
Ġfor b
ĠCh ile
cent ury
c or
Ġm igrants
ÃŃ n
Ġadapt ation
Ġresort s
Ġlingu istic
9 4
Ġper f
Ġexplo it
Ġearth qu
Ġne utral
Ġdemonst ration
d ays
Ġtw elve
Ġdisc overy
I mp
ol is
ap ore
Ġt iss
Ġab st
Ġconf ron
Ġopt imum
f leet
ĠB us
ĠAnt on
Ġpro pri
ke eping
Every one
ĠOrgan ization
Ġfif teen
ĠHam as
v ar
ĠAn onymous
Ġrail ways
Ġdis h
Ġlou d
s ight
Ġf ires
ĠS av
ail able
Ġcle arer
Ġmin ing
Ġpass es
Ġbrow s
m ist
Ġin cl
Ð ¡
Ġt ap
at on
it ably
Ġg od
Ġy ellow
Ġknow ing
Ġrest oration
Ġfurther more
Ġir res
Ġinvestig ations
Ġobtain ing
Ġisol ation
Ġunp re
P M
Ġref ined
E st
ac ent
Ġend ing
Ġdist ricts
Ġwarrant y
Ġtang ible
Ġdes per
ob el
he ld
r aries
E EC
u ation
is ons
Ġun limited
Ġhost s
ĠApp le
ĠViet nam
Ġsepar ated
Ġ ly
iv a
olog ically
Ġcar go
Ġsec urities
Ġcompet itors
ĠCo ast
Add itionally
en ess
Ġcommon ly
Ġfail ing
ĠAcc ount
n ik
Ġstr ive
Ġauthor isation
Ġsusp ic
ĠS ound
Ġch arter
Ġpresent ations
l an
Ġen for
ter ing
ĠO pt
Ġweek ly
Ġconnect ing
Ġhum ans
R C
im p
ĠT el
Ġconsolid ation
Non etheless
Ġpubl isher
ol ly
red it
Ġcontrib utes
Ġabs urd
le ys
Ġre un
Ġg athered
Ġan nex
Ġso fa
ced ented
ug g
Ġh us
ĠL ie
Ġcongrat ulations
appro pri
us se
ĠIndones ia
ru ck
ĠLate Rooms
ist ance
ĠG B
Ġannounce ment
Every thing
sy stem
is che
Ġg rew
Ġbo oth
Ġdistingu ished
B reakfast
N aturally
Ġc ens
Ġf rust
Ġal ive
Ġindepend ently
Ġunpre cedented
Ġsc ar
E ng
Ġnot iced
ĠT w
ĠN OT
Ġset up
Ġ20 13
ah r
reg ulation
Ġmarg inal
A K
ond s
Ġbenef ici
Ġsym pt
t r
Ġs ail
pl ed
Ġopt ional
Ġinflu enced
Ġlov ed
Ġst rip
Ġhome page
Ġperm its
ĠDan ube
t re
Ġn icht
Ġra nd
Ġmot ions
Ġst orm
Ġor g
Ġmin ib
et a
Ġamb itions
LA F
Ġf illing
ĠC lean
em s
Ġback ing
Ġbr ill
ĠÐ ½
Ġencount er
ol s
Ġnot ification
ĠReg ion
Ġden y
Ġadjust ed
Ġre ar
Ġcon qu
ĠJ o
Ġestim ates
Ġimpl ies
ĠF acilities
Ġcar rier
g roup
ĠSh op
is a
Ġj ump
Ġact or
ĠTh ailand
rim inal
Ġp ix
Ġm ic
Ġg ains
Ġde emed
Ġun stable
Ġp ull
Ġtrans mitted
Ġend ors
dep th
R ussia
t age
u i
Ġauthor ised
Ġcinem a
R em
o ft
Ġv end
ĠNord ic
Ġresc ue
Ġpre gn
te ch
z b
Ä Ľ
ĠM ade
Ġgast ronom
4 2
Ġa rom
Ġl ag
ak s
ĠO cean
Ġgra ve
ĠLib ya
ĠF reedom
Ġco pe
Ġdifferent ly
ĠAr ts
u est
he sion
ick et
Ġsk ill
ĠS olid
200 7
im al
ld orf
Ġcap ability
Ġdang ers
Ġun ex
ĠK en
ĠAl g
Ġexcell ence
Ġsuper visory
i i
Ġfeel ings
Ġobserv ations
O P
m us
est ab
Ġhe l
ĠSt uttgart
Ġinter governmental
Ġprevent ive
op en
ÃŁ e
Ġs ick
Ġc ig
ĠH oly
Ġact ed
Ġ8 5
Ġassess ments
O K
Ġnow adays
Ġlab els
Ġmus icians
y an
Ġemploy ee
Ġlabor atory
Americ an
ĠW al
ier ra
Ð ·
Ġcapac ities
Ġdomin ant
um s
ĠG ame
cl os
Ġves sel
Ġstake holders
usal em
d is
Ġv enture
Ġro se
nc ies
ĠK r
Ġeconomic s
Ġmonth ly
Ġconsult ed
Ġunanim ous
ĠR io
th rough
Ġfl ags
Ġremov ing
v ol
are t
Ġamb ience
ĠC R
âĢ ĺ
ian ces
ann el
F acilities
f ire
Ġt one
at ories
Ġdom inated
Ġven ue
ean while
Ġmiss ed
Ġshe ll
Ġbound aries
Ġwin ners
Ġfurn ish
Current ly
sp ace
mark s
Ġkilomet ers
ĠE R
Ġch ampions
Ġplan e
Ġmar ried
oh n
al and
ĠR et
ĠK l
pl atz
Ġdesign ers
Ġpromot es
Ġpartial ly
an as
In formation
Ġspeak s
Ġinvest ed
Ġyoung er
ĠUN ESCO
Ðµ Ð½
isp ens
ra v
Ġind igenous
Ġaud it
Ġdatab ases
ĠAnd al
ĠMill ennium
re b
es h
Ġp rag
oth ic
Ġsight seeing
Ġbe ars
ĠD em
Ġafter wards
fe ld
Ġstru ck
h uman
Ġcount less
Ġlif estyle
Ġapprec iation
il ia
ter ies
ĠV e
Ġmail ing
Ġclar ification
Somet imes
ĠT ower
Ġext ends
Ġviney ards
Ġdis par
te g
Ġpr ide
Ġconv iction
Ġdism ant
Ġunlike ly
on ly
Ġcy cling
ĠTra vel
ĠB an
ĠF ilm
Ġbut t
Ġaw ards
Ġel abor
ut y
ment ioned
Ġequ ip
Ġcomfort s
AC H
Ġthe at
ĠS ome
Ġsincere ly
Ġinspir ation
ĠCarib bean
AN T
Ġcab in
Ġembed ded
ul us
ĠE ur
hib ition
Ġdos si
en ade
Ġl ens
per or
Ġcollect ions
P ort
Ġb esides
ĠSe e
ĠAlp ine
p ine
Ġre aches
Ġat h
Ġe ine
ĠP L
Ġtransl ate
Ġin clusive
ra ge
ĠP ress
od a
ĠL y
Intern ational
U P
s uch
Ġste ep
Ġstring ent
Ġsyn chron
ote chnology
Ġdecent ral
hy th
Ġinfrastruct ures
Ġelig ible
Ġrand om
Ġh al
Ġreven ues
Ġhect ares
Ġac id
Ġsafe ly
Ġreconc iliation
Ġgenet ically
c ia
ĠG er
Ġpr on
Ġlaw yers
Ġrad iation
N ear
ĠR em
ĠF our
V IS
Ġhyp oc
A Y
t ar
Ġun ilateral
Wh ich
Ġw er
Ġbond s
ĠDist rict
if ferent
Ġsepar ation
ĠIndust rial
ĠGold en
Ã ¸
Ġqual ities
Ġsymbol ic
Â Ĵ
ra pporteur
ĠW il
si ans
Ġreal ised
St ud
Ġpal ace
Ġind ispens
Ġvill as
Ġsusp ension
Ġsumm ary
ĠJose ph
Ġt iny
ĠP SE
Ġreprodu ction
ĠR oc
ĠL es
Ġup hold
Ġmoder ate
l ers
ow ed
Ġjust ification
Ġinvest ing
ĠCl ient
ĠLib rary
ord ers
Ġinst ant
Ġdictators hip
Ġcater ing
4 00
ist rib
Ġref res
Ġdesign ated
Ġattempt ed
Ġexplan ations
p ost
b ul
ment ed
Ġv ice
Ġint oler
Ġt ies
Ġn utr
ĠM ichel
Ġdra g
ĠPe ace
Ġsubsc ription
ĠSuper visory
I K
Ġw ast
Ġd il
ĠS pring
isc her
Ab ove
Ġmotiv ated
Ġconstra ints
E nterprise
p g
it en
Ġins ight
Ġcrit er
Ġlay ing
Ġscen es
Ġscen ario
Ġd ive
Ġe ating
Ġsec ured
ÑĢ Ð°
Ġdream s
s creen
Ġag es
AR T
Ġut ility
Ġdelay ed
ĠJer usalem
w ill
ĠC itizens
Ġse cre
Ġhe lic
Ġdam aging
ĠJew s
Ġ Ä
ro v
Ġlimit ations
ĠM ajor
ĠD res
ann ers
Ġavoid ing
Ġsubsc ribe
) )
S K
Ġa ve
Ġche f
Ġfeat ured
Ġsho es
ĠHer itage
Ġearn ed
S D
i ates
ĠP os
h m
ĠE conom
ĠWar craft
Ġstim ulate
Ġcamp ing
Disc over
r in
y o
ĠL et
Ġseas ide
F ort
is ual
Ġfin ishing
Ġtourna ment
Ġo der
Ġh orses
est one
Ġent ity
Ġexist ed
ĠSil ver
ac o
Ġend less
ĠPl ace
Ġindispens able
ct ic
Ġmin eral
Ġsocial ly
Ġsemin ar
ĠCH F
Ġm ild
Ġimp etus
Ġfl our
ĠEx plore
Ġm ould
Ġd umping
Ġal beit
ĠU r
Ġ {
ut en
Ġclimb ing
ĠC ross
Ġoff set
Ġout lined
Ġfru its
Ġg rad
ĠB ug
Ġhand ed
Ġcohe rence
ĠPlay a
Ġawa it
ĠRe form
Ä ±
ĠE th
um a
Ġadvoc ate
Ġa uch
ern ity
Ġinf ect
ĠCons ult
ĠEM U
Ġun iverse
Ġbo om
Ġinev itable
L inux
Ġ19 50
ĠS L
ĠL ist
ĠW in
Ġro yal
A ct
ĠE L
Ġsystem atically
cont in
C ould
D ownload
L ear
z eg
ĠH o
Ġpl ot
All ow
Vis it
ĠTunis ia
pl ing
equ ipped
Ġwed ding
Ġp it
Ġg aming
ĠN ig
Ġfl aw
Ġaccount ability
ES T
iov isual
im ension
am ous
Ġdis reg
Ġglobal ization
Ġcurre ncies
F I
Ġev ol
Ġsome where
Ġhigh way
oh a
el and
ĠB ridge
Ġinv ites
Ġdef ense
Ġadm ire
Ġjud ges
Ġmis under
Ġcontroll er
Ġb less
ĠM i
ĠB ab
ĠH els
ĠCh ief
ĠSu ites
serv ice
Ġlegend ary
7 2
B O
Ġrout ine
Ġcoal ition
res erv
Ġdeliver ing
ĠMold ova
Ġprov in
Ġdefin itive
Ġblock ed
Ġcompat ibility
h an
Ġto xic
Ġha ven
Ġsubject ed
Ġhon or
Ġoppon ents
Ġeleg ance
Ġin con
Ġauthor ized
7 3
l ink
u cc
il ty
du ction
rupt ed
Ġcompliment ary
T ime
Ġh orn
Ġl uggage
Ġprom ising
W orld
et z
eg ro
ib i
Ġcar ries
Ġau ction
Reg arding
Ġrefurb ished
f ood
Ġth irty
ĠA ven
oy s
Ġarriv ing
Ġdiv ide
Ġload ing
ĠLou is
ĠJes us
Ġfundament ally
Ġpedest rian
ĠAr my
Exper ience
Ġ Ñģ
'' ,
U C
ĠSt ra
air y
Ġp in
ĠM as
chn ya
Ġw aves
Ġdo gs
Ġtal ent
Ġcool ing
ustain able
Ġbe at
ĠC EO
Ġover se
h n
ĠP y
ĠP ersonal
am an
Ġrev ol
Ġcontinu ation
Ġlib raries
Ġneighb or
Ġt urb
ex p
Ġplug in
ĠRad io
Ġsk illed
nov ation
PE G
Ġas c
ĠB lo
Ġcontin ental
Ġopen ly
ux e
Ġretire ment
Ġg un
ĠI mp
Ġform ing
Ġcounter fe
Ġtremend ous
ĠC ab
ren a
M eanwhile
] .
Ġb ust
Ġmain tains
Ġinstall ing
Ġinev itably
ĠGall ery
Ġpr inter
ian n
ink i
Ġfil ters
ĠUk rain
l ation
ĠB our
Ġloc ally
Ġdeli vers
Ġclos ure
os ystem
ĠV ista
Ġgradu al
Ġk illing
Ġprev ents
Ġadm ission
Ġpra ise
I de
s ub
Å Ļ
Ġsol ving
Ġmar riage
Ġactiv ated
Ġmen us
Ġglo bally
Ġcriter ion
p one
ot ion
ĠR ock
Ġmain stream
lin ary
quir ies
Ġcalc ulation
** **
8 9
Ġg amb
Ġpre de
Ġreve al
ĠEst onia
. '
ĠChrist ians
hab ilit
Ġhung er
f ox
Ġh ole
Ġres umed
isc hen
Ġvo ices
disc rim
ad en
ĠF ax
ĠTh ank
Ġinterf aces
Ġwas hing
Ġdet ection
Ġvac uum
Ġall ies
Ġbeh old
Ġwrit er
Ġconv inc
ĠB or
Ġide ological
Ġra cing
Ġperson ality
Ġwish ing
Ġreview ed
Ġcapital ism
Ġrough ly
Ġr anges
ast ics
Ġ4 4
ran k
Ġdecre ase
Ġabstain ed
re aching
Ġg ases
ay er
ĠT ok
Ġatt raction
Ġoper a
AR E
Ġrig orous
Ġprede cess
Ġab uses
Ġ3 9
h al
Ġsh ore
Ġens hr
s or
en ophob
it tle
ar ium
ĠAl ban
Ġhope fully
Ġdon ors
es ch
Ġb orne
Ġd ans
ad ian
velop ed
arch y
Ġsimpl ified
ĠChe chnya
Med iterranean
Ġde eper
ĠR ental
Ġwork force
Ġar ises
Ġcrim inals
Ġindirect ly
Ġdefe at
ĠPia zza
he mat
Ġc up
Ġwe ld
our nal
Ġloc k
d ens
k in
ed ed
Ġhe t
ĠT R
Ġbl ank
ĠM ah
Ġent ities
Ġser ial
Ġexclud e
w as
Ġm ood
Ġg reet
z o
ĠT ri
Ġadv ances
F e
l or
is dom
ĠS W
if ice
ĠF ull
Ġpat ch
Ġheart s
P G
Ġg iant
ĠA then
Ġback ed
Ġtop ical
unt a
Ġsymbol s
E d
Ch ildren
7 6
in burgh
ĠV el
Ġenvis aged
ĠRev olution
Ġpreca ution
t ings
so le
Ġhy per
ams ung
ĠVen et
Ġreinfor ced
Ġw et
ar at
le ading
Ġk id
ilit ary
Ġpost pone
Ġdistrib utors
ĠUR L
Ã ²
ie re
erm ost
Ġdistrib ute
-- --
i ors
Ġst ating
ĠM s
Ġcont ra
ĠH IV
Ð¾Ð ²
ru p
Ġanal og
Ġcere mony
7 4
Ġl iv
Ġselect ing
ĠAnt i
Ġconfig ure
ĠHist ory
e enth
ĠC r
Ġde i
ast rous
Ġthere of
Ġcrit ique
Ġproced ural
Ġpost pon
Ġinterpre ted
Ġbicy cle
y ll
Ġas ks
Ġexp ed
ĠPart ner
Ġmixt ure
H U
M O
t op
Ġbre ast
ĠTra ining
Ġst ones
Ġch amber
Ġab ort
Ġview ing
Ġrep ression
Ġorig ins
Ġattempt ing
Ġvalid ity
Ġ Ã¼
ad os
Ġch ances
ile o
Ġsurpl us
rit ical
Ġargu ed
ĠStat ute
Ġelectron ics
uss ions
ĠInst all
F OR
h ouses
lo oking
Ġcl a
clud ed
Ġdecor ation
Ġcompl aint
RE E
ra pe
ac ies
Ġtechn ically
Ġharmon ised
c z
z ing
el ine
ĠD oha
Ġrec ruit
Ġstat ute
Ġexc use
C A
ĠH and
Ġdis astrous
Ġb old
ĠB ack
Ġenjoy able
iab les
Ġinequ ality
ut iny
ĠH an
Ġatt ain
Ġdeterm ining
Ġrul ed
Ġentrepreneur s
Ġc oc
Ġover night
Ã© n
ĠCont ent
ras se
ĠEuro s
ĠX P
Ġadequ ately
Ġfer ry
d rop
ĠE very
Ġ4 3
Ġmat ches
Ġ0 7
Ġrestrict ive
Ġrare ly
Ġcontrad ict
Ġterra ces
. -
A X
B R
el ong
Ġnew est
Ġdes p
( {{
est ed
Ġ0 1
ĠIG C
g arian
as a
ĠC ountry
Ġlimit ation
Ġglo be
ĠA S
ab out
Ġcar riers
ĠRoman ian
Ġautonom ous
n ame
Ġp ose
Ġatt ent
Ã¶ m
Ġhazard ous
Ġs ich
ot al
Ġpre dom
Ġcivil ians
ĠM eg
Ġresol ving
uel a
Ġb ands
Ġaff il
Ġexception ally
ĠLic ense
f ur
ĠL ag
ty ard
Ġhar vest
Ġrecip roc
ang le
ĠAr c
ĠAl t
Ġeng agement
Ġadjust ments
ĠRiv iera
A nt
Ġin her
ut ory
ĠB ill
ĠD et
Ġcongrat ulating
Ġdepend ence
ĠCath olic
ac ity
Ġve ter
ĠHels inki
Ġaccom od
Ġm aj
ĠC aptain
ĠG ay
Ġab ilities
Ġp i
ĠC riminal
L ocation
Ġref rig
Ġaut o
Ġbre aking
Ġsil ent
Ġscr utiny
m ir
se ll
ĠI l
Ġwork place
Ġco ins
Ã¼ ck
ĠOr der
Ġexam ining
ĠS up
qu et
Ġher self
Ġunanim ity
D irect
M ark
ĠU se
Ġaff irm
Ġpill ars
Ġbas ket
Ġage ing
Ġimper ative
Ġmarg in
Ġr het
Ġr hyth
Ġvis as
Ġbeautiful ly
ĠCorpor ation
Ġsensit ivity
re as
ĠB C
Ġinter ference
ĠAll ah
Ġreact ions
on ian
old ing
ĠMount ain
ĠMount ains
Ġcertific ates
ĠDres den
Ġh ang
ĠNew sp
Ġcomprom ises
Ġinn ocent
ĠExplore r
f ile
Ġb ags
Ġth inks
ip zig
ph ones
Ġcustom ized
Ġtransport ed
Ġcot ton
K e
Ġr an
cl osed
Ġpre ference
Ġtheore tical
f ar
r ange
Ġdist ant
Ġfound er
Ġsafeguard ing
Ġinst ability
Ġhost ing
atis fact
Ġhaird ryer
ĠTh ird
Ġconclud es
Ġwood s
usc any
Ġsam ples
us er
ĠG PS
Ġpoint ing
Ġkey board
ĠSing apore
iem ens
al i
ĠA qu
ag ne
aff irm
Ġpreserv ation
ĠRich ard
Ġf are
Ġbe ll
ast y
Ġun just
Ġform ally
at ible
ĠS and
Ġlo an
AN D
Ġdistingu ish
est e
A f
ord e
Ġimp ress
Ġconsolid ated
c ultural
g ra
ed er
ĠAr men
Ġgl ac
Ġconsult ations
Ġaud iovisual
ĠAdminist ration
Ð ¹
Ġo wing
ĠH ill
Ġab oard
Ġanaly se
Ġinvo ice
ĠFore st
Ġst ain
ĠF il
Ġtr ies
Ġener gies
ĠSch ul
Ġrefuge e
Ġmonop ol
B er
b or
Ġj ack
ĠMon ten
Ġw ished
or ious
pe re
ark ing
ĠVill age
Ġh ur
ot a
Ġref usal
Ġtranqu il
ĠProfess or
om a
ĠM ost
ass es
Ġinteg rating
Ġdim in
Ġtow els
Ġt a
Ġne arest
Ġsec uring
Ġread ers
Ġclass ified
Ġshoot ing
Ġin sec
Ġcount s
Ġbreak s
Ġlay ers
Ġton ight
Ġen comp
se y
We b
ĠN atural
ĠIn s
emoc ratic
ari at
ĠEd inburgh
ĠDom in
Ġang le
Ġhus band
appropri ate
Ġ4 6
Ġaccommod ations
EC T
Ġforum s
ĠC ert
ink ing
Ġinterv entions
ĠKore an
ĠMuslim s
ĠAnn ual
ĠAI DS
h ne
ul ator
ant a
ĠFin ance
Ġbuy er
Ġcounter part
Ġsymp athy
G e
Î ±
Ġto ll
Ġint u
Ġsupport ers
ĠCh ic
is sible
Ġc ow
ck ing
J an
ĠB und
ok ia
ĠM aur
ov ina
Ġaim ing
ĠRes idence
ĠÐ ¸
Ġbes ide
Ġfost er
ĠiP od
ĠR a
ĠL ind
Ġe pid
od ing
Ġhe aling
Ġpl ates
Ġemb ry
Ġemot ional
Ġbreed ing
Ġaccompany ing
ĠCommunic ation
ĠL ine
ĠV IP
Ġadv ised
Ġmonop oly
ĠRh ine
im o
ac her
sem ble
P rivate
Ġre habilit
Ġk g
Ġcat tle
n ect
Ġm ad
Ġsh if
og a
Ġprot ests
Ġsum s
Ġlink ing
Ġfulf ill
S M
Ġwant ing
Ġdet ention
Ġimm unity
Ġdemonst rations
" ).
or ian
Ġstudy ing
Ġwork er
ĠÅ ł
l ia
Un like
Ġdeleg ations
Ġclin ical
D el
ur se
Ġver tical
Ġclass ification
Ġprotect ive
Re al
Ġstri kes
Ġgall eries
Ġsurg ery
Ġe cho
Ġst amp
ĠL CD
Ġpos ed
ran e
ĠAl so
Ġconfirm s
Ġirres pective
i op
th at
Ã© t
Ġver ify
Ġfurnish ings
Ġcy cl
ĠM ul
if a
fort able
Ġour s
pos ed
20 13
ĠLat via
Ġpun ishment
A v
ar on
ĠC ru
av en
Ġmem ories
Ġmedic inal
Ġdead lines
ĠCong o
6 9
st ers
Ġla pt
ancell or
ĠB ah
Ġmult ilingual
ows ki
Ġcart e
F in
Ġc rown
Ġf oss
Ġint ent
um m
cess ions
Ġcat hedral
Ġdism iss
ĠS ierra
Ġdemoc racies
Ġreason ably
ĠEx per
ĠAt t
gor ith
ĠB ell
Ġwor ried
Ġper ception
mb re
Ġ1 30
Ġprov es
az e
ĠGu ide
Ġincom es
Ġendors ed
M embers
g io
ĠS ign
Ġder iv
m illion
r ite
Ġt ag
ig ate
ir us
ĠThe atre
dra ul
ĠBul garian
ĠBas el
Ġexem pl
ĠWell ness
Ġfestiv als
ĠNig eria
ij k
ĠSad dam
ĠI ts
art ial
Ġgu ilty
Ġrem edy
b as
Ġw isdom
Ġpre text
Ġinv iting
Ġcomfort ably
Ġcorpor ations
Ġagg ressive
M ail
Ġqu ery
Ġdec iding
ari os
b et
e lect
Ġs ed
st at
ass ador
ason ic
ĠTechn ical
ili pp
Ġave c
Ġre vers
ĠS C
Ġex quisite
Ġint imate
ĠD isc
Ġsm oke
els on
Ġcou ples
US S
ro ph
il ly
ric s
Ġdec k
Ġprof itable
Ġdiv isions
I O
Ġh oles
Ġl end
ĠS em
od ed
ĠR oth
Ġobstac le
Ġt el
Ġg our
per formance
ape l
Ġload ed
ĠPet itions
M uch
R ep
it als
ri or
Ġread er
Ar t
Ġwitness ed
Ġsurf aces
ĠZe aland
Ġp orn
he res
Ġg ran
Ġmod ification
Ġbel t
Ġcre am
Ġsmall est
Ġport ion
Ġarch ae
ĠA T
ount ain
Ġshe ep
Ġparagraph s
Ġru ins
ir it
Ġdis sem
Ġmodern isation
n b
Ġin herent
ĠM ary
Ġdis abilities
ilt on
'' '
Ġsp o
Ġcomple ting
At t
ĠÃ ĸ
Ġperce ived
5 8
R ather
Ġt ube
Ġconvinc ing
es c
Ġex otic
ĠN obel
oy ager
Ġann ually
Ġrevolution ary
Ġhunt ing
e ast
Ġp estic
ĠR ound
ens ity
Ġsaf er
Ġ0 8
Ġpain ted
Sm all
Ġpus hed
ors hip
Ġel ite
Ġdefin itions
itra vel
Ð ¿
ch aft
Ġst er
Ġen v
Ġcl iff
Ġbath s
p ed
ra k
est y
Ġdis g
ĠK on
it Ã©
Ġre affirm
Ġad s
Ġm ira
et ime
ĠK DE
hol der
Ġconsolid ate
Ġgre y
ĠPriv acy
ĠB ig
ere n
Ġgain ing
Ġcla uses
w orth
ĠF oot
Ġmod ifications
Ġvar iables
ĠD C
Ġj azz
ong ue
Ġassess ed
ĠBl u
win ning
Ġwer den
N C
w ind
Ġf ut
Ġin land
Ġre imb
ĠC old
ĠS QL
Ġam id
Ġthreat ening
Ġadvis ory
A c
C ome
W ritten
it ives
ver sion
ĠR od
Ġany way
stit ution
ĠDis abled
C ard
R ed
ob il
Ġimpro ves
Ġident ifying
Bet ween
v anced
Ġtext iles
unction al
Ġtri als
ĠP rom
Ġwas n
Ġaccess ed
ĠAm b
Ġsend s
Ġbroadcast ing
en burg
Ġd airy
ern ing
Ġdep riv
Ġtend ency
p at
Ġal pine
Ġph rase
aw a
Ġdistin ctive
d r
se ldorf
ĠD am
ĠW C
Ġintrodu ces
ĠLe ipzig
9 1
ud d
Ġut ter
ĠWik itravel
Ġan ch
Ġ3 50
Ġbar rier
Ġearthqu ake
Ġpredom in
ĠNewsp apers
Ġse am
pt ed
Ġ6 8
Ġfast est
E qu
P P
s ky
Ġal s
Ġcomm erce
row ing
Wh ilst
Ġcomplement ary
Ġh ub
Ġdevelop er
Ġsum mar
ER S
Ġnight life
G E
Ġt ensions
ĠS ki
ĠG ot
Ġforest ry
Ġsequ ence
deb ate
ĠT imes
Ġlim iting
Ġir respon
iann ual
Ġsleep ing
ĠCap ital
Ġsacr ific
O F
an ium
ĠM B
ĠH it
Ġco ach
Ġcontain er
Ġvib rant
A E
id as
ĠAn nex
Ġprotect s
Ġattack ed
Ġx enophob
Ġliter ally
Ġb arg
Ġcomm ands
Ġinc idents
Ġemphas ize
Ġbank rupt
5 1
ĠT uscany
Ġport ra
Ġexec ute
Ġrenew al
Ġexplo ited
Ġschol ars
Ġw ond
As s
ĠSc and
Pro f
Ġbag gage
ĠFranc isco
S ur
ot ing
Ġ1 10
Ġco at
Ġpipe line
Ġ `
ic ip
ĠS E
Ġvol umes
Ġdram atically
C ustom
Ġcost ly
Ġactiv ate
Ġindic ations
Ġroll ing
Ġtun nel
ĠL anguage
ĠPal ma
Ġsort s
Ġorient ed
Ġadj acent
o en
Ġe en
ĠK le
Ġap olog
Ġpopular ity
Ġcoast line
pell ed
Ġorg ans
oc opy
iz ations
Ġret rie
Ġpsych ological
H uman
is y
Ġh oney
ĠM ED
ac io
su ite
ple te
Ġspread ing
Ġconfidential ity
om ic
Ġne o
ĠF ron
ĠDiv ision
Ġprere quisite
ĠN ature
lic ity
Ġrecogn ises
Ġgen oc
Ġec osystem
Ġvig il
Ġc u
ine a
Ġmod ular
own ed
Ã© es
Ġmeaning ful
Ġtradition ally
E ast
ĠM arg
Ġworld s
Ġsn acks
ĠD uring
Ġco ating
ann a
Ġpanor ama
Ġbutt ons
F S
Ġp up
Ġm ent
Ġn it
ĠS che
Ġover t
5 4
M ain
ank a
ung al
Con c
Ar ticle
Sim ply
Ġlicens ed
Ġsettle ments
ĠMall orca
m op
ĠX ML
AL E
6 00
Ġch ip
Ġdownload s
Ġpet ition
Ġs at
ig uous
ĠSm ith
Ġbio f
Ġdiox ide
c ano
th ird
ĠJ os
Ġsec ular
ĠS S
ĠCh ildren
ick ed
Ġret ained
Ġunex pect
5 9
j i
Ġcong ress
Ġpain ful
ĠAlg eria
D is
R ight
ĠA V
ond a
Ġshort er
ĠIm m
Ġo m
Ġr um
Ġout ermost
ai ro
zeg ovina
I nter
ĠA k
ant ed
ak a
ĠJ on
Ġdirect ors
b r
id en
Ġtempor arily
Ġse ed
Ġrem emb
Ġbath ing
Ġencoura ges
ĠAir lines
Ġalt itude
ĠEngine ering
ĠDolom ites
p erson
in av
is ations
Ġun ified
ient ific
EC D
V iew
ed a
ĠProfess ional
ar an
ĠB ag
ie u
ĠD i
ĠS et
Ġrat ify
Ġbreat h
Ġencount ered
Ġinspect ions
R ule
ot ype
ment e
ĠC P
ĠG et
Ġflood s
Ġtast y
Ġbot tle
Ġrefres hing
an gh
Ġin appropriate
Ġmar ble
C lose
f al
Ġpro l
au cas
Ġleg acy
Ġast on
ĠColomb ia
Ġw ire
ard in
Ġrel uct
Ġcor rid
ĠÂ £
Ġ198 8
ĠRel ations
ial ly
Be ing
Ġsafegu ards
Ġbrill iant
U K
as m
Ġconduct ing
Ġgraph ical
ĠCorpor ate
5 6
i at
Ġe co
Ġwe igh
ĠN ero
au f
ĠJ ord
ĠPl us
c s
Ñ ħ
Ġal ert
Ġno ble
Ġra ces
Ġprocess or
Ġcapt ured
Ġant ique
j pg
m ind
oc a
ĠD ry
Ġ4 7
Ġg rip
Ġtrans national
Ġide ology
Ġactiv ists
Ġpass port
Ġgr id
Ġenem ies
Ġbrut al
b ank
Un less
Ġprivile ges
Ġmunicip ality
W ind
Ġwh oles
od ge
Ġorder ing
Ġcor rection
Ġenh ancing
Ġtrack ing
II I
m ph
Ġpr icing
ib an
Ġdon or
Ġevalu ated
Ġpreserv ing
Ġf its
ĠM ann
ĠL ang
Ġatt itudes
Ġeconom ical
Ġplay ground
ĠGerm ans
p ark
Ġo asis
pl ates
Ġrespon ding
Ġmount ed
ĠCan ary
ĠMet ro
cons ist
R et
Ġeven ings
Ġ5 2
Ġland ing
Ġseek ers
Ġpersec ution
re y
an es
ou ch
ot ics
tic les
Ġassess ing
ĠGal ileo
Ġgamb ling
B as
E nt
Ġh o
ĠC S
ĠE S
ĠA K
Ġen rich
ĠH ague
Ġun re
ĠAut o
Es pecially
w rit
App ro
Ġbirth day
Ġhol der
ĠS ah
ĠVal encia
Ġexperim ents
end e
Ġcour tyard
Ġstat utory
gi ene
F orm
un ge
iz ar
Ġdis pro
ĠâĢ ¦
Ġinv asion
Ġcontinu ity
Ġdisadvant age
b its
ĠO N
ĠWars aw
ĠP S
ĠP as
Ġres ign
ĠJ ud
Ex cellent
Ġbat teries
ĠAndal us
t z
et ch
ĠFire fox
M us
k ov
Ġb ol
Ġqu arters
Ġinstit ute
Ġtit les
Ġveget able
as ant
ĠC irc
ish op
Ġdemocrat ically
e en
f irst
Ġst ric
ĠB Ã¶
Ġrem ed
Ġwhole heart
Any one
Ġconsc ience
Ġtail or
ĠIce land
B est
Ġs ind
it is
un c
ĠD ownload
con i
Ġvis ibility
Ġmagaz ines
Ġshap ed
ĠS at
Ġlif ts
Ġcred its
Ġrespond ed
Ġmer ch
ĠRail way
m ap
ĠK at
Ġinter conn
Des ign
ole c
crib ed
8 2
c ode
Ġde ployment
Cont in
ĠNik on
Ġt ons
ere r
Ġterm in
Ġret ention
Ġz oom
Ġbroad ly
pie ce
ĠAsh ton
Ġr ust
Ġent rust
Ġunderstand able
pro fit
Ġc ott
ĠS earch
Ġ19 30
ĠCroat ian
ĠTer race
Ġb ub
Ġth ou
pp ers
Ne ither
ĠP in
are l
Ġclos est
Ġfab ulous
ĠMot or
em a
Ġund erest
Ġaff air
Ġquot ed
def ined
Ġt ens
Ġo v
iet h
Ġimag ination
Q U
U B
Ġsu ic
el ing
ĠF urther
Ġdis arm
Ġfeed ing
Ġtim ing
Ġwithdra wn
Ġpus hing
str Ã¶m
Ġc ord
ĠF riendly
ĠCD s
Ġinj ury
Ġvary ing
Ġdeliber ately
clos ure
ĠUkrain ian
g ang
ic er
Ġal gorith
ĠCh ancellor
Ġlaunch ing
Ġdro pped
rape ut
ĠW ood
Ġmet als
Ġmunicip al
Ġgather ing
se en
Ġfood stuffs
Ġcoord inating
cont rolled
p an
ĠA B
ĠSt aff
Ġproblem atic
Ġorgan ising
Ġcompet itions
Ġmeasure ments
Ġposs ession
Ġimbal ances
ĠFried rich
l u
Å Ħ
Ġc ave
ĠC opy
Ġex ac
our ge
ĠF isch
ab s
Ġbu gs
Ġestablish ments
Ġbat t
Ġinfring e
ĠObject ive
ĠMonten egro
I l
Ġsp am
Ġiniti ate
Ã¶r se
p i
Ġest e
Ġfulf illing
Ġbur dens
Ã± a
Ġhy brid
L T
m id
v ote
ĠD ecision
Ġest imate
Ġburn ing
Amend ment
ĠAthen s
Ġpositive ly
ĠCan adian
Ġhop ing
Ġvir uses
c hers
v ic
Ġd ur
ig inal
Ġch ronic
Ġpop ul
Ġmotor cy
Ġparad ox
stan bul
Serv ice
Ġexac erb
ĠH ard
Ġun ch
Ġsuccess es
Ġautom obile
Ġstress es
ĠIm age
oe uv
Ab out
ul ent
Ġremind ed
Ġfrag ile
ic ism
Ġwh olly
ĠA ge
ht ml
on der
Ġto ys
ĠW inter
ric es
OR T
Ġpen et
ĠB urg
un st
Ġdo z
Ġro cks
ĠK n
Ġmark ing
Ġz ur
Ġpursu it
Ġminib ar
c ussions
h ot
x ual
or ously
im mer
Ġmin es
M B
Ġth y
ĠS ince
Ġpr ud
Ġprecaution ary
ut z
our cing
Ġatt ending
Ġcollect ing
Dep ending
6 2
l on
ĠC oll
Ġsing er
Ġdiplom acy
Ġdisappe ared
ĠHa iti
5 7
ĠF el
Ġdef ines
ik er
Pro v
Ġ'' [[
Ġalleg ed
f ram
ĠK az
Ġfore ver
Ġhard er
ĠCont act
Ġgenoc ide
D C
X I
h l
ĠA y
op her
ain e
ĠF ord
Ġdet ected
Ġdeal ers
ator ium
Ġcooper ative
Ġpersu ade
ĠQue en
e ing
ĠM os
Ġlist ing
IT Y
Ġemb argo
Ġelim inating
ĠStar fleet
Ġscript s
Ġcontrad iction
Ġneglig ence
Ġstain less
ĠC el
ĠC reat
Ġcomp iled
ĠR u
ĠL ED
Ġpass age
Ġstret ch
Ġirregular ities
L ater
m ers
ĠH u
Ġspec ulation
Ġhost ed
Ġsolar ium
Ã¼s seldorf
G roup
Ġh arsh
ĠK re
Ġinst ances
Ġ4 1
Ġmat hemat
Ġking dom
f i
Ġre ign
if ier
Ġprepar atory
Ġfol k
A ccess
ear ing
Ġaccess ibility
Ġlif elong
ĠBl air
Ġfeas ible
F A
ĠP ier
ĠL ead
Ġman ually
ĠPort o
C L
Ġc um
Ġin consist
Ġal ign
ĠT ex
Ġwhe els
ĠN ight
ĠTh ai
Ġceleb ration
Ġcas ual
Ġweakness es
Ġdossi er
ro se
ĠH ot
lo v
SC E
Ġliber ty
s l
Ġpro long
Ġcon cessions
Ġout line
Ġturn over
Ġexem ption
N ET
ĠL ud
ĠAN Y
ĠC E
Ġst ere
Ġse ar
Ġacc us
ell i
H z
p ot
Ã ®
al id
ĠE t
ĠO K
ĠO ver
Ġaccompl ished
ĠC ultural
ch air
port ion
ĠCh ange
g rim
Ġm ast
Ġg erman
ĠU l
Ġshould er
H el
or o
il der
ĠS om
Ġ4 9
OT EL
P oint
b ility
ĠS of
ĠA rena
ĠO LAF
Ġpack ed
Ġdraw s
ĠFor ce
Ġdisadvant aged
ĠWill iam
ĠCamb od
5 2
Ġc ir
ĠM O
av al
Ġpress ures
ĠMar c
8 00
a way
ĠS ac
Ġban ana
Ġelim ination
ĠPat ten
al m
Ġe arm
Ġshort age
Ġfacilit ating
Im age
Ġs in
Ġs ul
ig o
Ġany more
Ġobject ions
Ġreve als
ĠSolid arity
Ġfoss il
j et
Ä Ļ
Ġh alls
ĠC ot
Ġr anks
ena issance
ĠSte in
Ġrecre ation
Ġdisreg ard
Ġoverse as
est ock
Ġimp ressed
Ġ0 9
Ġinflu ences
Rec ently
Mod ern
Ġdeb ts
Ġoptim ized
N othing
Ġc ure
Ġvar ieties
aut iful
Ġprotection ism
Ġinstru ction
ĠCas a
Ġinequ alities
Ġbout ique
Ġgener ating
Ġes cal
Ġrig id
Ġhospit als
Ġcultiv ation
Look ing
nb sp
ĠP ad
Ġac ute
Ġrest ra
ĠSol ana
oz y
Ġanticip ated
Ġcommod ity
Ġcatast rop
ocopy ing
al so
Ġd ub
Ġal ien
um ption
Ġse gments
Ġdev ote
Ġspeed s
Ġconfig ured
Ġdiagn osis
ĠPic ard
ĠB ou
Ġproduct ions
ĠAl m
Ġcompl ied
Ġtack led
ĠUp date
port ant
ĠH usse
Ġtr ick
Ġind ul
ĠO x
Ġdesc riptions
ĠÃ ¨
Ġstim ulus
fin ancing
r anging
Su pport
Ġrefrig er
ĠScand inav
B ack
U pon
Ġb ou
im ming
ĠM ove
Ġsm ell
ĠDeuts ch
Ġneighbor hood
rapeut ic
A ust
Ġ ic
Ġl ending
ĠS ic
Ġob sc
Ġback up
Ġstud ios
Ã¡ l
Ġrelev ance
Ġdiagn ost
Ġincur red
Ġu mbre
Ġrepl acing
ĠJoh annes
Ġegg s
8 7
ĠG ate
ĠR amb
Ġout break
Ġlif ting
Ġnetwork ing
Ġcorrespon ds
ĠBon n
P ay
W omen
ol as
ĠP ub
oc o
ab el
ĠSa udi
ic ious
Ġqu eries
Ġ18 0
Ġtem plate
Ġdon ation
Ġattract ed
ĠOn ly
Ġint im
ĠInt eg
Ġbro ke
Ġmult itude
Ġgra in
C R
D ef
Ġp air
ĠC e
Ġreper cussions
est ions
ĠEx hibition
Ġn ick
Ġret reat
Ġupd ating
Ġ198 6
alys is
Ġun rest
Ġun author
si le
ling on
N ational
Ġw ing
ĠT icket
ĠR SS
ĠO SCE
ĠÐ º
Ġveget ation
Ġlect ure
Ġrhet oric
M P
Ġpro claim
ip es
ĠK la
alk ing
Ġspr ings
+ +
G ener
f alls
ĠT a
Ġmon astery
Ġthreat en
Ġqual ification
app y
Ġelim inated
Ġpoore r
Ġh ind
ĠG ott
ĠL ove
Ġcould n
Ġwrit ers
Ġbook ings
Ġconsult ants
ĠKurd ish
he ugen
ĠE ach
ĠL aundry
olog ist
ĠÐ ¾
Ġ198 7
Ġalt ogether
at ial
ver ages
Ġsl aughter
Ġmass ac
Ġhy draul
ĠMarket ing
Ġjournal ist
Ġl aundry
ill es
Ġout er
Wh atever
Ġarchitect s
Ġpropag anda
A W
O p
re ncy
ra w
ĠA us
ĠB org
Ġfact ories
Ġcr ash
ĠAL DE
ill o
Ġes cap
ins on
Ġ9 9
Ġpow der
Ġscar ce
ĠHusse in
h ome
ot yp
Ġal lev
Ġst ro
Ġstrong est
for ward
ĠCo hesion
Ġmacro economic
Ġinject ion
Ġintu itive
= "
B usiness
M al
ĠB ath
ĠT ake
Ġwas h
ĠPol it
Ġdraw ings
Ġill um
Ġbul k
Ġenshr ined
Ġv ou
Ġ( âĢľ
Ġsocial ist
Ġdeal er
gg ing
Ġdeg rad
ĠTechn ologies
Ġforb idden
5 3
ig a
th is
Ġ" .
Ġpurch ases
ĠS iemens
ĠO ECD
Ġdec ides
Ġvar iations
Ġarch ives
ĠPr int
Ġhy giene
Ġid yll
i ating
m ic
at om
Ġv ague
ĠF ern
act er
cl ick
St aff
ĠEx cel
ĠLiber als
angh ai
Ġin se
ĠC aucas
Ġdeliver ies
f ish
h op
h ttp
Ġno isy
Ġcommission ed
- ,
ĠS amsung
Ġun su
Ġrep ublic
Ġsuccess or
Cont act
Ġdiam eter
ĠNaz i
Ġrehabilit ation
ĠI BM
Ġnot ify
ĠW ild
Ġge ared
Ã´ te
ĠTam pere
Ġfl ora
Ġemot ions
in j
Ġo k
Ġg aps
Ġam ple
Ġmot to
Ġdocument ed
Ġmid st
mon th
H S
Ã ¯
Ġdist ances
Ġguid ing
ĠSm all
Ġtiss ue
Ġconfron ted
ar o
om in
ĠMar co
Ġaspir ations
Ġsign atures
Ġbroad band
Ġqual itative
Ġliv estock
Ġt anks
Ġman oeuv
te x
Ġtem ple
Ġfort ress
ĠGM Os
D VD
un al
ĠD ocu
ĠW orks
let es
Ġblock ing
ĠInstru ments
8 1
is se
ĠM id
Ġter rain
Ġcateg or
Ġincred ibly
d ent
d irect
Ġlic ences
G P
ak i
int on
ne ys
Ġpersonal ized
irt ual
Ġtrend y
Ġresist ant
ĠSol utions
Ġdies el
T our
b ro
d eterm
l ishes
Ġt ied
Ġde ployed
Ġrecip ient
discrim ination
G lobal
ĠC L
ĠP op
ill er
Ġ198 5
Ġexerc ises
spe aking
ĠHol land
ĠDan iel
Ġdup lic
ic ars
Ġte eth
Ġsens ors
ĠGard a
Ġbill ions
ch a
ĠD J
ty pe
Ġhand ic
Ð ³
Ġwe aring
Ġfire place
Ġenchant ing
s is
em ployed
ĠB Ã¶rse
ĠF ather
ĠK or
Ġorgan izing
Ġver ification
Ġsho res
Ġcompens ate
Ġoccasion ally
Ġprompt ly
Ã´ tel
Ġinj ured
inf o
Ð ±
Ġde ar
Ġexperim ental
D ata
f old
IN E
Ġbrid ges
ĠWik icars
ĠProduct s
Ġdispro portion
Ġd ress
Ġmy ster
ĠSp irit
Ã¼ n
Ġlo ose
Ġbare ly
Ġprote in
6 1
ĠM ov
ĠCent ury
pro t
Ġcommun ist
f und
Ġn ach
ist ant
apt ers
Ġgra v
ĠMod ern
ĠÃ¼ ber
Ġt ired
Ġf ridge
Ġr ice
ĠB E
Ġfinancial ly
Ġconserv ative
h arm
Ġiss uing
Ġdef ended
Ġprag matic
Ġt una
in ner
ĠP eters
ĠA re
ĠN okia
Ġdelight ful
Ġrecre ational
Phot ocopying
Ġcon sec
ĠD Ã¼sseldorf
ĠâĢ ¢
Ġprev iew
Ġrestrict ion
Ġprem ature
ĠSum mer
Ġintens ity
D ec
Ġs ister
ĠS A
ĠE IB
art et
eg as
rat t
ss on
Ġprev ail
Ġlic enses
Ġheav en
azz o
Spe c
S ec
Ġm akers
Ġn urs
ĠS el
ĠP ed
op ing
Ġam pl
Ġcompet ing
Ġphotograp her
ĠFisch ler
S ign
Ġare na
Ġmat ching
ĠBer l
Ġearl iest
ĠPh ilipp
Ġred istrib
Ġaest hetic
G A
ĠC AN
Ġent ers
Ġport ray
Ġgr asp
Ġboard ing
Ġsynt hes
ĠBat tle
it ary
ter ior
Is rael
Ġphenomen a
C re
V C
ic ts
Ġh alt
Ġmoment um
Ġscre ening
Ġvers atile
ĠBu yer
Ġtariff s
Ġtut orial
M C
om o
ĠM are
ore n
ĠU nder
ub a
ĠSer bian
ĠEgypt ian
Ġdetrim ent
Ġgour met
s ize
w s
ri k
th od
Ġwork flow
Ġlaw yer
ĠAr ticles
Ġpot ato
Ġfabric s
ĠTim or
ĠN i
ĠGu inea
Ġpromot ional
Ġbi otechnology
Ġcockt ail
M I
l ie
Ġpost ing
Ġseason al
Ġsubstit ute
ĠC ad
Ġres ident
Ġform ulated
Ġfore see
Ġestab lishes
Ġer u
Ġappl aud
ĠPr ince
Ġcriticism s
Ġabst ract
v in
ro id
ĠS ix
Ġsim ulation
li er
Ġbl end
Ġfram es
ĠRes erve
Ġearn ings
om er
Ġre pos
Ġas h
ĠI stanbul
so far
Ġ5 1
Ġdispl aced
Ġch ips
ĠF ra
ĠD er
ĠW at
ĠâĢ Ŀ
Ġmet rop
Ġsoon er
Ġsix th
Ġ ....
ic ulous
Ġh oc
ays ia
Ġcrit ics
Ġadminist rator
Ġw ins
ia go
olog ists
Ġ7 2
Ġann ounc
Ġmother s
Ġconstitu ency
ĠChampions hip
Ġattent ive
Ġb in
op t
Ġreal ities
Ġprom enade
ĠY OU
che ll
Ġcolle ge
Ġcru el
Ġclar ified
Ġcolour ful
Ġvulner ability
ĠJord an
8 3
Ġt ender
Ġf res
ĠB ru
ĠH osp
Ġsp ark
Ġsc rat
Ġback drop
ĠBe fore
Ġalarm ing
ĠScott ish
Fort unately
W ant
w ear
w ick
ĠP ot
Ġinter fere
Ġabol ished
Tur key
Ġstric ter
b led
Ġh orm
Ġe ager
us can
Ġse al
Ġit iner
Ġman kind
itor ing
in atory
ĠE mb
Ġor ange
um ns
Ġdemonst rating
Pro t
Ġsevere ly
ul sion
ĠE F
ĠR ap
Ġdesign ing
Ġspecific ation
bo ards
ĠCan c
ĠSant er
Ġdiscount s
Ġshap es
S ystem
pe red
Ġde ploy
ĠR enaissance
Ġlong est
Ġemerg ence
f riend
Ġth rown
Ġn an
Ġl ush
art e
out heast
Ġposition ed
ĠOr chestra
Ġaccur ately
Ġassum ption
ĠTal iban
le z
ct u
Ġl ays
Ġle af
ite ment
ĠBar on
ĠGu ard
ĠCl imate
Ġhold ers
AL L
ĠPri x
en os
Ġc aut
ĠS ir
Ġpurch aser
Ġworth while
Ġtru ck
sch aft
ĠClean ing
ian g
Ġcr us
ĠCont ract
C opy
Ġac ou
ĠWe ek
AS T
Ġsubsidi aries
ĠBalk an
Ġpeak s
ĠSchul z
Ġs au
st op
Ġhe d
Ġun sp
ear s
de veloped
ĠMon ti
Ġexec ut
Ġhousehold s
Ġsympt oms
d f
Ġt ongue
ul ative
oc c
ĠT ext
Ġcomm em
Ġco in
Ġsome how
Ġass ort
Ġcritic ised
Ġver ified
aps ed
Ġcontain ers
Ġmotiv ation
Ġdevast ating
en berg
Ġl inen
Ġne ck
ant o
Ġval leys
Ġes c
ĠCol umb
att ered
Î ¿
ol ar
ĠC orn
ĠS pl
Ġge omet
ĠTok yo
i ert
Ġc yl
et e
Ġ5 3
Ġflow er
Ġbench mark
S earch
ĠR ou
ĠF ac
ĠN ext
Ġtest im
Ġilleg ally
Ġexceed ed
Bel ow
Ġbenefici aries
it ual
ĠE sp
ĠR ub
Ġch ains
Ġ5 4
Ġgener ic
Ġ20 15
Ġvar ies
ĠSh anghai
Ġ16 0
Ġmonu ment
en za
Ġy acht
ĠF ab
AR D
Ġdestroy ing
ĠVir gin
8 4
O G
s im
in th
art s
Ġlike wise
ĠMar x
ĠCy pri
Ġmer it
Ġprivile ge
H ist
ĠH P
ruct ive
Ġincom plete
ĠÄ Į
s q
u its
Ġb er
ĠC ape
Ġsu its
em en
ĠW here
Ġph ases
Ġtreat ing
Ġd ensity
ĠU nd
Ġanim ation
Ġsimpl er
Ġquant itative
qu er
ici encies
Ġdocument ary
Ġliquid ity
Certain ly
mind ed
d em
Ġp ity
ow ered
per ty
Ġco pper
ici ary
Ġexpect s
Ġrent als
w ig
as hed
ĠS ri
ĠH or
act ion
ĠInt el
ĠDe v
Ġport able
Qu ite
Ġawa iting
ĠLou nge
S outh
ĠP ict
ĠT rib
ark ozy
av an
Ġ5 6
Ġlif etime
Ġsl ide
Ġtotal itarian
Ġrecommend s
ĠDirect ors
Ġscen ic
Ġpreced ent
ĠAnge les
k on
at able
Ġs hed
Ġr ises
ĠD iam
ivid ual
Ġforecast s
m aster
Ġre organ
ain ted
Ġmat t
ĠSe ville
ĠVer heugen
Ġsn ack
Ġpostpon ed
F C
F T
F ore
he el
ĠS ab
Th ough
Ġam ate
ob s
Ġbreak through
Ġmag ical
Ġconvers ation
Ġenfor ced
Ġn inet
ĠP on
am er
Ġmagn etic
Ġdemocrat isation
o ir
p ublic
Ġin aug
ound ing
tain ing
Ġexpect ing
Ġve to
Ã§ a
uster ity
proof ed
Ġgrat itude
it ory
ĠF REE
per ial
Ġgener ates
Ġrecord ings
Ã «
Ġinc ap
Ġpun ish
Ġ900 1
Ġn ut
as k
ĠT wo
Ġ19 45
Ġtim ber
Ġrenov ation
ers ed
am o
Ġtre k
Ġbarg ain
ĠCaucas us
S y
Ġbro wn
Ġparticip ant
Ġsubmit ting
Ġcou n
as ma
ĠS ource
Ġsh ipment
St ay
Ġoptim ization
urf ing
N ice
O UR
ff ect
Ġadd itives
Ġconf used
Ġdefin ite
Ġmem orable
ÑĤ Ðµ
_ _
on ial
Ġs cept
Ġbe i
Ġse ating
pl ant
Ġnational ity
omet er
r ue
ĠComp uter
Ġexport ed
Ġcompos er
Ġadvoc ates
Ġpestic ides
om atic
Ġag ed
Ġli kes
Ġfail ures
ĠT ax
Ġsub t
ĠAn y
Ġcorrect ed
ÑĢ Ðµ
Ġencry ption
ar ov
ĠD or
Ġurg ed
Ġpen insula
uer te
Ġdeterior ation
Ġ0 6
IV E
ĠHit ler
F ast
T E
Ġb ass
Ġsh ield
Ġbut ter
Ġany body
uss y
Ġindic ating
ĠBav aria
M ult
b ot
d orf
Ä ĥ
al ian
ĠB arn
ĠK im
Ġoccur ring
ĠEth iop
P A
g on
Ġb one
Ġpri zes
Ġ14 0
Ġconnect s
Ġassum es
Ġlapt op
g ard
Ġass ass
Ġcapital ist
Ġd ol
oc he
ĠAr ctic
ror ism
Ġregul ating
Ġbuff er
NG L
Ġtast es
Ġju ice
p ing
ip linary
Ġviol ated
Ġcivil isation
Ġharmon ise
in itiative
Ġo ven
ĠF lo
che st
Ġformer ly
Ġmis leading
Ġrecon struct
IL L
ĠLiber ties
Ġcha os
Ġapp alling
Ġobject ion
Ġappe aring
Ġliberal ization
Ġglad ly
Ġdisappoint ment
Ġinsert ed
b ahn
Ġt all
Ġview point
Ġabs ent
i ants
Ġm ile
ad el
ĠO k
ĠK G
Ġfriends hip
Ġradio active
D et
T er
U D
Y esterday
ass y
Ġmount ing
ĠMed ical
ĠNap les
Ġrecruit ment
Ġbiof uels
H ome
T rad
Ġt ent
re qu
Ġe rect
Ġse hr
Ġforeign ers
ĠSu pp
b ath
h ole
Ġc her
st ically
ill on
ac a
Ġinter oper
Ġexpress es
Ġsun sh
Ġfa ire
ĠThere fore
Ġv or
ose vic
ric a
ven ient
Ġaccount able
Ġca ution
che ck
Ġcal ib
Ġboy s
J o
ad i
ĠV I
Ġaccess ing
OR E
Ġadapt ing
anqu et
des ign
P at
Ġa usterity
er red
Ġg ifts
ĠA ri
ĠTibet an
Ġconscious ness
ĠMade ira
Ġin coming
st ed
ĠTar ifa
ĠDar fur
Ġf airs
as hes
Ġr Ã©
ru pp
Ġrem un
ism o
riv en
Ġtrip le
Hotel s
Ġlicens ing
Ġfro zen
Ġnot able
ac on
ĠG othic
Ġman ages
Ġtra ces
hes ive
Ġneg lect
Ġreflect ing
Ġenthusia sts
a ver
Ġb le
ĠB art
ab ul
te chn
Ġplace ment
aut y
che ster
ĠLe vel
Ġwholeheart edly
ĠP ent
ĠR ic
Ġtransl ators
Ġagg reg
anz ar
l ies
ĠSt art
az ione
Ġhead ed
h ill
Ġme ad
Ġintern ally
Ġunderstand s
Ġrob ots
ĠBro k
Ġthick ness
Ġ rival
Ġm olec
ur sion
ri ka
ans hip
ĠW ales
ĠRus sians
Ġdistort ion
at tle
Ġb ikes
out e
Ġsl ot
Ġjud ged
iction ary
Ġh its
Ġare n
Ġent ails
Cl ass
Ġchamp ion
Ġidyll ic
C ount
y ssen
ĠL ong
Ġorgan isms
Ã© r
Ġappropri ately
Ġencourage ment
d el
Å Ł
er k
ĠC ant
pt ions
ĠW ay
ced es
Ġdon ations
Ġjud iciary
Ġmut ually
Ġpick ed
ĠF ed
Ġco zy
ĠK el
Ġcontam ination
Ġav en
Ġes p
Ġprofessional ism
Ġoil s
Ġdry er
Ï Ħ
Ġreal ization
Ġelect ro
B en
e u
Ġd ense
ĠM it
ĠO tt
ĠK ey
Ġtrans position
Ġinstall er
Ġexhib itors
Ġfit ting
ĠSal es
Ġfa una
Ġsurf ing
Intern et
Ġc ro
ly wood
ĠS ett
ab eth
ĠV ery
Ġapplic ants
St ill
Con f
Su per
Î ¹
Ġon wards
ĠCon st
Ġsent ences
Ġ197 9
ĠTour ist
ĠCub an
Ġre de
ft en
ell schaft
AS E
Ð° Ð½
Ġmix ing
Ġdict ator
Ġtrig ger
w id
ge red
Ġch apters
ĠV ar
Ġ3 60
work ing
Ġemphas ises
Ġsusp end
Ġstim ulating
Ġirrespon sible
it ology
Ġp ending
Ġco exist
Ġsp in
Ġrequest ing
Ġinflu ential
Ġd rew
ĠM any
ĠA u
ĠU lt
Ġlack s
Ġfashion able
n on
Â ·
Ġn est
Ġe commerce
ĠS ports
ĠA SE
Ġserv ants
ĠIn itiative
Ġpropri etary
o vers
Ġpos es
Rel ax
Ġg ig
ern ame
ĠF a
ĠF ile
Ġsc iences
Ġchild hood
Ġz um
ĠRes olution
Re port
Ġunc lear
V al
Ġt v
ĠH on
Ġyour s
Ġdem o
Ġauthor itarian
Ġpar ish
ĠAir conditioning
Ġconclud ing
Ġoptim ize
ĠIb iza
ĠF on
In cre
Ġche st
osp ace
Ġoppos ing
ĠCont in
AC K
ĠVenez uela
Ġmonopol ies
g rowing
Ġm oon
il ings
as i
Ġcom o
igh bour
ĠF if
act iv
Ġpass ive
Ġmult iannual
Ġeng lish
Ġceleb rations
Ġliter ary
Ġupgrad ed
re z
Ġd ated
Ġcondition ed
Ġdepos its
Ġcondemn ation
ĠS ien
Ġad here
ĠL AN
ĠGU E
Ã ¦
ver ter
ĠIn novation
Ġic ons
y si
Ġs ie
ber ry
ĠJ ournal
ĠSant iago
Ġdis ability
Al most
Al tern
Ġtravel ers
ĠFl or
Ġseas ons
V ER
c am
Ġin just
Ġde ll
ĠF ace
Ġcor rupt
ĠBr un
raz y
Ġlength y
Ġst adium
Ġcount ing
Ġmethod ology
Ġcalc ulations
Ġawa its
Ġsuic ide
Ġin ability
rehen sible
Ġsubsc rib
Ġpump s
Ġcon sole
ĠT oday
ĠN orm
Ġinf ection
Ġfoot ing
Ġenthusia stic
Four thly
d oor
ist ically
ĠEuro pa
ĠD ouble
ĠAr m
Ġstraight forward
Ġmurd ered
Ġunequ iv
anzar ote
B o
S an
p al
Ġst ack
Ġj unior
ĠO t
Ġver d
Ġbegin ners
Ġscen arios
Ġdram a
Ġsmooth ly
en o
is ers
Ġd irty
Ġunder pin
Ġperipher al
at ility
Ġb inary
ĠF R
og ene
ĠDe ep
Ġapproach ing
ĠSch l
Ġsell er
back s
Ð¾Ð ¼
Ġtourna ments
is i
ĠE asy
ither to
sid er
Â® ,
att an
Ġcraft s
Ġintermedi ate
Ġarchae ological
an ne
Ġsome body
Ġrem it
Ġconf ined
Ġdra in
Ġpersist ent
ĠAnton io
Ġpup ils
B anquet
T ry
Ġthe rapeutic
ĠS ax
Ġ' ''
Ġsal aries
ĠUnivers al
Ġun av
Ġloc als
can ic
Ġhorn y
Ġm arch
Ġex ag
ĠT uscan
erm ann
cept ions
sh ore
ĠDemoc rat
ĠJac uzzi
g ress
Ġc ant
Ġl av
Ġmet er
âĢĿ )
Ġcell ar
L eg
c ost
o pping
Ġint r
ĠK now
Ġdes ires
Ġinform ations
ĠFA Q
Ġdispar ities
Ġabort ion
6 3
S ure
Ġf ool
ĠT at
ĠF arm
ĠD a
are n
Ġsub mission
Ġmin ors
Ġrest oring
Ġins ult
Ġadminist rations
Ġmar vell
Ġlear nt
Ġtaste fully
Ġfor cing
et ra
ĠC ore
ĠJ uan
ug s
ĠBar b
rad a
ĠMal aysia
Ġvirt ue
CO D
Ġrememb ered
j amin
w ed
Ä ħ
Ġin k
Ġn erv
ĠM iss
ĠB and
ag an
Ġnational ism
Ġexempl ary
M icro
ak is
In f
ĠThe r
St ate
Ġgra ce
Ġcharg ing
Ġcast les
Ġtru cks
Ġtou ched
Ġ= =
Ġcompr ising
Ġunexpect ed
E nter
g ood
st rasse
Ġdis rupt
ĠK a
Ġreform ed
Ġmention ing
Ġinvestig ated
g t
ĠE ven
eg ot
Ġcontin ents
com es
Ġsl ave
enn is
G F
H A
Ġt une
Ġconsult ancy
Ġcaf es
Ġd are
Ġre nder
ig i
Ġj ury
ĠN O
Ġinf ected
Ġcreat ures
Ġvol tage
ĠIsrael is
Ġoptim istic
Ġdisappoint ing
tra ck
ĠVers ion
ĠAven ue
Ġdepriv ed
g reen
se ction
Ġsing ing
Ġpredecess or
E r
Ġp ou
Ġv ous
Ġres ume
Ġoff ences
Ġout s
Ġengine er
Ġfif ty
Ġshap ing
R om
z ed
Ġf ed
Ġd an
ent er
Ġcomp ress
Ġhar ass
ĠHar bour
ĠJos Ã©
Ġin effective
ĠE ll
Ġde port
Ġmat ure
ĠPh oto
ch arg
Ġan onymous
ron ze
ah l
Ġvol cano
just ment
ĠMil osevic
Ġthe ater
Ġde ce
Ġrel oc
Ġsacr ifice
is ible
or ical
Ġst atic
pp y
ĠB road
Ġse eds
ĠG R
ĠL ear
ĠCh amp
own ers
Ġshow ers
ann i
Ġprofess or
Ġce ilings
Ġclaim ing
ĠBas que
Tra vel
Ġth rust
ĠL ast
Ġeth ics
Ġfle ets
Ġbrother s
f lo
Ġd ying
um mer
ĠG T
ĠThe n
Ġxenophob ia
7 9
Ġf on
Ġd ock
ĠS or
ĠP ast
Ġha st
ten ess
Ġexpress ions
vere st
Ġtow ers
Lear n
ĠSup reme
C omb
Ġ iz
ern ess
iz ard
ĠO d
Ġindic ator
Ġmor atorium
Now adays
ĠSm art
Ġabol ish
Ġele ven
Ġpro stitution
ĠL ido
Ġqu i
lic he
Ġcol umns
eg a
Ġhere by
Ġtravel ing
Ġemp ire
Ġcockt ails
Ġbe verages
Ġcom itology
Ġun con
Ġ9 8
Ġcou p
According ly
T ech
ĠS arkozy
am ily
ĠA ires
ĠF un
ĠO ber
St and
epend ence
Ġstead y
ĠJack son
Ġprejud ice
U lt
h igh
let ion
ĠVal ent
Ġexc av
Ġcommod ities
p ath
ul ators
ĠG h
ĠG ro
ĠF uj
av ed
Ġenjoy ment
ĠCol or
Ġbalcon ies
Ġattrib uted
Ġsynt hetic
Ġstip ulated
ĠVict oria
Ġcir cles
ro ots
id ers
Ġpal m
Ġhydraul ic
W ireless
Ġf ur
ra cle
ĠS z
ĠW IT
Ġcount y
Ġdest abil
Ġkitchen ette
Part icular
Ġaccompl ish
ĠB ow
ab a
Ġmot ors
sc ribe
Ġye a
Ġ erg
al in
ed ing
ĠG ib
ru b
Ġ19 20
Ġmist aken
ĠMex ican
Ġprotocol s
Ġconce ived
Ġp am
ĠD G
Ġemploy er
ĠÂ §
Ġtransfer ring
Ġharmon ious
Ġemail s
haus en
Ġj am
Ġj ac
Ġrel atives
Ġwrit es
]] ''
Ġattrib utes
ĠOs lo
D id
ĠP ra
Ġr itual
ĠF riend
ob b
Ġdiff ering
DE N
ane ous
ĠBrazil ian
ĠSloven ian
Ġinvent ory
Ġdoz ens
w ald
ĠC rist
ĠM ail
bal anced
par able
Ġz e
Ġdeterm ines
Ġcosmet ic
g rade
Ġp y
ĠG ir
ĠJ ar
ath on
Ġbreak down
ĠGo als
ĠPol ice
Ġwarm th
IC E
cont ract
Ġcatal y
Ġcrow d
) ).
Ġout look
ner gies
ĠReg ist
OM E
Ġemb ra
Ġpow ered
Ãº n
Ġcontradict ory
Ġf uck
ĠI ll
ĠB uch
ĠH ann
Ġun ite
Ġread ily
Ġprec arious
ĠAd am
af Ã©
Ġexclud ing
Ġcop ied
May be
F rance
b est
Ġa fore
al et
ac iones
Ġinstit utes
Ġthird ly
ĠPal acio
Ġjew el
F F
P erson
l ay
Ġj et
Ġ4 50
Ġpublic ity
ĠArab ia
C al
ĠC all
Ġref resh
Ġdeb ut
Ġpub s
ĠWork ing
Å Ľ
Ġf ont
ĠG es
ĠN a
Ġnorm s
Ġmer its
Ġsupposed ly
Jan uary
E lect
H as
ic ia
us a
Ġar isen
Ġnutr ition
f ix
id encies
Ġcur ious
Ġcond itional
Ġcap ita
ĠMan h
Be h
Sh ort
Ġappeal ing
g one
n ings
Ġp ocket
Ġh ath
Ġl ady
art en
ĠK o
hes s
ĠSc iences
Ġ198 4
bl ock
Ġsurve ys
Ġvolunte ers
Ġfrank ly
Ġdisg race
Ġ â
Ġf ing
ĠC hern
ĠP rim
ap ed
Ġte en
ĠEm peror
Ġcooper ating
ĠTem ple
ĠBund es
a ired
b at
ĠB O
Ġoblig atory
Ġsupply ing
Ġalt ered
ĠClass ic
Ġflav our
Ġswift ly
S er
t rade
ĠE ric
Ġ( {{
Ġpat ron
Ġgra pes
Ġsal ary
Apart ment
Ġemot ion
Ġhat red
Ġlect ures
Start ing
L og
b ella
at ri
ch l
ĠH of
ĠD IN
Ġgrow s
Ġcomb inations
Ġentire ty
oll ah
Ġcou pled
Ġredund ant
s un
Ñ ĸ
Ġref using
ef e
Ġhighlight ing
j ek
Ġin du
ĠAl though
7 00
P O
er i
ĠC airo
Ġde regulation
Ġsu cc
ĠK m
ertain ment
Ġpat ented
Ġanc est
Ġspok es
Ġreprodu ctive
ĠAustral ian
Ġeditor ial
T F
Ġb iking
Ġd ancing
un ct
Ġreal m
ut tle
ĠM ini
Ġeconom ists
Ġfil ed
Ġlog os
Ġexerc ised
Ġstrength s
ĠProv ince
Through out
ig l
Ġoff ensive
Like wise
Cent ral
c ore
Ã ľ
ĠL E
Ġbet s
Ġhand y
ĠAl c
Ġweek ends
Ġround s
ĠCal a
ĠBro ther
ĠAp ache
Serv ices
Ġmanip ulation
v as
ĠO p
ĠV il
ĠV inc
Ġexp ir
ĠCol lection
ipe l
Ġpet rol
Ġunderm ining
Ġswit ching
Ġg au
ĠD S
Ġext rad
Ġreal isation
Ġlet ting
Ġ/ /
Ġthreat ens
ĠGB P
Ġs li
Ġgu ess
Ġmult if
be y
ĠGu ant
Ġmass ages
Ġsnow board
Ġpil grim
inn ock
" ;
k h
ĠM ol
Ġen act
ĠV erts
ĠAl bert
When ever
Ġban anas
atur a
Ġinsist ed
Add itional
Ġslo pe
ĠM ars
un ches
Ġcor ners
Ġant ibi
d y
al on
ly n
im ated
Ġcon ception
ĠG ab
Ġsub way
Ġprev ailing
Ġ197 8
Ġinterview s
c m
ens ively
Ġtrans c
Ġexplan atory
Ġcer amic
L AN
v ens
z i
un i
ure x
ph p
Ġpolit ician
Ġeduc ated
Ġdedic ation
Ġfather s
Ġast ronom
ĠGlobal isation
Ġoppon ent
Ġdynam ics
Ġbroch ure
Ġpix els
thod ox
l ining
iv able
Ġch ick
iz ers
Ġpo ison
Ã¶ l
berg er
ar is
ĠS MS
Ġinv alid
amp ing
Ġrest art
Ġinvest or
Ġreject ing
gar ve
Ġincomp atible
ĠChic ago
I ES
ĠC redit
ĠA wards
Ġpe cul
Ġtrad ers
Ġrecogn ising
Ġsens es
ĠAb u
Ġwarn ed
Ġacceler ate
1 60
Ġb und
am ics
Ġ" ,
Ġpop ulated
lev ard
Ġmar ina
ĠIron ing
Ġunch anged
D er
in teg
Ġall erg
Ġcomp an
ĠH at
Ġpl astics
Ġgu ys
Ġfact o
Ġgra de
Ġrat ings
Ġweak en
ĠProv ence
ac cess
ĠÐ ´
Ġsto pping
9 00
n orm
Ġ lying
ot ti
ĠM ug
os ity
AT A
!! !
ĠApart ment
ĠVol ks
M at
o ors
ĠF uture
ung le
Ġpat io
Ġweak er
Ġsac red
Ġsuspect ed
determ ination
Ġm entions
ĠS M
ĠS ul
qu al
Ġun amb
Ġelect orate
Ġpat ience
Ġvol canic
Ġsent enced
Ġdiscover ing
inst all
D as
Ġf usion
ĠS H
ĠD at
lic t
Ġsp ray
Ġunw illing
Ġod ds
ĠAlban ian
Ġmarvell ous
V arious
Ġt ends
Ġa ux
ot es
Ġtem plates
Ã¤ nd
Ġ196 7
Ġnom inated
othe rapy
ĠBav arian
Ġsuspic ion
Ġearm arked
T aking
Ġspecial ties
Ġposition ing
Ġcast ing
Ġmultinational s
imension al
ighbour hood
A round
V er
er gy
ĠMed ic
Ġtrace ability
Ġprol iferation
Ġb ab
ur ances
ĠP ool
Ġun real
Ġmy st
Ġleg s
mark ets
Ġbi om
Ġfruit ful
Ġexceed s
Ġimprison ed
Ġinsec urity
Ġp ist
Ġin sofar
ĠC i
th umb
Ġread s
ĠEn joy
Ġexplain ing
P ass
b ast
l arge
Ġh itherto
ag u
Ġun h
ĠCl inton
thern et
ĠSD L
Ġreimb urse
ĠManh attan
B IT
ĠM Ã©
Ġdis orders
Ġunder way
Ġcy cles
Ġceleb rating
Ġincorpor ating
Ġload s
J apan
Ġ vel
st ore
Ġal le
ist ing
Ġunder go
ek en
ER V
Ġassist ed
Ġcritic ise
Ġsunsh ine
P ost
ol k
Ġ5 8
Ġcomple teness
Ġterm inals
Ġban ning
Ġqual ify
Ġsimpl ifying
aund ering
Ġfert il
Ġg orge
ĠH T
Ġinv ented
sh op
ĠWh ile
Ġrelig ions
Ġcalc ulate
Ġplural ism
ĠÐ½ Ð°
C NS
Ġg ang
ĠA li
ag net
Ġext ensions
ik h
ĠCambod ia
" ),
Ġhe ll
ĠO ri
ock ets
Ġprofess ions
AT E
Ġmill ennium
Ġmo ist
Ġtheat res
i ac
Ġn ur
ĠE in
ĠP ope
ĠB ot
ĠR im
Ġmet all
Ġsimp licity
Ġhapp iness
D eb
Ġc ache
Ġm uy
Ġlif ted
let te
Ġtou ches
Te chn
Ġluck y
Ġb ull
et ooth
ĠP M
Ġch rom
ĠD ays
ĠL ink
ĠAg es
Ġbit ter
Ġbrow se
Ġrecip es
Ġbelief s
Ġcaf Ã©
in ates
ĠM ap
Ġrec ourse
az ine
Ġ9 6
ĠFran z
Ġunderm ined
ĠOlymp us
Ġsad ly
Ġloyal ty
Ġd well
ĠComm unities
ĠU pper
ach ts
Ġcl oning
ron ics
Ġperform s
Ġextra ction
Ġcopy ing
Ġ197 5
ĠJac ques
Ġrow s
Ġo we
is an
Ġm Ã¡s
ĠT ob
Ġreg ain
Ġbet ting
we b
Ġhistor ically
ĠEnvironment al
Ġprosper ous
Ġinj uries
Ġkn ock
ĠAP I
Bu ilt
Wind ows
in ct
ur ate
id ation
ĠD ra
ell en
Ġref rain
Ġemploy s
Ġbuy ers
cont ent
Ġprivat isation
Ġs ons
Ġp itch
ro lean
ĠR i
Ġar c
Ġris en
Ġillust rate
ĠCustom s
Ġgal ax
Ġreun ification
E asy
ag og
ĠSt ef
Ġsector al
ĠYou ng
Ġparliament arians
Ġpoor ly
Ġweld ing
ess ional
ie le
Ġdis order
ign ano
Ġben e
Ġcru ise
ĠBu enos
ĠCur rency
Again st
ĠB ib
ĠG raz
Ġimp ly
Ġadv ocated
Ġsuccess ive
Ġhom ose
H T
y gen
Ġex terior
iv o
Ġnow here
ran ational
Ġexc ursion
Ġcourage ous
ĠPrem ium
L o
k ok
t ably
Ġw ra
omm ission
Ġapp arat
ĠK innock
Ġresol ute
Al ready
Ġcommunic ated
ĠAnd reas
Ã³ w
AS S
Ġdeliber ate
ĠGran ada
? ?
ĠC arm
ĠR I
ĠN u
OS T
ĠPer u
stra ÃŁe
Ġexplos ion
T om
m ma
Ġw ir
Ġg ene
ĠC ash
pe z
Ġless er
Ġbenef ited
Ġcontract ing
Ġtoler ate
if i
art a
Ġrec ital
ob ody
Ġinter iors
Ġfl ats
ĠNe ighbourhood
ĠVenet ian
y ard
Ġthe rap
on z
Ġb ind
Ġd urable
ist ers
us sian
Ġun comp
Ġinform ing
Ġsubsid y
Ġflu ctu
Ġepis odes
A z
Ġf iction
hen burg
Ġmed i
Ġfil t
Ġbre aches
. ).
Ġal qu
ĠP od
ĠG or
ĠL anzarote
Ġcar riage
Ġkind ly
Ġdesc end
zz o
Ġharmon ization
Ġexcess ively
Ġinspect ors
ig ure
ch ten
Ġcorrect ness
Ġevalu ating
ĠAct ive
ĠC ry
ĠK unst
Ġrece iver
of in
Ġgl ance
ĠPan asonic
Ġhelic opter
P os
T w
T op
Ġ @
Ġc aves
ed ge
Ġbr ush
Ġ6 6
ĠAl pha
Ġfront iers
on na
ve t
ĠG ener
cc a
ult y
lic hen
ĠV oyager
Ġinv ention
Ġ196 8
Ġdistort ions
Ġprosec ution
Ġstead ily
M et
V illa
a unch
f ight
ĠR O
Ġme g
Ġcl ip
Ġtw ent
ĠSc ientific
Ġwealth y
m os
ĠR on
ĠF ine
ik ers
she et
Ġmerc ury
atisfact ory
wid th
Ġc yn
es k
ar se
ig rant
ĠI st
Ġsp atial
Ġent re
Ġbas in
Ġed ges
ĠÂ ·
ij a
Ġsubstant ive
Ġreconc ile
ĠCount y
c r
m ount
Ġg el
ĠS is
ate mal
ĠF all
ag na
In vest
Ġunder lined
Ġagree ing
Ġorganis ational
Ġrank ing
Ġcatastrop he
Ġafore mentioned
I AL
j ack
Ġc lo
Ġp ad
Ġfor ty
ol en
ĠS her
Ġha bits
ĠH i
du e
Ġinf in
Ġneg lected
Ġfore front
Ġrese mb
ĠReg ions
Ġassum ing
ĠSte el
L arge
m ond
Ġw ard
Ġin human
se ctor
Ġsh r
Ġk ne
ĠK it
Ġdep ression
tt es
Ġconstitu ents
izz ard
fram e
m ax
at ics
it ations
Ġd iab
Ġst ir
ĠS chn
Ġmain land
Ġassist ant
Ġstrengthen s
Ġremind s
Ġh oly
Ġpro active
Ġjud gments
Ġdepend ency
Ġcere als
ĠCF SP
Ġm es
Ġl amps
um ing
ĠL adies
Ġthem atic
Ġinform ative
ĠPar ad
Ġhy d
ing le
ĠD ate
ok es
Ġind ef
Ġcl uster
Ġann oy
Ġoccup ational
mist ry
H y
ob yl
Ġrep lic
less ness
ID I
Ġbra ke
1 50
A lp
T U
Ġin exp
Ġn u
Ġy ard
Ġacc red
Ġline ar
Ġpost er
ĠÂ ©
ĠPr in
Ġlou ng
ĠEst ate
Ġanaly ze
Ġassign ment
Eng lish
K now
T NG
Ġb ungal
arm a
Ġz a
Ġsw ing
uts che
Ġmarg ins
ferent ial
Ġbout iques
Ġdetrim ental
ĠHen ry
Ġassort ment
Ġcl oud
ĠK u
ĠTh yssen
Ġ6 3
Ġrev ital
Ġprior it
ateg ory
Ġrad ically
ĠBu ilding
Ġattend ance
form ed
Ġpromot ions
erb ai
Ġdisturb ing
Ġf ron
Ġbe am
Ġl ip
ul se
ĠF al
ĠD im
Ġ3 000
ĠCh annel
ph an
Ð¾ ÑĢ
enn y
Ġfaith ful
Ġsup ranational
Ġaccomod ation
Ġb ien
ĠC V
ig ue
Ġmon itors
Ġsm ugg
Ġsuggest ing
ris y
uten ant
R ef
b ig
Ġst agn
ĠD yn
Ġauthor ization
ĠAn na
N EW
Ġa pt
Ġc ake
Ġd ess
ĠE aster
ĠF act
ĠD ream
ĠCan al
Ġpun ished
Res earch
ĠE ss
ke pt
Ġsh ipped
Ġ- >
ens ing
ied er
Ġreform ing
Ġste ering
Ġmil estone
Ġphotograp hers
Ġslo gan
Ġath letes
ĠMajor ca
ĠKla us
h ou
k op
Ġf ocal
Ġin quiries
Ġrec ru
rol iferation
Ġappl iances
ats on
Ġmid night
ĠGard ens
ĠLeon ardo
i Ã¨re
Ġo t
ĠP oly
Ġne uro
ĠEuro stat
Ġpr isons
Ġ9 2
Ġaid s
ĠMer cedes
ĠDirector ate
f s
Ġint act
ĠD ark
Ġoff ence
Ġrec ipe
Ġbeh ave
Ġdra stic
ĠAd justment
Ġweak ened
ĠLim ited
Ġrebu ild
ĠFreedom s
Ġc ub
ge b
Ġwor s
Ġ5 7
Ġlabor atories
Ġadvertise ments
Ġadvent ures
Ġinteroper ability
ant i
Ġsp an
Ġra ft
Ġcol ony
Ġspir its
Ð¾Ð »
Ġbrows ing
Ġmic row
W E
Ġt ie
Ġexerc ising
Ġven ues
b es
ke ep
ĠR ab
Ġev olved
Ġsm ile
Ġdom ains
Ġdisplay ing
Ġremun eration
e le
Ġs ized
Ġd ot
ĠR and
Ġab ide
ĠJ im
Ġdisc lose
Ġpack ing
Ġeng aging
M in
P ersonal
ĠB R
Ġloc ked
Ġphot ographic
reg ional
Ġillust rated
Ġdiscre p
Ġgest ure
E nergy
Ġc ust
ur ring
Ġyour selves
Ġass ault
Ġsl ides
Ġregul ators
ilater ally
ĠIN TER
Ġalbum s
Ġanticip ate
ĠMult i
ĠConsult ing
ve lo
ow ers
ĠL ot
Ġwell being
Ġent ail
Ġclear ing
lish ing
Ġpress ed
Ġserious ness
ĠAd vanced
ĠSal v
Ġcaut ious
Ġm os
Ġsub ord
aj a
Ġinstru mental
Ġprint s
Ġforget ting
with standing
Ġconform ity
Ġconfront ation
ĠSien a
Ġp uzz
ĠI F
ri ans
Ġsp ont
Ġpartic les
val ue
Ġsou ven
ĠOff icer
Ġjudge ment
ĠSen ate
ĠPrem ier
ĠKen ya
Ġderiv atives
Ġdisarm ament
S ad
t here
ion i
ĠR og
ĠN am
cl ock
Ġcle ans
Ġaccess es
ĠAm az
ik o
Ġge ographic
Ġuns atisfactory
ĠDel ta
usc ript
ĠConc iliation
Ġtreas ures
C ity
f amous
l j
Ġb is
Ġe iner
ĠP rest
us coni
Ġbet a
Ġpriv ately
Ġassoc iate
Ġdisadvant ages
Ġprovin ces
Ġunsp o
Ġincap able
r ights
Ġb ail
Ġst air
Ġst riving
Ġimpact s
Ġanalys ed
Ġdescrib ing
Ġpoll ut
Ġroll ed
c ity
Ġto oth
ĠA er
ĠH ug
ĠOff icial
Ġod d
Ġd urch
il ib
ĠF uerte
ear l
Ġsp heres
ser ver
ĠIm perial
Ġtast ing
ĠSah ara
er als
et es
ĠB ert
un s
Ġ14 9
Ġclean ed
oh l
Ġpain ter
Ġ197 6
Ġadjust able
Ġinfringe ments
ipel ago
m aker
Ġ Ø
ĠL odge
Ġro oft
vern ment
ĠMar bella
Ġviol ate
rag on
Ġ198 2
wh ite
Ġbott les
Ġadvis able
ĠTool s
Ġhypoc risy
b ound
w agen
Ġm i
Ġappro ving
Ġprofit ability
Ġdivers ification
Ġcra ck
Ġentrust ed
E v
L ong
an ing
as so
um ph
Ġapp rent
Ġpre condition
Ġdisc ourse
Ġconf ort
Ġassist ing
Ġinterv als
Ġpension ers
ĠRE ACH
Sure ly
ĠMug abe
B ER
H ar
W ar
id al
her ic
ĠT able
Ġ6 2
Ġsevent h
ĠBaron ess
S I
d ers
ve z
Ġpart itions
Ġact ress
Ġsub tle
ick ets
ĠCour se
Ġobser ver
Ġtub es
Ġdismant ling
Ġelabor ate
ad m
Ġun ification
ind ust
ĠK am
Ġappro ached
Ġstre ams
Ġfran ch
Ġretail ers
B IL
C all
ĠE p
Ġcan al
ĠD NA
Ġout rage
Ġflo ating
Ġ198 3
Ġstabil isation
Ġreinfor cing
Ġimpress ions
M ax
b ruck
v oc
Ġa rose
Ġe ars
ĠC are
ĠE vent
Ġwor ries
Ġrec overed
lev ant
Ġjour neys
ĠHer zegovina
Ġcontrovers y
Ġderog ation
Ġintoler able
B rit
Ġc ables
ĠB rown
Ġimp artial
Ġrev ise
ĠAl garve
Ġenl ight
ĠWh o
Ġpassword s
ĠMach ine
M er
Â ©
Ġd orm
Ġn ost
Ġr ug
Ġfair ness
Ġprint ers
Comm unity
ĠNor weg
ĠDeutsch land
ĠChern obyl
l ast
ent a
Ġg am
Ġor chestra
Ġconsum ed
Ġprohib ition
Ġrend ered
ĠPers pective
Ġpoet ry
Conc erning
ratt ini
Ġjac uzzi
, ...
T est
en k
ect or
de c
ĠPal m
ĠTy rolean
Ġscan ner
L IN
S em
ĠV ul
urn s
Ġfarm er
ĠSch mid
Ġsho e
Pl us
Ġcook ie
Ġoverlook s
ĠOx ford
n ut
Ġn ets
Ġg em
ĠP el
ĠA F
Ġcomp ression
orn o
vent h
Ġ% .
comm ercial
Ġclin ic
ĠPhil ip
B ay
v ency
ĠC ort
ir ates
ad ar
ĠL uk
ĠK ir
Ġins ulation
Ġrepresent ations
Ġphys ically
ĠHol lywood
Ð» Ð¸
Ġf t
ĠN ev
au nt
ob oda
rat ory
Ġforward ed
IT E
Ġcorpor ation
Ġmobil isation
Ġbatt les
, -
N one
im s
ĠB all
ew orks
ĠEd itor
Ġrob ot
Ġdiscip lines
oli beral
Ġwarn ings
izar re
P rior
Ġf led
ing en
Ġst up
Ġmay or
Ġoptim ism
Ġmis use
Ġsav es
Ġcapt ain
P ower
ic her
Ġst rain
Ġen ric
ĠU V
li beral
Ġterm ination
ĠGu atemal
Ġupgrad ing
Ġencry pted
roph ic
m ain
in as
Ġp ipes
st art
ĠE sc
ĠR ose
ĠR oss
ĠSt an
ĠÂ °
ĠWh y
mail s
Ġw ird
Ġan ge
ĠN H
ĠK lingon
Ġdec ommission
Ġbar bec
Ġnice ly
ĠAud io
ĠTerm inal
Ġdesper ate
C ap
G old
c all
i very
k it
Ġthe ories
Ġle ap
Ġapp et
Ġund ers
Ġdiff ers
Ġpract ise
ĠGeorg ian
Ġtrig gered
Ġalloc ate
Ġr ush
ĠSt a
int ensive
Ġcar p
Ġcollect ively
Ġcam iones
Ġphys ics
Or gan
ĠRead er
ĠInstall ation
" >
d in
Ġo ak
ro ck
im ents
ĠR ol
ccess ful
Ġproceed ing
Ġbra ve
Ġwast ed
N orm
Ġ \
as ure
Ġg ates
Ġtravel s
eb ook
Ð¾Ð ´
Ġsharp ly
il ica
ĠS IM
Ġk ick
Ġfisher y
ĠAL L
s ur
Ġh ike
ĠC res
ĠS ardin
iv ic
ĠR w
ĠL oc
ap ix
Ġaddition ally
Ġgl ory
ĠComp etition
Ġdefe ated
ĠEUR O
ĠSP A
Ġax is
F rank
o ons
ĠC rus
art ement
Ġpl asma
Ġext ensively
ai ver
Ġsqu ares
Ġcosmet ics
Ġf u
om es
Ġg ay
ist ed
ans a
Ġacc l
Ġco ff
Ġstr ings
Ġsal mon
Ġbur ied
Ġdisproportion ate
g ia
ĠTh ree
Ġdel ights
hel m
Ġmal aria
Ġcultiv ated
Ġutter ly
Ġvigil ant
I E
b one
e a
o j
ar ag
Ġon t
ĠT AC
ĠRe view
Ġmach ining
ĠSpe ed
Ġtermin ology
erbai jan
Ġb oss
Ġor chest
Ġse g
un as
ĠSt r
ĠLam an
Ġadvertise ment
s ided
s ka
Ġa ber
ĠR ES
te c
Ġrel ocation
Ġval ued
Ġbenef iting
Ġge op
Ġstrugg ling
Ġflu id
Ġtreas ure
D ay
d riven
Ġst uck
ort ium
Ġinter rupt
ĠPl atform
Ġrestric ting
Ġbomb s
ĠOut look
Ġillness es
it ted
Ġan ger
pl iance
Ġconf ine
Ġassist ants
uff et
OS S
ĠBal i
Ġur anium
ĠPat ent
ĠEr n
Imp ro
Ġamate ur
V ice
Ġf ier
Ġm asters
ĠC lick
ĠP urch
um erous
ĠG ru
ĠD ia
og ram
stand ard
ĠAl f
Ġbar oque
ĠQu ick
Ġreass ure
ĠBre men
estab lished
d ney
m outh
at al
al one
Ġre wards
um ers
Ġnew er
hen ko
ĠIn ns
St ation
Ġminister ial
Ġsimultane ous
Ġshel ter
ĠWolf gang
ĠStep hen
Ġchampions hip
S il
T ube
ou c
ĠC omb
ri o
ĠH aw
ĠPro p
Ġimm une
sh ow
ĠAcc ording
Ġcounterpart s
Ġaccus ations
s aving
Î µ
iv ities
Ġimp licit
ĠLa eken
Ġign or
Ġorganiz ational
ĠHel p
Ġmunicip alities
ĠEnt ertainment
Ġexempt ions
s ign
Ä ģ
Ġ **
Ġt iles
Ġc ited
se a
Ġha ul
ke it
um atic
ĠU g
Ġdis closure
Ġmed iation
Ġsuper market
Ġcivil ization
ĠÐ ¼
ĠQu ad
Ġemb race
Ġdia gram
Ġabsor b
osh op
Ġrhyth m
ĠM aterial
ĠI R
Ġqu o
Ġman uscript
Ġar row
Ġunder lines
Ġcol leg
ĠZ ag
Ġsl ip
ommod ation
Ġsurv ived
ĠPan el
ĠMoz art
Ġbroch ures
Ġdil ig
ĠAK VIS
Ġmyster ious
Person ally
Ġpecul iar
c ount
r ar
Ã ĸ
Ġn ose
ĠC ook
Ġsim ilarly
Ġvar iant
Ġallow ances
Ġener get
Ġremind er
mop olitan
M arch
f ather
im ir
ĠM ong
am bers
op ic
um en
ert al
Ġins ol
pro cess
Ġhous ed
ĠVer ona
Ġveget arian
Ġpassion ate
ĠBad en
Ġvend ors
Ġumbre lla
r ons
Ġ q
ĠP ension
load ing
Ġexc itement
IM P
Ġp ets
ac cession
so lete
ĠH OTEL
ener ife
Ġrep airs
Be autiful
Ġimpl ied
Rem ember
M T
M ac
p olitical
Ġt um
Ġa per
in ch
Ġn ons
ĠR y
Ġopp ression
ĠFran co
Ġmem or
ĠCub ase
ĠFer r
Ġspons ors
Ġredund ancies
" :
as ures
ĠA SP
Ġse ize
ĠL ady
Ġcomm ence
li ver
ef it
Ġcross ed
ĠStud ies
Ġconsec utive
O Y
l ib
Ġthe e
es y
ut sc
ĠN ag
ific ant
ĠBl an
Ð½ Ð¾
Ġ-- >
Ġillust rates
Ġliber ties
Ġsumm its
ĠArch itect
Ġvent e
ĠEc ofin
Ġsul ph
Ġacou stic
Ġmead ows
g ers
Ñ İ
re ck
Ġb apt
ĠM D
ĠP i
ĠR AM
ĠL ocation
ĠZ Ã¼r
Ġappe als
Ġunw ind
Ġstret ches
Ġmort gage
Ġclim atic
1 20
b ase
Ġwh ir
ĠAn aly
Ġland mark
Ġkeyword s
Ġtravell er
mod ern
Ġinfect ions
Ġw ur
Ġh anging
as sian
Ġcomp lying
Ġcount ed
Ġsub urb
ĠMar itime
Ġexport ing
disc iplinary
Ġsecre ts
S ocial
s a
Ġd uly
ad as
ĠCh apter
Ġcol oured
Ã¼ d
Ġchart s
este in
Altern atively
Ġtwent ieth
O ften
S a
Ġle verage
ĠD SL
Ġwould n
iz za
Ġread iness
Ġlo op
Ġemphas ized
Ġassemb led
f unction
h ire
st all
Ġus ername
ĠN T
pare nt
Ġsl a
ĠBen jamin
Ġrepos itory
v ation
is o
Ġp ave
ĠP iet
ĠEuro c
ĠG il
ĠL ama
Ġatt aches
Ġemb ar
Ġir rit
west ern
Ġsh ots
ĠO m
Ġfun ny
Ġgl oss
Ġanim ated
Ġ198 1
Ġinsp ire
f ive
h as
x x
Ġb izarre
ĠG iov
ĠComm erce
ĠL om
Ġout comes
Ġpublisher s
ĠTex as
J une
d on
y t
Ġcomp ounds
Ġdo zen
Ġun law
ĠPro perty
Ġdeep ening
book s
Ġpredomin antly
Ġbene ath
X X
b usiness
os o
ĠG ross
Ġun se
Ġprov ing
Ġmerch and
he in
Ġst rand
op ular
olog na
AC E
ĠIC T
Ġfat al
Ġmort ality
R en
c ourse
Ġc razy
an ol
Ġre ef
Ġun b
li hood
Ch ild
heim er
Ġimbal ance
ic it
Ġl augh
ĠV egas
Ġsub m
ah a
Ġfram eworks
Ġrad ar
Ġcompar ative
e ven
Ġm ud
Ġd ental
ĠJ a
Ġsoc i
Ġallow ance
Ġbefore hand
Ġdest ructive
oll ar
Ġcas inos
Ġmer cy
pell ing
Ke ep
Ġapparat us
N obody
Q uality
Ġt u
Ġbe e
ia h
ĠCon verter
icult ural
Ġ12 5
Ġvia bility
Ġban ner
IN D
Ġclean er
ĠBelg rade
ĠMag ic
Ġsupplement ed
Ġmir rors
ĠFurther more
ur as
ere rs
ĠW E
Ġpr iced
Ġrep ro
ath an
Ġsur ge
ira c
Ġconfig ur
iant i
Tra vell
ĠPo et
ĠFron tex
ĠEthiop ia
F ull
Ġs que
Ġf right
ĠM oh
ĠB io
ĠN ame
ĠW atson
ors che
pon s
de v
to o
ĠMar ine
Ġ0 4
ĠX V
Ġrad i
Ġski ers
Ġfix ing
Ġabund ance
in ian
re f
Ġre vel
Ġprot agon
ĠMan aging
Ġpet itions
Ġprompt ed
Ġrid iculous
Ġveter inary
j our
k u
ĠM unicip
qu ire
Ġro oted
Ġar rog
Ġunder water
Ġloc ate
Ġattract s
Ġtransl ator
Ġ197 3
Ġprem ier
Ġcook ed
Ġdissem ination
ĠBlu etooth
M art
S ave
Ġn os
Ġe levator
im ation
Ġ5 9
Ġdef iciencies
Ġlast ed
Ġbr ass
ĠDe velop
Ġ15 00
ĠCan aria
ĠBo hem
Ġden ial
ĠDo ctor
W ater
ĠH R
Ġsc roll
Ġ0 5
su ff
Ġspeed y
rep resent
B ahn
b ike
g ener
ct ors
ol ine
Ġne oliberal
Ġsc ores
On line
Ġdistrib utor
ĠWi Fi
Ġtranqu ill
Ġdoct rine
Ġpregn ant
ĠRim ini
Ġp el
ĠP XI
Ġv oid
oc uss
ĠG Ã¶
ĠR ing
ĠL ee
ĠK arel
ĠCh ild
ĠRe in
Ġill usion
Ð½ Ñĭ
Ġparam ount
Ġpreced ence
Ġsculpt ures
y ware
iv irus
ĠT rent
ĠL ul
int age
US A
Ġoccup ying
Ġfeed s
Ġfold ers
Ġbrows ers
Ġinjust ice
Ġmicrow ave
Ġaccl aim
he nd
ing ham
Ġd read
Ġnot ebook
Ġwor n
pl aces
Ġform ulate
ond o
Ġtarget ing
Ġrepl ied
Ġ197 4
Ġglac ier
S end
Ġ ich
nd ez
os ur
em porary
sel t
Ġtou g
Ġguard ian
Ġincomp rehensible
Ġswit ched
Ġhydro gen
ĠNorweg ian
f oot
Ġt abling
as sion
ĠM PEG
ĠK ol
iss on
Ġtri umph
an en
cl ed
iz able
eg in
rodu ction
Ã¡ r
Ġsuper markets
Ġselect ive
ĠDis ney
ĠSof ia
l ass
ro at
ĠE ssen
ĠP f
if er
os pel
Ġco financing
ĠThe ater
Ġcle ver
Ġlast s
Ġpres cribed
Ġcamp site
Ġincorpor ates
Ð¾Ð ³
ili ates
ĠCarl os
ĠConserv ative
ĠFace book
ĠC annes
ul um
th ur
ĠJ unior
round ed
Ġback wards
Ġtrad es
Ġlive lihood
EL L
Ġincorpor ation
ĠApp lication
ĠFer re
Ġdisag reement
Ġvacc ination
Ġencomp ass
P rices
on et
Ġal ly
am ine
os ion
âĢ ŀ
ĠB ren
ud a
ĠJ azz
Ġuse less
ĠDemoc racy
Ġimag in
D em
L C
V ol
Ġp ockets
Ġint ra
Ġdis contin
Ġover coming
Ġterm inate
Ġhand les
Ġcomb ust
ĠSw oboda
ĠMa ison
Res erv
Ġanx iety
Ġgastronom y
L es
if s
end ers
ĠIn g
Ġtrad ed
ĠAir ways
Ġsun set
Ġfacilit ates
ĠArab ic
ĠVis ual
Ġderog ations
S al
ut a
Ġpre ferential
ert a
Ġstat istic
Ġsl ots
AS A
Ġentertain ing
ett es
Ġdecre ased
ĠBerl usconi
ol ia
ang ers
Ġdecl ined
ĠAnd rew
ĠMay or
Ġcliff s
Ġrefriger ator
N eed
ut o
ver ted
res olved
und i
ĠMon itoring
Ã± o
Ġbankrupt cy
B r
E conomic
p rom
Ġw ie
Ġb ills
Ġh ook
ĠS U
Ġ7 6
Ġbar bar
Ġspir al
ĠGrand e
Ġrock y
Ġfulfil ment
ĠCam er
A U
N E
he alth
id elines
ort heast
ĠA x
Ġch ic
Ġout sk
isl ative
cont rol
road s
ĠHosp ital
Ġexag ger
W as
Ġthe ft
Ġas p
ĠL anka
Ġcar pet
Ġoffer ings
Ġair space
ĠZ one
ĠReg ulations
ĠSy dney
OR K
Ġware house
ĠJohannes burg
ĠBarn ier
H ouse
at ar
Ġb rick
Ġat roc
ĠL ower
Ġtra p
Ġob solete
ral tar
Ġed itions
Ġmodern ization
Ġmanufact ures
ĠAd vent
ĠÂ ĸ
cel eration
Ġtal ented
Ġoccup y
Ġtravell ed
Ġox ygen
T urning
e uro
ã ģ
Ġ ]
ul an
ĠT rust
ĠN ever
Ġout lets
ĠJ av
Ġeas iest
âĢľ .
ĠAz erbaijan
Ġdup lication
ĠBang kok
R u
ĠS OL
ĠE rika
ĠB ull
ĠF C
ew ay
ov ing
Ġrep ressive
Ġet ernal
ĠRom ans
Ġconcept ual
Ġsan ction
Ġmas k
Ġrebu ilt
Ġembar rass
E ADS
s arge
z ia
ĠC os
Ġr ides
ĠB ase
Ġsc al
Ġbal ances
Ġfront ier
Ġprofession ally
ĠDr ive
ym met
Ã± os
Ġrot ation
Ġspons or
Ġacceler ated
y r
Å ¼
st on
il o
ĠI de
ĠR F
Ġpol ar
Ġimp unity
Ġtechn icians
Ġ7 1
Ġcred ited
ĠSch w
Ġattack ing
Other s
Ġcondem ning
Ġrecip ients
Ġendeav ours
Ġcaf Ã©s
Ġhier archy
ĠCre te
Ġmanoeuv re
C or
ĠF L
ĠU C
Ġph p
Ġcirc ular
Ġemb ark
Ðµ ÑĤ
Ġpil ots
Ġperpet rators
Ġsear ches
Ġoutsk irts
L ocal
c in
t wo
Ġp upp
ĠC art
ĠP ur
ĠR ac
ĠSt one
Ġbu ck
Ġprocess ors
Ġide als
Ġlight weight
Ġmem b
Ġcos mopolitan
Ġbon uses
Ġgate way
Ber lin
z io
Ġto y
ĠG eb
ĠO st
ph y
Ġsur prises
Ġgen re
ĠVal le
Pl ace
Ġfant asy
Ġpred icted
ĠDub ai
Ġunreal istic
H ung
ĠC ou
Ġcomp ile
ĠSt ore
Ġbuild s
Ġ7 8
Ġsea food
lt ry
Ġexhib its
Ġtal ents
Ġdeliber ations
VI EW
Ġadj our
Ġtact ics
otyp es
Ġt ones
Ġl aundering
Ġan th
ĠA RE
ant es
ĠB ible
ĠH orn
Ġover flow
Ġbel ts
Ġmet ab
Ġevent ual
Ġlog ging
Ġchalleng ed
Ġconver ter
produ ctive
Ġacknowled ges
Ġmerg er
ĠGot henburg
ĠZÃ¼r ich
l ades
on ou
ĠL en
Ġview er
Ġ6 7
Ġ197 7
Ġretain ing
== ==
Ġpray er
ĠSpl it
L D
ĠC AD
ĠD ial
are ttes
Ġgra pe
Ġhold ings
Rec ent
ĠNep al
ĠPeters burg
T ar
in arily
il ian
ot or
ĠL ar
Ġmat ernity
ĠQu arter
Ġweak ening
Sh are
Ġdiv or
Ð¡ Ð
Ġasc ertain
Ġporn ography
ĠWIT H
O per
ic able
st ars
ĠM ir
ac ion
Ġch amb
Ġhon oured
Ġtrou bles
n ames
ĠE urex
ĠN ich
ER E
sp ot
Ġconsult ant
Ġadapt er
Ġoverlo oked
Over all
ĠDVD s
Ġexch anged
ĠPhilipp ines
Ġforesee able
f ly
Ġj ungle
Ġbre w
ĠPal azzo
ij n
New s
3 50
b in
Ġp ic
et itive
ĠC es
Ġan ten
Ġle v
ĠW ine
Ġgood will
Ġgener ator
rap s
Ġproport ions
ĠMod el
Ġrid ers
Ġauthentic ation
ĠAv iation
Ġrac ist
es p
Ġv ocal
op ters
oc ratic
ĠT ol
Ġsy nd
Ġmarket place
Ġass ent
Ġ9 1
Ġcontact ed
ĠBar oque
Ġappl ause
Ġrepe ating
Ġtrust ed
Ġsequ ences
Ġsq m
Ġpregn ancy
ĠInns bruck
Ġ Ñ
ĠC ube
ig m
ĠT i
ĠL ow
ĠW elcome
Ġtour istic
Ġbed ding
Ġlower ing
Ñģ Ðº
Ġscan ning
ĠNews letter
ogen ic
zb ek
Ġrust ic
Ġtrek king
& #
i Äĩ
t ub
} ,
Ġf et
Ġh ip
res so
ĠB log
ĠG arc
Ġcontext s
Ġreprodu ce
ĠDal mat
Ġeradic ation
uber cul
idel berg
ob a
Ġgovern mental
Ġinhab ited
Ġinterpre ters
L uc
b ag
b lo
o es
id y
ĠS i
ĠI h
th ren
ĠComm ander
Ġun resolved
ĠV ision
Ġrel ies
Ġrest s
Ġopt ed
Ġseem ingly
Ġappoint ments
Ġrul ers
Ġwitness ing
Ġimprison ment
Ġsecre cy
ĠAndalus ia
Ġdiagnost ic
Gener ally
F ar
u ction
Ã ¹
Ġc lic
ro be
Ġe inem
Ġhe ter
ĠG onz
omet ric
Ġexpl oration
Ġdest ined
af en
Ġsculpt ure
Ġanx ious
b ly
et c
Ġst airs
ĠM IDI
ĠG ender
ĠT enerife
ak t
ĠRes erv
Ġentrepreneur ship
Ġhed ge
ĠFlor ida
re i
Ġd ent
Ġ8 8
Ġca fe
Ġrent ed
Ġhear ings
Im m
Ġcoexist ence
d imensional
s ocial
Ġsh ade
ĠF inal
ag ine
Ġadd iction
Ġref uses
Ġcor rel
Ġfit tings
ha ul
Ġwild life
Ġcens ure
Ġepid emic
ĠCot onou
ubercul osis
ĠM ira
ĠV or
Ġsit s
old s
Ġret ro
Ġsupp lements
Ġfarm house
Ġconver ting
Ġobserv ing
Ġmobil ise
Ġvit ally
Ġamid st
Ġscrat ch
ĠLaman ites
J uly
f ilm
Ġw ool
Ġre jo
ĠC afÃ©
ĠE thernet
ĠB od
ĠB ologna
Ġwhe at
form ing
ĠV lad
Ġvar iation
Ġ6 1
Ġ8 2
Ġste pping
Ġinvestig ating
Ġprovision al
Comp lete
Ġpossess es
Ġlod ging
ĠCP U
Ġdub ious
3 20
Ġl enses
ĠR ight
ĠF ischer
lic ted
Ġamb iance
Ġexceed ing
Ġcorner stone
ĠForm ula
C onst
Ġc ogn
Ġmat ched
Ġfire wall
Ġgradu ated
Ġscandal ous
C as
t own
u ite
Ġd ile
Ġn ic
Ġe ve
ĠK rem
Ġunder going
hor n
Ġpract ition
gg ed
Ġcontroll ers
Ġkid na
Ġs ow
em p
ĠComm ons
ĠF u
ĠW W
Ġmin erals
Ġdial ect
ĠMag azine
Ġcab inet
wood y
AI DS
Ġwholes ale
ĠPier re
Ġgrav ity
Ġb its
Ġb unk
Ġv oy
ass a
Ġinv isible
Ġform ulation
Ġbl oc
ĠCatal an
Ġapolog ise
Ġ rib
Ġ riv
re ll
ul i
ĠS akh
ĠT ony
ĠJ un
ĠQ ual
IN I
Ġ17 0
Ġconstruct ions
Ġcommun ism
Ġcoordin ator
C lean
ĠR ica
Ġra pe
ĠCon nect
ah oo
Ġdecl ining
ason able
ĠQu artet
Ġwild erness
ĠMont real
Ġsurprising ly
Ġf ocuss
ch airs
ĠP VC
ers ion
Ġwor ship
ĠD iet
Ġsc attered
amp ed
Ġnational ist
ĠSe venth
ĠAl ber
sh aped
Ġargu ing
Ġbicy cles
ĠMoz illa
O D
Ġw aiver
ĠL ac
Ġdo se
reat ing
Ġdet ained
Ġinter d
ential s
Ġlog ged
Ġneighb ors
ĠMer kel
Ġwond ers
ĠRamb las
d ings
f est
o ise
Ġp ink
Ġe inen
Ġv om
Ġcomp ressed
ens en
Ġund es
Ġorig inated
Ġ12 8
Ġemerg es
Ġglass es
Ġcontrad ictions
ĠBol iv
Ġfert ile
Work ing
Ġgastronom ic
Ġmaj estic
ĠMove ment
Ġunauthor ized
l asting
et ta
us ions
ac ulture
Ġev ac
Ġra cial
Ġ19 40
ph ony
Ġdirect ories
Ġel astic
Ġmus cles
Ġreview ing
Ġrout ing
Ġorigin ating
Ð½ Ð°
Ġhom eland
Ġoutd ated
Pr int
Ġaston ishing
Ġfon ts
re ts
om ed
Ġl amp
ost a
ĠV all
Ġche er
mes e
ĠEC HO
ĠMoroc can
P ut
ing o
ĠM ig
ĠB rid
Ġle ague
ĠO racle
ĠSe bast
mber g
Ġquick er
ĠZe it
Ġs ixt
et ed
Ġun bel
You ng
Ġmean while
Ġhost ile
b ad
Ġthe sis
ch ia
ĠH as
Ġactiv ation
Ġsuccess ion
Ġadminist ered
ĠMan chester
Ġmilit ar
Ġste pped
Ġreact ors
Ġaer ospace
ĠB ob
and em
ĠD uis
ip edia
ĠSe attle
Ġcommunic ating
oot ing
Ġanalys ing
Ġatmosp heric
Ġamb ient
Ġsort ed
Ġcourt esy
ĠBol k
sight ed
Ġshif ting
Ġfaire r
N CC
pe ople
ĠE D
ad al
ain ts
un ya
ĠR ay
ĠH ay
Ġac res
Ġprotection ist
Ġpersonal ised
ex e
ĠSerb s
Ġunw anted
ĠMÃ¼ ller
Ġric hest
l Ã©
Â Ķ
st a
Ġn uest
ĠS us
ĠS IS
ial e
ĠT rip
In c
Ġpol ite
Ġgen es
âĢľ ,
vis or
Ġenorm ously
Ġrend ering
Amend ments
ĠBolk estein
H D
ar ound
ĠT s
ass is
Ġbre thren
He alth
ĠX L
Ġnom inal
Ġinterpre ting
Ġdynam ism
Ġtestim ony
b inding
ĠP il
Ġor na
az ing
Ġmar vel
Ġreject s
Ġcompl ies
Ġpron ounced
ĠASE AN
t ically
Ġre th
ut able
ate au
riv es
sc ar
Ġproportion ality
Ġprox y
Ġgeop olitical
G R
R ev
in du
ul in
To o
Ġconcent rating
Ġdiscrim inatory
Ġcomment ed
ĠCast ro
Ġphilosoph ical
aret te
Ġninet eenth
N umerous
P rom
d an
e iro
ra ising
ĠC rown
Ġst oring
ie ren
form er
Ġmod em
ran ces
ĠAn gel
Ġign oring
Ġbomb ing
Ġcounterfe iting
Ġinher it
Ġallev iate
Ġnerv ous
R o
l it
ĠS now
am os
Ġse ized
Ġcle ared
ex cept
Ġdr um
ĠSh are
su pport
Ġnav ig
Ġcomplement ed
agnet ic
ĠS n
ĠR ain
Ġdis able
Ġacc ent
int erest
ĠV irtual
lp ool
Per fect
ogene ous
Ġst olen
op oul
Ġby pass
ange red
ren e
Ġass urances
icy cle
Ġplant ed
ĠMal aga
Ġentrepreneur ial
bre v
Ġsla very
P resent
x y
Ġc it
it Ãł
ly s
ĠT aj
Ġreg ener
Ġfin es
Ġext r
cond itions
ĠSe lect
Ġpay able
Ã¼ hr
Ġwat ched
Ġalleg ations
Ġcoun sel
L ux
d le
Ġl uc
Ġne utr
ĠG eneration
ĠD un
ag le
te enth
ĠK ais
ĠPro duction
Ġbro ker
Ġdest iny
Ġsafeguard ed
Sub mitted
K ey
L ab
P ack
Ġs ink
Ġim aging
ĠF IF
form at
ĠVis a
ĠVolks wagen
B I
ro gen
Ġbe aten
Ġan onym
ens itive
ĠK rak
Ġher bs
Ġamb igu
vent ura
Ġmedic ation
Ġflood ing
Ġecosystem s
Ġpou ltry
Ġenric hed
M AN
ver b
ĠH unt
Ġun com
Ġcor ro
ours es
Ġrecogn izes
ĠMon aco
pro ject
pro gram
Ġdecor ative
Im portant
ĠDel uxe
Ġboost ing
Ġstars hip
ĠPhot oshop
ĠMerc osur
ĠGib raltar
ĠSis ko
Ġfranch ise
Ġtranquill ity
Ġt ags
ĠL ocal
Ġun ple
Ġpre rog
Ġcl ou
Ġinv entions
Ġback s
ĠFran ces
ĠPC s
M ich
t ics
Ġd ass
ĠL abor
get s
ss alon
Ã¤ n
Ġregist ering
ĠComp act
Us ers
Ġcere mon
ĠKaz akh
ĠCad iz
T I
g al
j er
r Ã¶
v re
ĠN iger
nc hen
Ġcl oth
Ġmus cle
Ġmot ives
Ġsuff ers
Ġrisk y
Ġregist ry
ots dam
Ġeleg antly
Ġreferendum s
Ġvou cher
F if
R est
S ol
d ig
Ġy achts
ig inally
ĠM u
Ġad idas
act eria
Ġins ights
Ġchar ity
Ġdr ift
So ft
Ġident ities
ĠIC E
Ġintens ify
Ġreward ed
ĠMess enger
ĠM R
ĠM iche
Ġen quiry
Ġup held
ĠK er
Ġprot otype
Ġquestion able
Ġ8 1
Ġlight er
Ġexc ise
Ġ196 9
Ġinspir ing
Ġcorrespond ence
Ġreciproc ity
A pril
M a
M obile
f ra
le e
ĠE quality
ĠI LO
est a
ern er
Ġso ap
ĠW alk
ĠK enn
Ġav ant
Ġexhib it
ĠGard ena
ĠPen insula
P H
Ġb a
Ġn ad
ĠC ors
ud o
ĠCh ar
Ġret ains
Ġconsum e
ĠPl ant
EC H
Ġreprodu ced
ĠRec ords
Ġhonest y
Ġcig arettes
Ġaffil iated
Ġmet ap
ĠAn k
Ġstandard isation
Ġagg ression
produ ction
ĠConf ederal
Ġcontam inated
Ġportra it
Ġrestra int
F ive
L ine
m ath
ou ve
ĠS SL
ĠCh ianti
Ġ6 9
Ġmusic ian
Ġhor ror
iff el
Ġfa Ã§
Go ogle
n els
r ific
ĠC C
Ġde eds
ĠM ission
ĠG as
ĠF rattini
ost er
Ġcl ips
ific ate
Ġsoc cer
Ġgovern or
Ġ8 9
Ġdig it
Ġones elf
ament e
Ġinterpret ations
ilib rium
b ay
Ġb ans
ou ched
Ġcont ing
ĠD rug
pt ic
Ġpe er
ass er
Ġdel le
Ġeuro pe
ĠDes ktop
Ġoccup ies
Ġeradic ate
E Y
M V
ans k
In it
ĠW ald
Ġleg ality
Ġbal ancing
AR C
ĠQu estions
Ġacqu iring
ĠBas ic
Ġdry ing
Ġshock ed
ĠBang lades
Ġfrust ration
p it
r ise
al er
ĠE le
ĠM aj
am as
ĠT en
Ġcont empt
Ġtr icks
Ġund en
ient o
Ġquestion ed
che t
Ind ia
ĠIN D
Ġobst ruct
ĠMet rop
Ġcoordin ates
Ġesc ort
ĠKrem lin
% )
C ong
u ador
ĠR est
Ġimm inent
Ġ9 7
Ġpat ches
ump s
Ġattrib ute
Ġprest ige
Ġcatast rophic
Ġindef in
C ode
R ad
ran es
Ã© d
Ġdemoc rats
Ġfl air
Ġexpect ation
Ġansw ering
Ġvol ley
Ġconfirm ing
Ġmis sile
Ġep ic
Ġspons ored
Ġabund ant
Ġduplic ate
S un
Ġf les
omm end
ĠR S
con c
Ġdom inate
ĠSy mph
ĠBl izzard
Ġstrateg ically
Ġvolunt arily
Ġcompos itions
Ġfort unately
point s
ĠBur mese
Ġimpl ants
Ġalcohol ic
ĠArmen ia
P D
n ar
t rad
w ich
Ã ĥ
Å ĳ
an ic
ĠC av
am ar
Ġv oor
Ġ2 20
Ġdis ks
ĠJ u
Ġcur ric
Ġph ysi
Ġback ward
Ġinter rupted
ĠInd ex
Ġlo oph
Ġwind ing
ĠAt l
ĠPC I
Ġlos es
ĠTor re
Ġplate au
Ġmisunder standing
Ide ally
H ost
he rence
ĠB L
Ġhe ge
ĠW H
erm o
ĠJ ones
Ġconf using
ĠPro du
Ġpost ers
Ġ0 2
Ġadminist rators
Ġdoub led
IC A
Int erest
ĠGal icia
Ġabsor ption
ĠInf o
ent o
ad er
ure mberg
Ġtra ine
Ġgrow ers
Ġrepl ies
Ġvalid ation
Ġrot ating
ĠLuc erne
t ail
st ock
Ġcap s
Ġimpro per
Ġdoor step
Ġconsolid ating
Ġvig orously
ĠGU I
Ġpix el
ĠHT TP
ĠSakh arov
O pt
Ġp ian
Ġh iding
ĠR oy
ĠU zbek
Ġk Ã¶n
ĠW HO
ater ing
Ġprev al
Ġimm igrant
ĠBar ack
Ġcat ches
Ġoccas ional
Ġrespond s
Ġsecret ariat
Ġfeas ibility
Ġprovin cial
ĠC ell
ig ur
od er
ĠB ecause
ine on
ĠN atura
Ġtr illion
Ġmult ipl
So ftware
Ġident ifies
Ġsatisf ying
Ġprop he
Ġtel esc
Hel p
Ġm ol
Ġre lying
ĠM ai
Ġha ben
ĠG ift
ĠR ov
ree ments
ĠN ote
ok ers
Ġ7 7
Ġfav oured
Ġ0 3
Ġgra b
AR S
Ġcoll apsed
ĠSo ft
off icial
str ong
Ġmig ratory
ĠCommunic ations
ĠCru z
Ġextrad ition
S ix
w heel
ed en
Ġg ri
ĠC Ã´te
am il
if iers
el en
Ġr ings
ĠB oth
Ġref ine
ĠSh uttle
bu ilt
ĠMet al
Ġincident ally
Ġexecut ives
E K
on al
Ġc ats
st ick
as ive
ul ly
lo ved
og o
DE M
Ġindustrial ised
Ġextraord inarily
ĠSett ings
D ocu
D ER
T ype
Ġto ken
Ġk ann
au pt
Ġserv ant
ang o
ĠThe ssalon
Ġreal ism
ĠZ ap
tain e
Ġfair y
pro f
ĠProv ider
ĠElect ronic
Ġelectron ically
Ġunlaw ful
L ight
l oc
ĠB AE
Ġle ver
ĠF itness
Ġyear ly
Ġmat urity
Ġins ign
ĠZ ak
Ġstandard ized
Ġcomput ing
Ġder ive
Ġharmon ising
Ġillust ration
AV E
Ġfib re
Micro soft
f illed
or ph
Ġd ictionary
Ġas ymmet
ĠM other
Ġint ake
Ġunder gone
Ġdev ised
Ġbelong ed
ĠMem ory
---- ----
Ġbiom ass
Ġrooft op
ĠGuatemal a
ed o
Ġbe verage
Ġadd itions
ĠMed ina
Ġfundamental ism
IS S
Be yond
Ġ197 2
Ġdivid ing
Gu ide
ĠPlan et
Ġflav ours
Ġperf ection
Cre ate
ĠStef an
Ġcombust ion
F rench
I r
J ohn
g rad
p aper
Ġd unes
th al
ĠF ield
ĠH erm
Ġrel iably
Ġfree ze
Ġquestion na
Ġcommand ed
ĠLab VIEW
Ġextrem ists
ĠEur atom
Ġbub ble
Ġbarbec ue
M ag
T ION
ĠS eller
and um
ĠComm and
ĠInt ellig
ĠUS E
Ġdeal ings
ĠY OUR
Ġcommit ting
Ġ14 2
Ġadvantage ous
Ġslow er
Ð» ÑĮ
yp ical
Ġtempt ation
Ġmainstream ing
t aking
ĠUn ix
erm e
Ġpr ies
Ġsupport ive
Ġsur re
ĠPort al
pro v
Ġred ress
ĠHar ry
ĠSuper ior
Ġsup reme
worth y
U E
g ressive
Ġf ountain
Ġb alls
Ġto mb
ĠP orsche
Ġoff shore
Ġcl ay
Ġrel aunch
Ġover l
Ġla wn
Ġdef ensive
Ġpar cel
orth y
Pl an
Ġcolor ful
ĠBudd hist
ĠTw itter
ĠCr ime
D ouble
E nd
O V
P RO
T or
z ip
al og
il iate
Ġcomp ound
ter dam
Ġtrans posed
loy d
Ġcap itals
ĠTh anks
Ġ9 3
Ġrecon sider
Ġexplos ive
third s
Ġcorrid ors
Ġharass ment
Ġhomose xual
Ġunple asant
p rivate
Ġin acc
ĠM AN
ĠP unta
ĠB h
ere ng
ĠL in
Ġqu ad
ĠW atch
Ġper t
ĠSh aron
Ġoccur rence
Ġfle e
Ġnom ination
hard t
Ġdesper ately
ĠWal ter
O ld
Ġf r
ĠC it
ĠP ant
ĠB I
ĠU t
Ġsy nergies
Ġhuman e
ĠRe ich
Ġaccum ulated
Ġcounterfe it
ĠAmb assador
Ġapprent ices
ĠGiov anni
Ġo zone
ĠP ract
ĠCouncil s
ĠCh all
rib ution
Ġinf ant
ĠPr ice
Ġmis ery
Ð½ Ð¸
Ġscarce ly
ĠLuk as
D av
ĠA TM
od ied
Ġoff line
ĠK as
ov ol
Ġcre ations
over ty
Ġpeace fully
Ġmass es
Ġcorrect ions
ĠPr incip
emoc racy
Ġproceed s
Ġcompr ise
Ġutil ization
Part icip
nam o
Ġhol istic
Ġextrem ism
ĠPoint s
occ up
C ash
F ire
G I
S O
Ġh ate
ĠM esse
ĠUn it
Ġconstit uted
Ġred irect
Ġvers a
Ġemp ower
Ġmerg ers
Ġreluct ant
unct ure
Ġfluctu ations
ct uary
Ġplan es
Ġprohib it
Ġconvers ations
ĠConserv atives
Ġpled ge
ĠLy on
ĠAmaz on
ig s
ch io
ĠI ber
Ġcomp ilation
th ansa
ĠF lex
ĠCh ad
Ġdesign ation
Ġed itors
Ġforward ing
Ġwonder ing
Ġband width
Ġlov es
ĠSix th
C y
b ett
at ter
en i
ĠH ilton
ĠL ocated
Ġun used
pport unities
Ġtrans plant
Ġreason ing
Ġremain der
Ġamount ing
wh o
IC K
Ġinstruct ors
Ġpreced ing
Ġfix es
Ġhelic opters
ĠCreat ive
Ġconfigur ations
B ur
l ings
l ists
on to
ot to
Ġph r
Ġcor n
Ġce ment
Ġappear ances
Ġship building
atell ite
Ġsatell ites
Ġfem in
Cons ider
Ġdisappear ance
ĠDocu ment
k om
Â º
ĠC le
ies e
ate red
all o
Ġrep ay
Ġfra ction
Ġroll er
Cl ub
Ġvib ration
N R
Ġd rought
ĠE DF
ĠM oon
os ph
Ġhe m
Ġab used
ens ed
ĠO h
Ġmy sq
ĠGroup s
ĠTra in
Ġexc ited
Ġdin ners
ĠBon us
Ġalleg edly
Sw iss
oca ust
Ġantibi otics
re ich
Ġg ently
ĠI z
ad ine
pon ents
eg al
Ã¡ namo
'' .
Ġly rics
large ment
Ġp ued
ĠC hen
Ġsh ocks
Ġen closed
um ably
ĠF ollow
Ġpol ls
Ġno ch
Ġvig orous
Ġpul led
TH E
Ġaqu aculture
Ġcouncil s
Ġevol ving
Ġdur ability
f ound
h d
on ed
Ġin ch
Ġm ism
ra h
ĠS elf
ĠP otsdam
un ate
ĠD H
ug ar
Ġdel uxe
Ġsal on
Ġtaxpay er
Ġswit ches
Ġreimburse ment
B ig
N ord
it as
es ome
ĠE iffel
ab ase
ĠSt alin
ph ab
Ġass im
Ġmin s
Ġfac ade
Ġarriv es
Ġut ilities
ras mus
Ad ded
Pro ject
Ġexplo iting
Ġenvis age
ĠCF P
ĠMED A
Az ur
Ġsmugg ling
b Ã¼
an che
Ġl am
el n
and y
ĠU EN
Ġdifferent ial
AR R
Ġliber ation
ĠNap ole
ĠIndones ian
Ġlod ge
raf at
ĠSL R
Ġproclaim ed
Ġdegrad ation
B B
H ead
b ird
ĠS in
ĠS EO
us ive
Ġli kel
Ġret ired
Ġunt er
Ġglobal ised
be ck
Ġattract ing
Se ptember
reg ulated
Ġcoast s
Ġvo iced
Ġfresh ly
IF E
pie ces
ĠPos selt
ĠPy ren
B orn
M ill
f ab
m i
u ated
he lp
ĠM is
ĠG reg
aut ical
erg round
ĠMar io
Ġbord ering
Ġurg ing
het ics
Ġtend encies
Ġconce al
ĠCatal unya
ĠTrad ing
Ġresign ation
Ġfres co
K rupp
Ġl ub
we ek
land er
Ġbl at
ĠHe idelberg
Ġemphas ising
Ġprob ability
Ġaus p
ĠEconom y
Jo in
chten stein
Ġsulph ur
T urn
Ġt enth
Ġb acteria
le ep
ĠB ast
ag l
Ġcl ust
Ġfree zing
ĠHe b
let t
ĠVal d
Ġden ying
Ġscre w
ÑĤ Ð°
Ġunderm ines
Ġspell s
Ġviney ard
ĠColumb ia
i ams
r one
ĠG aul
pt on
Ġnum er
Ġconv ictions
Ġyoung est
yl on
Ġarm ies
Ġmagn itude
Ġbackground s
Ġminim ize
Ġfrag mentation
Ġwitness es
ĠJac ob
Ġshock ing
Ġstip ulates
Ġta vern
P eter
t our
Ġtrans m
Ġquestion ing
Ġ8 6
Ġmodern ity
Ġdistrib uting
ĠÐ ·
Ġred es
ĠInst ead
ĠCard iff
ĠLu z
Ġadvoc ating
Vis itors
ĠPoet tering
b ow
g ame
it Ã¤t
Ġh inder
ĠP om
ĠD R
ĠJ et
Ġem blem
ĠThe ir
Ġinform s
Ġsc rap
iol ence
Ġstat ue
Ġjo ins
ĠBe at
Ġded uct
Ġstrugg les
Ġagg rav
Ġlobby ing
ĠEuroc opter
i hood
l ag
s che
Ġb ays
ĠB ajor
Ġpr iest
ater al
ĠMan uel
Ġemph atically
EN S
Ġanaly tical
Ġattach ment
ĠEconom ics
Ġexped ition
ĠPolit ical
) ?
G O
P an
ĠL ut
Ġany time
Ġsing ular
rict ion
Ġhead er
ĠYou Tube
Ġpan ic
Ġreact ed
Ġdeleg ates
Ġmonu mental
acc ount
Ġcrow ded
Ġpione ering
West ern
Ide al
Ġembry os
as ur
ĠC IA
Ġv ain
Ġr ally
Ġpat ri
ĠInd ependent
Ġban qu
Sh ow
ĠCamp ing
Ġelig ibility
Particular ly
velo pe
O ctober
Ġ âĢĻ
Ġb ronze
le ft
ur pose
ĠH Ã¶
Ġrem in
unt u
ĠPer formance
ĠGen oa
Ġdecentral ised
Ġbab ies
Ġt sun
ro che
ig uration
ĠD A
Ġun ilaterally
It aly
rit z
Ġsc ourge
Ġsur pass
Ġdon ated
Ġground water
asc ular
Ġhum idity
Ġbreat he
estab lish
G reen
n as
Ġh ired
ĠC arn
qu estion
ĠF ox
ĠL EG
Ġdis gu
Ġtra iler
ĠO nce
ric ks
Ġcentral ised
Ġnav al
ĠSim on
Ġrefund s
Ġcott age
Ġprolong ed
Ġlikel ihood
D ifferent
H oliday
T en
b illion
g eneration
Ñ Ī
re ls
Ġf ame
Ġcan y
ard less
ĠD V
ĠN ine
Ġins ure
Ġinf ra
Ġtax is
So on
Ġgl am
ĠOr t
Ind ividual
Ġprem iere
Ġinsist ing
ĠLith uan
bre aking
ĠNav y
Ġperce ive
ĠSom alia
abul ary
Ġfier ce
X Press
h u
t or
es pecially
Ġp ap
Ġre cept
Ġv intage
Ġthere in
Ġra v
Ġpolicy makers
cond itional
leg al
arant ee
ĠAnd or
Ġsle e
ĠAng ola
ĠEc uador
ĠInstru ment
Ġstro ke
Ã °
Ġp ess
ig t
ac i
Ġch apel
ĠCh ris
pr ints
Ġlegisl ators
Ġhar ness
Ġtoile ts
Ġarg ues
ĠGuant Ã¡namo
Mich ael
n esty
Ġg ut
ĠS ERV
ĠD ou
ys itting
Ġprincip ally
Ġinteg rates
Ġdom ination
ÑĢ Ð¸
De velop
Americ a
Ġencomp asses
Ġshif ted
norm al
Sad ly
Ġcleans ing
ĠThessalon iki
E ither
L ist
R a
T OR
W orks
n ese
Ġt ant
ĠE verest
am ount
Ġres on
ff ic
ĠL iving
eng ine
ĠY emen
Ġcontrib utors
Ġship ments
Ġsell s
Ġprefer able
Ġminim ise
Ġvent ilation
Ġabsor bed
Ġric her
ĠSound proofed
Ġmathemat ical
Ġerg onom
Ġdiab etes
Ġinexp ensive
Ġwhir lpool
: :
W atch
Ð ¶
ĠC M
ĠG a
ard ed
ĠU PS
act ic
ĠN umber
Ġrel ay
Ġpres c
Ġunt ouched
Ġstre aming
Ġbra ck
Ġhonest ly
Ġyield s
Ġgro ves
Ġram p
rov nik
reserv ation
oen ix
Aust ria
ĠHann over
T ext
st ones
Ġqu ar
In s
Ġequ ilibrium
Ġdev ise
Ġenh ances
Ġmig rant
Ġvend or
ĠLear ning
Ġdecommission ing
A ugust
I ER
T ax
U k
k ers
Ġm elt
Ġh ikes
Ġde plore
ĠM iles
ĠP isa
ill ar
em ployment
Ġqu art
Ġcur ve
Ġer osion
roll er
Ġscient ist
Ġscient ifically
Ġpros pective
ĠRot terdam
Ġnav igate
Ġtransform ing
Ġpredict able
Ġflags hip
ĠBanglades h
m anship
Ġs atur
it ures
ĠL ook
Ġun ve
Ġmon ks
Ġart work
Ġconsist ed
ĠBudd h
Ġinher ited
Ġannounc es
Ġgorge ous
f r
p ace
ro d
Ġd ip
Ġre building
id i
ĠM az
Ġv in
ĠG rad
ĠH Ã´tel
ĠL ittle
Ġown s
Ġche mistry
Ġtour ing
Ġblo ody
Ġmem orial
Ġenhance ment
Ġdecis ively
Ġcommun al
rob at
Ġevol ve
Ġpi racy
n an
u ate
ver sible
ĠA ld
Ġv i
Ġsh ark
ĠR ud
ĠD O
ll o
ĠN uclear
ĠV atic
ric ted
Ġspec ulative
Ġsl iding
rid ing
Ġflow ing
Pro gram
ĠKazakh stan
Ġf urg
Ġm aker
ĠS K
ĠG az
ĠT ag
Ġequ itable
Ġsupp ose
Ġ7 50
af ety
Ġdead lock
Ġdistort ed
Ġclic ks
e ous
w al
Ġt uberculosis
ct ory
ad ow
Ġk its
ov es
Ġcustom ised
Ġinter cultural
Ġfore seen
Ġcrit ically
Ġlab elled
Ġ197 1
Ġmer chant
Ġconcert ed
Ġexch anging
ĠSpe c
Ġunav oid
Ġfing ers
F ood
F ocus
f eed
Ġo s
Ġc ows
ĠM ake
Ġr ated
Ġch assis
ĠD ell
ĠL D
Ġwork able
Ġend angered
Ġvis ions
Ġpersonal ities
Ġarch ipelago
iab ilities
Ġrig our
Ġdownt urn
BS D
ĠUs ers
Ġcoinc idence
Ġcig arette
Ġaffil iate
Ġb ree
ĠC lear
ĠA U
ĠR Ã¼
ĠN er
ord ination
Ġafter math
ner g
Ġdet ain
Ġdifferent iated
Ġcho ir
Ġgra vey
Ġmountain ous
Ġ196 5
Ġdelic acies
ĠHel m
appro x
Ġalumin um
ĠDal ai
Ġ` `
ĠScandinav ian
Ġerect ed
Ġmerchand ise
P arking
s ource
il ers
ĠC er
ĠL amb
Ġimport ing
Ġgu y
Ġcur ios
Ġcustom ary
ĠAl ger
Ġshe er
ĠSh opping
sc ious
Ind ust
Ġvers us
ĠCom fort
ĠReal ty
Ġpul se
system s
Ġalgorith ms
Ġsynthes is
M ade
in ar
Ġn uts
ist e
are a
ĠJ e
Ġfe ared
ne z
ĠZ immer
Ġexpl ored
Ġhost age
Ġcong estion
ev in
ĠLa ure
Ġimpos ition
Ġfrequ encies
ĠSol ar
Ġborrow ing
H R
a que
Ù Ħ
se cond
ra ke
ĠM A
Ġsh aft
ĠT ay
ĠN uremberg
ĠDe leg
Ġdraft sman
ĠMal m
Ġmotor ways
Int eg
Ġfo am
Ġpersec uted
Ġremed ies
ĠFif th
F ounded
G rand
P olitical
l le
Ñ Ĩ
it an
ri ages
ĠB ash
ire ction
ind ex
Ġup set
Ġsc ored
chn er
ĠAr cher
rist ol
ĠEx p
ica pped
Ġbur st
Us ually
Ġlabel ed
Ġmanual s
T T
m edia
or ries
Ġb og
Ġg ulf
if act
ĠL inz
Ġbet ray
Ġsystem ic
Ġrespon sibly
Ġpresent ly
gg er
eth yl
Ġelement ary
Ġannounce ments
v illa
in cre
Ġw ings
Ġh urt
ĠE ve
ĠCol lect
Ġblo gs
comm on
Ġcompos ite
Ġren amed
ĠdÃ© cor
g ering
h ots
z emb
Ġp ier
Ġre op
em on
ĠComm ercial
ĠF ont
ĠH al
con struction
Ġunique ly
Sp ain
Ġball ot
Ġarom a
Ġretrie ve
Ġaggreg ate
t est
Ã ¬
Î ½
ĠC A
ĠS ong
ĠS ole
ĠP ie
Ġch ron
ĠW ag
ĠK ash
Ġproject ed
Ġbo ots
Where as
S Y
W in
d emocratic
Ï ĥ
Ġf als
st age
em an
ĠF M
ĠD B
ident ally
Ġhor iz
Ġcollabor ate
Ġpotato es
p ic
s ol
t im
Ġm osa
Ġl in
ur i
ĠB BC
... ]
arm s
Ġdra stically
Ġshare holder
bo at
Ġaltern ate
ĠTre as
Ġoutd oors
Ġdrop s
Ġupgrad es
Dr ive
ĠWil helm
Af rica
ĠZag reb
Ġclou ds
in formation
Ġto d
am ation
am ples
Ġex ile
Ġor ch
ĠSt adium
Ġj unction
ĠK iev
red ict
Ġac celeration
vironment al
Ġprom in
Ġconflic ting
hotel s
Ġvacc ines
EF A
Ġaccum ulation
Ġjeopard ise
Ġpione er
ĠSalv ador
- )
G en
M aking
d it
g lobal
m ont
Ġs ab
Ġwh is
ĠS Y
ĠT U
Ġdec ou
Ġgu ards
Ġcontin ual
ĠTh us
Ġ7 9
ĠHe ath
Ġguest house
Ġbank ers
Ġprefer ably
ĠOlymp ics
Ġcatalog ues
V ia
a eda
s ome
s ets
es is
es ide
Ġp ars
Ġin efficient
em ann
fore st
Ġpeace keeping
ĠPl ug
Ġport als
Un ited
Or der
Ġlength s
Ġcab ins
ĠSund ays
Ġmerg ed
Ġreinforce ment
Ġmira cle
ĠLud wig
U nd
f il
ra ys
ĠS ter
em et
ĠN OR
Ġimp lements
ient e
Ġstand point
Ġspecial ty
Ġ7 4
ĠPol o
Ġvol atility
ĠTrans lation
Ġcul m
Ġtranqu ility
Ġsurpl uses
Ġmotorcy cle
Ġmoist ure
E UR
W ald
b ridge
g ate
l anguage
r ill
ent rum
om y
Ġst om
ĠM ond
ĠB il
Ġk o
Ġdis ruption
Ġra b
de velopment
Ġvar iants
Ġwater falls
Ġsw ord
19 98
Ġplug ins
Ġunre asonable
Ult imately
Ġenerget ic
f ill
k an
Ġc akes
or us
ro le
Ġde af
Ġam use
int ern
pl us
ĠCh amps
ĠMar ie
ser ies
Inst all
Ġbreat hing
ĠKurd s
Ġadjour ned
3 80
F und
Ġf iber
Ġl iabilities
Ġun le
av ia
ĠJ am
Ġfe ast
Ġemploy ing
ote chn
Ġtreat s
Con venient
Ġrank ed
F ebruary
ĠA rafat
Ġtr Ã¨s
ys ical
Ġadop ts
to ire
lin ks
Ġregist ers
Sp ace
Ġnutr itional
ĠPyren ees
zemb owski
c ke
Ġf ond
Ġd irt
Ġn ortheast
Ġwith hold
Ġde activ
ĠI dent
Ġ19 00
und en
Ġfl ame
US T
Ġuns ustainable
conn ect
ĠKh an
Appro val
Ġunamb iguous
b ling
ac ional
all a
ag ues
lo vak
Ġdem ol
raph ic
ĠBe auty
Ġque en
bl ack
Ġintens ively
Fin ancial
ĠStein berg
ĠCanc Ãºn
Ġignor ance
F L
T rue
l am
an mar
ĠG Ã¼
ĠR ace
ĠF TP
Ġsing les
Ġsea front
Ġinstruct or
Ġbless ed
Ġescap ed
ĠKnow ledge
ĠPrest ige
ĠRw anda
2 50
C ON
l ied
v ard
Ġm ais
ĠE GF
ĠM oney
end en
Ġus able
ĠN ear
ind ers
Ġloc om
Ġbelie ving
Ġgradu ates
enh of
ĠMart ini
Ġfort unate
Ġtrib es
Ġcorrid or
ĠTrib unal
B us
B end
L ess
on ne
an ch
em e
ĠT anz
ĠSt ream
Ġman a
cy cl
Ġcare ers
yn n
ĠAlex and
Ġredistrib ution
D O
D an
L ove
l ar
Ġt out
Ġa ug
Ġat omic
Ġmon ster
Ġdeb it
af i
Ġtransl ating
ĠCor bett
ĠMil ano
Ġupload ed
Sur rounded
K ing
} :
or ney
Ġh ay
ĠM ak
lic ante
ĠO pportunities
Ġsoc ket
Ġdisc s
Ġpar as
man agement
Ġpast a
Ġimpl ant
Ġfost ering
ĠMerc ure
Ġmassac re
Ġin ex
ĠC ategory
ig ma
Ġab brev
Ġpre conditions
ĠO cc
ĠV itor
Ġrel ie
cept ible
Ġinf er
Ġfirm ware
Ġspread s
Ġsecret ary
Ġcompr ised
Ġintens ified
Sw itzerland
ĠRef uge
ĠEqu al
ĠLie chtenstein
Ġpopul ist
ĠCypri ot
Ġp se
ĠM arsh
art ments
ree k
Ġshould ers
pos ium
Ġclear ance
Ġ7 3
Ġrein teg
Ġreve aling
Å¡ t
Ġda wn
Ġmal ware
Ġpreced ed
ĠAz ores
R ot
r if
Ġo w
Ġth ir
ĠE OS
ĠB ach
Ġse aled
ĠR yan
ĠU nt
reat ment
Ġout lines
av y
Ġsy nergy
Ġmat rix
Ġhapp ily
Ġclean liness
Ġarchitect ures
Ġdeep en
Ġcy ber
Ġarrest s
ĠAgricult ural
Ġextract ed
Ġitiner ary
B G
n z
Ġo g
it ic
Ġp airs
Ġh int
Ġcom pelling
arm ing
Ġelect rom
Ġadm ir
pare ncy
IC H
Ġround ed
Ã§ Ã£o
icon duct
ĠGl ac
ĠPack age
Ġvit ality
Somet hing
ĠChamp ion
) ]
k g
u en
Ġf reed
ĠM E
Ġall iances
cl ip
Ġper taining
ract ed
Ġcar ing
Ġaff iliates
aff ected
Ġmight y
ĠSch we
ĠÂ ĵ
ĠSoc rates
ij ten
ĠJoh ann
IF T
Ġfrag mented
Ġpreca utions
Ġbasket ball
unc iation
qual ified
F lex
N ovember
j ub
he it
ĠA h
ĠH I
lo qu
ĠV ac
av il
Ġpo le
fore station
Ġra id
Ġval ve
ĠSh ort
Ġconstruct ing
Ġdefend ers
ĠChristian ity
Ġmal icious
Ġdile mma
B ox
F ran
L ife
z heimer
Ġt i
Ġthere after
Ġreach able
Ġindic ative
Ġacqu ainted
with out
Ġsurv iv
ĠStand ards
ĠBook s
Ġthrow ing
zb ollah
ĠSic ily
Ġnons ense
D en
L and
Ġex cel
oc ative
Ġen semble
Ġun conditional
ener gy
oy er
Ġpract ised
Ġhead ings
Ġexhib ited
Ġneighb oring
Ġdivers ified
ĠPay Pal
ĠLom Ã©
Ġlub ric
T rade
f ried
Ġa an
it ated
Ġal g
ĠA e
Ġne at
ĠB ird
ĠG ord
ĠO liver
Ġar sen
riv a
ick ers
ĠAr rival
Ġdep rec
Ġpass ports
Ġtransport ing
Ġadjust ing
Ġpal aces
Ġexhaust ed
ar b
se ek
ĠV ic
ors ch
Ġsc anners
ĠSe ven
Ġpres idents
ĠZ en
the y
Ġ9 4
ÂłÂł Ġ
Ġpress es
Ġinc idence
Ġwinds urfing
Fe el
Ġweigh ing
ĠSardin ia
ĠFerr ari
Ġuncom fortable
Ġtsun ami
1 000
at ro
us hed
Ġcor al
uc ks
Ġmult icultural
ĠTV s
Ġstress ing
Ġbat ch
Ġstra w
ĠMc K
Ġcry pt
Ġrevers ed
ĠTreas ury
P DF
p roliferation
Ï Ģ
ost on
Ġmod ulation
Ġac ids
Ġdist ress
Ġimm ersed
Ġcirc uits
Ġvulner abilities
Ġfort une
Ġtoler ated
Co operation
ĠEqu ipment
ĠSilver Fast
k ins
it el
Ġor phan
ĠB ristol
ĠT win
ĠH aut
ĠJ oe
clud es
Ġevalu ations
Ġ195 6
ĠTy pe
ĠIC C
Ġaer ial
ĠCamb ridge
Ġbust ling
Ġremin isc
ĠVatic an
- >
p ers
Ġc i
Ġd ys
Ġl orries
ĠE ye
ĠB rad
ĠG P
Ġimp over
ell ery
gan o
Ġ20 14
Ġmodern ise
ĠOr iginal
Ġcommand er
ĠRed ing
Ġimag ined
Ġphilos opher
Reg ist
Bl ack
Ġshame ful
Ġunjust ified
Ġalqu iler
I DE
M edia
d al
z w
Ġf ever
ch ildren
ĠS V
ĠD L
Ġwork station
Ġexp ose
Ġenc oding
Ġsend er
eb ted
asc ript
ĠEd it
Ġcod ec
Ġ= ==
ĠDef ense
Ġvic ious
Ã¢ te
Ġimperial ist
I Z
e val
Ġt ear
ic ting
ess ment
ard i
ĠU ru
ter a
Ġpol io
ĠO EM
Ġback pack
ĠDe b
ĠTur in
ĠOr thodox
ĠElect ric
wer k
Ġmisunder stand
ĠFoot ball
Ġmathemat ics
Ġinconsist ent
en na
ĠC ord
Ġal phab
Ġst al
ĠE rasmus
ant ine
ĠO ss
Ġserv icing
Ġrep ent
Ġident ifiable
ĠKarl s
Ġdismiss ed
Sec urity
Ġinfin ite
ĠUg anda
C AM
M o
Ã µ
et ting
ĠC N
ĠS Ã¡
ĠM ilitary
Ġle ak
Ġsc oot
Ġhand icapped
Ġins ists
ĠLe one
Ġinfl ux
Ġsan itary
Ġmagn et
bed room
Ġlobby ists
ĠLu f
z t
res a
Ġsp amb
Ġatt ained
ah ren
Ġsl im
ĠSh oe
ĠSc ript
ĠSy rian
Ġsuperv ised
Ġtun nels
Ġreper toire
Ġreciproc al
Ġalgorith m
Ġcalib ration
ĠContin ental
Ġrug ged
Ġausp ices
Bend it
at iv
Ġs outheast
Ġd ump
ĠB out
our t
ĠL akes
Ġpoint less
Ġmet re
Ġcor p
Ġperiod ically
ĠSh ine
Ġbath tub
ĠRes pon
ĠBrit t
ott a
Ġeth n
De utsche
Ġmicro phone
Ġfraud ulent
Ġuncertain ties
Ġpremium s
Ġprofound ly
sell ing
Ġdol ph
ĠFriend s
Ġha mm
ĠEuro just
Ġen quiries
ful l
ier ge
ĠRepublic an
Ġamb assador
Ġswe eping
Ġintellectual s
Ġutil isation
ĠRad isson
ĠAnn an
b ell
b ered
Ġt riv
Ġs ont
Ġc ivic
Ġbe ams
Ġfor wards
ter rorism
ue vo
ĠO omen
Ġadv ancing
ĠY es
unt ime
IS T
ÑĤ Ð¸
De velopment
ĠBas ilica
hy d
Ġevident ly
atin um
ĠQuark XPress
Ġintoler ance
Ġdesp air
Ġverd ict
flo or
emet ery
S umm
c ritical
Ġb ud
Ġwith stand
ĠT ab
ĠF at
ĠF ly
ĠU mb
land ers
Ġhere in
li j
ential ly
Ġwalk ed
Ġpast e
Ġdemonst rators
Ġexec utions
Ġrent ing
ĠEd ward
ĠOb serv
Ġroll s
ĠHa us
car bon
Ġsymp ath
ĠLeban ese
Ġgravey ard
D B
I ran
c os
Ġb ak
ĠE V
ĠE den
ĠD est
ass age
read ing
Ã¼ t
ĠAg reements
Ġjoint s
Ġ195 7
Ġwid est
Ġendorse ment
Ġauthentic ity
Ġru in
Ġconstitu ent
H ard
l ab
Ã ¿
Ġp and
ĠS lav
ĠE ffect
Ġde letion
